{
  "version": "1.0",
  "truncation": null,
  "padding": null,
  "added_tokens": [
    {
      "id": 0,
      "content": "<pad>",
      "single_word": false,
      "lstrip": false,
      "rstrip": false,
      "normalized": false,
      "special": true
    },
    {
      "id": 1,
      "content": "<eos>",
      "single_word": false,
      "lstrip": false,
      "rstrip": false,
      "normalized": false,
      "special": true
    },
    {
      "id": 2,
      "content": "<bos>",
      "single_word": false,
      "lstrip": false,
      "rstrip": false,
      "normalized": false,
      "special": true
    },
    {
      "id": 3,
      "content": "<unk>",
      "single_word": false,
      "lstrip": false,
      "rstrip": false,
      "normalized": false,
      "special": true
    },
    {
      "id": 4,
      "content": "<mask>",
      "single_word": false,
      "lstrip": true,
      "rstrip": false,
      "normalized": false,
      "special": true
    },
    {
      "id": 5,
      "content": "<2mass>",
      "single_word": false,
      "lstrip": false,
      "rstrip": false,
      "normalized": false,
      "special": false
    },
    {
      "id": 6,
      "content": "[@BOS@]",
      "single_word": false,
      "lstrip": false,
      "rstrip": false,
      "normalized": false,
      "special": false
    },
    {
      "id": 7,
      "content": "<unused0>",
      "single_word": false,
      "lstrip": false,
      "rstrip": false,
      "normalized": false,
      "special": false
    },
    {
      "id": 8,
      "content": "<unused1>",
      "single_word": false,
      "lstrip": false,
      "rstrip": false,
      "normalized": false,
      "special": false
    },
    {
      "id": 9,
      "content": "<unused2>",
      "single_word": false,
      "lstrip": false,
      "rstrip": false,
      "normalized": false,
      "special": false
    },
    {
      "id": 10,
      "content": "<unused3>",
      "single_word": false,
      "lstrip": false,
      "rstrip": false,
      "normalized": false,
      "special": false
    },
    {
      "id": 11,
      "content": "<unused4>",
      "single_word": false,
      "lstrip": false,
      "rstrip": false,
      "normalized": false,
      "special": false
    },
    {
      "id": 12,
      "content": "<unused5>",
      "single_word": false,
      "lstrip": false,
      "rstrip": false,
      "normalized": false,
      "special": false
    },
    {
      "id": 13,
      "content": "<unused6>",
      "single_word": false,
      "lstrip": false,
      "rstrip": false,
      "normalized": false,
      "special": false
    },
    {
      "id": 14,
      "content": "<unused7>",
      "single_word": false,
      "lstrip": false,
      "rstrip": false,
      "normalized": false,
      "special": false
    },
    {
      "id": 15,
      "content": "<unused8>",
      "single_word": false,
      "lstrip": false,
      "rstrip": false,
      "normalized": false,
      "special": false
    },
    {
      "id": 16,
      "content": "<unused9>",
      "single_word": false,
      "lstrip": false,
      "rstrip": false,
      "normalized": false,
      "special": false
    },
    {
      "id": 17,
      "content": "<unused10>",
      "single_word": false,
      "lstrip": false,
      "rstrip": false,
      "normalized": false,
      "special": false
    },
    {
      "id": 18,
      "content": "<unused11>",
      "single_word": false,
      "lstrip": false,
      "rstrip": false,
      "normalized": false,
      "special": false
    },
    {
      "id": 19,
      "content": "<unused12>",
      "single_word": false,
      "lstrip": false,
      "rstrip": false,
      "normalized": false,
      "special": false
    },
    {
      "id": 20,
      "content": "<unused13>",
      "single_word": false,
      "lstrip": false,
      "rstrip": false,
      "normalized": false,
      "special": false
    },
    {
      "id": 21,
      "content": "<unused14>",
      "single_word": false,
      "lstrip": false,
      "rstrip": false,
      "normalized": false,
      "special": false
    },
    {
      "id": 22,
      "content": "<unused15>",
      "single_word": false,
      "lstrip": false,
      "rstrip": false,
      "normalized": false,
      "special": false
    },
    {
      "id": 23,
      "content": "<unused16>",
      "single_word": false,
      "lstrip": false,
      "rstrip": false,
      "normalized": false,
      "special": false
    },
    {
      "id": 24,
      "content": "<unused17>",
      "single_word": false,
      "lstrip": false,
      "rstrip": false,
      "normalized": false,
      "special": false
    },
    {
      "id": 25,
      "content": "<unused18>",
      "single_word": false,
      "lstrip": false,
      "rstrip": false,
      "normalized": false,
      "special": false
    },
    {
      "id": 26,
      "content": "<unused19>",
      "single_word": false,
      "lstrip": false,
      "rstrip": false,
      "normalized": false,
      "special": false
    },
    {
      "id": 27,
      "content": "<unused20>",
      "single_word": false,
      "lstrip": false,
      "rstrip": false,
      "normalized": false,
      "special": false
    },
    {
      "id": 28,
      "content": "<unused21>",
      "single_word": false,
      "lstrip": false,
      "rstrip": false,
      "normalized": false,
      "special": false
    },
    {
      "id": 29,
      "content": "<unused22>",
      "single_word": false,
      "lstrip": false,
      "rstrip": false,
      "normalized": false,
      "special": false
    },
    {
      "id": 30,
      "content": "<unused23>",
      "single_word": false,
      "lstrip": false,
      "rstrip": false,
      "normalized": false,
      "special": false
    },
    {
      "id": 31,
      "content": "<unused24>",
      "single_word": false,
      "lstrip": false,
      "rstrip": false,
      "normalized": false,
      "special": false
    },
    {
      "id": 32,
      "content": "<unused25>",
      "single_word": false,
      "lstrip": false,
      "rstrip": false,
      "normalized": false,
      "special": false
    },
    {
      "id": 33,
      "content": "<unused26>",
      "single_word": false,
      "lstrip": false,
      "rstrip": false,
      "normalized": false,
      "special": false
    },
    {
      "id": 34,
      "content": "<unused27>",
      "single_word": false,
      "lstrip": false,
      "rstrip": false,
      "normalized": false,
      "special": false
    },
    {
      "id": 35,
      "content": "<unused28>",
      "single_word": false,
      "lstrip": false,
      "rstrip": false,
      "normalized": false,
      "special": false
    },
    {
      "id": 36,
      "content": "<unused29>",
      "single_word": false,
      "lstrip": false,
      "rstrip": false,
      "normalized": false,
      "special": false
    },
    {
      "id": 37,
      "content": "<unused30>",
      "single_word": false,
      "lstrip": false,
      "rstrip": false,
      "normalized": false,
      "special": false
    },
    {
      "id": 38,
      "content": "<unused31>",
      "single_word": false,
      "lstrip": false,
      "rstrip": false,
      "normalized": false,
      "special": false
    },
    {
      "id": 39,
      "content": "<unused32>",
      "single_word": false,
      "lstrip": false,
      "rstrip": false,
      "normalized": false,
      "special": false
    },
    {
      "id": 40,
      "content": "<unused33>",
      "single_word": false,
      "lstrip": false,
      "rstrip": false,
      "normalized": false,
      "special": false
    },
    {
      "id": 41,
      "content": "<unused34>",
      "single_word": false,
      "lstrip": false,
      "rstrip": false,
      "normalized": false,
      "special": false
    },
    {
      "id": 42,
      "content": "<unused35>",
      "single_word": false,
      "lstrip": false,
      "rstrip": false,
      "normalized": false,
      "special": false
    },
    {
      "id": 43,
      "content": "<unused36>",
      "single_word": false,
      "lstrip": false,
      "rstrip": false,
      "normalized": false,
      "special": false
    },
    {
      "id": 44,
      "content": "<unused37>",
      "single_word": false,
      "lstrip": false,
      "rstrip": false,
      "normalized": false,
      "special": false
    },
    {
      "id": 45,
      "content": "<unused38>",
      "single_word": false,
      "lstrip": false,
      "rstrip": false,
      "normalized": false,
      "special": false
    },
    {
      "id": 46,
      "content": "<unused39>",
      "single_word": false,
      "lstrip": false,
      "rstrip": false,
      "normalized": false,
      "special": false
    },
    {
      "id": 47,
      "content": "<unused40>",
      "single_word": false,
      "lstrip": false,
      "rstrip": false,
      "normalized": false,
      "special": false
    },
    {
      "id": 48,
      "content": "<unused41>",
      "single_word": false,
      "lstrip": false,
      "rstrip": false,
      "normalized": false,
      "special": false
    },
    {
      "id": 49,
      "content": "<unused42>",
      "single_word": false,
      "lstrip": false,
      "rstrip": false,
      "normalized": false,
      "special": false
    },
    {
      "id": 50,
      "content": "<unused43>",
      "single_word": false,
      "lstrip": false,
      "rstrip": false,
      "normalized": false,
      "special": false
    },
    {
      "id": 51,
      "content": "<unused44>",
      "single_word": false,
      "lstrip": false,
      "rstrip": false,
      "normalized": false,
      "special": false
    },
    {
      "id": 52,
      "content": "<unused45>",
      "single_word": false,
      "lstrip": false,
      "rstrip": false,
      "normalized": false,
      "special": false
    },
    {
      "id": 53,
      "content": "<unused46>",
      "single_word": false,
      "lstrip": false,
      "rstrip": false,
      "normalized": false,
      "special": false
    },
    {
      "id": 54,
      "content": "<unused47>",
      "single_word": false,
      "lstrip": false,
      "rstrip": false,
      "normalized": false,
      "special": false
    },
    {
      "id": 55,
      "content": "<unused48>",
      "single_word": false,
      "lstrip": false,
      "rstrip": false,
      "normalized": false,
      "special": false
    },
    {
      "id": 56,
      "content": "<unused49>",
      "single_word": false,
      "lstrip": false,
      "rstrip": false,
      "normalized": false,
      "special": false
    },
    {
      "id": 57,
      "content": "<unused50>",
      "single_word": false,
      "lstrip": false,
      "rstrip": false,
      "normalized": false,
      "special": false
    },
    {
      "id": 58,
      "content": "<unused51>",
      "single_word": false,
      "lstrip": false,
      "rstrip": false,
      "normalized": false,
      "special": false
    },
    {
      "id": 59,
      "content": "<unused52>",
      "single_word": false,
      "lstrip": false,
      "rstrip": false,
      "normalized": false,
      "special": false
    },
    {
      "id": 60,
      "content": "<unused53>",
      "single_word": false,
      "lstrip": false,
      "rstrip": false,
      "normalized": false,
      "special": false
    },
    {
      "id": 61,
      "content": "<unused54>",
      "single_word": false,
      "lstrip": false,
      "rstrip": false,
      "normalized": false,
      "special": false
    },
    {
      "id": 62,
      "content": "<unused55>",
      "single_word": false,
      "lstrip": false,
      "rstrip": false,
      "normalized": false,
      "special": false
    },
    {
      "id": 63,
      "content": "<unused56>",
      "single_word": false,
      "lstrip": false,
      "rstrip": false,
      "normalized": false,
      "special": false
    },
    {
      "id": 64,
      "content": "<unused57>",
      "single_word": false,
      "lstrip": false,
      "rstrip": false,
      "normalized": false,
      "special": false
    },
    {
      "id": 65,
      "content": "<unused58>",
      "single_word": false,
      "lstrip": false,
      "rstrip": false,
      "normalized": false,
      "special": false
    },
    {
      "id": 66,
      "content": "<unused59>",
      "single_word": false,
      "lstrip": false,
      "rstrip": false,
      "normalized": false,
      "special": false
    },
    {
      "id": 67,
      "content": "<unused60>",
      "single_word": false,
      "lstrip": false,
      "rstrip": false,
      "normalized": false,
      "special": false
    },
    {
      "id": 68,
      "content": "<unused61>",
      "single_word": false,
      "lstrip": false,
      "rstrip": false,
      "normalized": false,
      "special": false
    },
    {
      "id": 69,
      "content": "<unused62>",
      "single_word": false,
      "lstrip": false,
      "rstrip": false,
      "normalized": false,
      "special": false
    },
    {
      "id": 70,
      "content": "<unused63>",
      "single_word": false,
      "lstrip": false,
      "rstrip": false,
      "normalized": false,
      "special": false
    },
    {
      "id": 71,
      "content": "<unused64>",
      "single_word": false,
      "lstrip": false,
      "rstrip": false,
      "normalized": false,
      "special": false
    },
    {
      "id": 72,
      "content": "<unused65>",
      "single_word": false,
      "lstrip": false,
      "rstrip": false,
      "normalized": false,
      "special": false
    },
    {
      "id": 73,
      "content": "<unused66>",
      "single_word": false,
      "lstrip": false,
      "rstrip": false,
      "normalized": false,
      "special": false
    },
    {
      "id": 74,
      "content": "<unused67>",
      "single_word": false,
      "lstrip": false,
      "rstrip": false,
      "normalized": false,
      "special": false
    },
    {
      "id": 75,
      "content": "<unused68>",
      "single_word": false,
      "lstrip": false,
      "rstrip": false,
      "normalized": false,
      "special": false
    },
    {
      "id": 76,
      "content": "<unused69>",
      "single_word": false,
      "lstrip": false,
      "rstrip": false,
      "normalized": false,
      "special": false
    },
    {
      "id": 77,
      "content": "<unused70>",
      "single_word": false,
      "lstrip": false,
      "rstrip": false,
      "normalized": false,
      "special": false
    },
    {
      "id": 78,
      "content": "<unused71>",
      "single_word": false,
      "lstrip": false,
      "rstrip": false,
      "normalized": false,
      "special": false
    },
    {
      "id": 79,
      "content": "<unused72>",
      "single_word": false,
      "lstrip": false,
      "rstrip": false,
      "normalized": false,
      "special": false
    },
    {
      "id": 80,
      "content": "<unused73>",
      "single_word": false,
      "lstrip": false,
      "rstrip": false,
      "normalized": false,
      "special": false
    },
    {
      "id": 81,
      "content": "<unused74>",
      "single_word": false,
      "lstrip": false,
      "rstrip": false,
      "normalized": false,
      "special": false
    },
    {
      "id": 82,
      "content": "<unused75>",
      "single_word": false,
      "lstrip": false,
      "rstrip": false,
      "normalized": false,
      "special": false
    },
    {
      "id": 83,
      "content": "<unused76>",
      "single_word": false,
      "lstrip": false,
      "rstrip": false,
      "normalized": false,
      "special": false
    },
    {
      "id": 84,
      "content": "<unused77>",
      "single_word": false,
      "lstrip": false,
      "rstrip": false,
      "normalized": false,
      "special": false
    },
    {
      "id": 85,
      "content": "<unused78>",
      "single_word": false,
      "lstrip": false,
      "rstrip": false,
      "normalized": false,
      "special": false
    },
    {
      "id": 86,
      "content": "<unused79>",
      "single_word": false,
      "lstrip": false,
      "rstrip": false,
      "normalized": false,
      "special": false
    },
    {
      "id": 87,
      "content": "<unused80>",
      "single_word": false,
      "lstrip": false,
      "rstrip": false,
      "normalized": false,
      "special": false
    },
    {
      "id": 88,
      "content": "<unused81>",
      "single_word": false,
      "lstrip": false,
      "rstrip": false,
      "normalized": false,
      "special": false
    },
    {
      "id": 89,
      "content": "<unused82>",
      "single_word": false,
      "lstrip": false,
      "rstrip": false,
      "normalized": false,
      "special": false
    },
    {
      "id": 90,
      "content": "<unused83>",
      "single_word": false,
      "lstrip": false,
      "rstrip": false,
      "normalized": false,
      "special": false
    },
    {
      "id": 91,
      "content": "<unused84>",
      "single_word": false,
      "lstrip": false,
      "rstrip": false,
      "normalized": false,
      "special": false
    },
    {
      "id": 92,
      "content": "<unused85>",
      "single_word": false,
      "lstrip": false,
      "rstrip": false,
      "normalized": false,
      "special": false
    },
    {
      "id": 93,
      "content": "<unused86>",
      "single_word": false,
      "lstrip": false,
      "rstrip": false,
      "normalized": false,
      "special": false
    },
    {
      "id": 94,
      "content": "<unused87>",
      "single_word": false,
      "lstrip": false,
      "rstrip": false,
      "normalized": false,
      "special": false
    },
    {
      "id": 95,
      "content": "<unused88>",
      "single_word": false,
      "lstrip": false,
      "rstrip": false,
      "normalized": false,
      "special": false
    },
    {
      "id": 96,
      "content": "<unused89>",
      "single_word": false,
      "lstrip": false,
      "rstrip": false,
      "normalized": false,
      "special": false
    },
    {
      "id": 97,
      "content": "<unused90>",
      "single_word": false,
      "lstrip": false,
      "rstrip": false,
      "normalized": false,
      "special": false
    },
    {
      "id": 98,
      "content": "<unused91>",
      "single_word": false,
      "lstrip": false,
      "rstrip": false,
      "normalized": false,
      "special": false
    },
    {
      "id": 99,
      "content": "<unused92>",
      "single_word": false,
      "lstrip": false,
      "rstrip": false,
      "normalized": false,
      "special": false
    },
    {
      "id": 100,
      "content": "<unused93>",
      "single_word": false,
      "lstrip": false,
      "rstrip": false,
      "normalized": false,
      "special": false
    },
    {
      "id": 101,
      "content": "<unused94>",
      "single_word": false,
      "lstrip": false,
      "rstrip": false,
      "normalized": false,
      "special": false
    },
    {
      "id": 102,
      "content": "<unused95>",
      "single_word": false,
      "lstrip": false,
      "rstrip": false,
      "normalized": false,
      "special": false
    },
    {
      "id": 103,
      "content": "<unused96>",
      "single_word": false,
      "lstrip": false,
      "rstrip": false,
      "normalized": false,
      "special": false
    },
    {
      "id": 104,
      "content": "<unused97>",
      "single_word": false,
      "lstrip": false,
      "rstrip": false,
      "normalized": false,
      "special": false
    },
    {
      "id": 105,
      "content": "<unused98>",
      "single_word": false,
      "lstrip": false,
      "rstrip": false,
      "normalized": false,
      "special": false
    },
    {
      "id": 106,
      "content": "<start_of_turn>",
      "single_word": false,
      "lstrip": false,
      "rstrip": false,
      "normalized": false,
      "special": true
    },
    {
      "id": 107,
      "content": "<end_of_turn>",
      "single_word": false,
      "lstrip": false,
      "rstrip": false,
      "normalized": false,
      "special": true
    },
    {
      "id": 108,
      "content": "\n",
      "single_word": false,
      "lstrip": false,
      "rstrip": false,
      "normalized": false,
      "special": false
    },
    {
      "id": 109,
      "content": "\n\n",
      "single_word": false,
      "lstrip": false,
      "rstrip": false,
      "normalized": false,
      "special": false
    },
    {
      "id": 110,
      "content": "\n\n\n",
      "single_word": false,
      "lstrip": false,
      "rstrip": false,
      "normalized": false,
      "special": false
    },
    {
      "id": 111,
      "content": "\n\n\n\n",
      "single_word": false,
      "lstrip": false,
      "rstrip": false,
      "normalized": false,
      "special": false
    },
    {
      "id": 112,
      "content": "\n\n\n\n\n",
      "single_word": false,
      "lstrip": false,
      "rstrip": false,
      "normalized": false,
      "special": false
    },
    {
      "id": 113,
      "content": "\n\n\n\n\n\n",
      "single_word": false,
      "lstrip": false,
      "rstrip": false,
      "normalized": false,
      "special": false
    },
    {
      "id": 114,
      "content": "\n\n\n\n\n\n\n",
      "single_word": false,
      "lstrip": false,
      "rstrip": false,
      "normalized": false,
      "special": false
    },
    {
      "id": 115,
      "content": "\n\n\n\n\n\n\n\n",
      "single_word": false,
      "lstrip": false,
      "rstrip": false,
      "normalized": false,
      "special": false
    },
    {
      "id": 116,
      "content": "\n\n\n\n\n\n\n\n\n",
      "single_word": false,
      "lstrip": false,
      "rstrip": false,
      "normalized": false,
      "special": false
    },
    {
      "id": 117,
      "content": "\n\n\n\n\n\n\n\n\n\n",
      "single_word": false,
      "lstrip": false,
      "rstrip": false,
      "normalized": false,
      "special": false
    },
    {
      "id": 118,
      "content": "\n\n\n\n\n\n\n\n\n\n\n",
      "single_word": false,
      "lstrip": false,
      "rstrip": false,
      "normalized": false,
      "special": false
    },
    {
      "id": 119,
      "content": "\n\n\n\n\n\n\n\n\n\n\n\n",
      "single_word": false,
      "lstrip": false,
      "rstrip": false,
      "normalized": false,
      "special": false
    },
    {
      "id": 120,
      "content": "\n\n\n\n\n\n\n\n\n\n\n\n\n",
      "single_word": false,
      "lstrip": false,
      "rstrip": false,
      "normalized": false,
      "special": false
    },
    {
      "id": 121,
      "content": "\n\n\n\n\n\n\n\n\n\n\n\n\n\n",
      "single_word": false,
      "lstrip": false,
      "rstrip": false,
      "normalized": false,
      "special": false
    },
    {
      "id": 122,
      "content": "\n\n\n\n\n\n\n\n\n\n\n\n\n\n\n",
      "single_word": false,
      "lstrip": false,
      "rstrip": false,
      "normalized": false,
      "special": false
    },
    {
      "id": 123,
      "content": "\n\n\n\n\n\n\n\n\n\n\n\n\n\n\n\n",
      "single_word": false,
      "lstrip": false,
      "rstrip": false,
      "normalized": false,
      "special": false
    },
    {
      "id": 124,
      "content": "\n\n\n\n\n\n\n\n\n\n\n\n\n\n\n\n\n",
      "single_word": false,
      "lstrip": false,
      "rstrip": false,
      "normalized": false,
      "special": false
    },
    {
      "id": 125,
      "content": "\n\n\n\n\n\n\n\n\n\n\n\n\n\n\n\n\n\n",
      "single_word": false,
      "lstrip": false,
      "rstrip": false,
      "normalized": false,
      "special": false
    },
    {
      "id": 126,
      "content": "\n\n\n\n\n\n\n\n\n\n\n\n\n\n\n\n\n\n\n",
      "single_word": false,
      "lstrip": false,
      "rstrip": false,
      "normalized": false,
      "special": false
    },
    {
      "id": 127,
      "content": "\n\n\n\n\n\n\n\n\n\n\n\n\n\n\n\n\n\n\n\n",
      "single_word": false,
      "lstrip": false,
      "rstrip": false,
      "normalized": false,
      "special": false
    },
    {
      "id": 128,
      "content": "\n\n\n\n\n\n\n\n\n\n\n\n\n\n\n\n\n\n\n\n\n",
      "single_word": false,
      "lstrip": false,
      "rstrip": false,
      "normalized": false,
      "special": false
    },
    {
      "id": 129,
      "content": "\n\n\n\n\n\n\n\n\n\n\n\n\n\n\n\n\n\n\n\n\n\n",
      "single_word": false,
      "lstrip": false,
      "rstrip": false,
      "normalized": false,
      "special": false
    },
    {
      "id": 130,
      "content": "\n\n\n\n\n\n\n\n\n\n\n\n\n\n\n\n\n\n\n\n\n\n\n",
      "single_word": false,
      "lstrip": false,
      "rstrip": false,
      "normalized": false,
      "special": false
    },
    {
      "id": 131,
      "content": "\n\n\n\n\n\n\n\n\n\n\n\n\n\n\n\n\n\n\n\n\n\n\n\n",
      "single_word": false,
      "lstrip": false,
      "rstrip": false,
      "normalized": false,
      "special": false
    },
    {
      "id": 132,
      "content": "\n\n\n\n\n\n\n\n\n\n\n\n\n\n\n\n\n\n\n\n\n\n\n\n\n",
      "single_word": false,
      "lstrip": false,
      "rstrip": false,
      "normalized": false,
      "special": false
    },
    {
      "id": 133,
      "content": "\n\n\n\n\n\n\n\n\n\n\n\n\n\n\n\n\n\n\n\n\n\n\n\n\n\n",
      "single_word": false,
      "lstrip": false,
      "rstrip": false,
      "normalized": false,
      "special": false
    },
    {
      "id": 134,
      "content": "\n\n\n\n\n\n\n\n\n\n\n\n\n\n\n\n\n\n\n\n\n\n\n\n\n\n\n",
      "single_word": false,
      "lstrip": false,
      "rstrip": false,
      "normalized": false,
      "special": false
    },
    {
      "id": 135,
      "content": "\n\n\n\n\n\n\n\n\n\n\n\n\n\n\n\n\n\n\n\n\n\n\n\n\n\n\n\n",
      "single_word": false,
      "lstrip": false,
      "rstrip": false,
      "normalized": false,
      "special": false
    },
    {
      "id": 136,
      "content": "\n\n\n\n\n\n\n\n\n\n\n\n\n\n\n\n\n\n\n\n\n\n\n\n\n\n\n\n\n",
      "single_word": false,
      "lstrip": false,
      "rstrip": false,
      "normalized": false,
      "special": false
    },
    {
      "id": 137,
      "content": "\n\n\n\n\n\n\n\n\n\n\n\n\n\n\n\n\n\n\n\n\n\n\n\n\n\n\n\n\n\n",
      "single_word": false,
      "lstrip": false,
      "rstrip": false,
      "normalized": false,
      "special": false
    },
    {
      "id": 138,
      "content": "\n\n\n\n\n\n\n\n\n\n\n\n\n\n\n\n\n\n\n\n\n\n\n\n\n\n\n\n\n\n\n",
      "single_word": false,
      "lstrip": false,
      "rstrip": false,
      "normalized": false,
      "special": false
    },
    {
      "id": 139,
      "content": "▁▁",
      "single_word": false,
      "lstrip": false,
      "rstrip": false,
      "normalized": false,
      "special": false
    },
    {
      "id": 140,
      "content": "▁▁▁",
      "single_word": false,
      "lstrip": false,
      "rstrip": false,
      "normalized": false,
      "special": false
    },
    {
      "id": 141,
      "content": "▁▁▁▁",
      "single_word": false,
      "lstrip": false,
      "rstrip": false,
      "normalized": false,
      "special": false
    },
    {
      "id": 142,
      "content": "▁▁▁▁▁",
      "single_word": false,
      "lstrip": false,
      "rstrip": false,
      "normalized": false,
      "special": false
    },
    {
      "id": 143,
      "content": "▁▁▁▁▁▁",
      "single_word": false,
      "lstrip": false,
      "rstrip": false,
      "normalized": false,
      "special": false
    },
    {
      "id": 144,
      "content": "▁▁▁▁▁▁▁",
      "single_word": false,
      "lstrip": false,
      "rstrip": false,
      "normalized": false,
      "special": false
    },
    {
      "id": 145,
      "content": "▁▁▁▁▁▁▁▁",
      "single_word": false,
      "lstrip": false,
      "rstrip": false,
      "normalized": false,
      "special": false
    },
    {
      "id": 146,
      "content": "▁▁▁▁▁▁▁▁▁",
      "single_word": false,
      "lstrip": false,
      "rstrip": false,
      "normalized": false,
      "special": false
    },
    {
      "id": 147,
      "content": "▁▁▁▁▁▁▁▁▁▁",
      "single_word": false,
      "lstrip": false,
      "rstrip": false,
      "normalized": false,
      "special": false
    },
    {
      "id": 148,
      "content": "▁▁▁▁▁▁▁▁▁▁▁",
      "single_word": false,
      "lstrip": false,
      "rstrip": false,
      "normalized": false,
      "special": false
    },
    {
      "id": 149,
      "content": "▁▁▁▁▁▁▁▁▁▁▁▁",
      "single_word": false,
      "lstrip": false,
      "rstrip": false,
      "normalized": false,
      "special": false
    },
    {
      "id": 150,
      "content": "▁▁▁▁▁▁▁▁▁▁▁▁▁",
      "single_word": false,
      "lstrip": false,
      "rstrip": false,
      "normalized": false,
      "special": false
    },
    {
      "id": 151,
      "content": "▁▁▁▁▁▁▁▁▁▁▁▁▁▁",
      "single_word": false,
      "lstrip": false,
      "rstrip": false,
      "normalized": false,
      "special": false
    },
    {
      "id": 152,
      "content": "▁▁▁▁▁▁▁▁▁▁▁▁▁▁▁",
      "single_word": false,
      "lstrip": false,
      "rstrip": false,
      "normalized": false,
      "special": false
    },
    {
      "id": 153,
      "content": "▁▁▁▁▁▁▁▁▁▁▁▁▁▁▁▁",
      "single_word": false,
      "lstrip": false,
      "rstrip": false,
      "normalized": false,
      "special": false
    },
    {
      "id": 154,
      "content": "▁▁▁▁▁▁▁▁▁▁▁▁▁▁▁▁▁",
      "single_word": false,
      "lstrip": false,
      "rstrip": false,
      "normalized": false,
      "special": false
    },
    {
      "id": 155,
      "content": "▁▁▁▁▁▁▁▁▁▁▁▁▁▁▁▁▁▁",
      "single_word": false,
      "lstrip": false,
      "rstrip": false,
      "normalized": false,
      "special": false
    },
    {
      "id": 156,
      "content": "▁▁▁▁▁▁▁▁▁▁▁▁▁▁▁▁▁▁▁",
      "single_word": false,
      "lstrip": false,
      "rstrip": false,
      "normalized": false,
      "special": false
    },
    {
      "id": 157,
      "content": "▁▁▁▁▁▁▁▁▁▁▁▁▁▁▁▁▁▁▁▁",
      "single_word": false,
      "lstrip": false,
      "rstrip": false,
      "normalized": false,
      "special": false
    },
    {
      "id": 158,
      "content": "▁▁▁▁▁▁▁▁▁▁▁▁▁▁▁▁▁▁▁▁▁",
      "single_word": false,
      "lstrip": false,
      "rstrip": false,
      "normalized": false,
      "special": false
    },
    {
      "id": 159,
      "content": "▁▁▁▁▁▁▁▁▁▁▁▁▁▁▁▁▁▁▁▁▁▁",
      "single_word": false,
      "lstrip": false,
      "rstrip": false,
      "normalized": false,
      "special": false
    },
    {
      "id": 160,
      "content": "▁▁▁▁▁▁▁▁▁▁▁▁▁▁▁▁▁▁▁▁▁▁▁",
      "single_word": false,
      "lstrip": false,
      "rstrip": false,
      "normalized": false,
      "special": false
    },
    {
      "id": 161,
      "content": "▁▁▁▁▁▁▁▁▁▁▁▁▁▁▁▁▁▁▁▁▁▁▁▁",
      "single_word": false,
      "lstrip": false,
      "rstrip": false,
      "normalized": false,
      "special": false
    },
    {
      "id": 162,
      "content": "▁▁▁▁▁▁▁▁▁▁▁▁▁▁▁▁▁▁▁▁▁▁▁▁▁",
      "single_word": false,
      "lstrip": false,
      "rstrip": false,
      "normalized": false,
      "special": false
    },
    {
      "id": 163,
      "content": "▁▁▁▁▁▁▁▁▁▁▁▁▁▁▁▁▁▁▁▁▁▁▁▁▁▁",
      "single_word": false,
      "lstrip": false,
      "rstrip": false,
      "normalized": false,
      "special": false
    },
    {
      "id": 164,
      "content": "▁▁▁▁▁▁▁▁▁▁▁▁▁▁▁▁▁▁▁▁▁▁▁▁▁▁▁",
      "single_word": false,
      "lstrip": false,
      "rstrip": false,
      "normalized": false,
      "special": false
    },
    {
      "id": 165,
      "content": "▁▁▁▁▁▁▁▁▁▁▁▁▁▁▁▁▁▁▁▁▁▁▁▁▁▁▁▁",
      "single_word": false,
      "lstrip": false,
      "rstrip": false,
      "normalized": false,
      "special": false
    },
    {
      "id": 166,
      "content": "▁▁▁▁▁▁▁▁▁▁▁▁▁▁▁▁▁▁▁▁▁▁▁▁▁▁▁▁▁",
      "single_word": false,
      "lstrip": false,
      "rstrip": false,
      "normalized": false,
      "special": false
    },
    {
      "id": 167,
      "content": "▁▁▁▁▁▁▁▁▁▁▁▁▁▁▁▁▁▁▁▁▁▁▁▁▁▁▁▁▁▁",
      "single_word": false,
      "lstrip": false,
      "rstrip": false,
      "normalized": false,
      "special": false
    },
    {
      "id": 168,
      "content": "▁▁▁▁▁▁▁▁▁▁▁▁▁▁▁▁▁▁▁▁▁▁▁▁▁▁▁▁▁▁▁",
      "single_word": false,
      "lstrip": false,
      "rstrip": false,
      "normalized": false,
      "special": false
    },
    {
      "id": 169,
      "content": "<table>",
      "single_word": false,
      "lstrip": false,
      "rstrip": false,
      "normalized": false,
      "special": false
    },
    {
      "id": 170,
      "content": "<caption>",
      "single_word": false,
      "lstrip": false,
      "rstrip": false,
      "normalized": false,
      "special": false
    },
    {
      "id": 171,
      "content": "<thead>",
      "single_word": false,
      "lstrip": false,
      "rstrip": false,
      "normalized": false,
      "special": false
    },
    {
      "id": 172,
      "content": "<tbody>",
      "single_word": false,
      "lstrip": false,
      "rstrip": false,
      "normalized": false,
      "special": false
    },
    {
      "id": 173,
      "content": "<tfoot>",
      "single_word": false,
      "lstrip": false,
      "rstrip": false,
      "normalized": false,
      "special": false
    },
    {
      "id": 174,
      "content": "<tr>",
      "single_word": false,
      "lstrip": false,
      "rstrip": false,
      "normalized": false,
      "special": false
    },
    {
      "id": 175,
      "content": "<th>",
      "single_word": false,
      "lstrip": false,
      "rstrip": false,
      "normalized": false,
      "special": false
    },
    {
      "id": 176,
      "content": "<td>",
      "single_word": false,
      "lstrip": false,
      "rstrip": false,
      "normalized": false,
      "special": false
    },
    {
      "id": 177,
      "content": "</table>",
      "single_word": false,
      "lstrip": false,
      "rstrip": false,
      "normalized": false,
      "special": false
    },
    {
      "id": 178,
      "content": "</caption>",
      "single_word": false,
      "lstrip": false,
      "rstrip": false,
      "normalized": false,
      "special": false
    },
    {
      "id": 179,
      "content": "</thead>",
      "single_word": false,
      "lstrip": false,
      "rstrip": false,
      "normalized": false,
      "special": false
    },
    {
      "id": 180,
      "content": "</tbody>",
      "single_word": false,
      "lstrip": false,
      "rstrip": false,
      "normalized": false,
      "special": false
    },
    {
      "id": 181,
      "content": "</tfoot>",
      "single_word": false,
      "lstrip": false,
      "rstrip": false,
      "normalized": false,
      "special": false
    },
    {
      "id": 182,
      "content": "</tr>",
      "single_word": false,
      "lstrip": false,
      "rstrip": false,
      "normalized": false,
      "special": false
    },
    {
      "id": 183,
      "content": "</th>",
      "single_word": false,
      "lstrip": false,
      "rstrip": false,
      "normalized": false,
      "special": false
    },
    {
      "id": 184,
      "content": "</td>",
      "single_word": false,
      "lstrip": false,
      "rstrip": false,
      "normalized": false,
      "special": false
    },
    {
      "id": 185,
      "content": "<h1>",
      "single_word": false,
      "lstrip": false,
      "rstrip": false,
      "normalized": false,
      "special": false
    },
    {
      "id": 186,
      "content": "<h2>",
      "single_word": false,
      "lstrip": false,
      "rstrip": false,
      "normalized": false,
      "special": false
    },
    {
      "id": 187,
      "content": "<h3>",
      "single_word": false,
      "lstrip": false,
      "rstrip": false,
      "normalized": false,
      "special": false
    },
    {
      "id": 188,
      "content": "<h4>",
      "single_word": false,
      "lstrip": false,
      "rstrip": false,
      "normalized": false,
      "special": false
    },
    {
      "id": 189,
      "content": "<h5>",
      "single_word": false,
      "lstrip": false,
      "rstrip": false,
      "normalized": false,
      "special": false
    },
    {
      "id": 190,
      "content": "<h6>",
      "single_word": false,
      "lstrip": false,
      "rstrip": false,
      "normalized": false,
      "special": false
    },
    {
      "id": 191,
      "content": "<blockquote>",
      "single_word": false,
      "lstrip": false,
      "rstrip": false,
      "normalized": false,
      "special": false
    },
    {
      "id": 192,
      "content": "</h1>",
      "single_word": false,
      "lstrip": false,
      "rstrip": false,
      "normalized": false,
      "special": false
    },
    {
      "id": 193,
      "content": "</h2>",
      "single_word": false,
      "lstrip": false,
      "rstrip": false,
      "normalized": false,
      "special": false
    },
    {
      "id": 194,
      "content": "</h3>",
      "single_word": false,
      "lstrip": false,
      "rstrip": false,
      "normalized": false,
      "special": false
    },
    {
      "id": 195,
      "content": "</h4>",
      "single_word": false,
      "lstrip": false,
      "rstrip": false,
      "normalized": false,
      "special": false
    },
    {
      "id": 196,
      "content": "</h5>",
      "single_word": false,
      "lstrip": false,
      "rstrip": false,
      "normalized": false,
      "special": false
    },
    {
      "id": 197,
      "content": "</h6>",
      "single_word": false,
      "lstrip": false,
      "rstrip": false,
      "normalized": false,
      "special": false
    },
    {
      "id": 198,
      "content": "</blockquote>",
      "single_word": false,
      "lstrip": false,
      "rstrip": false,
      "normalized": false,
      "special": false
    },
    {
      "id": 199,
      "content": "<strong>",
      "single_word": false,
      "lstrip": false,
      "rstrip": false,
      "normalized": false,
      "special": false
    },
    {
      "id": 200,
      "content": "<em>",
      "single_word": false,
      "lstrip": false,
      "rstrip": false,
      "normalized": false,
      "special": false
    },
    {
      "id": 201,
      "content": "<b>",
      "single_word": false,
      "lstrip": false,
      "rstrip": false,
      "normalized": false,
      "special": false
    },
    {
      "id": 202,
      "content": "<i>",
      "single_word": false,
      "lstrip": false,
      "rstrip": false,
      "normalized": false,
      "special": false
    },
    {
      "id": 203,
      "content": "<u>",
      "single_word": false,
      "lstrip": false,
      "rstrip": false,
      "normalized": false,
      "special": false
    },
    {
      "id": 204,
      "content": "<s>",
      "single_word": false,
      "lstrip": false,
      "rstrip": false,
      "normalized": false,
      "special": false
    },
    {
      "id": 205,
      "content": "<sub>",
      "single_word": false,
      "lstrip": false,
      "rstrip": false,
      "normalized": false,
      "special": false
    },
    {
      "id": 206,
      "content": "<sup>",
      "single_word": false,
      "lstrip": false,
      "rstrip": false,
      "normalized": false,
      "special": false
    },
    {
      "id": 207,
      "content": "<code>",
      "single_word": false,
      "lstrip": false,
      "rstrip": false,
      "normalized": false,
      "special": false
    },
    {
      "id": 208,
      "content": "</strong>",
      "single_word": false,
      "lstrip": false,
      "rstrip": false,
      "normalized": false,
      "special": false
    },
    {
      "id": 209,
      "content": "</em>",
      "single_word": false,
      "lstrip": false,
      "rstrip": false,
      "normalized": false,
      "special": false
    },
    {
      "id": 210,
      "content": "</b>",
      "single_word": false,
      "lstrip": false,
      "rstrip": false,
      "normalized": false,
      "special": false
    },
    {
      "id": 211,
      "content": "</i>",
      "single_word": false,
      "lstrip": false,
      "rstrip": false,
      "normalized": false,
      "special": false
    },
    {
      "id": 212,
      "content": "</u>",
      "single_word": false,
      "lstrip": false,
      "rstrip": false,
      "normalized": false,
      "special": false
    },
    {
      "id": 213,
      "content": "</s>",
      "single_word": false,
      "lstrip": false,
      "rstrip": false,
      "normalized": false,
      "special": false
    },
    {
      "id": 214,
      "content": "</sub>",
      "single_word": false,
      "lstrip": false,
      "rstrip": false,
      "normalized": false,
      "special": false
    },
    {
      "id": 215,
      "content": "</sup>",
      "single_word": false,
      "lstrip": false,
      "rstrip": false,
      "normalized": false,
      "special": false
    },
    {
      "id": 216,
      "content": "</code>",
      "single_word": false,
      "lstrip": false,
      "rstrip": false,
      "normalized": false,
      "special": false
    }
  ],
  "normalizer": {
    "type": "Replace",
    "pattern": {
      "String": " "
    },
    "content": "▁"
  },
  "pre_tokenizer": {
    "type": "Metaspace",
    "replacement": "▁",
    "prepend_scheme": "always",
    "split": true
  },
  "post_processor": {
    "type": "TemplateProcessing",
    "single": [
      {
        "SpecialToken": {
          "id": "<bos>",
          "type_id": 0
        }
      },
      {
        "Sequence": {
          "id": "A",
          "type_id": 0
        }
      },
      {
        "SpecialToken": {
          "id": "<eos>",
          "type_id": 0
        }
      }
    ],
    "pair": [
      {
        "SpecialToken": {
          "id": "<bos>",
          "type_id": 0
        }
      },
      {
        "Sequence": {
          "id": "A",
          "type_id": 0
        }
      },
      {
        "SpecialToken": {
          "id": "<eos>",
          "type_id": 0
        }
      },
      {
        "Sequence": {
          "id": "B",
          "type_id": 0
        }
      },
      {
        "SpecialToken": {
          "id": "<eos>",
          "type_id": 0
        }
      }
    ],
    "special_tokens": {
      "<bos>": {
        "id": "<bos>",
        "ids": [
          2
        ],
        "tokens": [
          "<bos>"
        ]
      },
      "<eos>": {
        "id": "<eos>",
        "ids": [
          1
        ],
        "tokens": [
          "<eos>"
        ]
      }
    }
  },
  "decoder": {
    "type": "Sequence",
    "decoders": [
      {
        "type": "Replace",
        "pattern": {
          "String": "▁"
        },
        "content": " "
      },
      {
        "type": "ByteFallback"
      },
      {
        "type": "Fuse"
      }
    ]
  },
  "model": {
    "type": "BPE",
    "dropout": null,
    "unk_token": "<unk>",
    "continuing_subword_prefix": null,
    "end_of_word_suffix": null,
    "fuse_unk": true,
    "byte_fallback": true,
    "ignore_merges": false,
    "vocab": {
      "<pad>": 0,
      "<eos>": 1,
      "<bos>": 2,
      "<unk>": 3,
      "<mask>": 4,
      "<2mass>": 5,
      "[@BOS@]": 6,
      "<unused0>": 7,
      "<unused1>": 8,
      "<unused2>": 9,
      "<unused3>": 10,
      "<unused4>": 11,
      "<unused5>": 12,
      "<unused6>": 13,
      "<unused7>": 14,
      "<unused8>": 15,
      "<unused9>": 16,
      "<unused10>": 17,
      "<unused11>": 18,
      "<unused12>": 19,
      "<unused13>": 20,
      "<unused14>": 21,
      "<unused15>": 22,
      "<unused16>": 23,
      "<unused17>": 24,
      "<unused18>": 25,
      "<unused19>": 26,
      "<unused20>": 27,
      "<unused21>": 28,
      "<unused22>": 29,
      "<unused23>": 30,
      "<unused24>": 31,
      "<unused25>": 32,
      "<unused26>": 33,
      "<unused27>": 34,
      "<unused28>": 35,
      "<unused29>": 36,
      "<unused30>": 37,
      "<unused31>": 38,
      "<unused32>": 39,
      "<unused33>": 40,
      "<unused34>": 41,
      "<unused35>": 42,
      "<unused36>": 43,
      "<unused37>": 44,
      "<unused38>": 45,
      "<unused39>": 46,
      "<unused40>": 47,
      "<unused41>": 48,
      "<unused42>": 49,
      "<unused43>": 50,
      "<unused44>": 51,
      "<unused45>": 52,
      "<unused46>": 53,
      "<unused47>": 54,
      "<unused48>": 55,
      "<unused49>": 56,
      "<unused50>": 57,
      "<unused51>": 58,
      "<unused52>": 59,
      "<unused53>": 60,
      "<unused54>": 61,
      "<unused55>": 62,
      "<unused56>": 63,
      "<unused57>": 64,
      "<unused58>": 65,
      "<unused59>": 66,
      "<unused60>": 67,
      "<unused61>": 68,
      "<unused62>": 69,
      "<unused63>": 70,
      "<unused64>": 71,
      "<unused65>": 72,
      "<unused66>": 73,
      "<unused67>": 74,
      "<unused68>": 75,
      "<unused69>": 76,
      "<unused70>": 77,
      "<unused71>": 78,
      "<unused72>": 79,
      "<unused73>": 80,
      "<unused74>": 81,
      "<unused75>": 82,
      "<unused76>": 83,
      "<unused77>": 84,
      "<unused78>": 85,
      "<unused79>": 86,
      "<unused80>": 87,
      "<unused81>": 88,
      "<unused82>": 89,
      "<unused83>": 90,
      "<unused84>": 91,
      "<unused85>": 92,
      "<unused86>": 93,
      "<unused87>": 94,
      "<unused88>": 95,
      "<unused89>": 96,
      "<unused90>": 97,
      "<unused91>": 98,
      "<unused92>": 99,
      "<unused93>": 100,
      "<unused94>": 101,
      "<unused95>": 102,
      "<unused96>": 103,
      "<unused97>": 104,
      "<unused98>": 105,
      "<start_of_turn>": 106,
      "<end_of_turn>": 107,
      "\n": 108,
      "\n\n": 109,
      "\n\n\n": 110,
      "\n\n\n\n": 111,
      "\n\n\n\n\n": 112,
      "\n\n\n\n\n\n": 113,
      "\n\n\n\n\n\n\n": 114,
      "\n\n\n\n\n\n\n\n": 115,
      "\n\n\n\n\n\n\n\n\n": 116,
      "\n\n\n\n\n\n\n\n\n\n": 117,
      "\n\n\n\n\n\n\n\n\n\n\n": 118,
      "\n\n\n\n\n\n\n\n\n\n\n\n": 119,
      "\n\n\n\n\n\n\n\n\n\n\n\n\n": 120,
      "\n\n\n\n\n\n\n\n\n\n\n\n\n\n": 121,
      "\n\n\n\n\n\n\n\n\n\n\n\n\n\n\n": 122,
      "\n\n\n\n\n\n\n\n\n\n\n\n\n\n\n\n": 123,
      "\n\n\n\n\n\n\n\n\n\n\n\n\n\n\n\n\n": 124,
      "\n\n\n\n\n\n\n\n\n\n\n\n\n\n\n\n\n\n": 125,
      "\n\n\n\n\n\n\n\n\n\n\n\n\n\n\n\n\n\n\n": 126,
      "\n\n\n\n\n\n\n\n\n\n\n\n\n\n\n\n\n\n\n\n": 127,
      "\n\n\n\n\n\n\n\n\n\n\n\n\n\n\n\n\n\n\n\n\n": 128,
      "\n\n\n\n\n\n\n\n\n\n\n\n\n\n\n\n\n\n\n\n\n\n": 129,
      "\n\n\n\n\n\n\n\n\n\n\n\n\n\n\n\n\n\n\n\n\n\n\n": 130,
      "\n\n\n\n\n\n\n\n\n\n\n\n\n\n\n\n\n\n\n\n\n\n\n\n": 131,
      "\n\n\n\n\n\n\n\n\n\n\n\n\n\n\n\n\n\n\n\n\n\n\n\n\n": 132,
      "\n\n\n\n\n\n\n\n\n\n\n\n\n\n\n\n\n\n\n\n\n\n\n\n\n\n": 133,
      "\n\n\n\n\n\n\n\n\n\n\n\n\n\n\n\n\n\n\n\n\n\n\n\n\n\n\n": 134,
      "\n\n\n\n\n\n\n\n\n\n\n\n\n\n\n\n\n\n\n\n\n\n\n\n\n\n\n\n": 135,
      "\n\n\n\n\n\n\n\n\n\n\n\n\n\n\n\n\n\n\n\n\n\n\n\n\n\n\n\n\n": 136,
      "\n\n\n\n\n\n\n\n\n\n\n\n\n\n\n\n\n\n\n\n\n\n\n\n\n\n\n\n\n\n": 137,
      "\n\n\n\n\n\n\n\n\n\n\n\n\n\n\n\n\n\n\n\n\n\n\n\n\n\n\n\n\n\n\n": 138,
      "▁▁": 139,
      "▁▁▁": 140,
      "▁▁▁▁": 141,
      "▁▁▁▁▁": 142,
      "▁▁▁▁▁▁": 143,
      "▁▁▁▁▁▁▁": 144,
      "▁▁▁▁▁▁▁▁": 145,
      "▁▁▁▁▁▁▁▁▁": 146,
      "▁▁▁▁▁▁▁▁▁▁": 147,
      "▁▁▁▁▁▁▁▁▁▁▁": 148,
      "▁▁▁▁▁▁▁▁▁▁▁▁": 149,
      "▁▁▁▁▁▁▁▁▁▁▁▁▁": 150,
      "▁▁▁▁▁▁▁▁▁▁▁▁▁▁": 151,
      "▁▁▁▁▁▁▁▁▁▁▁▁▁▁▁": 152,
      "▁▁▁▁▁▁▁▁▁▁▁▁▁▁▁▁": 153,
      "▁▁▁▁▁▁▁▁▁▁▁▁▁▁▁▁▁": 154,
      "▁▁▁▁▁▁▁▁▁▁▁▁▁▁▁▁▁▁": 155,
      "▁▁▁▁▁▁▁▁▁▁▁▁▁▁▁▁▁▁▁": 156,
      "▁▁▁▁▁▁▁▁▁▁▁▁▁▁▁▁▁▁▁▁": 157,
      "▁▁▁▁▁▁▁▁▁▁▁▁▁▁▁▁▁▁▁▁▁": 158,
      "▁▁▁▁▁▁▁▁▁▁▁▁▁▁▁▁▁▁▁▁▁▁": 159,
      "▁▁▁▁▁▁▁▁▁▁▁▁▁▁▁▁▁▁▁▁▁▁▁": 160,
      "▁▁▁▁▁▁▁▁▁▁▁▁▁▁▁▁▁▁▁▁▁▁▁▁": 161,
      "▁▁▁▁▁▁▁▁▁▁▁▁▁▁▁▁▁▁▁▁▁▁▁▁▁": 162,
      "▁▁▁▁▁▁▁▁▁▁▁▁▁▁▁▁▁▁▁▁▁▁▁▁▁▁": 163,
      "▁▁▁▁▁▁▁▁▁▁▁▁▁▁▁▁▁▁▁▁▁▁▁▁▁▁▁": 164,
      "▁▁▁▁▁▁▁▁▁▁▁▁▁▁▁▁▁▁▁▁▁▁▁▁▁▁▁▁": 165,
      "▁▁▁▁▁▁▁▁▁▁▁▁▁▁▁▁▁▁▁▁▁▁▁▁▁▁▁▁▁": 166,
      "▁▁▁▁▁▁▁▁▁▁▁▁▁▁▁▁▁▁▁▁▁▁▁▁▁▁▁▁▁▁": 167,
      "▁▁▁▁▁▁▁▁▁▁▁▁▁▁▁▁▁▁▁▁▁▁▁▁▁▁▁▁▁▁▁": 168,
      "<table>": 169,
      "<caption>": 170,
      "<thead>": 171,
      "<tbody>": 172,
      "<tfoot>": 173,
      "<tr>": 174,
      "<th>": 175,
      "<td>": 176,
      "</table>": 177,
      "</caption>": 178,
      "</thead>": 179,
      "</tbody>": 180,
      "</tfoot>": 181,
      "</tr>": 182,
      "</th>": 183,
      "</td>": 184,
      "<h1>": 185,
      "<h2>": 186,
      "<h3>": 187,
      "<h4>": 188,
      "<h5>": 189,
      "<h6>": 190,
      "<blockquote>": 191,
      "</h1>": 192,
      "</h2>": 193,
      "</h3>": 194,
      "</h4>": 195,
      "</h5>": 196,
      "</h6>": 197,
      "</blockquote>": 198,
      "<strong>": 199,
      "<em>": 200,
      "<b>": 201,
      "<i>": 202,
      "<u>": 203,
      "<s>": 204,
      "<sub>": 205,
      "<sup>": 206,
      "<code>": 207,
      "</strong>": 208,
      "</em>": 209,
      "</b>": 210,
      "</i>": 211,
      "</u>": 212,
      "</s>": 213,
      "</sub>": 214,
      "</sup>": 215,
      "</code>": 216,
      "<0x00>": 217,
      "<0x01>": 218,
      "<0x02>": 219,
      "<0x03>": 220,
      "<0x04>": 221,
      "<0x05>": 222,
      "<0x06>": 223,
      "<0x07>": 224,
      "<0x08>": 225,
      "\t": 226,
      "<0x0A>": 227,
      "<0x0B>": 228,
      "<0x0C>": 229,
      "<0x0D>": 230,
      "<0x0E>": 231,
      "<0x0F>": 232,
      "<0x10>": 233,
      "<0x11>": 234,
      "<0x12>": 235,
      "<0x13>": 236,
      "<0x14>": 237,
      "<0x15>": 238,
      "<0x16>": 239,
      "<0x17>": 240,
      "<0x18>": 241,
      "<0x19>": 242,
      "<0x1A>": 243,
      "<0x1B>": 244,
      "<0x1C>": 245,
      "<0x1D>": 246,
      "<0x1E>": 247,
      "<0x1F>": 248,
      "<0x20>": 249,
      "<0x21>": 250,
      "<0x22>": 251,
      "<0x23>": 252,
      "<0x24>": 253,
      "<0x25>": 254,
      "<0x26>": 255,
      "<0x95>": 256,
      "<0xA0>": 257,
      "<0xEB>": 258,
      "in": 259,
      "▁t": 260,
      "er": 261,
      "▁a": 262,
      "on": 263,
      "re": 264,
      "en": 265,
      "he": 266,
      "an": 267,
      "at": 268,
      "or": 269,
      "es": 270,
      "▁s": 271,
      "ar": 272,
      "ti": 273,
      "te": 274,
      "th": 275,
      "st": 276,
      "nd": 277,
      "al": 278,
      "▁o": 279,
      "le": 280,
      "de": 281,
      "▁i": 282,
      "se": 283,
      "▁c": 284,
      "▁d": 285,
      "it": 286,
      "nt": 287,
      "is": 288,
      "▁p": 289,
      "me": 290,
      "ri": 291,
      "ra": 292,
      "ou": 293,
      "as": 294,
      "ed": 295,
      "ne": 296,
      "to": 297,
      "ng": 298,
      "▁w": 299,
      "ro": 300,
      "li": 301,
      "ta": 302,
      "▁f": 303,
      "▁b": 304,
      "▁m": 305,
      "ic": 306,
      "el": 307,
      "la": 308,
      "et": 309,
      "ve": 310,
      "ur": 311,
      "▁e": 312,
      "ha": 313,
      "co": 314,
      "ll": 315,
      "ch": 316,
      "▁h": 317,
      "ce": 318,
      "▁l": 319,
      "ma": 320,
      "ea": 321,
      "io": 322,
      "om": 323,
      "tr": 324,
      "id": 325,
      "il": 326,
      "ge": 327,
      "si": 328,
      "di": 329,
      "hi": 330,
      "lo": 331,
      "ec": 332,
      "ie": 333,
      "▁r": 334,
      "un": 335,
      "ac": 336,
      "▁n": 337,
      "us": 338,
      "pe": 339,
      "be": 340,
      "na": 341,
      "ca": 342,
      "ns": 343,
      "of": 344,
      "ut": 345,
      "ol": 346,
      "ot": 347,
      "am": 348,
      "ss": 349,
      "em": 350,
      "ad": 351,
      "po": 352,
      "os": 353,
      "pa": 354,
      "▁S": 355,
      "im": 356,
      "ho": 357,
      "▁the": 358,
      "ing": 359,
      "▁in": 360,
      "▁of": 361,
      "▁to": 362,
      "▁and": 363,
      "ent": 364,
      "▁th": 365,
      "▁de": 366,
      "▁re": 367,
      "▁g": 368,
      "▁T": 369,
      "▁C": 370,
      "▁A": 371,
      "ion": 372,
      "▁=": 373,
      "▁I": 374,
      "▁(": 375,
      "qu": 376,
      "▁v": 377,
      "▁M": 378,
      "▁P": 379,
      "▁y": 380,
      "ver": 381,
      "▁B": 382,
      "um": 383,
      "ul": 384,
      "ig": 385,
      "▁is": 386,
      "▁for": 387,
      "ly": 388,
      "▁u": 389,
      "ate": 390,
      "▁D": 391,
      "ow": 392,
      "ter": 393,
      "▁on": 394,
      "▁{": 395,
      "▁wi": 396,
      "▁be": 397,
      "end": 398,
      "ir": 399,
      "ts": 400,
      "ers": 401,
      "ue": 402,
      "ati": 403,
      "ine": 404,
      "ck": 405,
      "res": 406,
      "▁R": 407,
      "▁L": 408,
      "ons": 409,
      "men": 410,
      "▁con": 411,
      "▁F": 412,
      "int": 413,
      "▁E": 414,
      "▁k": 415,
      "and": 416,
      "▁H": 417,
      "od": 418,
      "est": 419,
      "▁N": 420,
      "▁W": 421,
      "if": 422,
      "▁*": 423,
      "The": 424,
      "ith": 425,
      "▁G": 426,
      "ere": 427,
      "ke": 428,
      "▁pro": 429,
      "ub": 430,
      "pp": 431,
      "▁en": 432,
      "▁ha": 433,
      "▁\"": 434,
      "▁it": 435,
      "oo": 436,
      "ci": 437,
      "all": 438,
      "ess": 439,
      "ab": 440,
      "▁an": 441,
      "ret": 442,
      "ation": 443,
      "▁that": 444,
      "▁with": 445,
      "ment": 446,
      "▁j": 447,
      "▁ne": 448,
      "▁st": 449,
      "▁com": 450,
      "▁me": 451,
      "▁la": 452,
      "ity": 453,
      "▁as": 454,
      "tem": 455,
      "▁O": 456,
      "▁or": 457,
      "ted": 458,
      "▁you": 459,
      "▁he": 460,
      "ist": 461,
      "▁at": 462,
      "▁$": 463,
      "▁ex": 464,
      "▁se": 465,
      "▁qu": 466,
      "▁li": 467,
      "line": 468,
      "per": 469,
      "▁mo": 470,
      "▁are": 471,
      "▁le": 472,
      "ure": 473,
      "▁so": 474,
      "▁J": 475,
      "▁The": 476,
      "op": 477,
      "iz": 478,
      "▁al": 479,
      "▁ma": 480,
      "ass": 481,
      "lic": 482,
      "ore": 483,
      "..": 484,
      "▁&": 485,
      "ite": 486,
      "▁-": 487,
      "▁was": 488,
      "▁by": 489,
      "age": 490,
      "ame": 491,
      "ard": 492,
      "▁this": 493,
      "ag": 494,
      "ak": 495,
      "ia": 496,
      "ant": 497,
      "▁su": 498,
      "hl": 499,
      "out": 500,
      "▁K": 501,
      "▁un": 502,
      "▁do": 503,
      "ap": 504,
      "▁di": 505,
      "▁U": 506,
      "ang": 507,
      "▁par": 508,
      "ty": 509,
      "ord": 510,
      "ber": 511,
      "con": 512,
      "art": 513,
      "ff": 514,
      "ys": 515,
      "tu": 516,
      "ze": 517,
      "ind": 518,
      "▁po": 519,
      "▁from": 520,
      "▁'": 521,
      "ans": 522,
      "▁not": 523,
      "▁we": 524,
      "ata": 525,
      "one": 526,
      "▁ch": 527,
      "ther": 528,
      "▁have": 529,
      "au": 530,
      "▁no": 531,
      "--": 532,
      "ich": 533,
      "▁can": 534,
      "▁tr": 535,
      "tic": 536,
      "ud": 537,
      "ote": 538,
      "▁id": 539,
      "ong": 540,
      "ks": 541,
      "▁ar": 542,
      "oc": 543,
      "▁el": 544,
      "mo": 545,
      "▁lo": 546,
      "cc": 547,
      "ry": 548,
      "▁all": 549,
      "▁ad": 550,
      "ork": 551,
      "ated": 552,
      "▁ab": 553,
      "▁per": 554,
      "ire": 555,
      ").": 556,
      "▁sp": 557,
      "▁des": 558,
      "ven": 559,
      "va": 560,
      "lu": 561,
      "ally": 562,
      "▁your": 563,
      "ile": 564,
      "ice": 565,
      "che": 566,
      "▁:": 567,
      "der": 568,
      "▁sa": 569,
      "▁z": 570,
      "og": 571,
      "fer": 572,
      "▁go": 573,
      "com": 574,
      "row": 575,
      "▁es": 576,
      "ence": 577,
      "▁will": 578,
      "▁In": 579,
      "ign": 580,
      "set": 581,
      "▁new": 582,
      "ize": 583,
      "▁Y": 584,
      "▁[": 585,
      "vi": 586,
      "vel": 587,
      "are": 588,
      "ont": 589,
      "ast": 590,
      "▁п": 591,
      "▁ro": 592,
      "▁but": 593,
      "▁que": 594,
      "▁up": 595,
      "▁co": 596,
      "ст": 597,
      "ide": 598,
      "ces": 599,
      "▁man": 600,
      "▁us": 601,
      "▁has": 602,
      "▁out": 603,
      "▁ا": 604,
      "ies": 605,
      "lay": 606,
      "▁his": 607,
      "ory": 608,
      "▁und": 609,
      "so": 610,
      "sel": 611,
      "ill": 612,
      "ni": 613,
      "▁с": 614,
      "▁comp": 615,
      "▁sh": 616,
      "▁get": 617,
      "▁which": 618,
      "▁pid": 619,
      "ens": 620,
      "▁pre": 621,
      "▁.": 622,
      "...": 623,
      "no": 624,
      "iv": 625,
      "▁ti": 626,
      "▁+": 627,
      "par": 628,
      "ten": 629,
      "we": 630,
      "ach": 631,
      "▁<": 632,
      "wer": 633,
      "▁my": 634,
      "▁ver": 635,
      "▁one": 636,
      "▁в": 637,
      "ors": 638,
      "mer": 639,
      "▁more": 640,
      "на": 641,
      "les": 642,
      "▁they": 643,
      "ain": 644,
      "▁dis": 645,
      "ents": 646,
      "▁au": 647,
      "mb": 648,
      "ни": 649,
      "▁St": 650,
      "ра": 651,
      "ms": 652,
      "ew": 653,
      "bu": 654,
      "▁res": 655,
      "▁ag": 656,
      "▁tra": 657,
      "▁et": 658,
      "▁some": 659,
      "pro": 660,
      "но": 661,
      "ga": 662,
      "▁if": 663,
      "ings": 664,
      "▁imp": 665,
      "min": 666,
      "▁fo": 667,
      "up": 668,
      "old": 669,
      "ob": 670,
      "▁their": 671,
      "gra": 672,
      "▁ri": 673,
      "▁Re": 674,
      "now": 675,
      "lan": 676,
      "▁fe": 677,
      "▁bo": 678,
      "ener": 679,
      "fe": 680,
      "▁col": 681,
      "do": 682,
      "eng": 683,
      "▁were": 684,
      "ari": 685,
      "▁ra": 686,
      "go": 687,
      "bo": 688,
      "gen": 689,
      "ug": 690,
      "▁app": 691,
      "led": 692,
      "▁inter": 693,
      "▁class": 694,
      "ung": 695,
      "▁who": 696,
      "man": 697,
      "▁time": 698,
      "▁her": 699,
      "vo": 700,
      "ро": 701,
      "ik": 702,
      "ón": 703,
      "▁te": 704,
      "▁any": 705,
      "und": 706,
      "ale": 707,
      "pr": 708,
      "▁had": 709,
      "ays": 710,
      "▁pe": 711,
      "wo": 712,
      "▁there": 713,
      "▁about": 714,
      "то": 715,
      "ties": 716,
      "que": 717,
      "ко": 718,
      "▁}": 719,
      "▁@": 720,
      "▁Pro": 721,
      "▁er": 722,
      "ok": 723,
      "▁been": 724,
      "fic": 725,
      "ier": 726,
      "▁ob": 727,
      "ments": 728,
      "▁would": 729,
      "ren": 730,
      "til": 731,
      "ins": 732,
      "ah": 733,
      "▁x": 734,
      "▁set": 735,
      "ves": 736,
      "▁am": 737,
      "ien": 738,
      "IC": 739,
      "▁ال": 740,
      "▁/": 741,
      "▁mu": 742,
      "als": 743,
      "▁и": 744,
      "▁like": 745,
      "var": 746,
      "▁other": 747,
      "▁–": 748,
      "ner": 749,
      "▁work": 750,
      "ka": 751,
      "▁year": 752,
      "▁over": 753,
      "▁It": 754,
      "ton": 755,
      "▁our": 756,
      "▁also": 757,
      "iti": 758,
      ".,": 759,
      "▁them": 760,
      "the": 761,
      "ка": 762,
      "▁del": 763,
      "▁than": 764,
      "▁said": 765,
      "▁pr": 766,
      "▁when": 767,
      "▁der": 768,
      "tab": 769,
      "cho": 770,
      "ues": 771,
      "ange": 772,
      "ger": 773,
      "umer": 774,
      "▁о": 775,
      "▁op": 776,
      "tle": 777,
      "ates": 778,
      "▁fa": 779,
      "▁what": 780,
      "ре": 781,
      "app": 782,
      "its": 783,
      "ili": 784,
      "ey": 785,
      "▁bu": 786,
      "▁af": 787,
      "cy": 788,
      "▁car": 789,
      "▁fin": 790,
      "▁know": 791,
      "ges": 792,
      "▁م": 793,
      "▁д": 794,
      "▁!": 795,
      "▁cons": 796,
      "▁acc": 797,
      "▁may": 798,
      "▁stat": 799,
      "pon": 800,
      "eb": 801,
      "▁da": 802,
      "ava": 803,
      "▁che": 804,
      "vers": 805,
      "rent": 806,
      "▁Q": 807,
      "por": 808,
      "▁its": 809,
      "▁sec": 810,
      "▁into": 811,
      "▁use": 812,
      "ian": 813,
      "ny": 814,
      "▁she": 815,
      "ek": 816,
      "ли": 817,
      "ator": 818,
      "▁ac": 819,
      "▁reg": 820,
      "▁only": 821,
      "ва": 822,
      "▁sto": 823,
      "▁para": 824,
      "▁die": 825,
      "▁à": 826,
      "▁No": 827,
      "day": 828,
      "gn": 829,
      "▁He": 830,
      "ри": 831,
      "▁just": 832,
      "те": 833,
      "▁sur": 834,
      "▁min": 835,
      "gan": 836,
      "го": 837,
      "▁sub": 838,
      "da": 839,
      "ina": 840,
      "ody": 841,
      "▁du": 842,
      "ervice": 843,
      "cer": 844,
      "▁else": 845,
      "▁back": 846,
      "▁ب": 847,
      "▁him": 848,
      "▁men": 849,
      "mes": 850,
      "aw": 851,
      "▁under": 852,
      "▁An": 853,
      "не": 854,
      "ved": 855,
      "▁how": 856,
      "▁ser": 857,
      "▁first": 858,
      "ise": 859,
      "▁по": 860,
      "tive": 861,
      "▁two": 862,
      "gs": 863,
      "▁true": 864,
      "tra": 865,
      "ating": 866,
      "any": 867,
      "pl": 868,
      "▁ter": 869,
      "та": 870,
      "▁por": 871,
      "ank": 872,
      "ль": 873,
      "▁off": 874,
      "son": 875,
      "▁cor": 876,
      "▁ve": 877,
      "▁function": 878,
      "▁should": 879,
      "▁Al": 880,
      "ures": 881,
      "▁на": 882,
      "▁This": 883,
      "▁Con": 884,
      "aj": 885,
      "▁data": 886,
      "▁good": 887,
      "▁é": 888,
      "ery": 889,
      "iss": 890,
      "ла": 891,
      "ving": 892,
      "▁les": 893,
      "za": 894,
      "▁see": 895,
      "ão": 896,
      "land": 897,
      "▁We": 898,
      "cu": 899,
      "▁these": 900,
      "▁after": 901,
      "▁don": 902,
      "▁los": 903,
      "▁est": 904,
      "uk": 905,
      "▁ap": 906,
      "hen": 907,
      "▁people": 908,
      "tos": 909,
      ".\"": 910,
      "▁ge": 911,
      "ene": 912,
      "▁And": 913,
      "▁gu": 914,
      "▁need": 915,
      "▁mon": 916,
      "ле": 917,
      "▁im": 918,
      "ting": 919,
      "▁hel": 920,
      "▁gra": 921,
      "▁now": 922,
      "▁then": 923,
      "mi": 924,
      "ки": 925,
      "▁long": 926,
      "▁did": 927,
      "▁show": 928,
      "▁make": 929,
      "▁sta": 930,
      "▁name": 931,
      "▁trans": 932,
      "▁very": 933,
      "bel": 934,
      "▁Ex": 935,
      "▁sc": 936,
      "ai": 937,
      "▁here": 938,
      "ters": 939,
      "ны": 940,
      "▁char": 941,
      "ada": 942,
      "▁ed": 943,
      "▁cre": 944,
      "dic": 945,
      "▁every": 946,
      "▁high": 947,
      "▁could": 948,
      "▁sti": 949,
      "ines": 950,
      "king": 951,
      "date": 952,
      "▁most": 953,
      "by": 954,
      "ado": 955,
      "ло": 956,
      "▁person": 957,
      "▁play": 958,
      "▁pa": 959,
      "stra": 960,
      "▁cal": 961,
      "▁>": 962,
      "▁false": 963,
      "ster": 964,
      "ila": 965,
      "▁where": 966,
      "за": 967,
      "▁و": 968,
      "den": 969,
      "▁sm": 970,
      "▁X": 971,
      "ana": 972,
      "▁well": 973,
      "▁end": 974,
      "▁such": 975,
      "▁na": 976,
      "▁sk": 977,
      "use": 978,
      "▁ph": 979,
      "▁through": 980,
      "ler": 981,
      "This": 982,
      "gu": 983,
      "▁den": 984,
      "time": 985,
      "és": 986,
      "cha": 987,
      "ros": 988,
      "▁sim": 989,
      "во": 990,
      "des": 991,
      "ara": 992,
      "▁follow": 993,
      "▁look": 994,
      "ان": 995,
      "▁value": 996,
      "ash": 997,
      "▁New": 998,
      "vis": 999,
      "▁supp": 1000,
      "▁hand": 1001,
      "▁import": 1002,
      "▁rep": 1003,
      "▁made": 1004,
      "▁You": 1005,
      "▁tri": 1006,
      "ente": 1007,
      "ils": 1008,
      "ти": 1009,
      "▁again": 1010,
      "▁?": 1011,
      "▁years": 1012,
      "ki": 1013,
      "ja": 1014,
      "▁eff": 1015,
      "▁ele": 1016,
      "uc": 1017,
      "▁used": 1018,
      "▁б": 1019,
      "▁tem": 1020,
      "▁read": 1021,
      "▁much": 1022,
      "yn": 1023,
      "▁,": 1024,
      "ть": 1025,
      "▁even": 1026,
      "ron": 1027,
      "▁For": 1028,
      "▁#": 1029,
      "list": 1030,
      "▁part": 1031,
      "▁way": 1032,
      "▁So": 1033,
      "▁down": 1034,
      "▁help": 1035,
      "▁ke": 1036,
      "▁find": 1037,
      "It": 1038,
      "▁ass": 1039,
      "▁pos": 1040,
      "▁does": 1041,
      "my": 1042,
      "US": 1043,
      "param": 1044,
      "ule": 1045,
      "▁ste": 1046,
      "We": 1047,
      "▁form": 1048,
      "▁think": 1049,
      "▁day": 1050,
      "▁Res": 1051,
      "chen": 1052,
      "▁una": 1053,
      "play": 1054,
      "▁đ": 1055,
      "▁number": 1056,
      "▁_": 1057,
      "▁tea": 1058,
      "mail": 1059,
      "▁mar": 1060,
      "▁many": 1061,
      "▁lit": 1062,
      "ined": 1063,
      "▁tak": 1064,
      "▁great": 1065,
      "▁las": 1066,
      "▁plan": 1067,
      "▁fam": 1068,
      "cip": 1069,
      "▁ein": 1070,
      "▁cha": 1071,
      "▁dire": 1072,
      "je": 1073,
      "cia": 1074,
      "▁before": 1075,
      "▁il": 1076,
      "ern": 1077,
      "▁si": 1078,
      "да": 1079,
      "▁pas": 1080,
      "▁same": 1081,
      "ер": 1082,
      "▁system": 1083,
      "ato": 1084,
      "▁sha": 1085,
      "ica": 1086,
      "ет": 1087,
      "▁の": 1088,
      "ال": 1089,
      "▁right": 1090,
      "ants": 1091,
      "mand": 1092,
      "ush": 1093,
      "What": 1094,
      "▁Me": 1095,
      "▁add": 1096,
      "▁cu": 1097,
      "▁each": 1098,
      "▁being": 1099,
      "ove": 1100,
      "But": 1101,
      "▁because": 1102,
      "▁between": 1103,
      "▁main": 1104,
      "▁As": 1105,
      "▁real": 1106,
      "▁gi": 1107,
      "▁emp": 1108,
      "▁To": 1109,
      "▁list": 1110,
      "van": 1111,
      "hy": 1112,
      "▁comple": 1113,
      "ía": 1114,
      "ار": 1115,
      "ini": 1116,
      "ura": 1117,
      "ás": 1118,
      "bal": 1119,
      "▁Co": 1120,
      "▁life": 1121,
      "head": 1122,
      "▁type": 1123,
      "rd": 1124,
      "ino": 1125,
      "▁mat": 1126,
      "▁If": 1127,
      "zy": 1128,
      "▁say": 1129,
      "era": 1130,
      "net": 1131,
      "▁want": 1132,
      "▁those": 1133,
      "▁found": 1134,
      "ero": 1135,
      "orn": 1136,
      "▁у": 1137,
      "▁je": 1138,
      "less": 1139,
      "ras": 1140,
      "▁ca": 1141,
      "▁best": 1142,
      "▁ho": 1143,
      "▁sal": 1144,
      "▁)": 1145,
      "ane": 1146,
      "▁د": 1147,
      "▁too": 1148,
      "▁pour": 1149,
      "▁cap": 1150,
      ",\"": 1151,
      "▁bus": 1152,
      "▁take": 1153,
      "ats": 1154,
      "kan": 1155,
      "▁On": 1156,
      "ante": 1157,
      "▁own": 1158,
      "dis": 1159,
      "▁last": 1160,
      "ida": 1161,
      "▁water": 1162,
      "▁must": 1163,
      "▁But": 1164,
      "ux": 1165,
      "▁ear": 1166,
      "▁cas": 1167,
      "▁Ad": 1168,
      "▁self": 1169,
      "lin": 1170,
      "▁line": 1171,
      "umb": 1172,
      "▁Su": 1173,
      "ando": 1174,
      "!!": 1175,
      "▁act": 1176,
      "▁Man": 1177,
      "ui": 1178,
      "▁son": 1179,
      "ko": 1180,
      "▁sign": 1181,
      "▁war": 1182,
      "lie": 1183,
      "une": 1184,
      "▁place": 1185,
      "▁cer": 1186,
      "side": 1187,
      "▁App": 1188,
      "▁child": 1189,
      "▁final": 1190,
      "▁dan": 1191,
      "▁post": 1192,
      "▁acti": 1193,
      "▁run": 1194,
      "▁—": 1195,
      "▁come": 1196,
      "▁rest": 1197,
      "▁ت": 1198,
      "ba": 1199,
      "▁serv": 1200,
      "▁still": 1201,
      "▁home": 1202,
      "▁vo": 1203,
      "▁inf": 1204,
      "rag": 1205,
      "▁не": 1206,
      "▁model": 1207,
      "ety": 1208,
      "▁sho": 1209,
      "▁bel": 1210,
      "че": 1211,
      "▁cho": 1212,
      "▁mark": 1213,
      "▁information": 1214,
      "▁view": 1215,
      "▁test": 1216,
      "ви": 1217,
      "▁Is": 1218,
      "ches": 1219,
      "ля": 1220,
      "▁Un": 1221,
      "▁world": 1222,
      "ру": 1223,
      "los": 1224,
      "itu": 1225,
      "▁let": 1226,
      "▁both": 1227,
      "▁за": 1228,
      "▁inv": 1229,
      "▁three": 1230,
      "ref": 1231,
      "ints": 1232,
      "pi": 1233,
      "▁;": 1234,
      "org": 1235,
      "▁far": 1236,
      "▁different": 1237,
      "ita": 1238,
      "▁row": 1239,
      "▁non": 1240,
      "▁open": 1241,
      "ма": 1242,
      "▁using": 1243,
      "uro": 1244,
      "▁love": 1245,
      "▁while": 1246,
      "▁order": 1247,
      "▁process": 1248,
      "▁к": 1249,
      "▁old": 1250,
      "jo": 1251,
      "can": 1252,
      "▁em": 1253,
      "bar": 1254,
      "▁ко": 1255,
      "ya": 1256,
      "▁result": 1257,
      "dia": 1258,
      "hes": 1259,
      "ми": 1260,
      "▁return": 1261,
      "▁word": 1262,
      "▁head": 1263,
      "tis": 1264,
      "▁met": 1265,
      "▁care": 1266,
      "ся": 1267,
      "tel": 1268,
      "cher": 1269,
      "ora": 1270,
      "ager": 1271,
      "▁mit": 1272,
      "▁bre": 1273,
      "▁free": 1274,
      "ley": 1275,
      "tes": 1276,
      "▁von": 1277,
      "де": 1278,
      "top": 1279,
      "ries": 1280,
      "anti": 1281,
      "▁van": 1282,
      "▁start": 1283,
      "ди": 1284,
      "▁Car": 1285,
      "▁fun": 1286,
      "▁incre": 1287,
      "▁full": 1288,
      "▁stand": 1289,
      "▁How": 1290,
      "▁fact": 1291,
      "▁second": 1292,
      "▁All": 1293,
      "ille": 1294,
      "▁top": 1295,
      "car": 1296,
      "▁case": 1297,
      "ement": 1298,
      "را": 1299,
      "ación": 1300,
      "▁pu": 1301,
      "▁really": 1302,
      "▁ref": 1303,
      "▁क": 1304,
      "ます": 1305,
      "ali": 1306,
      "▁during": 1307,
      "tics": 1308,
      "ram": 1309,
      "▁public": 1310,
      "です": 1311,
      "▁small": 1312,
      "ker": 1313,
      "▁stock": 1314,
      "▁pass": 1315,
      "lection": 1316,
      "ano": 1317,
      "▁THE": 1318,
      "▁zu": 1319,
      "▁going": 1320,
      "ales": 1321,
      "ender": 1322,
      "▁state": 1323,
      "▁bar": 1324,
      "▁ف": 1325,
      "▁star": 1326,
      "▁sy": 1327,
      "▁without": 1328,
      "▁%": 1329,
      "▁pra": 1330,
      "▁next": 1331,
      "ben": 1332,
      "ito": 1333,
      "▁little": 1334,
      "▁une": 1335,
      "▁Sp": 1336,
      "▁Or": 1337,
      "▁They": 1338,
      "▁got": 1339,
      "▁feel": 1340,
      "▁point": 1341,
      "▁um": 1342,
      "▁US": 1343,
      "▁power": 1344,
      "▁dé": 1345,
      "tig": 1346,
      "▁lead": 1347,
      "▁Do": 1348,
      "▁size": 1349,
      "ção": 1350,
      "▁game": 1351,
      "▁tech": 1352,
      "▁level": 1353,
      "した": 1354,
      "▁call": 1355,
      "▁following": 1356,
      "▁image": 1357,
      "ста": 1358,
      "▁rece": 1359,
      "ques": 1360,
      "els": 1361,
      "▁What": 1362,
      "enn": 1363,
      "▁never": 1364,
      "▁around": 1365,
      "zen": 1366,
      "▁flo": 1367,
      "▁android": 1368,
      "▁а": 1369,
      "▁There": 1370,
      "▁cost": 1371,
      "▁qui": 1372,
      "ée": 1373,
      "▁pop": 1374,
      "ization": 1375,
      "▁Ver": 1376,
      "▁current": 1377,
      "▁She": 1378,
      "ido": 1379,
      "ست": 1380,
      "bi": 1381,
      "▁design": 1382,
      "▁file": 1383,
      "fi": 1384,
      "по": 1385,
      "nh": 1386,
      "▁school": 1387,
      "▁yang": 1388,
      "▁das": 1389,
      "▁dans": 1390,
      "▁build": 1391,
      "▁bro": 1392,
      "▁available": 1393,
      "▁put": 1394,
      "▁vol": 1395,
      "▁month": 1396,
      "▁II": 1397,
      "▁mer": 1398,
      "af": 1399,
      "▁mus": 1400,
      "▁tre": 1401,
      "▁pay": 1402,
      "▁better": 1403,
      "▁shi": 1404,
      "wa": 1405,
      "▁про": 1406,
      "tif": 1407,
      "бо": 1408,
      "же": 1409,
      "▁ع": 1410,
      "▁another": 1411,
      "▁Can": 1412,
      "▁cam": 1413,
      "▁super": 1414,
      "án": 1415,
      "code": 1416,
      "▁cent": 1417,
      "▁service": 1418,
      "▁business": 1419,
      "▁como": 1420,
      "▁bas": 1421,
      "▁tu": 1422,
      "ico": 1423,
      "▁control": 1424,
      "▁ч": 1425,
      "▁mis": 1426,
      "▁pat": 1427,
      "▁leg": 1428,
      "▁always": 1429,
      "▁ou": 1430,
      "lar": 1431,
      "▁item": 1432,
      "▁page": 1433,
      "して": 1434,
      "ве": 1435,
      "▁light": 1436,
      "▁might": 1437,
      "▁fra": 1438,
      "mas": 1439,
      "ние": 1440,
      "って": 1441,
      "▁few": 1442,
      "ala": 1443,
      "▁key": 1444,
      "▁har": 1445,
      "▁At": 1446,
      "state": 1447,
      "mente": 1448,
      "ния": 1449,
      "cent": 1450,
      "▁ang": 1451,
      "▁ist": 1452,
      "▁less": 1453,
      "ها": 1454,
      "abel": 1455,
      "uf": 1456,
      "▁things": 1457,
      "ча": 1458,
      "▁black": 1459,
      "▁mil": 1460,
      "▁gr": 1461,
      "kt": 1462,
      "до": 1463,
      "▁grow": 1464,
      "▁change": 1465,
      "ione": 1466,
      "off": 1467,
      "▁white": 1468,
      "▁support": 1469,
      "▁air": 1470,
      "▁os": 1471,
      "▁photo": 1472,
      "▁pot": 1473,
      "▁against": 1474,
      "ience": 1475,
      "▁check": 1476,
      "ony": 1477,
      "▁Ne": 1478,
      "mu": 1479,
      "▁days": 1480,
      "▁sum": 1481,
      "▁jo": 1482,
      "eder": 1483,
      "▁area": 1484,
      "▁mean": 1485,
      "▁hal": 1486,
      "ku": 1487,
      "ات": 1488,
      "▁field": 1489,
      "post": 1490,
      "▁family": 1491,
      "▁left": 1492,
      "▁program": 1493,
      "▁give": 1494,
      "dos": 1495,
      "▁auf": 1496,
      "▁ng": 1497,
      "▁web": 1498,
      "▁keep": 1499,
      "▁ber": 1500,
      "sta": 1501,
      "ira": 1502,
      "▁since": 1503,
      "▁plus": 1504,
      "ison": 1505,
      "source": 1506,
      "lich": 1507,
      "▁memb": 1508,
      "сто": 1509,
      "▁given": 1510,
      "▁allow": 1511,
      "▁ن": 1512,
      "▁something": 1513,
      "\".": 1514,
      "▁group": 1515,
      "▁May": 1516,
      "▁ل": 1517,
      "zz": 1518,
      "▁four": 1519,
      "▁س": 1520,
      "▁week": 1521,
      "mos": 1522,
      "▁won": 1523,
      "▁text": 1524,
      "▁ten": 1525,
      "▁sing": 1526,
      "▁sol": 1527,
      "▁...": 1528,
      "times": 1529,
      "▁hard": 1530,
      "▁local": 1531,
      "▁sus": 1532,
      "▁require": 1533,
      "▁within": 1534,
      "ario": 1535,
      "▁sure": 1536,
      "▁big": 1537,
      "uel": 1538,
      "ua": 1539,
      "js": 1540,
      "▁present": 1541,
      "▁dem": 1542,
      "▁land": 1543,
      "▁г": 1544,
      "gi": 1545,
      "▁important": 1546,
      "▁pi": 1547,
      "unt": 1548,
      "ste": 1549,
      "▁side": 1550,
      "▁kind": 1551,
      "▁ка": 1552,
      "▁though": 1553,
      "ama": 1554,
      "ме": 1555,
      "▁book": 1556,
      "▁question": 1557,
      "▁до": 1558,
      "▁color": 1559,
      "ged": 1560,
      "ney": 1561,
      "сти": 1562,
      "▁sch": 1563,
      "▁contain": 1564,
      "▁says": 1565,
      "▁turn": 1566,
      "▁University": 1567,
      "att": 1568,
      "▁ce": 1569,
      "▁large": 1570,
      "▁law": 1571,
      "ام": 1572,
      "vec": 1573,
      "▁aus": 1574,
      "▁av": 1575,
      "▁mas": 1576,
      "iled": 1577,
      "си": 1578,
      "▁lot": 1579,
      "▁für": 1580,
      "nen": 1581,
      "▁arch": 1582,
      "▁cannot": 1583,
      "▁pan": 1584,
      "▁food": 1585,
      "▁My": 1586,
      "▁health": 1587,
      "vin": 1588,
      "▁room": 1589,
      "▁max": 1590,
      "▁team": 1591,
      "▁body": 1592,
      "eter": 1593,
      "хо": 1594,
      "ham": 1595,
      "ona": 1596,
      "room": 1597,
      "▁cla": 1598,
      "▁bra": 1599,
      "ii": 1600,
      "han": 1601,
      "▁God": 1602,
      "▁That": 1603,
      "ese": 1604,
      "zer": 1605,
      "▁pen": 1606,
      "▁done": 1607,
      "▁near": 1608,
      "▁ré": 1609,
      "▁times": 1610,
      "▁away": 1611,
      "▁от": 1612,
      "▁cell": 1613,
      "▁sem": 1614,
      "▁house": 1615,
      "▁table": 1616,
      "ку": 1617,
      "▁State": 1618,
      "▁contra": 1619,
      "▁Mr": 1620,
      "bin": 1621,
      "▁total": 1622,
      "▁upon": 1623,
      "чи": 1624,
      "▁со": 1625,
      "▁children": 1626,
      "▁ill": 1627,
      "▁event": 1628,
      "▁auto": 1629,
      "▁possible": 1630,
      "SP": 1631,
      "се": 1632,
      "▁chi": 1633,
      "▁art": 1634,
      "▁cover": 1635,
      "vision": 1636,
      "▁multi": 1637,
      "▁create": 1638,
      "▁action": 1639,
      "▁clear": 1640,
      "▁perform": 1641,
      "lag": 1642,
      "▁net": 1643,
      "▁red": 1644,
      "▁exist": 1645,
      "tag": 1646,
      "▁move": 1647,
      "▁social": 1648,
      "▁above": 1649,
      "nes": 1650,
      "enta": 1651,
      "pan": 1652,
      "▁face": 1653,
      "▁ش": 1654,
      "zo": 1655,
      "▁sen": 1656,
      "▁called": 1657,
      "▁е": 1658,
      "run": 1659,
      "▁gen": 1660,
      "▁why": 1661,
      "▁thing": 1662,
      "▁country": 1663,
      "▁sat": 1664,
      "▁أ": 1665,
      "▁low": 1666,
      "▁account": 1667,
      "▁special": 1668,
      "ên": 1669,
      "▁results": 1670,
      "▁deli": 1671,
      "▁When": 1672,
      "▁ф": 1673,
      "ace": 1674,
      "air": 1675,
      "▁course": 1676,
      "▁date": 1677,
      "▁problem": 1678,
      "has": 1679,
      "▁э": 1680,
      "war": 1681,
      "га": 1682,
      "▁review": 1683,
      "▁base": 1684,
      "licy": 1685,
      "▁product": 1686,
      "▁при": 1687,
      "со": 1688,
      "▁Not": 1689,
      "ور": 1690,
      "▁mi": 1691,
      "ires": 1692,
      "cht": 1693,
      "▁stre": 1694,
      "▁т": 1695,
      "ena": 1696,
      "▁abs": 1697,
      "▁ju": 1698,
      "▁San": 1699,
      "▁offer": 1700,
      "ados": 1701,
      "▁anti": 1702,
      "▁ann": 1703,
      "▁nu": 1704,
      "▁мо": 1705,
      "▁más": 1706,
      "mt": 1707,
      "▁sin": 1708,
      "ento": 1709,
      "▁until": 1710,
      "▁company": 1711,
      "▁mom": 1712,
      "▁With": 1713,
      "▁direct": 1714,
      "ité": 1715,
      "asi": 1716,
      "▁thi": 1717,
      "った": 1718,
      "▁inte": 1719,
      "▁begin": 1720,
      "▁--": 1721,
      "▁bit": 1722,
      "ры": 1723,
      "▁Rep": 1724,
      "▁already": 1725,
      "▁seem": 1726,
      "▁short": 1727,
      "▁general": 1728,
      "irm": 1729,
      "sw": 1730,
      "▁study": 1731,
      "▁dra": 1732,
      "▁able": 1733,
      "▁error": 1734,
      "▁tell": 1735,
      "▁bad": 1736,
      "▁enter": 1737,
      "▁bot": 1738,
      "▁John": 1739,
      "▁night": 1740,
      "▁job": 1741,
      "ming": 1742,
      "▁sw": 1743,
      "▁including": 1744,
      "▁ever": 1745,
      "▁catch": 1746,
      "ball": 1747,
      "▁money": 1748,
      "▁having": 1749,
      "▁bal": 1750,
      "joy": 1751,
      "▁break": 1752,
      "▁press": 1753,
      "▁certain": 1754,
      "▁hold": 1755,
      "▁close": 1756,
      "اد": 1757,
      "▁came": 1758,
      "▁som": 1759,
      "sia": 1760,
      "▁bes": 1761,
      "▁mem": 1762,
      "▁due": 1763,
      "▁mind": 1764,
      "''": 1765,
      "ban": 1766,
      "▁complete": 1767,
      "▁code": 1768,
      "▁vi": 1769,
      "▁style": 1770,
      "▁tal": 1771,
      "▁city": 1772,
      "па": 1773,
      "▁later": 1774,
      "▁try": 1775,
      "▁dat": 1776,
      "ون": 1777,
      "▁thought": 1778,
      "zi": 1779,
      "▁cook": 1780,
      "▁author": 1781,
      "▁One": 1782,
      "▁об": 1783,
      "▁past": 1784,
      "▁working": 1785,
      "▁extra": 1786,
      "▁site": 1787,
      "▁taken": 1788,
      "endo": 1789,
      "▁Euro": 1790,
      "ну": 1791,
      "▁answer": 1792,
      "bra": 1793,
      "▁means": 1794,
      "▁arg": 1795,
      "▁York": 1796,
      "▁original": 1797,
      "▁mid": 1798,
      "▁fund": 1799,
      "▁vous": 1800,
      "▁least": 1801,
      "▁во": 1802,
      "▁pod": 1803,
      "▁based": 1804,
      "ية": 1805,
      "▁report": 1806,
      "▁gran": 1807,
      "▁young": 1808,
      "▁sou": 1809,
      "ше": 1810,
      "▁Ass": 1811,
      "nya": 1812,
      "▁го": 1813,
      "اب": 1814,
      "▁development": 1815,
      "▁understand": 1816,
      "elle": 1817,
      "▁continu": 1818,
      "▁human": 1819,
      "▁reason": 1820,
      "▁United": 1821,
      "vas": 1822,
      "▁didn": 1823,
      "ду": 1824,
      "▁port": 1825,
      "▁visit": 1826,
      "over": 1827,
      "▁Ber": 1828,
      "▁project": 1829,
      "▁services": 1830,
      "▁making": 1831,
      "から": 1832,
      "▁hor": 1833,
      "▁nh": 1834,
      "ering": 1835,
      "▁esta": 1836,
      "▁nicht": 1837,
      "жи": 1838,
      "▁wer": 1839,
      "fin": 1840,
      "▁video": 1841,
      "▁то": 1842,
      "▁ess": 1843,
      "hop": 1844,
      "▁women": 1845,
      "cin": 1846,
      "ない": 1847,
      "▁below": 1848,
      "▁together": 1849,
      "▁ta": 1850,
      "▁wall": 1851,
      "▁others": 1852,
      "▁response": 1853,
      "▁enough": 1854,
      "?\"": 1855,
      "▁works": 1856,
      "▁yet": 1857,
      "dem": 1858,
      "▁ه": 1859,
      "ori": 1860,
      "ji": 1861,
      "▁bed": 1862,
      "▁link": 1863,
      "▁خ": 1864,
      "▁amount": 1865,
      "unk": 1866,
      "▁seen": 1867,
      "лу": 1868,
      "сь": 1869,
      "▁once": 1870,
      "▁avec": 1871,
      "▁Her": 1872,
      "▁स": 1873,
      "▁space": 1874,
      "▁today": 1875,
      "▁looking": 1876,
      "▁online": 1877,
      "▁الم": 1878,
      "▁cut": 1879,
      "▁ir": 1880,
      "▁provide": 1881,
      "mal": 1882,
      "▁record": 1883,
      "▁particular": 1884,
      "▁position": 1885,
      "iste": 1886,
      "ume": 1887,
      "▁research": 1888,
      "bl": 1889,
      "▁access": 1890,
      "▁live": 1891,
      "са": 1892,
      "lier": 1893,
      "▁required": 1894,
      "▁entre": 1895,
      "▁vir": 1896,
      "▁often": 1897,
      "▁More": 1898,
      "▁sich": 1899,
      "▁та": 1900,
      "▁path": 1901,
      "▁include": 1902,
      "▁win": 1903,
      "▁من": 1904,
      "▁price": 1905,
      "▁sil": 1906,
      "му": 1907,
      "▁Dr": 1908,
      "▁probab": 1909,
      "una": 1910,
      "▁specific": 1911,
      "▁American": 1912,
      "▁along": 1913,
      "▁whole": 1914,
      "▁Ob": 1915,
      "▁box": 1916,
      "▁please": 1917,
      "ani": 1918,
      "lica": 1919,
      "▁personal": 1920,
      "▁mes": 1921,
      "▁several": 1922,
      "▁heart": 1923,
      "▁hours": 1924,
      "▁contact": 1925,
      "▁products": 1926,
      "▁arti": 1927,
      "▁из": 1928,
      "▁members": 1929,
      "▁strong": 1930,
      "▁flow": 1931,
      "▁points": 1932,
      "▁redu": 1933,
      "▁students": 1934,
      "رو": 1935,
      "ный": 1936,
      "▁version": 1937,
      "ists": 1938,
      "▁fit": 1939,
      "ré": 1940,
      "▁went": 1941,
      "▁common": 1942,
      "▁single": 1943,
      "cis": 1944,
      "▁background": 1945,
      "▁become": 1946,
      "▁mal": 1947,
      "▁makes": 1948,
      "▁dos": 1949,
      "▁known": 1950,
      "▁government": 1951,
      "bon": 1952,
      "▁sent": 1953,
      "ши": 1954,
      "▁log": 1955,
      "▁request": 1956,
      "▁World": 1957,
      "▁States": 1958,
      "isa": 1959,
      "▁blue": 1960,
      "ين": 1961,
      "ela": 1962,
      "ami": 1963,
      "▁fall": 1964,
      "▁Your": 1965,
      "▁major": 1966,
      "▁simple": 1967,
      "▁season": 1968,
      "▁took": 1969,
      "▁doing": 1970,
      "ги": 1971,
      "する": 1972,
      "▁clean": 1973,
      "▁story": 1974,
      "▁news": 1975,
      "▁either": 1976,
      "▁words": 1977,
      "▁age": 1978,
      "▁ह": 1979,
      "sm": 1980,
      "lia": 1981,
      "uch": 1982,
      "die": 1983,
      "▁questions": 1984,
      "▁index": 1985,
      "▁City": 1986,
      "▁als": 1987,
      "iner": 1988,
      "▁Up": 1989,
      "▁among": 1990,
      "▁half": 1991,
      "▁future": 1992,
      "ju": 1993,
      "вы": 1994,
      "▁mag": 1995,
      "ные": 1996,
      "▁market": 1997,
      "▁hat": 1998,
      "▁fre": 1999,
      "▁ago": 2000,
      "▁block": 2001,
      "▁ya": 2002,
      "▁fire": 2003,
      "▁similar": 2004,
      "▁message": 2005,
      "pu": 2006,
      "▁kom": 2007,
      "▁ج": 2008,
      "▁rate": 2009,
      "ند": 2010,
      "ول": 2011,
      "llo": 2012,
      "▁easy": 2013,
      "▁ur": 2014,
      "ici": 2015,
      "ym": 2016,
      "▁address": 2017,
      "ту": 2018,
      "▁вы": 2019,
      "▁eine": 2020,
      "▁via": 2021,
      "▁este": 2022,
      "▁bri": 2023,
      "apan": 2024,
      "▁measure": 2025,
      "ria": 2026,
      "▁object": 2027,
      "▁sie": 2028,
      "▁further": 2029,
      "▁ма": 2030,
      "▁needs": 2031,
      "ット": 2032,
      "▁friend": 2033,
      "▁q": 2034,
      "▁period": 2035,
      "▁è": 2036,
      "▁ре": 2037,
      "ador": 2038,
      "▁mode": 2039,
      "▁front": 2040,
      "▁early": 2041,
      "▁months": 2042,
      "cz": 2043,
      "▁step": 2044,
      "peti": 2045,
      "▁dal": 2046,
      "▁soft": 2047,
      "kin": 2048,
      "▁Red": 2049,
      "▁card": 2050,
      "▁hope": 2051,
      "▁friends": 2052,
      "▁bag": 2053,
      "zione": 2054,
      "year": 2055,
      "▁limit": 2056,
      "▁None": 2057,
      "▁stra": 2058,
      "▁ing": 2059,
      "▁tax": 2060,
      "▁National": 2061,
      "ista": 2062,
      "▁doesn": 2063,
      "▁series": 2064,
      "▁في": 2065,
      "▁five": 2066,
      "▁relations": 2067,
      "bot": 2068,
      "▁mais": 2069,
      "ça": 2070,
      "▁IS": 2071,
      "ました": 2072,
      "▁ru": 2073,
      "▁energy": 2074,
      "▁dr": 2075,
      "▁lu": 2076,
      "▁hu": 2077,
      "▁War": 2078,
      "tica": 2079,
      "▁ح": 2080,
      "▁vers": 2081,
      "▁community": 2082,
      "▁mic": 2083,
      "▁death": 2084,
      "das": 2085,
      "▁sea": 2086,
      "▁deal": 2087,
      "▁Am": 2088,
      "cker": 2089,
      "▁however": 2090,
      "nie": 2091,
      "▁kh": 2092,
      "▁length": 2093,
      "▁added": 2094,
      "▁auch": 2095,
      "▁double": 2096,
      "range": 2097,
      "▁conditions": 2098,
      "▁told": 2099,
      "ود": 2100,
      "▁High": 2101,
      "▁Some": 2102,
      "ной": 2103,
      "orge": 2104,
      "▁ground": 2105,
      "▁Set": 2106,
      "▁ba": 2107,
      "▁dise": 2108,
      "▁getting": 2109,
      "▁elect": 2110,
      "▁effect": 2111,
      "▁watch": 2112,
      "▁release": 2113,
      "▁Europe": 2114,
      "cion": 2115,
      "lam": 2116,
      "▁actually": 2117,
      "▁School": 2118,
      ".-": 2119,
      "▁Air": 2120,
      "ées": 2121,
      "▁idea": 2122,
      "▁lat": 2123,
      "▁whether": 2124,
      "▁gar": 2125,
      "acy": 2126,
      "ного": 2127,
      "▁history": 2128,
      "▁various": 2129,
      "▁nothing": 2130,
      "▁cy": 2131,
      "▁favor": 2132,
      "amente": 2133,
      "▁я": 2134,
      "▁issue": 2135,
      "▁music": 2136,
      "▁draw": 2137,
      "こと": 2138,
      "▁source": 2139,
      "▁wait": 2140,
      "enden": 2141,
      "▁enjoy": 2142,
      "▁South": 2143,
      "▁moment": 2144,
      "▁quick": 2145,
      "▁woman": 2146,
      "▁Of": 2147,
      "eds": 2148,
      "▁His": 2149,
      "▁anything": 2150,
      "▁sobre": 2151,
      "▁mach": 2152,
      "▁bring": 2153,
      "▁asked": 2154,
      "aria": 2155,
      "▁ق": 2156,
      "ungen": 2157,
      "tell": 2158,
      "▁minutes": 2159,
      "▁bio": 2160,
      "ende": 2161,
      "▁paper": 2162,
      "▁Let": 2163,
      "▁pol": 2164,
      "▁road": 2165,
      "▁cases": 2166,
      "▁для": 2167,
      "ono": 2168,
      "▁sun": 2169,
      "▁matter": 2170,
      "▁gold": 2171,
      "ты": 2172,
      "▁br": 2173,
      "▁cat": 2174,
      "зо": 2175,
      "▁Now": 2176,
      "▁seg": 2177,
      "▁million": 2178,
      "ped": 2179,
      "▁bl": 2180,
      "▁spo": 2181,
      "▁green": 2182,
      "▁six": 2183,
      "▁ي": 2184,
      "▁door": 2185,
      "▁soon": 2186,
      "uses": 2187,
      "▁June": 2188,
      "▁ci": 2189,
      "▁nature": 2190,
      "▁almost": 2191,
      "▁anim": 2192,
      "▁ja": 2193,
      "zed": 2194,
      "entes": 2195,
      "▁что": 2196,
      "??": 2197,
      "▁March": 2198,
      "▁probably": 2199,
      "▁به": 2200,
      "yal": 2201,
      "▁across": 2202,
      "wood": 2203,
      "▁grand": 2204,
      "hu": 2205,
      "▁normal": 2206,
      "ных": 2207,
      "▁آ": 2208,
      "▁pie": 2209,
      "They": 2210,
      "▁previous": 2211,
      "▁separ": 2212,
      "▁areas": 2213,
      "▁od": 2214,
      "▁according": 2215,
      "▁decision": 2216,
      "ota": 2217,
      "antes": 2218,
      "▁sel": 2219,
      "▁Out": 2220,
      "▁search": 2221,
      "▁building": 2222,
      "▁comes": 2223,
      "ем": 2224,
      "▁document": 2225,
      "▁problems": 2226,
      "▁everything": 2227,
      "aste": 2228,
      "▁Web": 2229,
      "▁cause": 2230,
      "▁changes": 2231,
      "▁However": 2232,
      "▁options": 2233,
      "▁media": 2234,
      "▁terms": 2235,
      "▁believe": 2236,
      "▁UN": 2237,
      "▁qual": 2238,
      "dig": 2239,
      "lim": 2240,
      "▁lower": 2241,
      "▁dev": 2242,
      "▁प": 2243,
      "▁West": 2244,
      "▁party": 2245,
      "▁film": 2246,
      "▁ban": 2247,
      "▁held": 2248,
      "▁update": 2249,
      "▁girl": 2250,
      "▁started": 2251,
      "▁North": 2252,
      "▁King": 2253,
      "▁á": 2254,
      "cio": 2255,
      "▁April": 2256,
      "▁court": 2257,
      "▁eyes": 2258,
      "▁cast": 2259,
      "▁someone": 2260,
      "▁buy": 2261,
      "▁Mor": 2262,
      "▁ok": 2263,
      "ér": 2264,
      "▁share": 2265,
      "це": 2266,
      "▁nor": 2267,
      "▁rather": 2268,
      "▁English": 2269,
      "▁provided": 2270,
      "▁necessary": 2271,
      "ック": 2272,
      "щи": 2273,
      "ington": 2274,
      "▁wood": 2275,
      "▁Ben": 2276,
      "▁store": 2277,
      "▁After": 2278,
      "▁nie": 2279,
      "▁meet": 2280,
      "ola": 2281,
      "▁note": 2282,
      "anda": 2283,
      "▁stop": 2284,
      "▁hear": 2285,
      "ws": 2286,
      "▁title": 2287,
      "▁tan": 2288,
      "▁oil": 2289,
      "ông": 2290,
      "▁details": 2291,
      "▁stay": 2292,
      "▁alle": 2293,
      "▁shown": 2294,
      "▁July": 2295,
      "▁ich": 2296,
      "ów": 2297,
      "▁looks": 2298,
      "пе": 2299,
      "▁bei": 2300,
      "▁az": 2301,
      "▁application": 2302,
      "▁ك": 2303,
      "ago": 2304,
      "▁dies": 2305,
      "▁increase": 2306,
      "ан": 2307,
      "berg": 2308,
      "▁म": 2309,
      "▁де": 2310,
      "▁della": 2311,
      "▁names": 2312,
      "▁staff": 2313,
      "▁но": 2314,
      "▁quite": 2315,
      "▁member": 2316,
      "▁fer": 2317,
      "▁training": 2318,
      "▁nos": 2319,
      "▁ID": 2320,
      "ís": 2321,
      "▁loss": 2322,
      "▁pretty": 2323,
      "▁finan": 2324,
      "▁pick": 2325,
      "▁Post": 2326,
      "▁tor": 2327,
      "uni": 2328,
      "▁engine": 2329,
      "▁email": 2330,
      "▁entire": 2331,
      "▁uma": 2332,
      "▁Dec": 2333,
      "▁match": 2334,
      "▁ans": 2335,
      "▁SE": 2336,
      "▁management": 2337,
      "▁cos": 2338,
      "▁saw": 2339,
      "▁appear": 2340,
      "▁August": 2341,
      "▁се": 2342,
      "▁plant": 2343,
      "▁forward": 2344,
      "▁sound": 2345,
      "▁ord": 2346,
      "いる": 2347,
      "PA": 2348,
      "▁office": 2349,
      "▁From": 2350,
      "▁fast": 2351,
      "▁dengan": 2352,
      "▁ви": 2353,
      "▁با": 2354,
      "rame": 2355,
      "encia": 2356,
      "▁untuk": 2357,
      "▁nice": 2358,
      "▁dark": 2359,
      "▁higher": 2360,
      "▁remo": 2361,
      "▁dou": 2362,
      "▁sell": 2363,
      "▁needed": 2364,
      "▁hit": 2365,
      "▁News": 2366,
      "▁ant": 2367,
      "ная": 2368,
      "▁Time": 2369,
      "▁san": 2370,
      "▁ses": 2371,
      "▁third": 2372,
      "▁mé": 2373,
      "▁condition": 2374,
      "▁happy": 2375,
      "▁himself": 2376,
      "▁shows": 2377,
      "▁House": 2378,
      "▁board": 2379,
      "▁sont": 2380,
      "▁seems": 2381,
      "▁ple": 2382,
      "▁ut": 2383,
      "▁sup": 2384,
      "▁fu": 2385,
      "▁significant": 2386,
      "▁status": 2387,
      "▁bi": 2388,
      "▁parts": 2389,
      "▁fine": 2390,
      "▁ze": 2391,
      "zt": 2392,
      "▁display": 2393,
      "▁oder": 2394,
      "▁received": 2395,
      "iem": 2396,
      "▁hands": 2397,
      "▁speed": 2398,
      "▁cross": 2399,
      "▁national": 2400,
      "iro": 2401,
      "har": 2402,
      "жа": 2403,
      "▁unit": 2404,
      "▁option": 2405,
      "▁meng": 2406,
      "▁comment": 2407,
      "via": 2408,
      "▁County": 2409,
      "▁taking": 2410,
      "▁fish": 2411,
      "▁sam": 2412,
      "▁issues": 2413,
      "▁ens": 2414,
      "▁amb": 2415,
      "▁tele": 2416,
      "▁bien": 2417,
      "▁living": 2418,
      "ester": 2419,
      "▁claim": 2420,
      "▁standard": 2421,
      "▁Then": 2422,
      "▁expected": 2423,
      "▁sit": 2424,
      "▁flu": 2425,
      "▁hair": 2426,
      "ões": 2427,
      "▁travel": 2428,
      "iten": 2429,
      "▁Day": 2430,
      "▁tro": 2431,
      "▁talk": 2432,
      "rap": 2433,
      "▁policy": 2434,
      "▁leave": 2435,
      "▁article": 2436,
      "▁ini": 2437,
      "▁addition": 2438,
      "sie": 2439,
      "▁werden": 2440,
      "igen": 2441,
      "▁bat": 2442,
      "▁center": 2443,
      "active": 2444,
      "▁types": 2445,
      "▁subject": 2446,
      "▁round": 2447,
      "▁бы": 2448,
      "▁force": 2449,
      "▁items": 2450,
      "▁Health": 2451,
      "▁nach": 2452,
      "▁General": 2453,
      "▁ges": 2454,
      "▁correct": 2455,
      "▁growth": 2456,
      "一个": 2457,
      "▁worth": 2458,
      "▁za": 2459,
      "▁German": 2460,
      "zu": 2461,
      "▁tom": 2462,
      "▁gas": 2463,
      "▁Service": 2464,
      "zie": 2465,
      "▁led": 2466,
      "ما": 2467,
      "▁plat": 2468,
      "▁über": 2469,
      "lly": 2470,
      "▁treatment": 2471,
      "▁Black": 2472,
      "▁outside": 2473,
      "▁coming": 2474,
      "▁aux": 2475,
      "▁term": 2476,
      "▁song": 2477,
      "▁weight": 2478,
      "rec": 2479,
      "▁games": 2480,
      "▁ak": 2481,
      "▁Court": 2482,
      "▁mass": 2483,
      "▁systems": 2484,
      "ート": 2485,
      "▁miss": 2486,
      "▁images": 2487,
      "لا": 2488,
      "▁Department": 2489,
      "▁location": 2490,
      "▁wo": 2491,
      "▁wrong": 2492,
      "pop": 2493,
      "iger": 2494,
      "vor": 2495,
      "▁fran": 2496,
      "▁kon": 2497,
      "▁September": 2498,
      "▁va": 2499,
      "▁global": 2500,
      "▁sense": 2501,
      "▁kan": 2502,
      "▁bon": 2503,
      "ises": 2504,
      "▁percent": 2505,
      "▁late": 2506,
      "▁expect": 2507,
      "▁phone": 2508,
      "▁usually": 2509,
      "ville": 2510,
      "adas": 2511,
      "▁frame": 2512,
      "イン": 2513,
      "▁ме": 2514,
      "可以": 2515,
      "رد": 2516,
      "▁wa": 2517,
      "▁London": 2518,
      "lij": 2519,
      "▁reac": 2520,
      "▁mother": 2521,
      "▁ask": 2522,
      "▁vor": 2523,
      ".'": 2524,
      "iny": 2525,
      "▁screen": 2526,
      "▁Super": 2527,
      "card": 2528,
      "asa": 2529,
      "▁average": 2530,
      "▁ot": 2531,
      "ある": 2532,
      "▁trying": 2533,
      "▁running": 2534,
      "▁blood": 2535,
      "▁раз": 2536,
      "▁India": 2537,
      "▁hot": 2538,
      "▁itself": 2539,
      "▁tour": 2540,
      "▁có": 2541,
      "▁methods": 2542,
      "▁industry": 2543,
      "▁Use": 2544,
      "▁está": 2545,
      "▁feet": 2546,
      "▁pou": 2547,
      "▁continue": 2548,
      "▁walk": 2549,
      "▁save": 2550,
      "pic": 2551,
      "▁demand": 2552,
      "▁nom": 2553,
      "ém": 2554,
      "▁player": 2555,
      "います": 2556,
      "▁dress": 2557,
      "ân": 2558,
      "▁tree": 2559,
      "▁assist": 2560,
      "rate": 2561,
      "▁October": 2562,
      "▁sind": 2563,
      "▁это": 2564,
      "▁remember": 2565,
      "▁reading": 2566,
      "▁dar": 2567,
      "्र": 2568,
      "rich": 2569,
      "▁structure": 2570,
      "tn": 2571,
      "▁groups": 2572,
      "▁lines": 2573,
      "produ": 2574,
      "▁dead": 2575,
      "▁wanted": 2576,
      "▁January": 2577,
      "▁copy": 2578,
      "▁behind": 2579,
      "▁Press": 2580,
      "▁са": 2581,
      "▁likely": 2582,
      "▁Ha": 2583,
      "▁quar": 2584,
      "▁sz": 2585,
      "▁created": 2586,
      "▁included": 2587,
      "ín": 2588,
      "ので": 2589,
      "▁plu": 2590,
      "▁sex": 2591,
      "▁lost": 2592,
      "▁nous": 2593,
      "▁reported": 2594,
      "▁از": 2595,
      "yo": 2596,
      "▁ر": 2597,
      "▁bud": 2598,
      "▁feed": 2599,
      "▁November": 2600,
      "▁send": 2601,
      "▁initial": 2602,
      "▁brand": 2603,
      "sty": 2604,
      "▁Inc": 2605,
      "inen": 2606,
      "akan": 2607,
      "▁là": 2608,
      "▁din": 2609,
      "▁longer": 2610,
      "sten": 2611,
      "▁takes": 2612,
      "▁client": 2613,
      "▁International": 2614,
      "▁prior": 2615,
      "▁events": 2616,
      "▁First": 2617,
      "▁lay": 2618,
      "▁glass": 2619,
      "▁East": 2620,
      "▁rat": 2621,
      "▁да": 2622,
      "▁actual": 2623,
      "▁inside": 2624,
      "▁và": 2625,
      "▁couple": 2626,
      "▁anyone": 2627,
      "▁pressure": 2628,
      "▁countries": 2629,
      "▁TV": 2630,
      "▁guide": 2631,
      "▁Street": 2632,
      "▁region": 2633,
      "▁official": 2634,
      "▁isn": 2635,
      "スト": 2636,
      "▁wie": 2637,
      "▁ready": 2638,
      "ير": 2639,
      "▁cele": 2640,
      "ба": 2641,
      "▁activity": 2642,
      "▁picture": 2643,
      "▁gave": 2644,
      "▁rela": 2645,
      "▁Please": 2646,
      "リー": 2647,
      "sch": 2648,
      "▁hab": 2649,
      "esta": 2650,
      "▁pow": 2651,
      "▁lie": 2652,
      "▁ka": 2653,
      "▁related": 2654,
      "▁bank": 2655,
      "▁fan": 2656,
      "▁risk": 2657,
      "▁rights": 2658,
      "▁fair": 2659,
      "▁vin": 2660,
      "enda": 2661,
      "▁ay": 2662,
      "det": 2663,
      "▁dom": 2664,
      "▁Center": 2665,
      "▁bis": 2666,
      "llen": 2667,
      "ке": 2668,
      "▁posted": 2669,
      "▁activities": 2670,
      "▁former": 2671,
      "▁potential": 2672,
      "▁não": 2673,
      "гра": 2674,
      "uh": 2675,
      "▁ways": 2676,
      "▁ball": 2677,
      "▁regular": 2678,
      "▁baby": 2679,
      "▁morning": 2680,
      "▁pul": 2681,
      "▁themselves": 2682,
      "▁figure": 2683,
      "isse": 2684,
      "▁ko": 2685,
      "▁boy": 2686,
      "▁America": 2687,
      "وا": 2688,
      "▁ро": 2689,
      "▁info": 2690,
      "いた": 2691,
      "▁shirt": 2692,
      "▁yourself": 2693,
      "▁temperature": 2694,
      "▁evidence": 2695,
      "▁remain": 2696,
      "▁hi": 2697,
      "▁difference": 2698,
      "▁photos": 2699,
      "▁tar": 2700,
      "▁dari": 2701,
      "▁situation": 2702,
      "▁father": 2703,
      "▁است": 2704,
      "▁transfer": 2705,
      "lah": 2706,
      "mel": 2707,
      "▁pag": 2708,
      "iller": 2709,
      "▁popular": 2710,
      "▁police": 2711,
      "▁bran": 2712,
      "▁Are": 2713,
      "enty": 2714,
      "▁heard": 2715,
      "▁tag": 2716,
      "▁China": 2717,
      "▁club": 2718,
      "▁]": 2719,
      "▁Group": 2720,
      "▁fight": 2721,
      "aron": 2722,
      "Our": 2723,
      "▁PM": 2724,
      "▁window": 2725,
      "▁student": 2726,
      "▁hidden": 2727,
      "▁instead": 2728,
      "▁format": 2729,
      "▁Mad": 2730,
      "▁Japan": 2731,
      "▁dog": 2732,
      "▁camp": 2733,
      "▁sale": 2734,
      "лен": 2735,
      "▁additional": 2736,
      "angan": 2737,
      "▁birth": 2738,
      "▁£": 2739,
      "gue": 2740,
      "▁meeting": 2741,
      "▁ш": 2742,
      "▁fail": 2743,
      "▁numbers": 2744,
      "▁бо": 2745,
      "▁band": 2746,
      "iser": 2747,
      "▁weeks": 2748,
      "▁motor": 2749,
      "▁kids": 2750,
      "aman": 2751,
      "▁safe": 2752,
      "ika": 2753,
      "▁difficult": 2754,
      "▁shot": 2755,
      "eno": 2756,
      "▁metal": 2757,
      "▁progra": 2758,
      "▁network": 2759,
      "▁jour": 2760,
      "▁President": 2761,
      "よう": 2762,
      "▁nur": 2763,
      "▁cá": 2764,
      "▁है": 2765,
      "▁capital": 2766,
      "▁electric": 2767,
      "▁uns": 2768,
      "cie": 2769,
      "▁focus": 2770,
      "▁David": 2771,
      "▁dry": 2772,
      "▁tout": 2773,
      "▁ik": 2774,
      "▁gain": 2775,
      "osa": 2776,
      "▁era": 2777,
      "▁device": 2778,
      "▁active": 2779,
      "▁fl": 2780,
      "▁tran": 2781,
      "▁host": 2782,
      "oni": 2783,
      "▁recent": 2784,
      "▁под": 2785,
      "▁slow": 2786,
      "▁France": 2787,
      "▁trade": 2788,
      "zel": 2789,
      "▁button": 2790,
      "▁California": 2791,
      "ды": 2792,
      "▁drive": 2793,
      "▁James": 2794,
      "house": 2795,
      "uan": 2796,
      "ний": 2797,
      "▁goes": 2798,
      "▁town": 2799,
      "▁Over": 2800,
      "▁letter": 2801,
      "▁sco": 2802,
      "▁altern": 2803,
      "plan": 2804,
      "▁wife": 2805,
      "▁sand": 2806,
      "▁playing": 2807,
      "▁gives": 2808,
      "什么": 2809,
      "▁ones": 2810,
      "ется": 2811,
      "▁technology": 2812,
      "▁fat": 2813,
      "▁wird": 2814,
      "▁summer": 2815,
      "▁purpose": 2816,
      "anya": 2817,
      "▁international": 2818,
      "▁wish": 2819,
      "▁numer": 2820,
      "▁materials": 2821,
      "▁security": 2822,
      "▁hotel": 2823,
      "▁statement": 2824,
      "▁felt": 2825,
      "▁positive": 2826,
      "▁votre": 2827,
      "▁Bank": 2828,
      "nik": 2829,
      "▁Google": 2830,
      "▁choice": 2831,
      "▁states": 2832,
      "いて": 2833,
      "▁random": 2834,
      "▁wir": 2835,
      "▁god": 2836,
      "▁charge": 2837,
      "▁Los": 2838,
      "вер": 2839,
      "▁feature": 2840,
      "▁political": 2841,
      "▁inform": 2842,
      "▁إ": 2843,
      "▁attack": 2844,
      "▁population": 2845,
      "▁looked": 2846,
      "▁sleep": 2847,
      "ller": 2848,
      "▁bur": 2849,
      "▁Yes": 2850,
      "ischen": 2851,
      "▁را": 2852,
      "ें": 2853,
      "▁whose": 2854,
      "▁eye": 2855,
      "▁fond": 2856,
      "نا": 2857,
      "фи": 2858,
      "▁stage": 2859,
      "▁costs": 2860,
      "▁ста": 2861,
      "تر": 2862,
      "▁began": 2863,
      "ías": 2864,
      "▁February": 2865,
      "▁rules": 2866,
      "▁ли": 2867,
      "▁Paul": 2868,
      "▁hour": 2869,
      "▁Just": 2870,
      "▁Open": 2871,
      "▁reach": 2872,
      "▁carry": 2873,
      "pet": 2874,
      "▁follows": 2875,
      "▁си": 2876,
      "▁thanks": 2877,
      "▁digital": 2878,
      "▁selected": 2879,
      "ार": 2880,
      "▁サ": 2881,
      "aro": 2882,
      "▁Ba": 2883,
      "▁fresh": 2884,
      "▁tried": 2885,
      "▁parents": 2886,
      "▁receive": 2887,
      "▁piece": 2888,
      "▁touch": 2889,
      "▁studies": 2890,
      "▁companies": 2891,
      "▁~": 2892,
      "▁serious": 2893,
      "▁White": 2894,
      "▁Other": 2895,
      "▁все": 2896,
      "▁choose": 2897,
      "▁machine": 2898,
      "▁Indian": 2899,
      "alo": 2900,
      "ções": 2901,
      "▁quanti": 2902,
      "▁guys": 2903,
      "▁wy": 2904,
      "▁accept": 2905,
      "▁remove": 2906,
      "anne": 2907,
      "▁saying": 2908,
      "▁sau": 2909,
      "pected": 2910,
      "▁safety": 2911,
      "▁poor": 2912,
      "▁fix": 2913,
      "▁todo": 2914,
      "бе": 2915,
      "▁ger": 2916,
      "▁NOT": 2917,
      "▁Men": 2918,
      "amo": 2919,
      "▁ص": 2920,
      "▁pes": 2921,
      "▁wrote": 2922,
      "▁greater": 2923,
      "▁alone": 2924,
      "▁ven": 2925,
      "▁Board": 2926,
      "was": 2927,
      "▁zur": 2928,
      "▁simply": 2929,
      "based": 2930,
      "▁economic": 2931,
      "لي": 2932,
      "▁direction": 2933,
      "この": 2934,
      "▁train": 2935,
      "▁Canada": 2936,
      "IX": 2937,
      "ungs": 2938,
      "▁ton": 2939,
      "▁mir": 2940,
      "▁select": 2941,
      "▁volume": 2942,
      "ري": 2943,
      "▁х": 2944,
      "▁бу": 2945,
      "▁ز": 2946,
      "▁increased": 2947,
      "▁Government": 2948,
      "он": 2949,
      "▁players": 2950,
      "▁towards": 2951,
      "▁pin": 2952,
      "▁customer": 2953,
      "▁apply": 2954,
      "▁connection": 2955,
      "▁involved": 2956,
      "▁stuff": 2957,
      "▁lives": 2958,
      "▁directly": 2959,
      "▁Mu": 2960,
      "▁jak": 2961,
      "▁concentr": 2962,
      "▁equipment": 2963,
      "▁earth": 2964,
      "▁tab": 2965,
      "▁się": 2966,
      "tung": 2967,
      "▁durch": 2968,
      "▁prefer": 2969,
      "▁writing": 2970,
      "▁に": 2971,
      "▁eu": 2972,
      "ston": 2973,
      "▁heat": 2974,
      "▁Green": 2975,
      "▁sort": 2976,
      "▁multiple": 2977,
      "▁Tom": 2978,
      "▁medic": 2979,
      "ース": 2980,
      "या": 2981,
      "ров": 2982,
      "zes": 2983,
      "idade": 2984,
      "▁ве": 2985,
      "ische": 2986,
      "▁Road": 2987,
      "▁pré": 2988,
      "vos": 2989,
      "▁basis": 2990,
      "▁как": 2991,
      "▁के": 2992,
      "aran": 2993,
      "▁че": 2994,
      "▁floor": 2995,
      "▁wind": 2996,
      "▁turned": 2997,
      "▁goal": 2998,
      "▁operation": 2999,
      "▁Also": 3000,
      "▁einer": 3001,
      "▁worked": 3002,
      "وم": 3003,
      "ции": 3004,
      "▁gets": 3005,
      "▁Church": 3006,
      "▁software": 3007,
      "esch": 3008,
      "▁Why": 3009,
      "▁deliver": 3010,
      "ство": 3011,
      "▁zum": 3012,
      "▁Top": 3013,
      "▁myself": 3014,
      "▁paid": 3015,
      "▁pá": 3016,
      "liche": 3017,
      "没有": 3018,
      "▁бе": 3019,
      "▁pel": 3020,
      "▁places": 3021,
      "сы": 3022,
      "▁seven": 3023,
      "▁cette": 3024,
      "その": 3025,
      "enne": 3026,
      "▁equal": 3027,
      "kar": 3028,
      "▁computer": 3029,
      "▁lang": 3030,
      "▁forma": 3031,
      "▁England": 3032,
      "▁Any": 3033,
      "では": 3034,
      "▁Rev": 3035,
      "▁financial": 3036,
      "▁menu": 3037,
      "bas": 3038,
      "▁medical": 3039,
      "▁task": 3040,
      "▁physical": 3041,
      "ца": 3042,
      "▁Commission": 3043,
      "▁protection": 3044,
      "▁shop": 3045,
      "ioni": 3046,
      "▁credit": 3047,
      "▁limited": 3048,
      "▁dia": 3049,
      "menta": 3050,
      "▁rule": 3051,
      "▁server": 3052,
      "лы": 3053,
      "endi": 3054,
      "▁offers": 3055,
      "▁pun": 3056,
      "▁quel": 3057,
      "▁الأ": 3058,
      "uj": 3059,
      "▁Will": 3060,
      "▁allowed": 3061,
      "▁Back": 3062,
      "▁flat": 3063,
      "▁French": 3064,
      "▁ol": 3065,
      "▁developed": 3066,
      "▁played": 3067,
      "しい": 3068,
      "▁dir": 3069,
      "endar": 3070,
      "▁Bay": 3071,
      "▁UK": 3072,
      "▁published": 3073,
      "▁Two": 3074,
      "isch": 3075,
      "▁located": 3076,
      "▁track": 3077,
      "мы": 3078,
      "▁cold": 3079,
      "▁obtained": 3080,
      "▁legal": 3081,
      "▁cop": 3082,
      "▁spot": 3083,
      "▁damage": 3084,
      "ться": 3085,
      "ное": 3086,
      "▁Washington": 3087,
      "▁Council": 3088,
      "▁mig": 3089,
      "▁changed": 3090,
      "▁ty": 3091,
      "▁express": 3092,
      "▁ont": 3093,
      "▁associated": 3094,
      "使用": 3095,
      "▁voice": 3096,
      "iano": 3097,
      "got": 3098,
      "▁chance": 3099,
      "▁ва": 3100,
      "▁của": 3101,
      "▁daily": 3102,
      "▁comme": 3103,
      "我们": 3104,
      "▁dam": 3105,
      "gas": 3106,
      "▁conta": 3107,
      "▁votes": 3108,
      "▁currently": 3109,
      "▁rock": 3110,
      "▁sales": 3111,
      "▁einen": 3112,
      "▁aber": 3113,
      "▁miles": 3114,
      "care": 3115,
      "pc": 3116,
      "▁peace": 3117,
      "▁Paris": 3118,
      "▁gal": 3119,
      "▁emo": 3120,
      "▁William": 3121,
      "▁spe": 3122,
      "amento": 3123,
      "▁arr": 3124,
      "▁customers": 3125,
      "lichen": 3126,
      "eck": 3127,
      "▁agree": 3128,
      "▁station": 3129,
      "▁British": 3130,
      "▁initi": 3131,
      "▁degree": 3132,
      "ße": 3133,
      "▁^": 3134,
      "▁steps": 3135,
      "▁nation": 3136,
      "▁thinking": 3137,
      "▁dalam": 3138,
      "ige": 3139,
      "▁ス": 3140,
      "▁pad": 3141,
      "▁hier": 3142,
      "гу": 3143,
      "▁bow": 3144,
      "▁drink": 3145,
      "▁middle": 3146,
      "▁cup": 3147,
      "eth": 3148,
      "▁filter": 3149,
      "▁neu": 3150,
      "▁king": 3151,
      "▁passed": 3152,
      "▁broad": 3153,
      "▁noch": 3154,
      "▁solo": 3155,
      "▁ao": 3156,
      "▁tool": 3157,
      "▁Facebook": 3158,
      "▁gel": 3159,
      "▁central": 3160,
      "▁ki": 3161,
      "itz": 3162,
      "▁nel": 3163,
      "▁session": 3164,
      "▁supply": 3165,
      "ias": 3166,
      "▁hay": 3167,
      "▁rich": 3168,
      "▁rot": 3169,
      "▁sed": 3170,
      "▁speak": 3171,
      "▁quickly": 3172,
      "▁Smith": 3173,
      "اس": 3174,
      "▁reve": 3175,
      "▁па": 3176,
      "arian": 3177,
      "▁ब": 3178,
      "▁completely": 3179,
      "▁pet": 3180,
      "▁wasn": 3181,
      "▁Im": 3182,
      "▁closed": 3183,
      "gel": 3184,
      "▁を": 3185,
      "▁movie": 3186,
      "▁mix": 3187,
      "uto": 3188,
      "▁rent": 3189,
      "▁plans": 3190,
      "mbre": 3191,
      "▁corre": 3192,
      "▁primer": 3193,
      "▁George": 3194,
      "ша": 3195,
      "▁recently": 3196,
      "▁fully": 3197,
      "▁giving": 3198,
      "рова": 3199,
      "▁пере": 3200,
      "▁الت": 3201,
      "اه": 3202,
      "ков": 3203,
      "▁died": 3204,
      "▁ring": 3205,
      "▁glo": 3206,
      "gun": 3207,
      "▁repe": 3208,
      "▁street": 3209,
      "▁dit": 3210,
      "▁park": 3211,
      "▁master": 3212,
      "▁Sun": 3213,
      "▁''": 3214,
      "という": 3215,
      "▁hop": 3216,
      "пу": 3217,
      "▁hospital": 3218,
      "▁Under": 3219,
      "▁career": 3220,
      "▁guess": 3221,
      "▁casa": 3222,
      "▁sab": 3223,
      "▁Services": 3224,
      "▁todos": 3225,
      "ità": 3226,
      "▁shape": 3227,
      "ih": 3228,
      "▁beginning": 3229,
      "▁ин": 3230,
      "▁puede": 3231,
      "▁requirements": 3232,
      "gni": 3233,
      "▁muy": 3234,
      "▁prices": 3235,
      "▁einem": 3236,
      "▁ship": 3237,
      "▁stress": 3238,
      "▁ज": 3239,
      "▁happened": 3240,
      "▁plain": 3241,
      "▁PC": 3242,
      "▁Thomas": 3243,
      "▁forms": 3244,
      "вет": 3245,
      "▁hundred": 3246,
      "▁immediately": 3247,
      "▁although": 3248,
      "▁على": 3249,
      "▁smart": 3250,
      "▁notice": 3251,
      "من": 3252,
      "▁Committee": 3253,
      "ップ": 3254,
      "ço": 3255,
      "▁born": 3256,
      "ikan": 3257,
      "▁न": 3258,
      "▁ми": 3259,
      "▁schools": 3260,
      "▁sold": 3261,
      "▁drop": 3262,
      "itas": 3263,
      "▁lan": 3264,
      "сте": 3265,
      "▁itu": 3266,
      "▁inde": 3267,
      "▁contract": 3268,
      "▁وال": 3269,
      "▁tidak": 3270,
      "▁Windows": 3271,
      "▁ア": 3272,
      "▁indi": 3273,
      "▁kann": 3274,
      "▁compared": 3275,
      "▁mobile": 3276,
      "▁firm": 3277,
      "▁mel": 3278,
      "▁ле": 3279,
      "▁programs": 3280,
      "▁fue": 3281,
      "▁mac": 3282,
      "▁maybe": 3283,
      "▁dim": 3284,
      "▁sua": 3285,
      "▁Show": 3286,
      "يد": 3287,
      "тов": 3288,
      "▁progress": 3289,
      "▁decided": 3290,
      "mad": 3291,
      "▁Who": 3292,
      "▁prevent": 3293,
      "▁guy": 3294,
      "▁setting": 3295,
      "には": 3296,
      "ード": 3297,
      "▁сво": 3298,
      "▁pictures": 3299,
      "▁maximum": 3300,
      "▁व": 3301,
      "▁大": 3302,
      "▁European": 3303,
      "▁balance": 3304,
      "▁dass": 3305,
      "▁ни": 3306,
      "cut": 3307,
      "▁Fire": 3308,
      "▁gone": 3309,
      "▁radio": 3310,
      "▁vie": 3311,
      "▁Association": 3312,
      "▁arm": 3313,
      "▁placed": 3314,
      "▁latest": 3315,
      "▁yes": 3316,
      "▁tests": 3317,
      "зы": 3318,
      "▁rates": 3319,
      "▁Thanks": 3320,
      "▁sul": 3321,
      "▁eat": 3322,
      "▁الع": 3323,
      "▁pull": 3324,
      "▁favorite": 3325,
      "▁winter": 3326,
      "▁opinion": 3327,
      "elles": 3328,
      "oda": 3329,
      "anie": 3330,
      "▁مع": 3331,
      "▁trial": 3332,
      "pas": 3333,
      "owa": 3334,
      "▁While": 3335,
      "▁tim": 3336,
      "▁nas": 3337,
      "▁deb": 3338,
      "▁Robert": 3339,
      "sal": 3340,
      "▁Key": 3341,
      "▁exactly": 3342,
      "▁existing": 3343,
      "▁Friday": 3344,
      "▁sport": 3345,
      "▁mine": 3346,
      "▁Where": 3347,
      "▁happen": 3348,
      "▁interview": 3349,
      "▁leaves": 3350,
      "▁camera": 3351,
      "▁earlier": 3352,
      "▁replace": 3353,
      "▁primary": 3354,
      "▁spring": 3355,
      "▁north": 3356,
      "▁race": 3357,
      "▁lands": 3358,
      "▁trust": 3359,
      "▁applied": 3360,
      "▁Michael": 3361,
      "▁planning": 3362,
      "▁ly": 3363,
      "▁trip": 3364,
      "▁feeling": 3365,
      "▁foreign": 3366,
      "▁ц": 3367,
      "▁payment": 3368,
      "▁dei": 3369,
      "อง": 3370,
      "▁senti": 3371,
      "icio": 3372,
      "▁kept": 3373,
      "▁vida": 3374,
      "▁password": 3375,
      "▁principal": 3376,
      "日本": 3377,
      "▁хо": 3378,
      "że": 3379,
      "▁adjust": 3380,
      "rei": 3381,
      "ха": 3382,
      "▁album": 3383,
      "aje": 3384,
      "▁none": 3385,
      "sche": 3386,
      "▁starting": 3387,
      "▁science": 3388,
      "inda": 3389,
      "▁wear": 3390,
      "▁About": 3391,
      "رف": 3392,
      "▁warm": 3393,
      "▁Microsoft": 3394,
      "▁society": 3395,
      "▁church": 3396,
      "▁Child": 3397,
      "▁pada": 3398,
      "▁Sunday": 3399,
      "▁scene": 3400,
      "▁heavy": 3401,
      "▁particularly": 3402,
      "▁Image": 3403,
      "▁moving": 3404,
      "▁alla": 3405,
      "▁Note": 3406,
      "▁Christian": 3407,
      "▁अ": 3408,
      "▁aware": 3409,
      "▁serve": 3410,
      "▁larger": 3411,
      "▁cot": 3412,
      "▁fixed": 3413,
      "▁definitely": 3414,
      "▁reasons": 3415,
      "▁так": 3416,
      "▁yellow": 3417,
      "▁regist": 3418,
      "▁Africa": 3419,
      "ント": 3420,
      "nam": 3421,
      "▁leading": 3422,
      "▁reports": 3423,
      "▁Pay": 3424,
      "▁cel": 3425,
      "▁empty": 3426,
      "▁establish": 3427,
      "▁Society": 3428,
      "▁appears": 3429,
      "▁spread": 3430,
      "arent": 3431,
      "▁talking": 3432,
      "لم": 3433,
      "▁nearly": 3434,
      "▁ру": 3435,
      "▁jack": 3436,
      "ukan": 3437,
      "rian": 3438,
      "▁mountain": 3439,
      "▁Secret": 3440,
      "▁termin": 3441,
      "▁counter": 3442,
      "▁più": 3443,
      "ści": 3444,
      "▁trees": 3445,
      "▁zero": 3446,
      "▁interested": 3447,
      "▁sky": 3448,
      "▁animal": 3449,
      "▁purchase": 3450,
      "▁girls": 3451,
      "▁workers": 3452,
      "▁dell": 3453,
      "▁เ": 3454,
      "ła": 3455,
      "▁grande": 3456,
      "▁ny": 3457,
      "▁automat": 3458,
      "▁wit": 3459,
      "▁ان": 3460,
      "▁Peter": 3461,
      "rez": 3462,
      "▁classes": 3463,
      "▁tex": 3464,
      "▁switch": 3465,
      "▁peu": 3466,
      "▁sources": 3467,
      "▁rose": 3468,
      "▁dont": 3469,
      "▁measures": 3470,
      "▁су": 3471,
      "▁€": 3472,
      "از": 3473,
      "▁lui": 3474,
      "▁sens": 3475,
      "▁income": 3476,
      "▁People": 3477,
      "▁beach": 3478,
      "▁negative": 3479,
      "нии": 3480,
      "▁delivery": 3481,
      "ник": 3482,
      "▁reduce": 3483,
      "▁silver": 3484,
      "▁organization": 3485,
      "▁Bill": 3486,
      "▁ice": 3487,
      "▁seek": 3488,
      "ี่": 3489,
      "▁oh": 3490,
      "▁informa": 3491,
      "▁dic": 3492,
      "бу": 3493,
      "▁kar": 3494,
      "ディ": 3495,
      "▁sites": 3496,
      "owe": 3497,
      "▁animals": 3498,
      "▁sein": 3499,
      "tan": 3500,
      "▁military": 3501,
      "▁desde": 3502,
      "▁carried": 3503,
      "▁adop": 3504,
      "▁unter": 3505,
      "uli": 3506,
      "▁released": 3507,
      "▁Union": 3508,
      "▁coffee": 3509,
      "▁ces": 3510,
      "▁brown": 3511,
      "uis": 3512,
      "▁south": 3513,
      "▁ку": 3514,
      "kel": 3515,
      "ande": 3516,
      "news": 3517,
      "ву": 3518,
      "▁threat": 3519,
      "зу": 3520,
      "▁director": 3521,
      "▁iron": 3522,
      "▁haben": 3523,
      "▁ल": 3524,
      "▁brother": 3525,
      "▁mai": 3526,
      "▁burn": 3527,
      "▁eight": 3528,
      "่า": 3529,
      "بر": 3530,
      "▁conse": 3531,
      "GA": 3532,
      "▁sn": 3533,
      "▁advance": 3534,
      "▁trend": 3535,
      "ilo": 3536,
      "▁returned": 3537,
      "ном": 3538,
      "▁Central": 3539,
      "▁wants": 3540,
      "▁moved": 3541,
      "▁द": 3542,
      "ós": 3543,
      "▁été": 3544,
      "▁Card": 3545,
      "▁failed": 3546,
      "▁ط": 3547,
      "▁mere": 3548,
      "ща": 3549,
      "▁snow": 3550,
      "▁daughter": 3551,
      "▁showing": 3552,
      "▁Since": 3553,
      "wy": 3554,
      "▁river": 3555,
      "▁edge": 3556,
      "▁growing": 3557,
      "▁ga": 3558,
      "▁links": 3559,
      "▁applications": 3560,
      "▁allows": 3561,
      "▁ча": 3562,
      "้า": 3563,
      "▁presence": 3564,
      "▁driver": 3565,
      "▁holding": 3566,
      "▁operations": 3567,
      "عد": 3568,
      "▁kid": 3569,
      "▁showed": 3570,
      "र्": 3571,
      "▁رو": 3572,
      "▁カ": 3573,
      "▁prepared": 3574,
      "▁parties": 3575,
      "▁named": 3576,
      "▁push": 3577,
      "▁husband": 3578,
      "▁Australia": 3579,
      "ło": 3580,
      "▁sono": 3581,
      "iche": 3582,
      "▁detail": 3583,
      "▁Amazon": 3584,
      "▁huge": 3585,
      "▁tun": 3586,
      "▁fait": 3587,
      "▁bright": 3588,
      "orem": 3589,
      "iza": 3590,
      "zar": 3591,
      "▁overall": 3592,
      "▁vehicle": 3593,
      "▁attempt": 3594,
      "▁removed": 3595,
      "▁respond": 3596,
      "▁faire": 3597,
      "▁rend": 3598,
      "▁garden": 3599,
      "▁bear": 3600,
      "▁pool": 3601,
      "يا": 3602,
      "▁proposed": 3603,
      "▁Saturday": 3604,
      "▁completed": 3605,
      "▁actions": 3606,
      "▁vote": 3607,
      "▁route": 3608,
      "▁returns": 3609,
      "▁covered": 3610,
      "▁relative": 3611,
      "▁domin": 3612,
      "ным": 3613,
      "ania": 3614,
      "▁minimum": 3615,
      "▁mehr": 3616,
      "▁Food": 3617,
      "▁Monday": 3618,
      "▁settings": 3619,
      "▁acces": 3620,
      "▁ale": 3621,
      "rada": 3622,
      "ته": 3623,
      "ят": 3624,
      "▁plate": 3625,
      "▁opening": 3626,
      "▁vez": 3627,
      "▁tiene": 3628,
      "▁panel": 3629,
      "fall": 3630,
      "▁caused": 3631,
      "heit": 3632,
      "▁Minister": 3633,
      "step": 3634,
      "بو": 3635,
      "▁بر": 3636,
      "▁fill": 3637,
      "▁manager": 3638,
      "▁District": 3639,
      "▁Charles": 3640,
      "▁propos": 3641,
      "▁ran": 3642,
      "▁bin": 3643,
      "▁clearly": 3644,
      "▁classic": 3645,
      "这个": 3646,
      "▁annual": 3647,
      "可能": 3648,
      "▁separate": 3649,
      "▁toward": 3650,
      "▁cards": 3651,
      "▁stated": 3652,
      "▁female": 3653,
      "ーム": 3654,
      "gio": 3655,
      "▁kitchen": 3656,
      "mir": 3657,
      "ей": 3658,
      "▁neck": 3659,
      "ticas": 3660,
      "وان": 3661,
      "▁budget": 3662,
      "▁reached": 3663,
      "▁weather": 3664,
      "▁delete": 3665,
      "▁fly": 3666,
      "▁couldn": 3667,
      "▁stories": 3668,
      "▁flag": 3669,
      "▁Chinese": 3670,
      "▁gun": 3671,
      "▁rain": 3672,
      "awa": 3673,
      "اف": 3674,
      "кой": 3675,
      "▁chief": 3676,
      "ده": 3677,
      "▁bought": 3678,
      "▁être": 3679,
      "▁akan": 3680,
      "▁stars": 3681,
      "ность": 3682,
      "▁wire": 3683,
      "▁colo": 3684,
      "▁pink": 3685,
      "▁interior": 3686,
      "▁sports": 3687,
      "▁sets": 3688,
      "れる": 3689,
      "zens": 3690,
      "▁ком": 3691,
      "▁spent": 3692,
      "ता": 3693,
      "▁jed": 3694,
      "▁Internet": 3695,
      "▁vom": 3696,
      "▁protect": 3697,
      "▁Old": 3698,
      "▁Germany": 3699,
      "voir": 3700,
      "▁deux": 3701,
      "▁hacer": 3702,
      "zia": 3703,
      "▁brief": 3704,
      "▁uno": 3705,
      "▁proof": 3706,
      "▁obtain": 3707,
      "▁Thank": 3708,
      "▁ahead": 3709,
      "▁east": 3710,
      "hn": 3711,
      "▁centre": 3712,
      "▁página": 3713,
      "zas": 3714,
      "▁Richard": 3715,
      "vere": 3716,
      "▁flowers": 3717,
      "▁providing": 3718,
      "inn": 3719,
      "▁Ur": 3720,
      "▁cual": 3721,
      "ám": 3722,
      "▁families": 3723,
      "▁artist": 3724,
      "ateur": 3725,
      "▁remains": 3726,
      "▁gli": 3727,
      "▁wouldn": 3728,
      "します": 3729,
      "▁र": 3730,
      "▁में": 3731,
      "▁cancer": 3732,
      "▁male": 3733,
      "▁chair": 3734,
      "▁restaurant": 3735,
      "▁или": 3736,
      "▁perman": 3737,
      "▁college": 3738,
      "▁appeared": 3739,
      "▁cada": 3740,
      "▁Brown": 3741,
      "▁chat": 3742,
      "isti": 3743,
      "▁seemed": 3744,
      "▁knows": 3745,
      "رب": 3746,
      "▁raised": 3747,
      "▁investment": 3748,
      "▁Second": 3749,
      "aller": 3750,
      "▁können": 3751,
      "يل": 3752,
      "▁sang": 3753,
      "rij": 3754,
      "▁package": 3755,
      "▁coach": 3756,
      "▁sad": 3757,
      "▁Christmas": 3758,
      "acion": 3759,
      "▁peut": 3760,
      "▁colors": 3761,
      "▁prime": 3762,
      "▁beauty": 3763,
      "ティ": 3764,
      "▁stick": 3765,
      "れて": 3766,
      "▁sans": 3767,
      "ươ": 3768,
      "▁Hill": 3769,
      "だけ": 3770,
      "tak": 3771,
      "▁ade": 3772,
      "▁pieces": 3773,
      "▁waiting": 3774,
      "▁welcome": 3775,
      "▁пред": 3776,
      "▁ai": 3777,
      "▁efforts": 3778,
      "ardo": 3779,
      "▁offered": 3780,
      "▁opened": 3781,
      "▁pem": 3782,
      "▁nombre": 3783,
      "▁bill": 3784,
      "▁finished": 3785,
      "▁agreement": 3786,
      "▁doctor": 3787,
      "▁cuando": 3788,
      "gon": 3789,
      "tam": 3790,
      "▁forces": 3791,
      "▁industrial": 3792,
      "▁io": 3793,
      "▁Hal": 3794,
      "▁teacher": 3795,
      "▁đi": 3796,
      "▁edit": 3797,
      "▁highest": 3798,
      "ने": 3799,
      "▁rise": 3800,
      "▁chemical": 3801,
      "それ": 3802,
      "▁mejor": 3803,
      "▁soul": 3804,
      "▁minute": 3805,
      "▁Many": 3806,
      "▁中": 3807,
      "tw": 3808,
      "▁finish": 3809,
      "▁tv": 3810,
      "▁cars": 3811,
      "▁Texas": 3812,
      "▁articles": 3813,
      "▁cream": 3814,
      "▁kill": 3815,
      "▁quarter": 3816,
      "▁president": 3817,
      "▁yield": 3818,
      "▁suit": 3819,
      "▁ah": 3820,
      "enz": 3821,
      "▁evening": 3822,
      "▁chain": 3823,
      "▁Sea": 3824,
      "▁insurance": 3825,
      "▁jest": 3826,
      "▁slide": 3827,
      "าร": 3828,
      "▁battle": 3829,
      "▁Martin": 3830,
      "▁League": 3831,
      "▁milk": 3832,
      "tar": 3833,
      "▁certainly": 3834,
      "▁critical": 3835,
      "▁forget": 3836,
      "zone": 3837,
      "▁responsible": 3838,
      "▁seu": 3839,
      "▁independent": 3840,
      "▁haven": 3841,
      "▁truck": 3842,
      "▁tous": 3843,
      "▁أن": 3844,
      "▁internet": 3845,
      "▁Republic": 3846,
      "اش": 3847,
      "ائ": 3848,
      "时间": 3849,
      "▁wave": 3850,
      "▁happens": 3851,
      "▁seeing": 3852,
      "▁attend": 3853,
      "▁healthy": 3854,
      "▁mens": 3855,
      "▁wedding": 3856,
      "▁fal": 3857,
      "▁mouth": 3858,
      "▁で": 3859,
      "▁Was": 3860,
      "▁devices": 3861,
      "▁failure": 3862,
      "▁الح": 3863,
      "nia": 3864,
      "他们": 3865,
      "▁goods": 3866,
      "▁mand": 3867,
      "▁mission": 3868,
      "▁ди": 3869,
      "▁slightly": 3870,
      "▁você": 3871,
      "▁delle": 3872,
      "▁Tour": 3873,
      "▁Have": 3874,
      "▁Its": 3875,
      "▁fort": 3876,
      "▁calls": 3877,
      "▁roz": 3878,
      "▁football": 3879,
      "▁fuel": 3880,
      "two": 3881,
      "▁shopping": 3882,
      "له": 3883,
      "oso": 3884,
      "まで": 3885,
      "▁discuss": 3886,
      "▁مو": 3887,
      "▁leader": 3888,
      "▁listed": 3889,
      "▁west": 3890,
      "iu": 3891,
      "▁survey": 3892,
      "▁announced": 3893,
      "▁Fort": 3894,
      "inds": 3895,
      "▁không": 3896,
      "▁ster": 3897,
      "▁economy": 3898,
      "istan": 3899,
      "ahan": 3900,
      "oche": 3901,
      "imento": 3902,
      "如果": 3903,
      "tek": 3904,
      "▁purposes": 3905,
      "▁killed": 3906,
      "ской": 3907,
      "▁cash": 3908,
      "izz": 3909,
      "▁Anti": 3910,
      "▁missing": 3911,
      "▁vent": 3912,
      "▁Apple": 3913,
      "▁Congress": 3914,
      "▁tap": 3915,
      "▁hasta": 3916,
      "olo": 3917,
      "▁आ": 3918,
      "▁spa": 3919,
      "▁الس": 3920,
      "▁department": 3921,
      "▁updated": 3922,
      "▁campaign": 3923,
      "▁jump": 3924,
      "▁ба": 3925,
      "▁wurde": 3926,
      "ilen": 3927,
      "tery": 3928,
      "Star": 3929,
      "▁mie": 3930,
      "▁pode": 3931,
      "▁audio": 3932,
      "▁Women": 3933,
      "tici": 3934,
      "sz": 3935,
      "▁older": 3936,
      "▁laws": 3937,
      "مان": 3938,
      "▁plastic": 3939,
      "世界": 3940,
      "▁standing": 3941,
      "▁nine": 3942,
      "bec": 3943,
      "▁traffic": 3944,
      "▁roll": 3945,
      "▁border": 3946,
      "▁spend": 3947,
      "▁mundo": 3948,
      "ją": 3949,
      "▁supported": 3950,
      "▁Cross": 3951,
      "▁sides": 3952,
      "▁trang": 3953,
      "ły": 3954,
      "▁की": 3955,
      "▁お": 3956,
      "▁exchange": 3957,
      "тер": 3958,
      "▁birthday": 3959,
      "ży": 3960,
      "▁wine": 3961,
      "ที่": 3962,
      "▁previously": 3963,
      "ez": 3964,
      "▁disable": 3965,
      "▁medi": 3966,
      "▁aren": 3967,
      "▁laugh": 3968,
      "▁helped": 3969,
      "▁durante": 3970,
      "inas": 3971,
      "▁spr": 3972,
      "▁tipo": 3973,
      "▁trop": 3974,
      "▁seconds": 3975,
      "▁pon": 3976,
      "در": 3977,
      "▁Federal": 3978,
      "▁Tuesday": 3979,
      "▁agg": 3980,
      "▁broken": 3981,
      "esa": 3982,
      "arte": 3983,
      "▁atten": 3984,
      "öl": 3985,
      "▁runs": 3986,
      "▁Chicago": 3987,
      "▁recor": 3988,
      "▁largest": 3989,
      "▁definition": 3990,
      "▁sitting": 3991,
      "onia": 3992,
      "▁な": 3993,
      "▁boys": 3994,
      "▁plot": 3995,
      "▁explain": 3996,
      "▁funds": 3997,
      "▁shift": 3998,
      "ります": 3999,
      "▁differences": 4000,
      "知道": 4001,
      "▁wenn": 4002,
      "▁lose": 4003,
      "▁division": 4004,
      "▁ala": 4005,
      "▁シ": 4006,
      "▁extremely": 4007,
      "▁一": 4008,
      "▁prove": 4009,
      "▁arms": 4010,
      "▁seat": 4011,
      "▁wet": 4012,
      "▁Series": 4013,
      "ван": 4014,
      "▁driving": 4015,
      "لام": 4016,
      "▁beat": 4017,
      "▁loop": 4018,
      "▁powerful": 4019,
      "▁zone": 4020,
      "ích": 4021,
      "▁Thursday": 4022,
      "ść": 4023,
      "▁procedure": 4024,
      "्य": 4025,
      "▁atau": 4026,
      "▁joy": 4027,
      "▁anni": 4028,
      "uno": 4029,
      "▁regarding": 4030,
      "▁leaving": 4031,
      "▁त": 4032,
      "▁coast": 4033,
      "▁小": 4034,
      "▁properly": 4035,
      "▁très": 4036,
      "▁Call": 4037,
      "ará": 4038,
      "▁bil": 4039,
      "▁walking": 4040,
      "▁otra": 4041,
      "▁tamb": 4042,
      "лей": 4043,
      "▁viel": 4044,
      "▁Their": 4045,
      "ों": 4046,
      "▁は": 4047,
      "▁married": 4048,
      "вой": 4049,
      "▁joint": 4050,
      "▁Last": 4051,
      "dz": 4052,
      "▁aid": 4053,
      "▁reflect": 4054,
      "▁onto": 4055,
      "وب": 4056,
      "▁billion": 4057,
      "ência": 4058,
      "▁bol": 4059,
      "▁corner": 4060,
      "▁trong": 4061,
      "▁orange": 4062,
      "▁mayor": 4063,
      "▁Western": 4064,
      "▁tiempo": 4065,
      "هم": 4066,
      "мя": 4067,
      "▁horse": 4068,
      "▁operating": 4069,
      "▁drug": 4070,
      "▁drawing": 4071,
      "▁adding": 4072,
      "▁mill": 4073,
      "▁finding": 4074,
      "▁कर": 4075,
      "▁Wednesday": 4076,
      "▁cycle": 4077,
      "▁adalah": 4078,
      "▁confirm": 4079,
      "▁delay": 4080,
      "▁figures": 4081,
      "▁formula": 4082,
      "ười": 4083,
      "▁journal": 4084,
      "uso": 4085,
      "ró": 4086,
      "バー": 4087,
      "month": 4088,
      "▁leaders": 4089,
      "▁filled": 4090,
      "▁ll": 4091,
      "▁Nov": 4092,
      "▁vend": 4093,
      "▁Search": 4094,
      "▁funny": 4095,
      "▁meant": 4096,
      "▁بال": 4097,
      "▁nun": 4098,
      "▁rob": 4099,
      "▁agent": 4100,
      "▁Case": 4101,
      "ский": 4102,
      "▁tail": 4103,
      "いい": 4104,
      "▁plane": 4105,
      "▁butter": 4106,
      "▁lig": 4107,
      "▁lugar": 4108,
      "▁pom": 4109,
      "▁mixed": 4110,
      "▁identified": 4111,
      "▁peng": 4112,
      "tado": 4113,
      "▁fell": 4114,
      "bung": 4115,
      "▁ग": 4116,
      "▁virtual": 4117,
      "▁gonna": 4118,
      "なく": 4119,
      "rente": 4120,
      "▁flor": 4121,
      "▁approximately": 4122,
      "▁tin": 4123,
      "▁concerned": 4124,
      "▁Jim": 4125,
      "вать": 4126,
      "▁Cup": 4127,
      "▁familiar": 4128,
      "▁interests": 4129,
      "▁bak": 4130,
      "stan": 4131,
      "▁bru": 4132,
      "▁listen": 4133,
      "▁Sus": 4134,
      "▁Stock": 4135,
      "хи": 4136,
      "▁succ": 4137,
      "▁African": 4138,
      "▁containing": 4139,
      "▁пи": 4140,
      "▁porque": 4141,
      "▁weekend": 4142,
      "▁accident": 4143,
      "▁một": 4144,
      "▁posts": 4145,
      "▁trouble": 4146,
      "▁entered": 4147,
      "▁được": 4148,
      "uler": 4149,
      "▁signed": 4150,
      "مل": 4151,
      "▁prison": 4152,
      "athan": 4153,
      "▁accepted": 4154,
      "▁Security": 4155,
      "▁documents": 4156,
      "▁hearing": 4157,
      "▁orders": 4158,
      "▁fee": 4159,
      "ação": 4160,
      "時間": 4161,
      "▁claims": 4162,
      "▁federal": 4163,
      "▁hate": 4164,
      "ians": 4165,
      "▁amer": 4166,
      "▁tam": 4167,
      "かな": 4168,
      "inet": 4169,
      "▁concerns": 4170,
      "▁prze": 4171,
      "▁affected": 4172,
      "▁Area": 4173,
      "قد": 4174,
      "▁yo": 4175,
      "▁لل": 4176,
      "tags": 4177,
      "▁bike": 4178,
      "▁Santa": 4179,
      "▁kur": 4180,
      "▁人": 4181,
      "▁Jones": 4182,
      "▁officers": 4183,
      "▁パ": 4184,
      "vens": 4185,
      "рт": 4186,
      "▁guard": 4187,
      "тся": 4188,
      "tige": 4189,
      "▁مح": 4190,
      "ना": 4191,
      "▁grass": 4192,
      "▁tho": 4193,
      "▁sister": 4194,
      "▁Chief": 4195,
      "▁Four": 4196,
      "owy": 4197,
      "▁alternative": 4198,
      "?!": 4199,
      "▁Young": 4200,
      "▁tempo": 4201,
      "▁tau": 4202,
      "▁watching": 4203,
      "▁immer": 4204,
      "▁officer": 4205,
      "▁quiet": 4206,
      "▁foi": 4207,
      "▁jobs": 4208,
      "▁autor": 4209,
      "▁cities": 4210,
      "oms": 4211,
      "nach": 4212,
      "ách": 4213,
      "▁changing": 4214,
      "▁Russia": 4215,
      "▁kam": 4216,
      "rehen": 4217,
      "▁рас": 4218,
      "ário": 4219,
      "▁Hospital": 4220,
      "▁Royal": 4221,
      "بي": 4222,
      "▁poll": 4223,
      "▁Ten": 4224,
      "▁kal": 4225,
      "czy": 4226,
      "▁Three": 4227,
      "▁civil": 4228,
      "▁EU": 4229,
      "اع": 4230,
      "▁Does": 4231,
      "▁му": 4232,
      "▁Hi": 4233,
      "▁remote": 4234,
      "town": 4235,
      "▁Mexico": 4236,
      "▁Russian": 4237,
      "▁का": 4238,
      "ление": 4239,
      "▁starts": 4240,
      "需要": 4241,
      "cluding": 4242,
      "▁assistance": 4243,
      "▁twenty": 4244,
      "▁absolutely": 4245,
      "tó": 4246,
      "▁donde": 4247,
      "▁его": 4248,
      "▁hall": 4249,
      "▁swim": 4250,
      "▁Medical": 4251,
      "▁flight": 4252,
      "▁日": 4253,
      "として": 4254,
      "▁só": 4255,
      "▁container": 4256,
      "нь": 4257,
      "▁Secretary": 4258,
      "▁NY": 4259,
      "▁Bob": 4260,
      "▁commission": 4261,
      "▁asking": 4262,
      "▁को": 4263,
      "bank": 4264,
      "▁advanced": 4265,
      "▁voy": 4266,
      "ления": 4267,
      "▁desk": 4268,
      "▁mail": 4269,
      "▁ride": 4270,
      "▁agreed": 4271,
      "▁caso": 4272,
      "▁ends": 4273,
      "▁pros": 4274,
      "▁пла": 4275,
      "▁Kim": 4276,
      "▁notre": 4277,
      "▁speech": 4278,
      "▁ada": 4279,
      "gro": 4280,
      "▁пе": 4281,
      "▁launch": 4282,
      "▁boat": 4283,
      "ichte": 4284,
      "tiva": 4285,
      "▁Did": 4286,
      "▁freedom": 4287,
      "▁bay": 4288,
      "▁homes": 4289,
      "ского": 4290,
      "▁Japanese": 4291,
      "▁identify": 4292,
      "▁inch": 4293,
      "▁scar": 4294,
      "▁grey": 4295,
      "▁sole": 4296,
      "▁supposed": 4297,
      "▁Standard": 4298,
      "▁이": 4299,
      "▁Italy": 4300,
      "▁wheel": 4301,
      "▁judge": 4302,
      "▁smile": 4303,
      "▁temps": 4304,
      "▁día": 4305,
      "▁jet": 4306,
      "たい": 4307,
      "▁Market": 4308,
      "▁religious": 4309,
      "▁bisa": 4310,
      "▁OK": 4311,
      "▁intended": 4312,
      "▁nam": 4313,
      "▁amor": 4314,
      "▁ordered": 4315,
      "▁lights": 4316,
      "lado": 4317,
      "▁embar": 4318,
      "▁remaining": 4319,
      "▁Both": 4320,
      "िक": 4321,
      "▁approved": 4322,
      "▁solve": 4323,
      "▁Has": 4324,
      "▁agency": 4325,
      "▁он": 4326,
      "▁Systems": 4327,
      "▁administration": 4328,
      "▁sv": 4329,
      "▁twice": 4330,
      "ンド": 4331,
      "▁Oct": 4332,
      "▁mg": 4333,
      "▁continues": 4334,
      "uit": 4335,
      "▁shut": 4336,
      "▁election": 4337,
      "▁với": 4338,
      "▁automatically": 4339,
      "▁Florida": 4340,
      "ذا": 4341,
      "▁recorded": 4342,
      "▁climate": 4343,
      "▁são": 4344,
      "▁tanto": 4345,
      "▁غ": 4346,
      "▁से": 4347,
      "▁esto": 4348,
      "zioni": 4349,
      "▁committee": 4350,
      "▁Live": 4351,
      "ับ": 4352,
      "▁Angeles": 4353,
      "▁warning": 4354,
      "▁signs": 4355,
      "▁Little": 4356,
      "▁các": 4357,
      "▁leather": 4358,
      "▁officials": 4359,
      "▁उ": 4360,
      "える": 4361,
      "出来": 4362,
      "ksi": 4363,
      "▁responsibility": 4364,
      "▁instrument": 4365,
      "▁haz": 4366,
      "ром": 4367,
      "فت": 4368,
      "▁wooden": 4369,
      "kr": 4370,
      "▁wieder": 4371,
      "nych": 4372,
      "▁Conference": 4373,
      "内容": 4374,
      "три": 4375,
      "days": 4376,
      "▁ended": 4377,
      "▁define": 4378,
      "▁zw": 4379,
      "اء": 4380,
      "▁Dies": 4381,
      "icher": 4382,
      "▁calling": 4383,
      "▁momento": 4384,
      "▁meat": 4385,
      "っと": 4386,
      "ăm": 4387,
      "▁Index": 4388,
      "▁ś": 4389,
      "▁diese": 4390,
      "▁senior": 4391,
      "▁oleh": 4392,
      "▁bread": 4393,
      "时候": 4394,
      "▁バ": 4395,
      "▁issued": 4396,
      "agger": 4397,
      "▁lamp": 4398,
      "▁extended": 4399,
      "▁cable": 4400,
      "▁rear": 4401,
      "▁dance": 4402,
      "▁resolution": 4403,
      "يم": 4404,
      "fc": 4405,
      "ную": 4406,
      "▁stopped": 4407,
      "▁mostly": 4408,
      "▁factory": 4409,
      "▁magic": 4410,
      "▁kem": 4411,
      "вый": 4412,
      "▁dapat": 4413,
      "rob": 4414,
      "▁According": 4415,
      "▁pays": 4416,
      "▁vig": 4417,
      "▁mouse": 4418,
      "سم": 4419,
      "▁hell": 4420,
      "▁dann": 4421,
      "▁decide": 4422,
      "ника": 4423,
      "でした": 4424,
      "▁пер": 4425,
      "mac": 4426,
      "▁Israel": 4427,
      "▁wearing": 4428,
      "▁schedule": 4429,
      "▁poco": 4430,
      "▁ul": 4431,
      "▁conference": 4432,
      "ups": 4433,
      "▁calculated": 4434,
      "▁arrived": 4435,
      "issa": 4436,
      "▁investigation": 4437,
      "▁estimated": 4438,
      "fly": 4439,
      "▁policies": 4440,
      "▁decisions": 4441,
      "▁institutions": 4442,
      "▁conducted": 4443,
      "リア": 4444,
      "▁dollars": 4445,
      "▁charges": 4446,
      "gli": 4447,
      "▁assume": 4448,
      "zem": 4449,
      "▁increases": 4450,
      "▁businesses": 4451,
      "ête": 4452,
      "▁percentage": 4453,
      "▁Java": 4454,
      "▁dogs": 4455,
      "▁भ": 4456,
      "▁кра": 4457,
      "▁thousand": 4458,
      "▁originally": 4459,
      "▁holiday": 4460,
      "▁confidence": 4461,
      "▁odd": 4462,
      "▁lady": 4463,
      "▁qué": 4464,
      "▁Queen": 4465,
      "лся": 4466,
      "▁Arab": 4467,
      "▁mari": 4468,
      "▁pron": 4469,
      "▁cleaning": 4470,
      "▁scientific": 4471,
      "▁formal": 4472,
      "▁pit": 4473,
      "▁eating": 4474,
      "atro": 4475,
      "aku": 4476,
      "▁Sav": 4477,
      "्त": 4478,
      "▁parking": 4479,
      "▁clock": 4480,
      "ге": 4481,
      "дет": 4482,
      "ellen": 4483,
      "▁fourth": 4484,
      "▁accounts": 4485,
      "▁army": 4486,
      "sex": 4487,
      "ัน": 4488,
      "▁प्र": 4489,
      "▁года": 4490,
      "▁Asia": 4491,
      "▁الج": 4492,
      "tore": 4493,
      "▁bare": 4494,
      "nej": 4495,
      "▁Which": 4496,
      "▁contro": 4497,
      "▁prog": 4498,
      "▁chicken": 4499,
      "▁ए": 4500,
      "▁plays": 4501,
      "ान": 4502,
      "▁bridge": 4503,
      "▁año": 4504,
      "▁houses": 4505,
      "▁dinner": 4506,
      "▁frequently": 4507,
      "▁antes": 4508,
      "▁rein": 4509,
      "▁Francisco": 4510,
      "▁Wall": 4511,
      "▁người": 4512,
      "▁worse": 4513,
      "▁пу": 4514,
      "▁マ": 4515,
      "▁raise": 4516,
      "▁march": 4517,
      "▁bom": 4518,
      "▁الش": 4519,
      "▁biggest": 4520,
      "рен": 4521,
      "▁عن": 4522,
      "وز": 4523,
      "▁jacket": 4524,
      "▁stands": 4525,
      "istas": 4526,
      "中国": 4527,
      "▁regional": 4528,
      "áng": 4529,
      "▁virus": 4530,
      "▁gust": 4531,
      "speed": 4532,
      "▁lesen": 4533,
      "▁ما": 4534,
      "▁ancient": 4535,
      "▁despite": 4536,
      "▁confirmed": 4537,
      "ин": 4538,
      "▁soll": 4539,
      "▁appeal": 4540,
      "▁songs": 4541,
      "▁occurred": 4542,
      "▁unknown": 4543,
      "inge": 4544,
      "▁incident": 4545,
      "▁bond": 4546,
      "现在": 4547,
      "▁nhi": 4548,
      "▁cancel": 4549,
      "▁rice": 4550,
      "▁Edition": 4551,
      "サイ": 4552,
      "▁crime": 4553,
      "bbe": 4554,
      "ジャ": 4555,
      "▁Boy": 4556,
      "▁charged": 4557,
      "▁और": 4558,
      "▁marriage": 4559,
      "inar": 4560,
      "jac": 4561,
      "▁ส": 4562,
      "▁Another": 4563,
      "▁prepare": 4564,
      "工作": 4565,
      "▁sehr": 4566,
      "▁Police": 4567,
      "▁bull": 4568,
      "▁bid": 4569,
      "tele": 4570,
      "ロー": 4571,
      "▁clothes": 4572,
      "▁مد": 4573,
      "imi": 4574,
      "▁blu": 4575,
      "▁ham": 4576,
      "odo": 4577,
      "▁sar": 4578,
      "▁domestic": 4579,
      "▁manage": 4580,
      "▁cant": 4581,
      "▁profit": 4582,
      "اق": 4583,
      "▁rating": 4584,
      "вые": 4585,
      "▁murder": 4586,
      "信息": 4587,
      "▁pac": 4588,
      "yi": 4589,
      "▁libre": 4590,
      "vous": 4591,
      "▁kick": 4592,
      "่อ": 4593,
      "▁programme": 4594,
      "▁kor": 4595,
      "▁solar": 4596,
      "▁crisis": 4597,
      "▁Joe": 4598,
      "▁sistema": 4599,
      "▁fondo": 4600,
      "vio": 4601,
      "لك": 4602,
      "▁कि": 4603,
      "▁rid": 4604,
      "▁Italian": 4605,
      "▁แ": 4606,
      "unde": 4607,
      "▁festival": 4608,
      "▁prima": 4609,
      "▁turns": 4610,
      "▁holds": 4611,
      "到了": 4612,
      "▁putting": 4613,
      "▁bez": 4614,
      "ór": 4615,
      "▁Army": 4616,
      "▁aca": 4617,
      "mens": 4618,
      "bei": 4619,
      "▁mismo": 4620,
      "▁okay": 4621,
      "▁độ": 4622,
      "وش": 4623,
      "▁Children": 4624,
      "▁eggs": 4625,
      "▁Pak": 4626,
      "▁gut": 4627,
      "▁Oil": 4628,
      "▁月": 4629,
      "▁nuevo": 4630,
      "▁jou": 4631,
      "тки": 4632,
      "▁jan": 4633,
      "▁branch": 4634,
      "▁conversation": 4635,
      "том": 4636,
      "الم": 4637,
      "▁dot": 4638,
      "▁toy": 4639,
      "▁identity": 4640,
      "▁sebagai": 4641,
      "اح": 4642,
      "▁meny": 4643,
      "▁leadership": 4644,
      "▁新": 4645,
      "▁union": 4646,
      "▁gear": 4647,
      "nas": 4648,
      "还是": 4649,
      "▁visible": 4650,
      "▁updates": 4651,
      "▁experts": 4652,
      "▁aller": 4653,
      "ệt": 4654,
      "▁Today": 4655,
      "▁エ": 4656,
      "حد": 4657,
      "وس": 4658,
      "▁hole": 4659,
      "▁où": 4660,
      "▁Boston": 4661,
      "การ": 4662,
      "стоя": 4663,
      "وق": 4664,
      "uje": 4665,
      "▁Building": 4666,
      "▁bottle": 4667,
      "يه": 4668,
      "▁narrow": 4669,
      "▁relief": 4670,
      "▁buying": 4671,
      "▁menos": 4672,
      "▁Spanish": 4673,
      "▁markets": 4674,
      "▁debt": 4675,
      "▁speaking": 4676,
      "▁faster": 4677,
      "▁lebih": 4678,
      "▁sag": 4679,
      "▁citizens": 4680,
      "▁sous": 4681,
      "のは": 4682,
      "▁sentence": 4683,
      "▁personnel": 4684,
      "▁lom": 4685,
      "▁defense": 4686,
      "▁religion": 4687,
      "▁الق": 4688,
      "▁alto": 4689,
      "▁イ": 4690,
      "▁mont": 4691,
      "▁locations": 4692,
      "▁sexual": 4693,
      "▁Gas": 4694,
      "▁nella": 4695,
      "▁przy": 4696,
      "week": 4697,
      "▁limits": 4698,
      "▁Ohio": 4699,
      "▁birds": 4700,
      "ются": 4701,
      "ję": 4702,
      "▁boss": 4703,
      "бли": 4704,
      "▁golf": 4705,
      "▁reprodu": 4706,
      "▁bird": 4707,
      "mada": 4708,
      "▁SW": 4709,
      "eni": 4710,
      "第一": 4711,
      "ischer": 4712,
      "ăng": 4713,
      "ระ": 4714,
      "▁Michigan": 4715,
      "▁witness": 4716,
      "▁tres": 4717,
      "وت": 4718,
      "えて": 4719,
      "▁lies": 4720,
      "▁delivered": 4721,
      "▁quando": 4722,
      "Mor": 4723,
      "▁bodies": 4724,
      "vic": 4725,
      "▁believed": 4726,
      "▁todas": 4727,
      "▁permission": 4728,
      "▁moral": 4729,
      "зе": 4730,
      "▁powers": 4731,
      "▁мы": 4732,
      "▁repeated": 4733,
      "zin": 4734,
      "▁facility": 4735,
      "ください": 4736,
      "▁sele": 4737,
      "чен": 4738,
      "▁Help": 4739,
      "▁authorities": 4740,
      "▁musical": 4741,
      "▁forgot": 4742,
      "▁Tam": 4743,
      "▁información": 4744,
      "▁yesterday": 4745,
      "▁hace": 4746,
      "ffen": 4747,
      "んで": 4748,
      "▁sí": 4749,
      "ことが": 4750,
      "▁mam": 4751,
      "ùng": 4752,
      "▁begins": 4753,
      "▁raz": 4754,
      "▁pelo": 4755,
      "رم": 4756,
      "дь": 4757,
      "▁university": 4758,
      "eras": 4759,
      "▁stable": 4760,
      "zeit": 4761,
      "▁khi": 4762,
      "▁estar": 4763,
      "▁dieser": 4764,
      "▁Watch": 4765,
      "▁Virginia": 4766,
      "مر": 4767,
      "▁rap": 4768,
      "▁remained": 4769,
      "▁lake": 4770,
      "▁stores": 4771,
      "▁blanco": 4772,
      "コン": 4773,
      "▁Force": 4774,
      "▁egg": 4775,
      "ôn": 4776,
      "ден": 4777,
      "рия": 4778,
      "▁bene": 4779,
      "背景": 4780,
      "▁divided": 4781,
      "ーク": 4782,
      "▁vu": 4783,
      "感じ": 4784,
      "▁fees": 4785,
      "▁cutting": 4786,
      "ित": 4787,
      "pus": 4788,
      "▁possibly": 4789,
      "▁hub": 4790,
      "▁coat": 4791,
      "▁statements": 4792,
      "▁cheese": 4793,
      "▁questo": 4794,
      "▁gate": 4795,
      "▁accurate": 4796,
      "▁golden": 4797,
      "▁concrete": 4798,
      "▁thousands": 4799,
      "▁chose": 4800,
      "wie": 4801,
      "▁violence": 4802,
      "▁afternoon": 4803,
      "▁gray": 4804,
      "▁الب": 4805,
      "▁transaction": 4806,
      "▁Should": 4807,
      "▁cuenta": 4808,
      "▁encore": 4809,
      "▁ту": 4810,
      "▁prend": 4811,
      "▁defin": 4812,
      "▁إلى": 4813,
      "▁emergency": 4814,
      "жу": 4815,
      "في": 4816,
      "edes": 4817,
      "▁Tel": 4818,
      "าก": 4819,
      "▁azul": 4820,
      "▁habe": 4821,
      "▁ace": 4822,
      "▁atmosphere": 4823,
      "▁expansion": 4824,
      "▁meal": 4825,
      "▁regards": 4826,
      "▁الن": 4827,
      "的一": 4828,
      "цы": 4829,
      "าย": 4830,
      "wart": 4831,
      "▁orang": 4832,
      "▁oz": 4833,
      "unden": 4834,
      "▁reset": 4835,
      "▁mich": 4836,
      "▁agents": 4837,
      "▁Maybe": 4838,
      "▁menjadi": 4839,
      "▁possibility": 4840,
      "кий": 4841,
      "▁cow": 4842,
      "▁heads": 4843,
      "وع": 4844,
      "به": 4845,
      "▁jeans": 4846,
      "▁ocean": 4847,
      "▁hurt": 4848,
      "▁lain": 4849,
      "▁bere": 4850,
      "▁closer": 4851,
      "▁immediate": 4852,
      "▁lunch": 4853,
      "▁dy": 4854,
      "orie": 4855,
      "ansas": 4856,
      "▁drugs": 4857,
      "▁funding": 4858,
      "▁Indonesia": 4859,
      "▁partir": 4860,
      "▁trabajo": 4861,
      "oko": 4862,
      "▁films": 4863,
      "▁чи": 4864,
      "▁że": 4865,
      "▁turning": 4866,
      "▁Spain": 4867,
      "مع": 4868,
      "▁sensor": 4869,
      "▁receiving": 4870,
      "صل": 4871,
      "▁noticed": 4872,
      "▁gather": 4873,
      "ñas": 4874,
      "所有": 4875,
      "▁ciudad": 4876,
      "▁CEO": 4877,
      "▁fighting": 4878,
      "▁như": 4879,
      "فر": 4880,
      "าม": 4881,
      "▁considering": 4882,
      "zw": 4883,
      "▁están": 4884,
      "▁să": 4885,
      "▁bedroom": 4886,
      "▁Trade": 4887,
      "っている": 4888,
      "clock": 4889,
      "▁vas": 4890,
      "▁Coast": 4891,
      "mates": 4892,
      "▁इ": 4893,
      "▁上": 4894,
      "▁banks": 4895,
      "tez": 4896,
      "▁planned": 4897,
      "▁convert": 4898,
      "êu": 4899,
      "▁Canadian": 4900,
      "пы": 4901,
      "▁papers": 4902,
      "سب": 4903,
      "▁sempre": 4904,
      "▁полу": 4905,
      "开始": 4906,
      "von": 4907,
      "▁gang": 4908,
      "▁Illinois": 4909,
      "▁кар": 4910,
      "▁naj": 4911,
      "▁bem": 4912,
      "▁assets": 4913,
      "▁monde": 4914,
      "zą": 4915,
      "anos": 4916,
      "▁unable": 4917,
      "▁shares": 4918,
      "▁association": 4919,
      "▁verde": 4920,
      "▁hide": 4921,
      "▁importante": 4922,
      "▁ore": 4923,
      "▁findings": 4924,
      "▁ها": 4925,
      "▁comer": 4926,
      "▁thể": 4927,
      "▁الد": 4928,
      "▁minister": 4929,
      "▁ante": 4930,
      "▁waters": 4931,
      "▁storm": 4932,
      "ités": 4933,
      "▁Britain": 4934,
      "bama": 4935,
      "ças": 4936,
      "жде": 4937,
      "▁terror": 4938,
      "stage": 4939,
      "▁Justice": 4940,
      "▁algo": 4941,
      "▁filed": 4942,
      "▁apartment": 4943,
      "alar": 4944,
      "▁alive": 4945,
      "▁forever": 4946,
      "▁पर": 4947,
      "▁tener": 4948,
      "▁christmas": 4949,
      "ova": 4950,
      "otto": 4951,
      "▁suddenly": 4952,
      "中的": 4953,
      "ाल": 4954,
      "يات": 4955,
      "▁movies": 4956,
      "▁anywhere": 4957,
      "▁winning": 4958,
      "▁crazy": 4959,
      "▁moves": 4960,
      "▁faces": 4961,
      "▁bowl": 4962,
      "▁mira": 4963,
      "▁kes": 4964,
      "どう": 4965,
      "▁tomorrow": 4966,
      "▁مت": 4967,
      "▁strange": 4968,
      "▁avant": 4969,
      "▁можно": 4970,
      "▁mereka": 4971,
      "▁thu": 4972,
      "رة": 4973,
      "taj": 4974,
      "▁dice": 4975,
      "▁artis": 4976,
      "しました": 4977,
      "▁pounds": 4978,
      "▁ese": 4979,
      "▁alta": 4980,
      "▁guitar": 4981,
      "▁muito": 4982,
      "▁mü": 4983,
      "cow": 4984,
      "的是": 4985,
      "kie": 4986,
      "▁lá": 4987,
      "▁Prince": 4988,
      "▁tus": 4989,
      "提供": 4990,
      "▁nuclear": 4991,
      "يس": 4992,
      "▁cô": 4993,
      "▁quien": 4994,
      "aty": 4995,
      "▁executive": 4996,
      "्या": 4997,
      "▁Prime": 4998,
      "▁tahun": 4999,
      "▁grew": 5000,
      "▁cz": 5001,
      "كن": 5002,
      "▁مش": 5003,
      "▁carrying": 5004,
      "▁appointed": 5005,
      "ман": 5006,
      "▁était": 5007,
      "▁alert": 5008,
      "▁alleged": 5009,
      "▁Australian": 5010,
      "めて": 5011,
      "lista": 5012,
      "▁modo": 5013,
      "писа": 5014,
      "âm": 5015,
      "ней": 5016,
      "している": 5017,
      "leur": 5018,
      "ês": 5019,
      "▁meetings": 5020,
      "▁reverse": 5021,
      "▁без": 5022,
      "▁boost": 5023,
      "だった": 5024,
      "▁pointed": 5025,
      "▁enhance": 5026,
      "▁premier": 5027,
      "▁telling": 5028,
      "▁shoot": 5029,
      "▁nic": 5030,
      "▁để": 5031,
      "्ट": 5032,
      "tap": 5033,
      "▁メ": 5034,
      "▁linked": 5035,
      "▁encu": 5036,
      "▁Death": 5037,
      "▁オ": 5038,
      "▁pizza": 5039,
      "▁mà": 5040,
      "▁च": 5041,
      "▁kat": 5042,
      "▁gibt": 5043,
      "▁revenue": 5044,
      "▁continuing": 5045,
      "▁moins": 5046,
      "▁bạn": 5047,
      "▁victory": 5048,
      "▁Miller": 5049,
      "ché": 5050,
      "ダー": 5051,
      "inya": 5052,
      "▁instant": 5053,
      "▁machines": 5054,
      "▁rosa": 5055,
      "piel": 5056,
      "▁checked": 5057,
      "lis": 5058,
      "bach": 5059,
      "وج": 5060,
      "▁Still": 5061,
      "▁Ford": 5062,
      "▁supports": 5063,
      "▁devo": 5064,
      "يف": 5065,
      "▁話": 5066,
      "ej": 5067,
      "▁femme": 5068,
      "▁после": 5069,
      "▁trading": 5070,
      "هد": 5071,
      "記事": 5072,
      "▁centro": 5073,
      "▁calm": 5074,
      "▁dropped": 5075,
      "▁discount": 5076,
      "inho": 5077,
      "▁purchased": 5078,
      "▁draft": 5079,
      "起来": 5080,
      "tare": 5081,
      "▁gym": 5082,
      "клю": 5083,
      "▁fishing": 5084,
      "bud": 5085,
      "▁broke": 5086,
      "nar": 5087,
      "лай": 5088,
      "▁saat": 5089,
      "▁wen": 5090,
      "bara": 5091,
      "▁wid": 5092,
      "▁siempre": 5093,
      "▁ト": 5094,
      "ulus": 5095,
      "▁الك": 5096,
      "шь": 5097,
      "▁jam": 5098,
      "▁après": 5099,
      "▁dentro": 5100,
      "يت": 5101,
      "чу": 5102,
      "▁spending": 5103,
      "tores": 5104,
      "▁arts": 5105,
      "▁dla": 5106,
      "▁nada": 5107,
      "ität": 5108,
      "▁ó": 5109,
      "erie": 5110,
      "▁keine": 5111,
      "▁sek": 5112,
      "▁những": 5113,
      "▁realize": 5114,
      "يك": 5115,
      "▁waves": 5116,
      "▁Direct": 5117,
      "ือ": 5118,
      "akt": 5119,
      "▁bathroom": 5120,
      "▁shooting": 5121,
      "▁الإ": 5122,
      "ッチ": 5123,
      "▁pouvez": 5124,
      "▁nag": 5125,
      "▁manufacturing": 5126,
      "▁happening": 5127,
      "我的": 5128,
      "▁criminal": 5129,
      "できる": 5130,
      "คร": 5131,
      "nego": 5132,
      "▁kita": 5133,
      "▁Economic": 5134,
      "▁obten": 5135,
      "▁fare": 5136,
      "tigen": 5137,
      "ッド": 5138,
      "以上": 5139,
      "▁país": 5140,
      "esty": 5141,
      "▁bench": 5142,
      "▁grab": 5143,
      "▁mang": 5144,
      "▁apa": 5145,
      "▁estado": 5146,
      "▁apple": 5147,
      "▁flying": 5148,
      "▁claimed": 5149,
      "▁eso": 5150,
      "▁attacks": 5151,
      "▁engaged": 5152,
      "▁surgery": 5153,
      "ように": 5154,
      "けて": 5155,
      "رت": 5156,
      "▁их": 5157,
      "▁ingredients": 5158,
      "▁Greek": 5159,
      "▁approval": 5160,
      "▁य": 5161,
      "▁boots": 5162,
      "▁paying": 5163,
      "▁Fox": 5164,
      "▁rocks": 5165,
      "лее": 5166,
      "▁payments": 5167,
      "▁bang": 5168,
      "▁blank": 5169,
      "▁水": 5170,
      "قة": 5171,
      "▁arrive": 5172,
      "chter": 5173,
      "▁será": 5174,
      "اط": 5175,
      "▁listening": 5176,
      "▁strike": 5177,
      "etta": 5178,
      "▁massive": 5179,
      "▁keeps": 5180,
      "▁Korea": 5181,
      "▁Kong": 5182,
      "▁сле": 5183,
      "▁Summer": 5184,
      "▁laptop": 5185,
      "▁deposit": 5186,
      "▁destination": 5187,
      "▁google": 5188,
      "▁medio": 5189,
      "lings": 5190,
      "▁essere": 5191,
      "nez": 5192,
      "▁ام": 5193,
      "▁anymore": 5194,
      "▁television": 5195,
      "▁श": 5196,
      "▁replacement": 5197,
      "かり": 5198,
      "▁lub": 5199,
      "fte": 5200,
      "▁только": 5201,
      "▁اس": 5202,
      "表示": 5203,
      "▁mp": 5204,
      "ーン": 5205,
      "ีย": 5206,
      "▁ei": 5207,
      "如何": 5208,
      "▁purple": 5209,
      "▁western": 5210,
      "▁cara": 5211,
      "▁ки": 5212,
      "▁punto": 5213,
      "选择": 5214,
      "▁ти": 5215,
      "▁explanation": 5216,
      "▁fois": 5217,
      "▁एक": 5218,
      "▁facing": 5219,
      "▁dish": 5220,
      "▁operate": 5221,
      "▁cui": 5222,
      "้น": 5223,
      "▁weapons": 5224,
      "んだ": 5225,
      "kus": 5226,
      "▁hình": 5227,
      "▁escu": 5228,
      "▁gio": 5229,
      "▁drag": 5230,
      "▁niños": 5231,
      "▁bun": 5232,
      "▁nad": 5233,
      "▁гру": 5234,
      "دا": 5235,
      "▁Nigeria": 5236,
      "▁đã": 5237,
      "シャ": 5238,
      "allas": 5239,
      "icz": 5240,
      "्व": 5241,
      "▁extend": 5242,
      "▁Americans": 5243,
      "▁después": 5244,
      "дар": 5245,
      "iele": 5246,
      "▁typically": 5247,
      "▁anak": 5248,
      "▁tons": 5249,
      "▁streets": 5250,
      "▁cooking": 5251,
      "▁toute": 5252,
      "▁dow": 5253,
      "▁từ": 5254,
      "▁sauce": 5255,
      "▁тре": 5256,
      "なら": 5257,
      "▁electronic": 5258,
      "▁drinking": 5259,
      "▁hil": 5260,
      "ける": 5261,
      "ligent": 5262,
      "▁Ministry": 5263,
      "▁falls": 5264,
      "▁appointment": 5265,
      "▁abuse": 5266,
      "▁council": 5267,
      "▁hill": 5268,
      "▁persona": 5269,
      "▁correctly": 5270,
      "▁corporate": 5271,
      "▁falling": 5272,
      "▁politics": 5273,
      "▁loud": 5274,
      "▁Dead": 5275,
      "▁launched": 5276,
      "▁nove": 5277,
      "لف": 5278,
      "вого": 5279,
      "▁candidate": 5280,
      "▁الف": 5281,
      "▁saya": 5282,
      "▁días": 5283,
      "▁pak": 5284,
      "▁já": 5285,
      "шка": 5286,
      "▁reporting": 5287,
      "▁satisfied": 5288,
      "▁sera": 5289,
      "▁declared": 5290,
      "▁monthly": 5291,
      "▁furniture": 5292,
      "▁Would": 5293,
      "▁sudah": 5294,
      "▁topics": 5295,
      "▁pagina": 5296,
      "▁participation": 5297,
      "▁ハ": 5298,
      "のお": 5299,
      "▁toutes": 5300,
      "▁ohne": 5301,
      "acer": 5302,
      "▁activ": 5303,
      "cji": 5304,
      "▁normally": 5305,
      "▁requested": 5306,
      "▁hip": 5307,
      "▁nations": 5308,
      "▁tại": 5309,
      "кон": 5310,
      "▁cualquier": 5311,
      "▁somewhere": 5312,
      "▁scores": 5313,
      "▁euro": 5314,
      "设置": 5315,
      "ften": 5316,
      "▁हो": 5317,
      "▁Supreme": 5318,
      "▁mos": 5319,
      "▁finds": 5320,
      "eso": 5321,
      "inta": 5322,
      "▁nivel": 5323,
      "フィ": 5324,
      "▁Hong": 5325,
      "▁हैं": 5326,
      "▁ers": 5327,
      "่ง": 5328,
      "▁trace": 5329,
      "▁satu": 5330,
      "のか": 5331,
      "▁toda": 5332,
      "▁nose": 5333,
      "▁pulled": 5334,
      "▁crowd": 5335,
      "▁bomb": 5336,
      "▁primera": 5337,
      "について": 5338,
      "▁ร": 5339,
      "termin": 5340,
      "nten": 5341,
      "▁southern": 5342,
      "้อ": 5343,
      "▁Six": 5344,
      "خر": 5345,
      "▁sought": 5346,
      "▁Judge": 5347,
      "▁sessions": 5348,
      "▁gesch": 5349,
      "▁fitness": 5350,
      "▁polar": 5351,
      "▁marca": 5352,
      "▁hö": 5353,
      "▁worker": 5354,
      "▁ذ": 5355,
      "▁stupid": 5356,
      "▁ở": 5357,
      "▁mars": 5358,
      "▁luz": 5359,
      "▁和": 5360,
      "▁estas": 5361,
      "▁vai": 5362,
      "▁yours": 5363,
      "▁nome": 5364,
      "▁attended": 5365,
      "▁quit": 5366,
      "▁execution": 5367,
      "▁sia": 5368,
      "▁Instead": 5369,
      "zig": 5370,
      "▁làm": 5371,
      "▁Chemical": 5372,
      "▁calendar": 5373,
      "▁provider": 5374,
      "▁aircraft": 5375,
      "▁hatte": 5376,
      "цу": 5377,
      "▁kont": 5378,
      "▁terrible": 5379,
      "▁hol": 5380,
      "▁piano": 5381,
      "▁lighting": 5382,
      "تم": 5383,
      "▁directions": 5384,
      "▁stations": 5385,
      "▁ville": 5386,
      "▁tickets": 5387,
      "اص": 5388,
      "▁kiss": 5389,
      "上的": 5390,
      "食べ": 5391,
      "اج": 5392,
      "▁Iran": 5393,
      "▁vice": 5394,
      "tests": 5395,
      "вых": 5396,
      "▁decrease": 5397,
      "▁restrictions": 5398,
      "ステ": 5399,
      "▁ending": 5400,
      "がある": 5401,
      "رح": 5402,
      "▁bos": 5403,
      "ัง": 5404,
      "▁rapidly": 5405,
      "▁pants": 5406,
      "▁iphone": 5407,
      "▁sue": 5408,
      "▁rapp": 5409,
      "▁horas": 5410,
      "▁crash": 5411,
      "теля": 5412,
      "▁ships": 5413,
      "hana": 5414,
      "▁ile": 5415,
      "▁northern": 5416,
      "▁nearby": 5417,
      "▁winner": 5418,
      "▁công": 5419,
      "▁airport": 5420,
      "عة": 5421,
      "▁victim": 5422,
      "▁proposal": 5423,
      "▁リ": 5424,
      "▁reform": 5425,
      "▁finance": 5426,
      "▁dose": 5427,
      "▁fü": 5428,
      "▁Third": 5429,
      "▁wing": 5430,
      "▁pendant": 5431,
      "▁помо": 5432,
      "▁も": 5433,
      "▁مس": 5434,
      "好き": 5435,
      "▁Gun": 5436,
      "▁vier": 5437,
      "▁ahora": 5438,
      "licher": 5439,
      "関連": 5440,
      "▁cet": 5441,
      "▁avoir": 5442,
      "▁aten": 5443,
      "▁есть": 5444,
      "▁الص": 5445,
      "▁withdraw": 5446,
      "你的": 5447,
      "essen": 5448,
      "▁ты": 5449,
      "▁ก": 5450,
      "▁weapon": 5451,
      "▁này": 5452,
      "lez": 5453,
      "▁diver": 5454,
      "▁Money": 5455,
      "▁scheduled": 5456,
      "▁га": 5457,
      "▁verify": 5458,
      "▁automatic": 5459,
      "emo": 5460,
      "▁yard": 5461,
      "zd": 5462,
      "今日": 5463,
      "pete": 5464,
      "▁queue": 5465,
      "▁porta": 5466,
      "▁intelligence": 5467,
      "▁dining": 5468,
      "▁alles": 5469,
      "ला": 5470,
      "ही": 5471,
      "▁사": 5472,
      "▁causing": 5473,
      "好的": 5474,
      "▁الخ": 5475,
      "▁lying": 5476,
      "▁impression": 5477,
      "▁laboratory": 5478,
      "جع": 5479,
      "▁spor": 5480,
      "▁risks": 5481,
      "▁mate": 5482,
      "▁historia": 5483,
      "▁Georgia": 5484,
      "بار": 5485,
      "▁ana": 5486,
      "▁repeat": 5487,
      "▁suppose": 5488,
      "▁hits": 5489,
      "▁р": 5490,
      "▁lado": 5491,
      "更新": 5492,
      "▁contest": 5493,
      "arkan": 5494,
      "▁soldiers": 5495,
      "▁recu": 5496,
      "▁三": 5497,
      "ละ": 5498,
      "▁arrested": 5499,
      "▁Industrial": 5500,
      "▁ла": 5501,
      "▁legislation": 5502,
      "็น": 5503,
      "▁stuck": 5504,
      "ًا": 5505,
      "是否": 5506,
      "▁podr": 5507,
      "▁本": 5508,
      "▁sending": 5509,
      "▁visiting": 5510,
      "▁debate": 5511,
      "▁năm": 5512,
      "▁Senate": 5513,
      "▁fake": 5514,
      "لب": 5515,
      "tien": 5516,
      "を見": 5517,
      "▁لا": 5518,
      "ような": 5519,
      "зд": 5520,
      "क्": 5521,
      "▁би": 5522,
      "▁Diego": 5523,
      "▁pepper": 5524,
      "▁ห": 5525,
      "▁сер": 5526,
      "▁seperti": 5527,
      "▁breaking": 5528,
      "▁elected": 5529,
      "ره": 5530,
      "这里": 5531,
      "▁mistake": 5532,
      "zan": 5533,
      "された": 5534,
      "▁buf": 5535,
      "▁courts": 5536,
      "▁denied": 5537,
      "▁sees": 5538,
      "▁aquí": 5539,
      "▁twitter": 5540,
      "▁universe": 5541,
      "▁下": 5542,
      "▁beim": 5543,
      "zenia": 5544,
      "▁ж": 5545,
      "▁offices": 5546,
      "▁trick": 5547,
      "▁stronger": 5548,
      "▁Matt": 5549,
      "▁lista": 5550,
      "▁recur": 5551,
      "▁Say": 5552,
      "▁blanc": 5553,
      "▁ws": 5554,
      "▁restaurants": 5555,
      "▁nó": 5556,
      "▁telah": 5557,
      "▁Chairman": 5558,
      "▁thirty": 5559,
      "▁giant": 5560,
      "وف": 5561,
      "▁время": 5562,
      "▁Express": 5563,
      "▁будет": 5564,
      "вар": 5565,
      "的时候": 5566,
      "▁vou": 5567,
      "рии": 5568,
      "warz": 5569,
      "▁вер": 5570,
      "utan": 5571,
      "nica": 5572,
      "▁puis": 5573,
      "ufen": 5574,
      "▁recognize": 5575,
      "▁pose": 5576,
      "ổi": 5577,
      "▁mí": 5578,
      "дом": 5579,
      "kur": 5580,
      "情報": 5581,
      "เป": 5582,
      "▁tired": 5583,
      "▁Foreign": 5584,
      "umm": 5585,
      "▁identification": 5586,
      "لة": 5587,
      "必要": 5588,
      "wor": 5589,
      "と思います": 5590,
      "inium": 5591,
      "▁socket": 5592,
      "▁sei": 5593,
      "▁Must": 5594,
      "न्": 5595,
      "▁demands": 5596,
      "▁было": 5597,
      "▁wins": 5598,
      "▁ella": 5599,
      "nym": 5600,
      "▁há": 5601,
      "▁mood": 5602,
      "▁dụng": 5603,
      "一下": 5604,
      "▁jury": 5605,
      "▁tutti": 5606,
      "тин": 5607,
      "▁sons": 5608,
      "нее": 5609,
      "▁beam": 5610,
      "▁nhà": 5611,
      "▁gay": 5612,
      "าน": 5613,
      "▁về": 5614,
      "▁shouldn": 5615,
      "▁Delhi": 5616,
      "▁ло": 5617,
      "▁programa": 5618,
      "▁nueva": 5619,
      "▁有": 5620,
      "▁zap": 5621,
      "ei": 5622,
      "▁banyak": 5623,
      "▁кла": 5624,
      "stag": 5625,
      "▁Among": 5626,
      "▁обла": 5627,
      "▁anterior": 5628,
      "不要": 5629,
      "hole": 5630,
      "▁artificial": 5631,
      "▁attorney": 5632,
      "antas": 5633,
      "▁lieu": 5634,
      "▁clay": 5635,
      "▁تح": 5636,
      "▁Sept": 5637,
      "ते": 5638,
      "▁consequences": 5639,
      "chu": 5640,
      "▁venti": 5641,
      "▁degli": 5642,
      "▁soit": 5643,
      "▁dollar": 5644,
      "▁horses": 5645,
      "▁HP": 5646,
      "▁expectations": 5647,
      "▁intensity": 5648,
      "▁dre": 5649,
      "▁plug": 5650,
      "きます": 5651,
      "nio": 5652,
      "▁até": 5653,
      "▁zwei": 5654,
      "▁hoping": 5655,
      "eci": 5656,
      "之后": 5657,
      "▁télé": 5658,
      "以下": 5659,
      "▁deve": 5660,
      "▁Captain": 5661,
      "▁cooperation": 5662,
      "になる": 5663,
      "▁tourist": 5664,
      "▁speaker": 5665,
      "▁involving": 5666,
      "▁Pennsylvania": 5667,
      "▁jako": 5668,
      "вить": 5669,
      "▁Asian": 5670,
      "▁guilty": 5671,
      "▁anh": 5672,
      "نت": 5673,
      "▁Five": 5674,
      "льный": 5675,
      "▁talks": 5676,
      "▁zona": 5677,
      "▁salary": 5678,
      "▁resolve": 5679,
      "▁opposition": 5680,
      "▁asi": 5681,
      "▁hopes": 5682,
      "▁silence": 5683,
      "estas": 5684,
      "▁entering": 5685,
      "dek": 5686,
      "▁modify": 5687,
      "▁robot": 5688,
      "nehmen": 5689,
      "▁quest": 5690,
      "▁checking": 5691,
      "▁تع": 5692,
      "▁desta": 5693,
      "▁usar": 5694,
      "▁burning": 5695,
      "▁đến": 5696,
      "▁trên": 5697,
      "▁tracks": 5698,
      "▁beste": 5699,
      "werk": 5700,
      "▁Pakistan": 5701,
      "▁recall": 5702,
      "▁Colorado": 5703,
      "▁everyday": 5704,
      "шу": 5705,
      "▁attempts": 5706,
      "لو": 5707,
      "▁Papers": 5708,
      "▁fifth": 5709,
      "▁café": 5710,
      "بد": 5711,
      "▁usa": 5712,
      "▁killing": 5713,
      "这是": 5714,
      "▁anderen": 5715,
      "▁weekly": 5716,
      "▁wings": 5717,
      "▁очень": 5718,
      "▁wake": 5719,
      "▁isso": 5720,
      "▁cafe": 5721,
      "▁province": 5722,
      "áo": 5723,
      "▁hàng": 5724,
      "▁intense": 5725,
      "▁troops": 5726,
      "▁maison": 5727,
      "▁ano": 5728,
      "▁swimming": 5729,
      "ใน": 5730,
      "▁bunch": 5731,
      "▁limp": 5732,
      "telle": 5733,
      "▁molto": 5734,
      "▁सम": 5735,
      "▁Jordan": 5736,
      "ilia": 5737,
      "bran": 5738,
      "▁chaque": 5739,
      "▁sword": 5740,
      "▁ros": 5741,
      "▁чтобы": 5742,
      "▁decir": 5743,
      "▁tonight": 5744,
      "の中": 5745,
      "▁Ryan": 5746,
      "มี": 5747,
      "▁diesem": 5748,
      "▁aged": 5749,
      "▁nhất": 5750,
      "่น": 5751,
      "▁crypto": 5752,
      "▁tablet": 5753,
      "ให": 5754,
      "▁वि": 5755,
      "▁меня": 5756,
      "▁mia": 5757,
      "igi": 5758,
      "▁ordin": 5759,
      "▁jusqu": 5760,
      "▁refused": 5761,
      "▁tema": 5762,
      "▁saber": 5763,
      "▁talked": 5764,
      "▁dalla": 5765,
      "▁welche": 5766,
      "yah": 5767,
      "▁quelques": 5768,
      "▁currency": 5769,
      "▁vào": 5770,
      "▁racing": 5771,
      "▁joke": 5772,
      "▁llama": 5773,
      "▁seal": 5774,
      "дно": 5775,
      "ские": 5776,
      "▁fazer": 5777,
      "▁injured": 5778,
      "▁ate": 5779,
      "事情": 5780,
      "▁уже": 5781,
      "▁ladies": 5782,
      "▁Ukraine": 5783,
      "ได้": 5784,
      "▁pend": 5785,
      "▁cosa": 5786,
      "им": 5787,
      "ไม่": 5788,
      "ieder": 5789,
      "▁dub": 5790,
      "▁closing": 5791,
      "▁resident": 5792,
      "री": 5793,
      "ัก": 5794,
      "▁लिए": 5795,
      "▁ska": 5796,
      "▁ani": 5797,
      "ằng": 5798,
      "朋友": 5799,
      "▁Peace": 5800,
      "▁在": 5801,
      "▁fiscal": 5802,
      "ケット": 5803,
      "▁knife": 5804,
      "▁investors": 5805,
      "▁facebook": 5806,
      "ナー": 5807,
      "▁holy": 5808,
      "▁hanging": 5809,
      "ają": 5810,
      "▁tracking": 5811,
      "▁esa": 5812,
      "▁gained": 5813,
      "ód": 5814,
      "▁nunca": 5815,
      "▁น": 5816,
      "▁dimin": 5817,
      "▁kami": 5818,
      "パー": 5819,
      "▁Eric": 5820,
      "▁queen": 5821,
      "▁targets": 5822,
      "mie": 5823,
      "▁etwas": 5824,
      "▁performing": 5825,
      "liga": 5826,
      "رات": 5827,
      "lette": 5828,
      "良い": 5829,
      "▁czy": 5830,
      "ले": 5831,
      "▁kepada": 5832,
      "posta": 5833,
      "▁harus": 5834,
      "▁compensation": 5835,
      "utos": 5836,
      "▁fraud": 5837,
      "▁hasn": 5838,
      "▁pole": 5839,
      "ของ": 5840,
      "orum": 5841,
      "▁territory": 5842,
      "agra": 5843,
      "▁Brazil": 5844,
      "▁Singapore": 5845,
      "▁limitations": 5846,
      "那么": 5847,
      "▁bers": 5848,
      "cja": 5849,
      "iva": 5850,
      "▁hari": 5851,
      "▁ears": 5852,
      "bee": 5853,
      "zenie": 5854,
      "▁checks": 5855,
      "▁confident": 5856,
      "▁cats": 5857,
      "▁بد": 5858,
      "▁ض": 5859,
      "▁belle": 5860,
      "▁ihn": 5861,
      "▁accused": 5862,
      "▁cosas": 5863,
      "▁settlement": 5864,
      "▁cents": 5865,
      "▁voir": 5866,
      "anta": 5867,
      "▁autre": 5868,
      "▁vegetables": 5869,
      "berapa": 5870,
      "chas": 5871,
      "sier": 5872,
      "ิน": 5873,
      "一起": 5874,
      "▁uw": 5875,
      "▁если": 5876,
      "▁probable": 5877,
      "▁cả": 5878,
      "▁servicio": 5879,
      "▁cé": 5880,
      "▁moi": 5881,
      "▁Transfer": 5882,
      "▁بن": 5883,
      "スク": 5884,
      "▁ド": 5885,
      "▁frequent": 5886,
      "▁desper": 5887,
      "ẹp": 5888,
      "先生": 5889,
      "▁ici": 5890,
      "还有": 5891,
      "ylon": 5892,
      "▁applying": 5893,
      "▁chip": 5894,
      "▁luc": 5895,
      "رس": 5896,
      "▁refund": 5897,
      "шки": 5898,
      "▁الذ": 5899,
      "▁frozen": 5900,
      "▁arrest": 5901,
      "▁diam": 5902,
      "情况": 5903,
      "▁cerca": 5904,
      "▁目": 5905,
      "▁ngh": 5906,
      "assa": 5907,
      "با": 5908,
      "▁जा": 5909,
      "▁vacation": 5910,
      "▁ша": 5911,
      "希望": 5912,
      "anty": 5913,
      "▁デ": 5914,
      "▁illegal": 5915,
      "▁silent": 5916,
      "▁день": 5917,
      "▁lại": 5918,
      "喜欢": 5919,
      "िय": 5920,
      "▁glasses": 5921,
      "▁telephone": 5922,
      "▁был": 5923,
      "▁Brian": 5924,
      "▁ボ": 5925,
      "▁memiliki": 5926,
      "▁riding": 5927,
      "▁تو": 5928,
      "▁hora": 5929,
      "▁decline": 5930,
      "▁सा": 5931,
      "▁mart": 5932,
      "мени": 5933,
      "▁jours": 5934,
      "album": 5935,
      "▁earned": 5936,
      "كت": 5937,
      "▁vide": 5938,
      "▁cũ": 5939,
      "▁shore": 5940,
      "▁garage": 5941,
      "▁opens": 5942,
      "▁researchers": 5943,
      "▁Attorney": 5944,
      "▁chef": 5945,
      "▁cómo": 5946,
      "▁пол": 5947,
      "▁că": 5948,
      "▁wondering": 5949,
      "acz": 5950,
      "menti": 5951,
      "▁sleeping": 5952,
      "▁puts": 5953,
      "▁ค": 5954,
      "▁家": 5955,
      "▁sangat": 5956,
      "▁cao": 5957,
      "▁bell": 5958,
      "▁số": 5959,
      "▁ça": 5960,
      "▁hoy": 5961,
      "▁smartphone": 5962,
      "▁التي": 5963,
      "▁suis": 5964,
      "▁vita": 5965,
      "▁xe": 5966,
      "▁diri": 5967,
      "イト": 5968,
      "▁بعد": 5969,
      "▁concert": 5970,
      "▁yoga": 5971,
      "▁chez": 5972,
      "▁confused": 5973,
      "مة": 5974,
      "▁Corp": 5975,
      "▁są": 5976,
      "▁тем": 5977,
      "eln": 5978,
      "▁protest": 5979,
      "▁mercado": 5980,
      "▁hai": 5981,
      "▁crucial": 5982,
      "rene": 5983,
      "▁mobil": 5984,
      "▁zwischen": 5985,
      "▁อ": 5986,
      "▁Sant": 5987,
      "▁Could": 5988,
      "▁mesmo": 5989,
      "▁그": 5990,
      "▁faced": 5991,
      "▁مق": 5992,
      "اري": 5993,
      "▁kho": 5994,
      "▁faz": 5995,
      "▁assistant": 5996,
      "▁baik": 5997,
      "▁struck": 5998,
      "urre": 5999,
      "▁keyboard": 6000,
      "kam": 6001,
      "▁đầu": 6002,
      "เร": 6003,
      "▁ث": 6004,
      "▁Egypt": 6005,
      "▁allen": 6006,
      "▁быть": 6007,
      "▁فر": 6008,
      "りの": 6009,
      "▁Exchange": 6010,
      "лич": 6011,
      "▁victims": 6012,
      "▁мне": 6013,
      "▁sẽ": 6014,
      "▁kim": 6015,
      "anno": 6016,
      "RR": 6017,
      "▁山": 6018,
      "▁feeding": 6019,
      "▁geht": 6020,
      "▁ngày": 6021,
      "▁signals": 6022,
      "▁semana": 6023,
      "▁đó": 6024,
      "से": 6025,
      "ंग": 6026,
      "▁чем": 6027,
      "▁bị": 6028,
      "▁transactions": 6029,
      "▁qua": 6030,
      "的な": 6031,
      "▁Close": 6032,
      "▁ロ": 6033,
      "▁suspect": 6034,
      "然后": 6035,
      "▁visits": 6036,
      "▁canal": 6037,
      "▁newspaper": 6038,
      "▁governments": 6039,
      "▁doctors": 6040,
      "▁они": 6041,
      "cada": 6042,
      "▁libro": 6043,
      "▁wanna": 6044,
      "▁travail": 6045,
      "rz": 6046,
      "▁abroad": 6047,
      "もう": 6048,
      "▁bajo": 6049,
      "▁paris": 6050,
      "ками": 6051,
      "▁machen": 6052,
      "▁rebel": 6053,
      "▁penalty": 6054,
      "▁trois": 6055,
      "▁avez": 6056,
      "▁twelve": 6057,
      "▁二": 6058,
      "▁bild": 6059,
      "▁timer": 6060,
      "▁lemon": 6061,
      "▁strategic": 6062,
      "pok": 6063,
      "▁rouge": 6064,
      "lett": 6065,
      "▁scenario": 6066,
      "に入": 6067,
      "▁employer": 6068,
      "ności": 6069,
      "▁hanya": 6070,
      "prod": 6071,
      "▁اف": 6072,
      "▁breaks": 6073,
      "▁gia": 6074,
      "▁secara": 6075,
      "▁stato": 6076,
      "▁Empire": 6077,
      "更多": 6078,
      "▁swit": 6079,
      "▁questa": 6080,
      "▁rumah": 6081,
      "▁seller": 6082,
      "▁ख": 6083,
      "nika": 6084,
      "▁vivo": 6085,
      "▁поло": 6086,
      "มา": 6087,
      "▁membuat": 6088,
      "▁cuts": 6089,
      "iesz": 6090,
      "現在": 6091,
      "▁orden": 6092,
      "▁nhiều": 6093,
      "desh": 6094,
      "▁Dean": 6095,
      "▁Dutch": 6096,
      "▁ต": 6097,
      "▁пло": 6098,
      "▁petit": 6099,
      "▁soup": 6100,
      "▁folk": 6101,
      "قي": 6102,
      "▁dich": 6103,
      "▁Seven": 6104,
      "▁counts": 6105,
      "▁wallet": 6106,
      "▁pus": 6107,
      "▁Constitution": 6108,
      "▁conna": 6109,
      "▁الط": 6110,
      "▁thành": 6111,
      "▁있": 6112,
      "▁أو": 6113,
      "ском": 6114,
      "いつ": 6115,
      "▁historic": 6116,
      "fund": 6117,
      "あった": 6118,
      "▁â": 6119,
      "وار": 6120,
      "нок": 6121,
      "▁notification": 6122,
      "▁vessels": 6123,
      "▁lawyer": 6124,
      "▁Monte": 6125,
      "▁singing": 6126,
      "▁tutto": 6127,
      "▁elections": 6128,
      "▁rolling": 6129,
      "▁swing": 6130,
      "▁anniversary": 6131,
      "▁euros": 6132,
      "▁роз": 6133,
      "тере": 6134,
      "▁地": 6135,
      "▁sheep": 6136,
      "▁buena": 6137,
      "▁worried": 6138,
      "▁skip": 6139,
      "▁Turkey": 6140,
      "▁locked": 6141,
      "▁rival": 6142,
      "▁olive": 6143,
      "▁天": 6144,
      "觉得": 6145,
      "▁много": 6146,
      "يز": 6147,
      "ecz": 6148,
      "▁sour": 6149,
      "▁которые": 6150,
      "▁फ": 6151,
      "▁doit": 6152,
      "▁transferred": 6153,
      "▁nä": 6154,
      "▁disco": 6155,
      "▁đẹp": 6156,
      "▁BBC": 6157,
      "▁Linux": 6158,
      "▁Indiana": 6159,
      "ских": 6160,
      "▁upcoming": 6161,
      "▁USD": 6162,
      "▁Islam": 6163,
      "▁Navy": 6164,
      "▁basketball": 6165,
      "ว่า": 6166,
      "DJ": 6167,
      "▁baru": 6168,
      "tition": 6169,
      "▁smiling": 6170,
      "owo": 6171,
      "cano": 6172,
      "プロ": 6173,
      "▁этом": 6174,
      "▁mois": 6175,
      "щения": 6176,
      "▁encontra": 6177,
      "▁Portugal": 6178,
      "▁Everyone": 6179,
      "▁quand": 6180,
      "める": 6181,
      "▁nobody": 6182,
      "▁علي": 6183,
      "▁ropa": 6184,
      "▁chances": 6185,
      "मा": 6186,
      "▁makeup": 6187,
      "قل": 6188,
      "лом": 6189,
      "▁gaz": 6190,
      "との": 6191,
      "▁chỉ": 6192,
      "▁frente": 6193,
      "▁Woman": 6194,
      "▁tear": 6195,
      "一些": 6196,
      "▁roku": 6197,
      "हा": 6198,
      "▁zwe": 6199,
      "tellung": 6200,
      "▁american": 6201,
      "▁floating": 6202,
      "▁хоро": 6203,
      "▁mejores": 6204,
      "▁sinh": 6205,
      "▁colored": 6206,
      "▁neue": 6207,
      "▁producer": 6208,
      "▁phi": 6209,
      "ني": 6210,
      "▁rated": 6211,
      "edd": 6212,
      "▁Sri": 6213,
      "▁外": 6214,
      "▁全": 6215,
      "▁Howard": 6216,
      "▁alarm": 6217,
      "▁dove": 6218,
      "▁aby": 6219,
      "持ち": 6220,
      "رار": 6221,
      "▁jamais": 6222,
      "▁meets": 6223,
      "▁minutos": 6224,
      "▁exports": 6225,
      "▁brick": 6226,
      "▁fifty": 6227,
      "▁entra": 6228,
      "قت": 6229,
      "▁singer": 6230,
      "zerland": 6231,
      "▁encontrar": 6232,
      "▁еще": 6233,
      "▁нет": 6234,
      "▁会": 6235,
      "▁kä": 6236,
      "▁conventional": 6237,
      "▁дела": 6238,
      "▁eastern": 6239,
      "▁salon": 6240,
      "mez": 6241,
      "▁charging": 6242,
      "▁ミ": 6243,
      "اض": 6244,
      "▁finden": 6245,
      "▁quan": 6246,
      "عب": 6247,
      "▁cambi": 6248,
      "▁эти": 6249,
      "▁pok": 6250,
      "due": 6251,
      "azioni": 6252,
      "▁deaths": 6253,
      "▁acceptable": 6254,
      "ète": 6255,
      "के": 6256,
      "しています": 6257,
      "▁وت": 6258,
      "سي": 6259,
      "▁xu": 6260,
      "kop": 6261,
      "▁dieses": 6262,
      "▁Costa": 6263,
      "▁stocks": 6264,
      "▁sunset": 6265,
      "▁Tokyo": 6266,
      "रा": 6267,
      "▁pec": 6268,
      "▁haut": 6269,
      "oa": 6270,
      "▁تم": 6271,
      "▁giá": 6272,
      "atas": 6273,
      "▁Kansas": 6274,
      "▁hanno": 6275,
      "▁veces": 6276,
      "▁इस": 6277,
      "▁zurück": 6278,
      "цию": 6279,
      "今天": 6280,
      "بت": 6281,
      "utar": 6282,
      "amenti": 6283,
      "▁muss": 6284,
      "เล": 6285,
      "enc": 6286,
      "▁attempted": 6287,
      "angkan": 6288,
      "▁joining": 6289,
      "▁nouveau": 6290,
      "▁initiative": 6291,
      "▁kau": 6292,
      "▁receiver": 6293,
      "▁incorrect": 6294,
      "▁она": 6295,
      "▁Miami": 6296,
      "▁mau": 6297,
      "▁smoking": 6298,
      "hub": 6299,
      "▁destruction": 6300,
      "▁sink": 6301,
      "▁enfants": 6302,
      "uka": 6303,
      "▁dz": 6304,
      "▁просто": 6305,
      "тора": 6306,
      "▁nast": 6307,
      "▁Tell": 6308,
      "atra": 6309,
      "▁cabinet": 6310,
      "▁fired": 6311,
      "كل": 6312,
      "▁memes": 6313,
      "หน": 6314,
      "▁genre": 6315,
      "▁youtube": 6316,
      "▁angel": 6317,
      "ती": 6318,
      "▁mio": 6319,
      "▁最": 6320,
      "▁noche": 6321,
      "的话": 6322,
      "▁dancing": 6323,
      "اخ": 6324,
      "▁pasta": 6325,
      "▁luego": 6326,
      "应该": 6327,
      "رض": 6328,
      "▁activation": 6329,
      "▁quanto": 6330,
      "ários": 6331,
      "▁tennis": 6332,
      "ことを": 6333,
      "▁lets": 6334,
      "▁bie": 6335,
      "oka": 6336,
      "▁수": 6337,
      "จะ": 6338,
      "▁diz": 6339,
      "▁tren": 6340,
      "chs": 6341,
      "▁cours": 6342,
      "▁jetzt": 6343,
      "▁novo": 6344,
      "▁makan": 6345,
      "▁tire": 6346,
      "▁przez": 6347,
      "いく": 6348,
      "▁speakers": 6349,
      "▁puedes": 6350,
      "▁senza": 6351,
      "▁gotten": 6352,
      "▁existe": 6353,
      "▁ceiling": 6354,
      "عل": 6355,
      "▁seguir": 6356,
      "▁Hey": 6357,
      "▁première": 6358,
      "ิด": 6359,
      "का": 6360,
      "स्": 6361,
      "される": 6362,
      "ках": 6363,
      "▁พ": 6364,
      "▁rejected": 6365,
      "▁fecha": 6366,
      "ню": 6367,
      "▁humor": 6368,
      "에서": 6369,
      "▁nghi": 6370,
      "kir": 6371,
      "▁shorts": 6372,
      "ifik": 6373,
      "▁động": 6374,
      "hui": 6375,
      "ति": 6376,
      "gend": 6377,
      "▁Vietnam": 6378,
      "▁ダ": 6379,
      "وي": 6380,
      "▁Houston": 6381,
      "▁presidente": 6382,
      "▁magnitude": 6383,
      "▁volta": 6384,
      "ут": 6385,
      "อย": 6386,
      "▁أي": 6387,
      "ях": 6388,
      "创建": 6389,
      "лин": 6390,
      "ское": 6391,
      "▁apenas": 6392,
      "▁passe": 6393,
      "▁cách": 6394,
      "▁aos": 6395,
      "▁cic": 6396,
      "▁nước": 6397,
      "▁когда": 6398,
      "▁recherche": 6399,
      "▁agar": 6400,
      "▁beberapa": 6401,
      "▁dirty": 6402,
      "ี้": 6403,
      "▁色": 6404,
      "▁baseball": 6405,
      "▁Nelson": 6406,
      "▁нас": 6407,
      "▁Jews": 6408,
      "▁somebody": 6409,
      "اً": 6410,
      "ビー": 6411,
      "▁сред": 6412,
      "▁Train": 6413,
      "▁música": 6414,
      "▁savoir": 6415,
      "▁pound": 6416,
      "▁york": 6417,
      "ración": 6418,
      "▁buen": 6419,
      "ốt": 6420,
      "▁united": 6421,
      "料理": 6422,
      "क्ष": 6423,
      "tador": 6424,
      "าง": 6425,
      "▁vacuum": 6426,
      "人の": 6427,
      "▁envi": 6428,
      "▁bob": 6429,
      "gabe": 6430,
      "zent": 6431,
      "▁انت": 6432,
      "بع": 6433,
      "▁sự": 6434,
      "▁가": 6435,
      "دي": 6436,
      "▁sulla": 6437,
      "两个": 6438,
      "▁novembre": 6439,
      "▁mim": 6440,
      "▁dod": 6441,
      "▁ケ": 6442,
      "वा": 6443,
      "▁kaw": 6444,
      "▁الر": 6445,
      "▁armed": 6446,
      "▁resolved": 6447,
      "▁regime": 6448,
      "▁weiß": 6449,
      "▁Cash": 6450,
      "▁beside": 6451,
      "łą": 6452,
      "▁более": 6453,
      "▁melhor": 6454,
      "bah": 6455,
      "▁forecast": 6456,
      "▁自": 6457,
      "▁Several": 6458,
      "添加": 6459,
      "icia": 6460,
      "▁weakness": 6461,
      "▁того": 6462,
      "▁hou": 6463,
      "iendo": 6464,
      "angi": 6465,
      "▁सं": 6466,
      "ensch": 6467,
      "▁pasado": 6468,
      "▁landing": 6469,
      "▁ken": 6470,
      "▁rush": 6471,
      "活动": 6472,
      "▁numero": 6473,
      "▁stan": 6474,
      "▁japan": 6475,
      "▁captured": 6476,
      "▁году": 6477,
      "▁zam": 6478,
      "▁świ": 6479,
      "▁ties": 6480,
      "▁processed": 6481,
      "少し": 6482,
      "▁Korean": 6483,
      "▁의": 6484,
      "▁besar": 6485,
      "▁forgotten": 6486,
      "▁特": 6487,
      "▁lagi": 6488,
      "▁paso": 6489,
      "▁marzo": 6490,
      "▁テ": 6491,
      "شت": 6492,
      "को": 6493,
      "▁ป": 6494,
      "▁الله": 6495,
      "▁Netherlands": 6496,
      "▁Beng": 6497,
      "显示": 6498,
      "▁lecture": 6499,
      "▁governor": 6500,
      "▁atas": 6501,
      "▁ersten": 6502,
      "▁nhân": 6503,
      "▁chu": 6504,
      "▁tries": 6505,
      "▁Dow": 6506,
      "▁아": 6507,
      "任何": 6508,
      "▁nei": 6509,
      "▁bureau": 6510,
      "▁agenda": 6511,
      "▁scha": 6512,
      "▁profits": 6513,
      "▁separately": 6514,
      "ื่อ": 6515,
      "▁secretary": 6516,
      "▁criticism": 6517,
      "▁disponible": 6518,
      "▁Reserve": 6519,
      "▁migration": 6520,
      "▁forty": 6521,
      "▁金": 6522,
      "عم": 6523,
      "▁rendre": 6524,
      "▁Fed": 6525,
      "▁masa": 6526,
      "删除": 6527,
      "文章": 6528,
      "今年": 6529,
      "asset": 6530,
      "▁searched": 6531,
      "▁sic": 6532,
      "▁hast": 6533,
      "▁イン": 6534,
      "วย": 6535,
      "▁reflected": 6536,
      "▁هو": 6537,
      "▁damages": 6538,
      "▁tarde": 6539,
      "▁romantic": 6540,
      "▁chuy": 6541,
      "▁lis": 6542,
      "▁Moscow": 6543,
      "▁Malaysia": 6544,
      "▁hiện": 6545,
      "▁desktop": 6546,
      "があります": 6547,
      "▁propose": 6548,
      "▁هذا": 6549,
      "้ง": 6550,
      "▁classical": 6551,
      "▁gian": 6552,
      "プリ": 6553,
      "▁tomada": 6554,
      "▁meu": 6555,
      "▁segunda": 6556,
      "▁Bush": 6557,
      "▁hoa": 6558,
      "льные": 6559,
      "▁remarks": 6560,
      "िया": 6561,
      "ड़": 6562,
      "owi": 6563,
      "rais": 6564,
      "spre": 6565,
      "نس": 6566,
      "шей": 6567,
      "事件": 6568,
      "▁carro": 6569,
      "▁semua": 6570,
      "▁diesen": 6571,
      "よく": 6572,
      "ọn": 6573,
      "▁oldest": 6574,
      "▁kec": 6575,
      "▁aust": 6576,
      "▁feliz": 6577,
      "▁ogni": 6578,
      "وال": 6579,
      "เป็น": 6580,
      "▁نظ": 6581,
      "▁mold": 6582,
      "▁viele": 6583,
      "▁ने": 6584,
      "้อง": 6585,
      "zik": 6586,
      "▁dorm": 6587,
      "参加": 6588,
      "▁chairman": 6589,
      "หล": 6590,
      "rador": 6591,
      "▁earnings": 6592,
      "▁walks": 6593,
      "▁imb": 6594,
      "▁viene": 6595,
      "▁italian": 6596,
      "ческий": 6597,
      "▁cuisine": 6598,
      "ไป": 6599,
      "atorio": 6600,
      "▁onde": 6601,
      "▁woods": 6602,
      "▁nearest": 6603,
      "йти": 6604,
      "▁sala": 6605,
      "▁aimed": 6606,
      "▁usu": 6607,
      "▁constitution": 6608,
      "▁から": 6609,
      "อก": 6610,
      "чный": 6611,
      "▁bonne": 6612,
      "状态": 6613,
      "▁jail": 6614,
      "での": 6615,
      "▁sabe": 6616,
      "▁prince": 6617,
      "▁dias": 6618,
      "▁mug": 6619,
      "▁nouvelle": 6620,
      "▁dés": 6621,
      "مت": 6622,
      "كات": 6623,
      "▁tôi": 6624,
      "اني": 6625,
      "▁fuera": 6626,
      "▁モ": 6627,
      "▁traveling": 6628,
      "▁キ": 6629,
      "▁следу": 6630,
      "▁intervals": 6631,
      "▁Mall": 6632,
      "▁amigos": 6633,
      "يع": 6634,
      "一次": 6635,
      "▁violent": 6636,
      "▁stays": 6637,
      "▁gì": 6638,
      "国家": 6639,
      "▁жен": 6640,
      "▁suspended": 6641,
      "▁blast": 6642,
      "▁poi": 6643,
      "ização": 6644,
      "▁mortgage": 6645,
      "最近": 6646,
      "▁シャ": 6647,
      "▁dall": 6648,
      "▁headed": 6649,
      "▁público": 6650,
      "▁fiesta": 6651,
      "みたい": 6652,
      "▁المت": 6653,
      "▁nell": 6654,
      "▁Defense": 6655,
      "▁saja": 6656,
      "▁thế": 6657,
      "▁melo": 6658,
      "▁amid": 6659,
      "▁tym": 6660,
      "िल": 6661,
      "▁出": 6662,
      "▁bottles": 6663,
      "▁chính": 6664,
      "▁этого": 6665,
      "▁mới": 6666,
      "▁rescue": 6667,
      "控制": 6668,
      "▁ท": 6669,
      "▁لم": 6670,
      "东西": 6671,
      "حت": 6672,
      "▁refuse": 6673,
      "▁passenger": 6674,
      "▁gloves": 6675,
      "▁europe": 6676,
      "▁dopo": 6677,
      "設定": 6678,
      "▁voting": 6679,
      "tungen": 6680,
      "▁sofa": 6681,
      "▁Obama": 6682,
      "▁dialogue": 6683,
      "obi": 6684,
      "▁gains": 6685,
      "▁Strong": 6686,
      "▁complaints": 6687,
      "▁zak": 6688,
      "▁área": 6689,
      "kah": 6690,
      "endas": 6691,
      "ัด": 6692,
      "чь": 6693,
      "列表": 6694,
      "▁computers": 6695,
      "issez": 6696,
      "▁madre": 6697,
      "▁kết": 6698,
      "▁màu": 6699,
      "▁ジャ": 6700,
      "▁kir": 6701,
      "ưa": 6702,
      "▁anda": 6703,
      "คว": 6704,
      "▁โ": 6705,
      "▁prendre": 6706,
      "▁assault": 6707,
      "▁livre": 6708,
      "▁informations": 6709,
      "▁नहीं": 6710,
      "オン": 6711,
      "に行": 6712,
      "▁ラ": 6713,
      "▁halloween": 6714,
      "▁Republican": 6715,
      "▁fox": 6716,
      "▁台": 6717,
      "▁drei": 6718,
      "▁وأ": 6719,
      "▁mixing": 6720,
      "▁müssen": 6721,
      "▁zna": 6722,
      "▁abra": 6723,
      "لين": 6724,
      "▁화": 6725,
      "▁ruling": 6726,
      "кова": 6727,
      "▁dirt": 6728,
      "▁passengers": 6729,
      "▁ż": 6730,
      "▁nova": 6731,
      "感觉": 6732,
      "▁garlic": 6733,
      "▁thích": 6734,
      "▁ngo": 6735,
      "▁buried": 6736,
      "▁mati": 6737,
      "▁луч": 6738,
      "▁Cuba": 6739,
      "ภา": 6740,
      "▁esse": 6741,
      "▁Greece": 6742,
      "▁planes": 6743,
      "zne": 6744,
      "▁rapport": 6745,
      "▁forte": 6746,
      "▁soldier": 6747,
      "▁tej": 6748,
      "開始": 6749,
      "▁او": 6750,
      "ร์": 6751,
      "▁tune": 6752,
      "美国": 6753,
      "▁hello": 6754,
      "▁jap": 6755,
      "▁engra": 6756,
      "▁lion": 6757,
      "дель": 6758,
      "▁llevar": 6759,
      "ueba": 6760,
      "介绍": 6761,
      "▁hợp": 6762,
      "▁تن": 6763,
      "▁parece": 6764,
      "▁Democratic": 6765,
      "▁resultado": 6766,
      "▁dressed": 6767,
      "▁pending": 6768,
      "يرة": 6769,
      "▁где": 6770,
      "▁我": 6771,
      "▁potatoes": 6772,
      "▁median": 6773,
      "▁naz": 6774,
      "▁dois": 6775,
      "▁fence": 6776,
      "▁あ": 6777,
      "▁preference": 6778,
      "▁dw": 6779,
      "▁revised": 6780,
      "ให้": 6781,
      "▁созда": 6782,
      "▁política": 6783,
      "▁futuro": 6784,
      "чита": 6785,
      "▁imposed": 6786,
      "できます": 6787,
      "消息": 6788,
      "▁meine": 6789,
      "▁railroad": 6790,
      "▁pause": 6791,
      "▁alternatives": 6792,
      "▁soccer": 6793,
      "▁phải": 6794,
      "▁attacked": 6795,
      "ilità": 6796,
      "▁nails": 6797,
      "▁aqui": 6798,
      "▁voted": 6799,
      "▁том": 6800,
      "▁flights": 6801,
      "▁Hello": 6802,
      "っています": 6803,
      "▁تص": 6804,
      "▁mein": 6805,
      "▁threw": 6806,
      "▁могу": 6807,
      "тие": 6808,
      "▁collar": 6809,
      "らない": 6810,
      "▁trouver": 6811,
      "▁artículo": 6812,
      "▁reveals": 6813,
      "дя": 6814,
      "▁भी": 6815,
      "▁które": 6816,
      "▁rojo": 6817,
      "▁Philippines": 6818,
      "lene": 6819,
      "▁Afghan": 6820,
      "नी": 6821,
      "▁dai": 6822,
      "▁sentences": 6823,
      "手机": 6824,
      "▁pian": 6825,
      "rina": 6826,
      "▁sweater": 6827,
      "nda": 6828,
      "▁ries": 6829,
      "▁év": 6830,
      "▁letting": 6831,
      "▁disappointed": 6832,
      "場所": 6833,
      "▁tanks": 6834,
      "▁bail": 6835,
      "▁resultados": 6836,
      "▁работы": 6837,
      "▁Muslim": 6838,
      "aría": 6839,
      "▁sử": 6840,
      "으로": 6841,
      "▁hơn": 6842,
      "▁tubes": 6843,
      "▁commence": 6844,
      "▁дома": 6845,
      "▁тра": 6846,
      "▁neuen": 6847,
      "▁tudo": 6848,
      "▁rope": 6849,
      "▁Virtual": 6850,
      "▁zm": 6851,
      "▁przed": 6852,
      "iosa": 6853,
      "▁último": 6854,
      "كر": 6855,
      "était": 6856,
      "rai": 6857,
      "▁circles": 6858,
      "▁الث": 6859,
      "なの": 6860,
      "▁picking": 6861,
      "▁كان": 6862,
      "▁disaster": 6863,
      "▁probe": 6864,
      "▁dispute": 6865,
      "面的": 6866,
      "ことは": 6867,
      "▁tha": 6868,
      "▁avis": 6869,
      "▁や": 6870,
      "льного": 6871,
      "▁दे": 6872,
      "▁politique": 6873,
      "▁前": 6874,
      "▁hoch": 6875,
      "شر": 6876,
      "にして": 6877,
      "▁möglich": 6878,
      "▁بخ": 6879,
      "▁advise": 6880,
      "อน": 6881,
      "▁brit": 6882,
      "▁ambiente": 6883,
      "▁vert": 6884,
      "▁ordering": 6885,
      "▁resume": 6886,
      "▁reaches": 6887,
      "想要": 6888,
      "entemente": 6889,
      "▁Austria": 6890,
      "確認": 6891,
      "ู้": 6892,
      "▁Joint": 6893,
      "▁保": 6894,
      "▁加": 6895,
      "▁Military": 6896,
      "▁jersey": 6897,
      "unya": 6898,
      "▁fortune": 6899,
      "▁jeden": 6900,
      "▁voz": 6901,
      "▁대": 6902,
      "▁conhe": 6903,
      "▁جد": 6904,
      "كم": 6905,
      "▁così": 6906,
      "▁beli": 6907,
      "مس": 6908,
      "▁cuatro": 6909,
      "▁marvel": 6910,
      "▁declined": 6911,
      "يب": 6912,
      "▁日本": 6913,
      "▁Taiwan": 6914,
      "▁nichts": 6915,
      "dez": 6916,
      "▁rund": 6917,
      "▁upset": 6918,
      "▁tard": 6919,
      "▁kü": 6920,
      "▁deer": 6921,
      "awi": 6922,
      "▁ministry": 6923,
      "▁siguiente": 6924,
      "ahkan": 6925,
      "スター": 6926,
      "▁colores": 6927,
      "▁kre": 6928,
      "ycz": 6929,
      "ницу": 6930,
      "▁comida": 6931,
      "▁suicide": 6932,
      "▁thực": 6933,
      "म्": 6934,
      "كون": 6935,
      "▁Storm": 6936,
      "突然": 6937,
      "▁thời": 6938,
      "เก": 6939,
      "\"?": 6940,
      "ność": 6941,
      "▁às": 6942,
      "úl": 6943,
      "▁через": 6944,
      "iras": 6945,
      "▁amended": 6946,
      "▁kamu": 6947,
      "▁sixth": 6948,
      "▁purchasing": 6949,
      "映画": 6950,
      "▁आप": 6951,
      "▁carpet": 6952,
      "łe": 6953,
      "▁dismiss": 6954,
      "▁dua": 6955,
      "▁好": 6956,
      "ちょっと": 6957,
      "▁würde": 6958,
      "نة": 6959,
      "▁celle": 6960,
      "これは": 6961,
      "zeczytaj": 6962,
      "▁Pope": 6963,
      "▁laughing": 6964,
      "那个": 6965,
      "ाह": 6966,
      "▁ات": 6967,
      "▁pencil": 6968,
      "łem": 6969,
      "▁steht": 6970,
      "▁goto": 6971,
      "▁Gulf": 6972,
      "▁memorial": 6973,
      "▁carries": 6974,
      "▁downtown": 6975,
      "▁encuentra": 6976,
      "▁servers": 6977,
      "▁który": 6978,
      "ną": 6979,
      "いない": 6980,
      "下来": 6981,
      "▁gros": 6982,
      "▁mise": 6983,
      "▁abril": 6984,
      "▁tháng": 6985,
      "▁который": 6986,
      "حة": 6987,
      "▁peaceful": 6988,
      "▁jika": 6989,
      "▁ancora": 6990,
      "нки": 6991,
      "▁lange": 6992,
      "多少": 6993,
      "▁investigations": 6994,
      "▁ense": 6995,
      "त्र": 6996,
      "▁tempat": 6997,
      "十分": 6998,
      "▁ล": 6999,
      "▁mana": 7000,
      "ジョ": 7001,
      "▁tua": 7002,
      "▁अप": 7003,
      "▁aku": 7004,
      "くらい": 7005,
      "▁maker": 7006,
      "льная": 7007,
      "รา": 7008,
      "▁sits": 7009,
      "▁satellite": 7010,
      "anze": 7011,
      "▁essa": 7012,
      "▁paz": 7013,
      "▁обе": 7014,
      "zej": 7015,
      "стей": 7016,
      "ária": 7017,
      "▁expecting": 7018,
      "▁بل": 7019,
      "▁mr": 7020,
      "ческой": 7021,
      "▁claro": 7022,
      "ijing": 7023,
      "▁три": 7024,
      "▁Sony": 7025,
      "▁поя": 7026,
      "▁près": 7027,
      "اعد": 7028,
      "้ว": 7029,
      "▁नि": 7030,
      "▁ピ": 7031,
      "ồn": 7032,
      "▁tentang": 7033,
      "日の": 7034,
      "▁falta": 7035,
      "▁fatto": 7036,
      "▁cấp": 7037,
      "▁primo": 7038,
      "▁statue": 7039,
      "सी": 7040,
      "อบ": 7041,
      "▁mayo": 7042,
      "▁combo": 7043,
      "▁нужно": 7044,
      "への": 7045,
      "ạng": 7046,
      "▁Leader": 7047,
      "▁máy": 7048,
      "▁hingga": 7049,
      "アップ": 7050,
      "▁cinema": 7051,
      "blick": 7052,
      "▁loại": 7053,
      "jr": 7054,
      "▁quelle": 7055,
      "ровать": 7056,
      "▁niveau": 7057,
      "▁snap": 7058,
      "▁entrada": 7059,
      "▁taxi": 7060,
      "▁cinco": 7061,
      "▁ड": 7062,
      "▁откры": 7063,
      "ioso": 7064,
      "目前": 7065,
      "▁시": 7066,
      "▁sollte": 7067,
      "全部": 7068,
      "▁وج": 7069,
      "▁leer": 7070,
      "▁bleu": 7071,
      "▁telefon": 7072,
      "▁obtener": 7073,
      "▁warned": 7074,
      "▁collapse": 7075,
      "▁nelle": 7076,
      "▁pulling": 7077,
      "▁bằng": 7078,
      "robot": 7079,
      "▁besoin": 7080,
      "▁luar": 7081,
      "▁wol": 7082,
      "▁больше": 7083,
      "▁đồng": 7084,
      "hours": 7085,
      "になります": 7086,
      "▁delayed": 7087,
      "▁temperatura": 7088,
      "▁thì": 7089,
      "▁conviction": 7090,
      "▁hungry": 7091,
      "▁emails": 7092,
      "准备": 7093,
      "▁Thailand": 7094,
      "▁mặt": 7095,
      "▁composite": 7096,
      "▁donne": 7097,
      "▁كل": 7098,
      "▁cyber": 7099,
      "▁parliament": 7100,
      "▁себя": 7101,
      "第三": 7102,
      "▁funk": 7103,
      "tawa": 7104,
      "私は": 7105,
      "upt": 7106,
      "▁Cleveland": 7107,
      "▁dá": 7108,
      "▁Oklahoma": 7109,
      "▁voters": 7110,
      "▁potato": 7111,
      "▁releases": 7112,
      "▁algunas": 7113,
      "▁sebel": 7114,
      "▁Kenya": 7115,
      "indre": 7116,
      "iere": 7117,
      "最高": 7118,
      "▁بي": 7119,
      "▁Poor": 7120,
      "▁ups": 7121,
      "▁всех": 7122,
      "▁demande": 7123,
      "دة": 7124,
      "▁بين": 7125,
      "िन": 7126,
      "owych": 7127,
      "▁throwing": 7128,
      "▁nên": 7129,
      "щение": 7130,
      "▁sehen": 7131,
      "前に": 7132,
      "▁بت": 7133,
      "▁تج": 7134,
      "▁heute": 7135,
      "だから": 7136,
      "▁Swiss": 7137,
      "▁были": 7138,
      "uste": 7139,
      "▁corruption": 7140,
      "ोग": 7141,
      "▁theo": 7142,
      "▁blocked": 7143,
      "ورة": 7144,
      "▁ora": 7145,
      "▁closest": 7146,
      "▁pipeline": 7147,
      "▁fino": 7148,
      "推荐": 7149,
      "▁hitting": 7150,
      "awan": 7151,
      "▁năng": 7152,
      "▁mình": 7153,
      "▁apri": 7154,
      "▁ม": 7155,
      "▁onion": 7156,
      "▁ăn": 7157,
      "▁voiture": 7158,
      "▁기": 7159,
      "模式": 7160,
      "▁macht": 7161,
      "ysz": 7162,
      "▁هذه": 7163,
      "▁threats": 7164,
      "▁infected": 7165,
      "▁dough": 7166,
      "▁quem": 7167,
      "▁waktu": 7168,
      "▁الذي": 7169,
      "вом": 7170,
      "▁aplicación": 7171,
      "▁jum": 7172,
      "▁filing": 7173,
      "▁ट": 7174,
      "стан": 7175,
      "政府": 7176,
      "ادة": 7177,
      "ดี": 7178,
      "▁между": 7179,
      "حي": 7180,
      "▁hô": 7181,
      "مكن": 7182,
      "▁china": 7183,
      "لت": 7184,
      "▁fears": 7185,
      "▁ży": 7186,
      "▁pasar": 7187,
      "▁nota": 7188,
      "▁tuo": 7189,
      "发生": 7190,
      "▁tego": 7191,
      "isser": 7192,
      "ความ": 7193,
      "▁ช": 7194,
      "▁спи": 7195,
      "▁punishment": 7196,
      "▁была": 7197,
      "设备": 7198,
      "▁Iraq": 7199,
      "antar": 7200,
      "sette": 7201,
      "▁einmal": 7202,
      "▁covid": 7203,
      "ffee": 7204,
      "▁sendiri": 7205,
      "ście": 7206,
      "▁jazz": 7207,
      "่อง": 7208,
      "▁cade": 7209,
      "้าน": 7210,
      "่าง": 7211,
      "看看": 7212,
      "بة": 7213,
      "新的": 7214,
      "нем": 7215,
      "▁fais": 7216,
      "▁llegar": 7217,
      "▁보": 7218,
      "▁Something": 7219,
      "▁ari": 7220,
      "▁aspir": 7221,
      "pares": 7222,
      "▁sotto": 7223,
      "▁purchases": 7224,
      "▁Posted": 7225,
      "▁collision": 7226,
      "เพ": 7227,
      "▁stolen": 7228,
      "чные": 7229,
      "▁fires": 7230,
      "▁شهر": 7231,
      "▁quello": 7232,
      "▁уда": 7233,
      "▁travelling": 7234,
      "▁overnight": 7235,
      "▁cơ": 7236,
      "▁memo": 7237,
      "▁configure": 7238,
      "قال": 7239,
      "▁aura": 7240,
      "城市": 7241,
      "▁บ": 7242,
      "▁elderly": 7243,
      "ارج": 7244,
      "▁horrible": 7245,
      "▁mall": 7246,
      "▁corte": 7247,
      "ição": 7248,
      "▁cleared": 7249,
      "仕事": 7250,
      "chia": 7251,
      "▁кто": 7252,
      "▁cùng": 7253,
      "ansa": 7254,
      "▁говори": 7255,
      "▁гу": 7256,
      "▁ruled": 7257,
      "▁sao": 7258,
      "ём": 7259,
      "▁geben": 7260,
      "▁木": 7261,
      "▁سب": 7262,
      "▁też": 7263,
      "▁disponibles": 7264,
      "▁것": 7265,
      "▁donner": 7266,
      "▁dort": 7267,
      "▁workout": 7268,
      "ój": 7269,
      "▁mondo": 7270,
      "▁groupe": 7271,
      "▁activated": 7272,
      "▁điểm": 7273,
      "▁wifi": 7274,
      "▁resto": 7275,
      "▁Jerusalem": 7276,
      "щая": 7277,
      "िस": 7278,
      "▁utiliser": 7279,
      "▁eleven": 7280,
      "▁مط": 7281,
      "▁mete": 7282,
      "ริ": 7283,
      "▁الي": 7284,
      "▁bản": 7285,
      "にある": 7286,
      "▁august": 7287,
      "▁один": 7288,
      "▁alguna": 7289,
      "▁bộ": 7290,
      "▁ว": 7291,
      "▁blanket": 7292,
      "вым": 7293,
      "▁visa": 7294,
      "▁viên": 7295,
      "▁việc": 7296,
      "关于": 7297,
      "▁quale": 7298,
      "راء": 7299,
      "▁gusta": 7300,
      "▁Islamic": 7301,
      "▁hey": 7302,
      "▁rally": 7303,
      "▁girlfriend": 7304,
      "ุด": 7305,
      "▁navidad": 7306,
      "必须": 7307,
      "abile": 7308,
      "▁све": 7309,
      "のですが": 7310,
      "▁swift": 7311,
      "▁onze": 7312,
      "änger": 7313,
      "▁legg": 7314,
      "▁juillet": 7315,
      "▁klas": 7316,
      "▁Karen": 7317,
      "▁rainbow": 7318,
      "▁اج": 7319,
      "▁Freedom": 7320,
      "jou": 7321,
      "▁họ": 7322,
      "ẫu": 7323,
      "▁cocina": 7324,
      "▁स्": 7325,
      "roc": 7326,
      "▁busca": 7327,
      "▁mour": 7328,
      "▁billi": 7329,
      "▁하": 7330,
      "▁quella": 7331,
      "▁نش": 7332,
      "▁principales": 7333,
      "▁frank": 7334,
      "▁reste": 7335,
      "▁supporters": 7336,
      "当前": 7337,
      "▁estão": 7338,
      "▁nga": 7339,
      "▁電": 7340,
      "ประ": 7341,
      "ёт": 7342,
      "▁điều": 7343,
      "▁heures": 7344,
      "▁Deal": 7345,
      "▁wenig": 7346,
      "▁failing": 7347,
      "▁london": 7348,
      "▁quelque": 7349,
      "▁metro": 7350,
      "▁mettre": 7351,
      "▁spraw": 7352,
      "zę": 7353,
      "ुर": 7354,
      "▁rabbit": 7355,
      "▁dernier": 7356,
      "▁france": 7357,
      "▁ý": 7358,
      "dee": 7359,
      "▁quoi": 7360,
      "▁trabalho": 7361,
      "▁tienes": 7362,
      "▁два": 7363,
      "▁keluar": 7364,
      "ческая": 7365,
      "▁Clinton": 7366,
      "▁trouve": 7367,
      "▁你": 7368,
      "したい": 7369,
      "▁avril": 7370,
      "▁disappeared": 7371,
      "▁lượng": 7372,
      "▁noon": 7373,
      "の一": 7374,
      "chau": 7375,
      "▁Saudi": 7376,
      "▁``": 7377,
      "▁بع": 7378,
      "▁negotiations": 7379,
      "▁helmet": 7380,
      "▁couleur": 7381,
      "▁bald": 7382,
      "annya": 7383,
      "▁tomar": 7384,
      "▁sunny": 7385,
      "声音": 7386,
      "▁تش": 7387,
      "時に": 7388,
      "▁اب": 7389,
      "▁nuit": 7390,
      "▁thông": 7391,
      "дой": 7392,
      "▁deadline": 7393,
      "▁pork": 7394,
      "▁attempting": 7395,
      "писание": 7396,
      "▁nac": 7397,
      "صر": 7398,
      "ному": 7399,
      "▁tự": 7400,
      "rami": 7401,
      "▁minha": 7402,
      "▁인": 7403,
      "▁ที่": 7404,
      "sein": 7405,
      "▁lên": 7406,
      "▁evento": 7407,
      "▁يت": 7408,
      "▁constitutional": 7409,
      "▁sebelum": 7410,
      "ший": 7411,
      "ंद": 7412,
      "▁пока": 7413,
      "▁última": 7414,
      "▁importantes": 7415,
      "कर": 7416,
      "ाम": 7417,
      "сом": 7418,
      "▁republic": 7419,
      "▁april": 7420,
      "▁thêm": 7421,
      "▁remind": 7422,
      "пли": 7423,
      "されている": 7424,
      "ктор": 7425,
      "▁atomic": 7426,
      "▁kota": 7427,
      "▁nào": 7428,
      "▁اص": 7429,
      "หม": 7430,
      "▁unemployment": 7431,
      "▁perché": 7432,
      "▁killer": 7433,
      "▁จ": 7434,
      "▁custody": 7435,
      "いか": 7436,
      "ภาพ": 7437,
      "▁còn": 7438,
      "▁lately": 7439,
      "▁всего": 7440,
      "owej": 7441,
      "▁rất": 7442,
      "▁전": 7443,
      "▁aplik": 7444,
      "▁sélection": 7445,
      "▁nói": 7446,
      "▁borders": 7447,
      "▁Norway": 7448,
      "すぐ": 7449,
      "▁protes": 7450,
      "▁câ": 7451,
      "▁consecutive": 7452,
      "▁chin": 7453,
      "正在": 7454,
      "れない": 7455,
      "कार": 7456,
      "▁alternate": 7457,
      "зь": 7458,
      "ankan": 7459,
      "▁cleaner": 7460,
      "▁面": 7461,
      "▁difícil": 7462,
      "ाय": 7463,
      "▁reminder": 7464,
      "▁meno": 7465,
      "▁passer": 7466,
      "▁wäre": 7467,
      "▁там": 7468,
      "▁khác": 7469,
      "▁czas": 7470,
      "ってる": 7471,
      "iona": 7472,
      "▁西": 7473,
      "▁overseas": 7474,
      "からの": 7475,
      "▁ajust": 7476,
      "▁сме": 7477,
      "▁phòng": 7478,
[...]
