{
  "version": "1.0",
  "truncation": {
    "direction": "Right",
    "max_length": 64,
    "strategy": "LongestFirst",
    "stride": 0
  },
  "padding": {
    "strategy": "BatchLongest",
    "direction": "Right",
    "pad_to_multiple_of": null,
    "pad_id": 13356,
    "pad_type_id": 0,
    "pad_token": "<|pad|>"
  },
  "added_tokens": [
    {
      "id": 13353,
      "content": "<|begin_of_text|>",
      "single_word": false,
      "lstrip": false,
      "rstrip": false,
      "normalized": false,
      "special": true
    },
    {
      "id": 13354,
      "content": "<|end_of_text|>",
      "single_word": false,
      "lstrip": false,
      "rstrip": false,
      "normalized": false,
      "special": true
    },
    {
      "id": 13355,
      "content": "<|mask|>",
      "single_word": false,
      "lstrip": true,
      "rstrip": false,
      "normalized": false,
      "special": true
    },
    {
      "id": 13356,
      "content": "<|pad|>",
      "single_word": false,
      "lstrip": false,
      "rstrip": false,
      "normalized": false,
      "special": true
    }
  ],
  "normalizer": null,
  "pre_tokenizer": {
    "type": "Sequence",
    "pretokenizers": [
      {
        "type": "Split",
        "pattern": {
          "Regex": "(?i:'s|'t|'re|'ve|'m|'ll|'d)|[^\\r\\n\\p{L}\\p{N}]?\\p{L}+|\\p{N}{1,3}| ?[^\\s\\p{L}\\p{N}]+[\\r\\n]*|\\s*[\\r\\n]+|\\s+(?!\\S)|\\s+"
        },
        "behavior": "Isolated",
        "invert": false
      },
      {
        "type": "ByteLevel",
        "add_prefix_space": false,
        "trim_offsets": true,
        "use_regex": false
      }
    ]
  },
  "post_processor": {
    "type": "Sequence",
    "processors": [
      {
        "type": "ByteLevel",
        "add_prefix_space": true,
        "trim_offsets": false,
        "use_regex": true
      },
      {
        "type": "TemplateProcessing",
        "single": [
          {
            "Sequence": {
              "id": "A",
              "type_id": 0
            }
          },
          {
            "SpecialToken": {
              "id": "<|end_of_text|>",
              "type_id": 0
            }
          }
        ],
        "pair": [
          {
            "Sequence": {
              "id": "A",
              "type_id": 0
            }
          },
          {
            "SpecialToken": {
              "id": "<|begin_of_text|>",
              "type_id": 1
            }
          },
          {
            "Sequence": {
              "id": "B",
              "type_id": 1
            }
          },
          {
            "SpecialToken": {
              "id": "<|end_of_text|>",
              "type_id": 1
            }
          }
        ],
        "special_tokens": {
          "<|begin_of_text|>": {
            "id": "<|begin_of_text|>",
            "ids": [
              13353
            ],
            "tokens": [
              "<|begin_of_text|>"
            ]
          },
          "<|end_of_text|>": {
            "id": "<|end_of_text|>",
            "ids": [
              13354
            ],
            "tokens": [
              "<|end_of_text|>"
            ]
          }
        }
      }
    ]
  },
  "decoder": {
    "type": "ByteLevel",
    "add_prefix_space": true,
    "trim_offsets": true,
    "use_regex": true
  },
  "model": {
    "type": "BPE",
    "dropout": null,
    "unk_token": null,
    "continuing_subword_prefix": null,
    "end_of_word_suffix": null,
    "fuse_unk": false,
    "byte_fallback": false,
    "ignore_merges": true,
    "vocab": {
      "!": 0,
      "\"": 1,
      "#": 2,
      "$": 3,
      "%": 4,
      "&": 5,
      "'": 6,
      "(": 7,
      ")": 8,
      "*": 9,
      "+": 10,
      ",": 11,
      "-": 12,
      ".": 13,
      "/": 14,
      "0": 15,
      "1": 16,
      "2": 17,
      "3": 18,
      "4": 19,
      "5": 20,
      "6": 21,
      "7": 22,
      "8": 23,
      "9": 24,
      ":": 25,
      ";": 26,
      "<": 27,
      "=": 28,
      ">": 29,
      "?": 30,
      "@": 31,
      "A": 32,
      "B": 33,
      "C": 34,
      "D": 35,
      "E": 36,
      "F": 37,
      "G": 38,
      "H": 39,
      "I": 40,
      "J": 41,
      "K": 42,
      "L": 43,
      "M": 44,
      "N": 45,
      "O": 46,
      "P": 47,
      "Q": 48,
      "R": 49,
      "S": 50,
      "T": 51,
      "U": 52,
      "V": 53,
      "W": 54,
      "X": 55,
      "Y": 56,
      "Z": 57,
      "[": 58,
      "\\": 59,
      "]": 60,
      "^": 61,
      "_": 62,
      "`": 63,
      "a": 64,
      "b": 65,
      "c": 66,
      "d": 67,
      "e": 68,
      "f": 69,
      "g": 70,
      "h": 71,
      "i": 72,
      "j": 73,
      "k": 74,
      "l": 75,
      "m": 76,
      "n": 77,
      "o": 78,
      "p": 79,
      "q": 80,
      "r": 81,
      "s": 82,
      "t": 83,
      "u": 84,
      "v": 85,
      "w": 86,
      "x": 87,
      "y": 88,
      "z": 89,
      "{": 90,
      "|": 91,
      "}": 92,
      "~": 93,
      "¡": 94,
      "¢": 95,
      "£": 96,
      "¤": 97,
      "¥": 98,
      "¦": 99,
      "§": 100,
      "¨": 101,
      "©": 102,
      "ª": 103,
      "«": 104,
      "¬": 105,
      "®": 106,
      "¯": 107,
      "°": 108,
      "±": 109,
      "²": 110,
      "³": 111,
      "´": 112,
      "µ": 113,
      "¶": 114,
      "·": 115,
      "¸": 116,
      "¹": 117,
      "º": 118,
      "»": 119,
      "¼": 120,
      "½": 121,
      "¾": 122,
      "¿": 123,
      "À": 124,
      "Á": 125,
      "Â": 126,
      "Ã": 127,
      "Ä": 128,
      "Å": 129,
      "Æ": 130,
      "Ç": 131,
      "È": 132,
      "É": 133,
      "Ê": 134,
      "Ë": 135,
      "Ì": 136,
      "Í": 137,
      "Î": 138,
      "Ï": 139,
      "Ð": 140,
      "Ñ": 141,
      "Ò": 142,
      "Ó": 143,
      "Ô": 144,
      "Õ": 145,
      "Ö": 146,
      "×": 147,
      "Ø": 148,
      "Ù": 149,
      "Ú": 150,
      "Û": 151,
      "Ü": 152,
      "Ý": 153,
      "Þ": 154,
      "ß": 155,
      "à": 156,
      "á": 157,
      "â": 158,
      "ã": 159,
      "ä": 160,
      "å": 161,
      "æ": 162,
      "ç": 163,
      "è": 164,
      "é": 165,
      "ê": 166,
      "ë": 167,
      "ì": 168,
      "í": 169,
      "î": 170,
      "ï": 171,
      "ð": 172,
      "ñ": 173,
      "ò": 174,
      "ó": 175,
      "ô": 176,
      "õ": 177,
      "ö": 178,
      "÷": 179,
      "ø": 180,
      "ù": 181,
      "ú": 182,
      "û": 183,
      "ü": 184,
      "ý": 185,
      "þ": 186,
      "ÿ": 187,
      "Ā": 188,
      "ā": 189,
      "Ă": 190,
      "ă": 191,
      "Ą": 192,
      "ą": 193,
      "Ć": 194,
      "ć": 195,
      "Ĉ": 196,
      "ĉ": 197,
      "Ċ": 198,
      "ċ": 199,
      "Č": 200,
      "č": 201,
      "Ď": 202,
      "ď": 203,
      "Đ": 204,
      "đ": 205,
      "Ē": 206,
      "ē": 207,
      "Ĕ": 208,
      "ĕ": 209,
      "Ė": 210,
      "ė": 211,
      "Ę": 212,
      "ę": 213,
      "Ě": 214,
      "ě": 215,
      "Ĝ": 216,
      "ĝ": 217,
      "Ğ": 218,
      "ğ": 219,
      "Ġ": 220,
      "ġ": 221,
      "Ģ": 222,
      "ģ": 223,
      "Ĥ": 224,
      "ĥ": 225,
      "Ħ": 226,
      "ħ": 227,
      "Ĩ": 228,
      "ĩ": 229,
      "Ī": 230,
      "ī": 231,
      "Ĭ": 232,
      "ĭ": 233,
      "Į": 234,
      "į": 235,
      "İ": 236,
      "ı": 237,
      "Ĳ": 238,
      "ĳ": 239,
      "Ĵ": 240,
      "ĵ": 241,
      "Ķ": 242,
      "ķ": 243,
      "ĸ": 244,
      "Ĺ": 245,
      "ĺ": 246,
      "Ļ": 247,
      "ļ": 248,
      "Ľ": 249,
      "ľ": 250,
      "Ŀ": 251,
      "ŀ": 252,
      "Ł": 253,
      "ł": 254,
      "Ń": 255,
      "in": 256,
      "Ġt": 257,
      "er": 258,
      "on": 259,
      "Ġa": 260,
      "re": 261,
      "at": 262,
      "st": 263,
      "en": 264,
      "or": 265,
      "Ġth": 266,
      "Ġc": 267,
      "le": 268,
      "Ġs": 269,
      "it": 270,
      "an": 271,
      "ar": 272,
      "al": 273,
      "Ġthe": 274,
      "Ġp": 275,
      "Ġf": 276,
      "ou": 277,
      "is": 278,
      "ing": 279,
      "es": 280,
      "Ġw": 281,
      "ion": 282,
      "ed": 283,
      "ic": 284,
      "Ġb": 285,
      "Ġd": 286,
      "et": 287,
      "Ġm": 288,
      "Ġo": 289,
      "ro": 290,
      "as": 291,
      "el": 292,
      "ct": 293,
      "nd": 294,
      "Ġin": 295,
      "Ġh": 296,
      "ent": 297,
      "id": 298,
      "Ġn": 299,
      "am": 300,
      "Ġto": 301,
      "Ġre": 302,
      "--": 303,
      "Ġof": 304,
      "om": 305,
      "im": 306,
      "Ġ(": 307,
      "il": 308,
      "Ġand": 309,
      "ur": 310,
      "se": 311,
      "Ġl": 312,
      "ex": 313,
      "ĠS": 314,
      "ad": 315,
      "Ġ\"": 316,
      "ch": 317,
      "ut": 318,
      "if": 319,
      "em": 320,
      "ol": 321,
      "th": 322,
      "Ġg": 323,
      "ig": 324,
      "iv": 325,
      "ce": 326,
      "od": 327,
      "Ġv": 328,
      "ate": 329,
      "ĠT": 330,
      "ag": 331,
      "ay": 332,
      "ot": 333,
      "us": 334,
      "ĠC": 335,
      "Ġst": 336,
      "ĠI": 337,
      "un": 338,
      "ul": 339,
      "ue": 340,
      "ĠA": 341,
      "ow": 342,
      "Ġ'": 343,
      "ew": 344,
      "Ġ<": 345,
      "ation": 346,
      "Ġfor": 347,
      "ab": 348,
      "ort": 349,
      "um": 350,
      "ame": 351,
      "Ġis": 352,
      "pe": 353,
      "tr": 354,
      "ck": 355,
      "Ġy": 356,
      "ist": 357,
      "he": 358,
      "Ġe": 359,
      "lo": 360,
      "ĠM": 361,
      "Ġbe": 362,
      "ers": 363,
      "Ġon": 364,
      "Ġcon": 365,
      "ap": 366,
      "ub": 367,
      "ĠP": 368,
      "ass": 369,
      "int": 370,
      "ly": 371,
      "urn": 372,
      "Ġ$": 373,
      "av": 374,
      "port": 375,
      "ir": 376,
      "nt": 377,
      "end": 378,
      "Ġde": 379,
      "ith": 380,
      "out": 381,
      "turn": 382,
      "our": 383,
      "lic": 384,
      "res": 385,
      "pt": 386,
      "Ġthis": 387,
      "Ġif": 388,
      "ĠD": 389,
      "ver": 390,
      "age": 391,
      "ĠB": 392,
      "ht": 393,
      "Ġthat": 394,
      "ĠR": 395,
      "Ġit": 396,
      "ess": 397,
      "ĠF": 398,
      "Ġr": 399,
      "os": 400,
      "and": 401,
      "Ġas": 402,
      "ke": 403,
      "rom": 404,
      "con": 405,
      "ĠL": 406,
      "qu": 407,
      "lass": 408,
      "Ġwith": 409,
      "iz": 410,
      "de": 411,
      "ĠN": 412,
      "Ġal": 413,
      "op": 414,
      "up": 415,
      "get": 416,
      "ile": 417,
      "Ġan": 418,
      "ata": 419,
      "ore": 420,
      "ri": 421,
      "Ġpro": 422,
      "ter": 423,
      "ain": 424,
      "ĠW": 425,
      "ĠE": 426,
      "Ġcom": 427,
      "Ġreturn": 428,
      "art": 429,
      "ĠH": 430,
      "ack": 431,
      "Ġor": 432,
      "est": 433,
      "ment": 434,
      "ĠG": 435,
      "able": 436,
      "Ġ-": 437,
      "ine": 438,
      "ill": 439,
      "ind": 440,
      "ere": 441,
      "ity": 442,
      "Ġtr": 443,
      "ult": 444,
      "str": 445,
      "..": 446,
      "Ġyou": 447,
      "pl": 448,
      "Ġnew": 449,
      "Ġj": 450,
      "Ġfrom": 451,
      "Ġex": 452,
      "ĠO": 453,
      "20": 454,
      "ld": 455,
      "oc": 456,
      "Ġse": 457,
      "Ġle": 458,
      ".s": 459,
      "ant": 460,
      "Ġat": 461,
      "ase": 462,
      ".c": 463,
      "Ġch": 464,
      "ave": 465,
      "ang": 466,
      "Ġare": 467,
      "Ġint": 468,
      "âĢĻ": 469,
      "ert": 470,
      "ial": 471,
      "act": 472,
      "ive": 473,
      "ode": 474,
      "ost": 475,
      "Ġclass": 476,
      "Ġnot": 477,
      "og": 478,
      "ord": 479,
      "all": 480,
      "ff": 481,
      "ont": 482,
      "ime": 483,
      "are": 484,
      "ĠU": 485,
      "Ġpr": 486,
      "ies": 487,
      "ize": 488,
      "ure": 489,
      "Ġby": 490,
      "ire": 491,
      "Ġsh": 492,
      "ice": 493,
      "ast": 494,
      "ok": 495,
      "cl": 496,
      "Ġhe": 497,
      "ard": 498,
      ").": 499,
      "iew": 500,
      "Ġwas": 501,
      "ip": 502,
      "this": 503,
      "Ġu": 504,
      "ĠThe": 505,
      "ide": 506,
      "ace": 507,
      "ib": 508,
      "ac": 509,
      "rou": 510,
      "Ġwe": 511,
      "Ġpublic": 512,
      "ak": 513,
      "ve": 514,
      "ath": 515,
      "ust": 516,
      "que": 517,
      "Ġres": 518,
      "'s": 519,
      "Ġk": 520,
      "ans": 521,
      "yst": 522,
      "Ġi": 523,
      "Ġus": 524,
      "pp": 525,
      "10": 526,
      "one": 527,
      "ail": 528,
      "Ġstr": 529,
      "Ġ&": 530,
      "ach": 531,
      "div": 532,
      "ell": 533,
      "Ġhave": 534,
      "ull": 535,
      "pon": 536,
      "ĠJ": 537,
      "ign": 538,
      "St": 539,
      "Ġpl": 540,
      "put": 541,
      "dd": 542,
      "ite": 543,
      "Ġget": 544,
      "ĠâĢ": 545,
      "cc": 546,
      "In": 547,
      "les": 548,
      "ong": 549,
      "ie": 550,
      "Ġcan": 551,
      "ĠV": 552,
      "pr": 553,
      "Ġun": 554,
      "row": 555,
      "ber": 556,
      "Ġdo": 557,
      "ll": 558,
      "Ġel": 559,
      "Ġself": 560,
      "ated": 561,
      "ary": 562,
      "Ġ.": 563,
      "ud": 564,
      "Ġen": 565,
      "te": 566,
      "Ġab": 567,
      "ork": 568,
      "aw": 569,
      "ob": 570,
      "201": 571,
      "app": 572,
      "Ġall": 573,
      "ory": 574,
      "ition": 575,
      "ance": 576,
      "Ġcont": 577,
      "vent": 578,
      "ia": 579,
      "Ġwill": 580,
      "data": 581,
      "Re": 582,
      "ple": 583,
      "Ġyour": 584,
      "Ġout": 585,
      "Ġhas": 586,
      "so": 587,
      "Ġup": 588,
      "Ġdef": 589,
      "Ġbo": 590,
      "ge": 591,
      "per": 592,
      "12": 593,
      "ich": 594,
      "Ġbut": 595,
      "add": 596,
      "quest": 597,
      "ery": 598,
      "ft": 599,
      "ens": 600,
      "ake": 601,
      ".C": 602,
      "Ġgo": 603,
      "Ġfunction": 604,
      "ĠK": 605,
      "ivate": 606,
      "Ġim": 607,
      "Ġset": 608,
      "cri": 609,
      "li": 610,
      ".m": 611,
      "ally": 612,
      "set": 613,
      "ep": 614,
      "âĢĻs": 615,
      "bo": 616,
      "def": 617,
      "Ġme": 618,
      "ec": 619,
      "ĠIn": 620,
      "ph": 621,
      "Ġvar": 622,
      "ence": 623,
      "ink": 624,
      "ug": 625,
      "eth": 626,
      "Ġelse": 627,
      "19": 628,
      "cont": 629,
      "Ġso": 630,
      "Ġlo": 631,
      "pro": 632,
      "ton": 633,
      "ss": 634,
      "own": 635,
      "abel": 636,
      "ous": 637,
      "eld": 638,
      "The": 639,
      "olor": 640,
      "eg": 641,
      "ude": 642,
      "ĠSt": 643,
      "Ġar": 644,
      "ener": 645,
      "ser": 646,
      "11": 647,
      "fer": 648,
      "Ġmore": 649,
      "ations": 650,
      "ents": 651,
      "Ġhis": 652,
      "Ġthey": 653,
      ".S": 654,
      "ĠY": 655,
      "use": 656,
      "ne": 657,
      "ish": 658,
      "io": 659,
      "Ġper": 660,
      "ings": 661,
      "Ġdata": 662,
      "Ġsa": 663,
      "ef": 664,
      "fo": 665,
      "Ġone": 666,
      "eng": 667,
      "Ġdis": 668,
      "Ġname": 669,
      "Ġtrue": 670,
      "val": 671,
      "led": 672,
      "Ġne": 673,
      "Ġend": 674,
      "32": 675,
      "16": 676,
      "cre": 677,
      "ark": 678,
      "Ex": 679,
      "urre": 680,
      "ange": 681,
      "Ġnull": 682,
      "Ġmy": 683,
      "pan": 684,
      "ator": 685,
      "Ġpre": 686,
      "Ġx": 687,
      "arg": 688,
      "15": 689,
      "ov": 690,
      "Ġtheir": 691,
      "ick": 692,
      "tem": 693,
      "com": 694,
      "Ġid": 695,
      "read": 696,
      "Ġwho": 697,
      "Ġtime": 698,
      "Ġman": 699,
      "ry": 700,
      "rop": 701,
      "vel": 702,
      "ble": 703,
      "Ġwhich": 704,
      "Ġany": 705,
      "Ġfalse": 706,
      "we": 707,
      "Ġvalue": 708,
      "Ġli": 709,
      "gr": 710,
      "Ġno": 711,
      "25": 712,
      ".com": 713,
      "Ġapp": 714,
      "ions": 715,
      "Ġabout": 716,
      "Ġadd": 717,
      "Ġsu": 718,
      "Ġover": 719,
      "000": 720,
      "Ġqu": 721,
      "ca": 722,
      "SE": 723,
      "Ġro": 724,
      "sh": 725,
      "ual": 726,
      "son": 727,
      "new": 728,
      "ern": 729,
      "Ġag": 730,
      "Ġ?": 731,
      "ical": 732,
      "Ġdes": 733,
      "ix": 734,
      "ays": 735,
      "Ġtype": 736,
      "'t": 737,
      "Ġinter": 738,
      "var": 739,
      "Ġpart": 740,
      "30": 741,
      "enc": 742,
      "ra": 743,
      "cho": 744,
      "18": 745,
      "ose": 746,
      "14": 747,
      "ater": 748,
      "Ã©": 749,
      "oll": 750,
      "pos": 751,
      "yle": 752,
      "ng": 753,
      "ates": 754,
      "Ġwork": 755,
      "Ġem": 756,
      "inal": 757,
      "Ġsp": 758,
      "Ġwhen": 759,
      "to": 760,
      "ash": 761,
      "Ġuse": 762,
      "Ġad": 763,
      "ove": 764,
      "ader": 765,
      "atus": 766,
      "rit": 767,
      "Ġoff": 768,
      "Ġother": 769,
      "ms": 770,
      "Ġbeen": 771,
      "Ġte": 772,
      "ml": 773,
      "co": 774,
      "nc": 775,
      "13": 776,
      "Ġ%": 777,
      "ann": 778,
      "ade": 779,
      "100": 780,
      "Ġsup": 781,
      "date": 782,
      "Ġacc": 783,
      "Ġhad": 784,
      "Ġbu": 785,
      "200": 786,
      "ĠRe": 787,
      "Ġwere": 788,
      "Ġfile": 789,
      "Ġwould": 790,
      "ven": 791,
      "iss": 792,
      "Ġour": 793,
      "raw": 794,
      "Ġyear": 795,
      "Ġval": 796,
      "Ġsome": 797,
      "ys": 798,
      "Ġpe": 799,
      "Ġthere": 800,
      "Ġsaid": 801,
      "du": 802,
      "of": 803,
      "line": 804,
      "Ġher": 805,
      "Ġco": 806,
      "Ġcomm": 807,
      "ise": 808,
      "min": 809,
      "ute": 810,
      "Ġass": 811,
      "ask": 812,
      "Ġlike": 813,
      "ody": 814,
      "Ġlet": 815,
      "Ġam": 816,
      "rol": 817,
      "Ġgr": 818,
      "yp": 819,
      "Ġalso": 820,
      "ĠIt": 821,
      "url": 822,
      "ific": 823,
      "ors": 824,
      "Ġthan": 825,
      "ating": 826,
      "17": 827,
      "ĠThis": 828,
      "ref": 829,
      "roll": 830,
      "Ġjust": 831,
      "Ġresult": 832,
      "ian": 833,
      "Ġthem": 834,
      "der": 835,
      "ule": 836,
      "...": 837,
      "ement": 838,
      "50": 839,
      "ush": 840,
      "ense": 841,
      "arr": 842,
      "Ġinto": 843,
      "amp": 844,
      "ied": 845,
      "ument": 846,
      "wo": 847,
      "als": 848,
      "Ġwhat": 849,
      "anc": 850,
      "Ġpos": 851,
      "ages": 852,
      "Ġsc": 853,
      "ues": 854,
      "Ġlist": 855,
      "Ġcase": 856,
      "Ch": 857,
      "Ġz": 858,
      "Ġkn": 859,
      "let": 860,
      "red": 861,
      "Ġfe": 862,
      "Ġ,": 863,
      "Ġfirst": 864,
      "word": 865,
      "Ġimport": 866,
      "Ġact": 867,
      "Ġchar": 868,
      "24": 869,
      "ient": 870,
      "cent": 871,
      "lection": 872,
      "Ġonly": 873,
      "mer": 874,
      "Ġ--": 875,
      "Ġop": 876,
      "ank": 877,
      "Ġits": 878,
      "Ġback": 879,
      "Ġneed": 880,
      "Ġcl": 881,
      "Ġsub": 882,
      "Ġla": 883,
      ".\"": 884,
      "Ġstart": 885,
      "ner": 886,
      "ey": 887,
      "Ġent": 888,
      "its": 889,
      "ĠCon": 890,
      "ĠWe": 891,
      "64": 892,
      "ics": 893,
      "Ġunder": 894,
      "Ġreg": 895,
      "Ġthen": 896,
      "reat": 897,
      "ek": 898,
      "ning": 899,
      "Ġmay": 900,
      "und": 901,
      "Ġhow": 902,
      "To": 903,
      "40": 904,
      "Ġpeople": 905,
      ".n": 906,
      "Ġind": 907,
      "ĠHe": 908,
      "ful": 909,
      "ole": 910,
      "Ġshould": 911,
      "ier": 912,
      "ote": 913,
      "Ġtest": 914,
      "Ġbet": 915,
      "ular": 916,
      "ting": 917,
      "Ġmake": 918,
      "Ġafter": 919,
      "define": 920,
      "22": 921,
      "Ġright": 922,
      "day": 923,
      "Ġlong": 924,
      "ĠPro": 925,
      "Ġrem": 926,
      "mp": 927,
      "Ġmin": 928,
      "air": 929,
      "ait": 930,
      "IC": 931,
      "Ġph": 932,
      "Ġfl": 933,
      "br": 934,
      "Ġloc": 935,
      "ins": 936,
      ",\"": 937,
      "Pro": 938,
      "Ġshe": 939,
      "Ġexp": 940,
      "Ġpar": 941,
      "unc": 942,
      "Ġread": 943,
      "Ġrel": 944,
      "Ġform": 945,
      "Ġdr": 946,
      "order": 947,
      "Ġaw": 948,
      "uff": 949,
      "play": 950,
      "Ġwant": 951,
      "az": 952,
      "be": 953,
      "Ġnumber": 954,
      "Ġrequire": 955,
      "60": 956,
      "Ġcol": 957,
      "Ġkey": 958,
      "ember": 959,
      "Ġtwo": 960,
      "Ġwhere": 961,
      "uch": 962,
      "ger": 963,
      "arent": 964,
      "Ġarg": 965,
      "Ġwhile": 966,
      "23": 967,
      "Ġrec": 968,
      "Ġdif": 969,
      "Ġlook": 970,
      "eter": 971,
      "ager": 972,
      "Ġcould": 973,
      "Ġbr": 974,
      "ends": 975,
      "ures": 976,
      "Ġknow": 977,
      "ets": 978,
      "ĠIf": 979,
      "Ġser": 980,
      "Ġfr": 981,
      "Ġhand": 982,
      "Ind": 983,
      "Ġmost": 984,
      "Ġtry": 985,
      "Ġnow": 986,
      "Ġhim": 987,
      "ify": 988,
      "Ġbreak": 989,
      "ren": 990,
      "itt": 991,
      "Ġap": 992,
      "ĠYou": 993,
      "-m": 994,
      "Ġevery": 995,
      "Ð¾": 996,
      "Ġpoint": 997,
      "Ġfil": 998,
      "80": 999,
      "Ġmod": 1000,
      "Ġerror": 1001,
      "ah": 1002,
      "Ġpol": 1003,
      "Ġshow": 1004,
      "Ġfind": 1005,
      "Ð°": 1006,
      "enu": 1007,
      "Ġcurrent": 1008,
      "Ġused": 1009,
      "Ġplay": 1010,
      "Ġlog": 1011,
      "fl": 1012,
      "Ġsee": 1013,
      "Ġhelp": 1014,
      "Ġthese": 1015,
      "Ġpass": 1016,
      "Ġdown": 1017,
      "Ġeven": 1018,
      "ason": 1019,
      "Ġbl": 1020,
      "Ðµ": 1021,
      "Ġob": 1022,
      "Ġitem": 1023,
      "ump": 1024,
      "orn": 1025,
      "Ġdon": 1026,
      "Se": 1027,
      "man": 1028,
      "27": 1029,
      "tn": 1030,
      "He": 1031,
      "Ġdid": 1032,
      "wn": 1033,
      "iver": 1034,
      "Ġsm": 1035,
      "Ġthrough": 1036,
      "che": 1037,
      "Ġinv": 1038,
      "Ġes": 1039,
      "ĠNew": 1040,
      "uto": 1041,
      "ler": 1042,
      "Ġlast": 1043,
      "Ġevent": 1044,
      "try": 1045,
      "ily": 1046,
      "ines": 1047,
      "sole": 1048,
      "Ġagain": 1049,
      "Ġhigh": 1050,
      "Ġline": 1051,
      "Ġdoes": 1052,
      "Ġcr": 1053,
      "ars": 1054,
      "28": 1055,
      "Ġtem": 1056,
      "ature": 1057,
      "ister": 1058,
      "Ġbefore": 1059,
      "ale": 1060,
      "Ġbecause": 1061,
      "roid": 1062,
      "Ġed": 1063,
      "ik": 1064,
      "reg": 1065,
      "ĠDe": 1066,
      "Ġstate": 1067,
      "Ġcons": 1068,
      "att": 1069,
      "Ġhere": 1070,
      "ined": 1071,
      "Ġfinal": 1072,
      "Ġdel": 1073,
      "26": 1074,
      "ĠAnd": 1075,
      "Ġrun": 1076,
      "ĠX": 1077,
      "ym": 1078,
      "Ġvery": 1079,
      "ces": 1080,
      "ward": 1081,
      "list": 1082,
      "olog": 1083,
      "33": 1084,
      "Ġac": 1085,
      "Ġmodel": 1086,
      "Ġmon": 1087,
      "Ġway": 1088,
      "Ġcall": 1089,
      "Ġatt": 1090,
      "Ġcal": 1091,
      "vert": 1092,
      "fr": 1093,
      "Ġnum": 1094,
      "aj": 1095,
      "Ġwell": 1096,
      "ĠAs": 1097,
      "Ġyears": 1098,
      "Ġsim": 1099,
      "mon": 1100,
      "29": 1101,
      "Ġview": 1102,
      "Ġpres": 1103,
      "We": 1104,
      "At": 1105,
      "Ġbel": 1106,
      "Ġmany": 1107,
      "21": 1108,
      "Man": 1109,
      "ender": 1110,
      "Ġbeing": 1111,
      "Ġgood": 1112,
      "Ġusing": 1113,
      "ists": 1114,
      "ĠAl": 1115,
      "Ġgu": 1116,
      "config": 1117,
      "time": 1118,
      "Ġrequest": 1119,
      "Ġchild": 1120,
      "Ġparam": 1121,
      "ps": 1122,
      "alk": 1123,
      "by": 1124,
      "Ġperson": 1125,
      "ince": 1126,
      "uf": 1127,
      "Ġque": 1128,
      "ident": 1129,
      "ott": 1130,
      "less": 1131,
      "Ġexpect": 1132,
      "35": 1133,
      "urs": 1134,
      "Ġprot": 1135,
      "pre": 1136,
      "ma": 1137,
      "Ġsur": 1138,
      "Ġfound": 1139,
      "par": 1140,
      "ains": 1141,
      "Ġpost": 1142,
      "-d": 1143,
      "45": 1144,
      "Ġsl": 1145,
      "Ġsuch": 1146,
      "select": 1147,
      "Ġthink": 1148,
      "Ġdiffer": 1149,
      "qual": 1150,
      "Ġmuch": 1151,
      "uc": 1152,
      "Ġsom": 1153,
      "Ġinst": 1154,
      "37": 1155,
      "ãĢĤ": 1156,
      "Ġmed": 1157,
      "org": 1158,
      "ider": 1159,
      "ache": 1160,
      "Ġcheck": 1161,
      "the": 1162,
      "ants": 1163,
      "-c": 1164,
      "Ġopen": 1165,
      "Ġest": 1166,
      "Ġnext": 1167,
      "ÑĤ": 1168,
      "Ã³": 1169,
      "Ġfollow": 1170,
      "Ð¸": 1171,
      "Ġcar": 1172,
      "Ġgame": 1173,
      "Ġpath": 1174,
      "ision": 1175,
      "Ġeach": 1176,
      "Ġav": 1177,
      "Ġsupport": 1178,
      "rem": 1179,
      "Ġown": 1180,
      "Ġcor": 1181,
      "Ġmem": 1182,
      "ience": 1183,
      "search": 1184,
      "Ġsex": 1185,
      "Ġsign": 1186,
      "Ġet": 1187,
      "ĠApp": 1188,
      "Ġthose": 1189,
      "off": 1190,
      "Ġsystem": 1191,
      "Ġbest": 1192,
      "code": 1193,
      "Ġsame": 1194,
      "Ġdi": 1195,
      "uss": 1196,
      "Ġcreate": 1197,
      "fe": 1198,
      "UN": 1199,
      "ats": 1200,
      "Ġmade": 1201,
      "Ġmark": 1202,
      "yn": 1203,
      "Ġgroup": 1204,
      "Ġfin": 1205,
      "Ġworld": 1206,
      "ty": 1207,
      "Ġprocess": 1208,
      "Ġcre": 1209,
      "arn": 1210,
      "ives": 1211,
      "Ġmain": 1212,
      "36": 1213,
      "Ġcolor": 1214,
      "Ġreport": 1215,
      "Ġtake": 1216,
      "rib": 1217,
      "Ġday": 1218,
      "Ġsk": 1219,
      "bers": 1220,
      "Ġcomple": 1221,
      "Ġtop": 1222,
      "Ġfree": 1223,
      "ĠOn": 1224,
      "90": 1225,
      "eta": 1226,
      "Ġaction": 1227,
      "34": 1228,
      "itor": 1229,
      "not": 1230,
      "Ġindex": 1231,
      "her": 1232,
      "On": 1233,
      "mand": 1234,
      "Ġreal": 1235,
      "Ġmax": 1236,
      "land": 1237,
      "Ġbuild": 1238,
      "leg": 1239,
      "Ġmessage": 1240,
      "test": 1241,
      "ivers": 1242,
      "38": 1243,
      "Ġart": 1244,
      "Ġbetween": 1245,
      "ene": 1246,
      "Ã¡": 1247,
      "ten": 1248,
      "oin": 1249,
      "Ġke": 1250,
      "ui": 1251,
      "Ġtable": 1252,
      "sub": 1253,
      "Ġhead": 1254,
      "Ġmust": 1255,
      "Ġorder": 1256,
      "over": 1257,
      "Ġsay": 1258,
      "Ġter": 1259,
      "head": 1260,
      "rg": 1261,
      "Ġproduct": 1262,
      "This": 1263,
      "70": 1264,
      "Ġdouble": 1265,
      "Ġplace": 1266,
      "Ġinformation": 1267,
      "ced": 1268,
      "Ġweek": 1269,
      "place": 1270,
      "ĠAll": 1271,
      "els": 1272,
      "ĠTo": 1273,
      "Sh": 1274,
      "come": 1275,
      "Ġsw": 1276,
      "ization": 1277,
      "bl": 1278,
      "Ġprogram": 1279,
      "ape": 1280,
      "check": 1281,
      "Ġund": 1282,
      "75": 1283,
      "ags": 1284,
      "Ġresponse": 1285,
      "US": 1286,
      "Ġcode": 1287,
      "Ġwithout": 1288,
      "Ġsol": 1289,
      "akes": 1290,
      "44": 1291,
      "ĠSo": 1292,
      "Ġstill": 1293,
      "med": 1294,
      "Ġcap": 1295,
      "Ġrep": 1296,
      "ved": 1297,
      ".N": 1298,
      "Ġfield": 1299,
      "oto": 1300,
      "col": 1301,
      "Ġcour": 1302,
      "An": 1303,
      "Ġteam": 1304,
      "55": 1305,
      "Ġsecond": 1306,
      "Ġgoing": 1307,
      "39": 1308,
      "Ġfam": 1309,
      "atab": 1310,
      "Ġfact": 1311,
      "31": 1312,
      "Al": 1313,
      "Ġandroid": 1314,
      "Ð½": 1315,
      "ond": 1316,
      "Ġret": 1317,
      "Ġhome": 1318,
      "Ġleft": 1319,
      "Ġdirect": 1320,
      "As": 1321,
      "ret": 1322,
      "ado": 1323,
      "ee": 1324,
      "It": 1325,
      "oute": 1326,
      "Ġallow": 1327,
      "ai": 1328,
      "ane": 1329,
      "Ġbeg": 1330,
      "no": 1331,
      "sp": 1332,
      "Ġdifferent": 1333,
      "ĠIs": 1334,
      "Ġca": 1335,
      "Ġaround": 1336,
      "Ġreally": 1337,
      "Ġdep": 1338,
      "tra": 1339,
      "ingle": 1340,
      "ital": 1341,
      "Ġboth": 1342,
      "arm": 1343,
      "Ġput": 1344,
      "ÑĢ": 1345,
      "ung": 1346,
      "Ġlevel": 1347,
      "Ġconfig": 1348,
      "Ġdocument": 1349,
      "ux": 1350,
      "post": 1351,
      "Ġlocal": 1352,
      "ina": 1353,
      "Ġcontent": 1354,
      "ric": 1355,
      "Ġfa": 1356,
      "Ġquest": 1357,
      "Ġposs": 1358,
      "66": 1359,
      "Ġtoo": 1360,
      "Ġgreat": 1361,
      "Ñģ": 1362,
      "ron": 1363,
      "oy": 1364,
      "Ġmonth": 1365,
      "Ġsuper": 1366,
      "bar": 1367,
      "Ġtitle": 1368,
      "oh": 1369,
      "-p": 1370,
      "Ġmet": 1371,
      "Ġlife": 1372,
      "ĠUS": 1373,
      "md": 1374,
      "sw": 1375,
      "Ġcatch": 1376,
      "Ġpay": 1377,
      "Ġchange": 1378,
      "'re": 1379,
      "los": 1380,
      "Ã¤": 1381,
      "ĠNo": 1382,
      "Ġposition": 1383,
      "Ġold": 1384,
      "Ġbook": 1385,
      "bug": 1386,
      "Ġversion": 1387,
      "Ġthree": 1388,
      "init": 1389,
      "ero": 1390,
      "Ġlaw": 1391,
      "Ġbase": 1392,
      "Ġduring": 1393,
      "tes": 1394,
      "Ġspe": 1395,
      "ves": 1396,
      "Ġagainst": 1397,
      "cur": 1398,
      "With": 1399,
      "Ġpower": 1400,
      "ium": 1401,
      "ĠIm": 1402,
      "ese": 1403,
      "ique": 1404,
      "erg": 1405,
      "ĠThey": 1406,
      "rl": 1407,
      "ons": 1408,
      "-t": 1409,
      "update": 1410,
      "sc": 1411,
      "Ã¼": 1412,
      "Ġsuccess": 1413,
      "ram": 1414,
      "ched": 1415,
      "Ġdate": 1416,
      "Ġtot": 1417,
      "ification": 1418,
      "Ġtri": 1419,
      "chem": 1420,
      "my": 1421,
      "Ġbig": 1422,
      "ĠAt": 1423,
      "era": 1424,
      "Ġpop": 1425,
      "Ġfew": 1426,
      "Ġlen": 1427,
      "uid": 1428,
      "ÃŃ": 1429,
      "Ġdem": 1430,
      "Ġmatch": 1431,
      "49": 1432,
      "Ġanother": 1433,
      "Ġsit": 1434,
      "Ġcare": 1435,
      "Ġeffect": 1436,
      "ending": 1437,
      "For": 1438,
      "ior": 1439,
      "Ġfun": 1440,
      "start": 1441,
      "Ġleg": 1442,
      "Ġservice": 1443,
      "Ġsince": 1444,
      "Ġnon": 1445,
      "Ġlos": 1446,
      "Ġfull": 1447,
      "board": 1448,
      "Ġturn": 1449,
      "Ġbody": 1450,
      "199": 1451,
      "pi": 1452,
      "Ġsomething": 1453,
      "Ġstand": 1454,
      "Ġavailable": 1455,
      "mt": 1456,
      "Ġblock": 1457,
      "Ġkeep": 1458,
      "open": 1459,
      "Ġthings": 1460,
      "Ġred": 1461,
      "js": 1462,
      "Ġcontrol": 1463,
      "Ġcome": 1464,
      "Ġsource": 1465,
      "odes": 1466,
      "Ġmill": 1467,
      "Ġchang": 1468,
      "Ġask": 1469,
      "Ġemail": 1470,
      "47": 1471,
      "Ġdisc": 1472,
      "Ġbusiness": 1473,
      "ta": 1474,
      "field": 1475,
      "Ġrequired": 1476,
      "500": 1477,
      ".,": 1478,
      "ts": 1479,
      "af": 1480,
      "Ġmight": 1481,
      "Ġnever": 1482,
      "ada": 1483,
      "ĠHow": 1484,
      "Ġhard": 1485,
      "Ġintern": 1486,
      "mod": 1487,
      "Ġcalled": 1488,
      "Ġcho": 1489,
      "ird": 1490,
      "Ġoptions": 1491,
      "You": 1492,
      "ety": 1493,
      "Ġsmall": 1494,
      "Ġaccess": 1495,
      "Ġjob": 1496,
      "ĠThere": 1497,
      "Ġaddress": 1498,
      "oo": 1499,
      "atur": 1500,
      "-w": 1501,
      "Ġlittle": 1502,
      "Ġfri": 1503,
      "Ġport": 1504,
      "eh": 1505,
      "Ġstatus": 1506,
      "aim": 1507,
      "Ġos": 1508,
      "Ġupdate": 1509,
      "aff": 1510,
      "95": 1511,
      "Ġlink": 1512,
      "me": 1513,
      "Ġgiven": 1514,
      "Ġbetter": 1515,
      "Ġfeel": 1516,
      "enn": 1517,
      "Ġalready": 1518,
      "Ġincluding": 1519,
      "ru": 1520,
      "outer": 1521,
      "Ġalways": 1522,
      "If": 1523,
      "vis": 1524,
      "Ġgot": 1525,
      "stand": 1526,
      "Ġless": 1527,
      "Ġaccount": 1528,
      "Ġder": 1529,
      "Ġlot": 1530,
      "Ġbit": 1531,
      "Ġfollowing": 1532,
      "Ġsure": 1533,
      "Ġprom": 1534,
      "Ġsearch": 1535,
      "ken": 1536,
      "Ġer": 1537,
      "aut": 1538,
      "ling": 1539,
      "bed": 1540,
      "46": 1541,
      "Ġsays": 1542,
      "Ġtemp": 1543,
      "Ġrest": 1544,
      "Ġver": 1545,
      "lib": 1546,
      "77": 1547,
      "Ġdie": 1548,
      "Ġsite": 1549,
      "pen": 1550,
      "No": 1551,
      "acy": 1552,
      "rec": 1553,
      "Ġwon": 1554,
      "Ġvideo": 1555,
      "adi": 1556,
      "Ġgl": 1557,
      "'m": 1558,
      "Ġcert": 1559,
      "Ġcell": 1560,
      "ari": 1561,
      "Ġplayer": 1562,
      "ais": 1563,
      "Ġcost": 1564,
      "Ġhum": 1565,
      "ks": 1566,
      "Ġtotal": 1567,
      "ope": 1568,
      "Ġstat": 1569,
      "Ġclear": 1570,
      "uro": 1571,
      "Ġtechn": 1572,
      "Ġrow": 1573,
      "Ġseem": 1574,
      "Ġshort": 1575,
      "ĠNot": 1576,
      "Ġcompany": 1577,
      "Ġdone": 1578,
      "Ġhealth": 1579,
      "ĠBe": 1580,
      "status": 1581,
      "inc": 1582,
      "Ġchildren": 1583,
      "Ġcur": 1584,
      "Ġdays": 1585,
      "-l": 1586,
      "irm": 1587,
      "omb": 1588,
      "Ġonline": 1589,
      "imal": 1590,
      "au": 1591,
      "ĠFr": 1592,
      "where": 1593,
      "Ġorgan": 1594,
      "Ġreason": 1595,
      "Ġwithin": 1596,
      "Ġdesign": 1597,
      "une": 1598,
      "Ġcent": 1599,
      "Ġarr": 1600,
      "len": 1601,
      "Ġbro": 1602,
      "Ġschool": 1603,
      "ava": 1604,
      "42": 1605,
      "Ġeng": 1606,
      "Ġinclude": 1607,
      "ĠDr": 1608,
      "!!": 1609,
      "side": 1610,
      "Ġann": 1611,
      "Ġstop": 1612,
      "Ġlater": 1613,
      "Ġclient": 1614,
      "raft": 1615,
      "Ġlove": 1616,
      "oud": 1617,
      "Ġable": 1618,
      "Ġmen": 1619,
      "Ã¶": 1620,
      "room": 1621,
      "Ġgive": 1622,
      "amb": 1623,
      "ike": 1624,
      "Ġcondition": 1625,
      "Ġcopy": 1626,
      "ĠCan": 1627,
      "do": 1628,
      "ze": 1629,
      "Ġeither": 1630,
      "Ġimportant": 1631,
      "Ġlead": 1632,
      "Ġda": 1633,
      "Ġfamily": 1634,
      "Ġoption": 1635,
      "Ġexist": 1636,
      "ica": 1637,
      "'ve": 1638,
      "vers": 1639,
      "Ġoffer": 1640,
      "Ġwater": 1641,
      "Ġche": 1642,
      "ĠMy": 1643,
      "Ġstep": 1644,
      "ances": 1645,
      "300": 1646,
      "active": 1647,
      "ama": 1648,
      "product": 1649,
      "Ġgovernment": 1650,
      "ĠID": 1651,
      "And": 1652,
      "Ð»": 1653,
      "Ġtimes": 1654,
      "Ġfour": 1655,
      "Ġfar": 1656,
      "Ġpresent": 1657,
      "uest": 1658,
      "Ġbas": 1659,
      "ifier": 1660,
      "Ġlib": 1661,
      "Ġroom": 1662,
      "Ġonce": 1663,
      "Ġresults": 1664,
      "Ġcontinue": 1665,
      "Ġtalk": 1666,
      "eb": 1667,
      "ols": 1668,
      "Ġmass": 1669,
      "Ġmean": 1670,
      "ips": 1671,
      "Ġuntil": 1672,
      "Ġmarket": 1673,
      "Ġarea": 1674,
      "uit": 1675,
      "Ġlength": 1676,
      "event": 1677,
      "Ġmus": 1678,
      "Ġkind": 1679,
      "mb": 1680,
      "41": 1681,
      "Ġlight": 1682,
      "uk": 1683,
      "ohn": 1684,
      "alf": 1685,
      "Ġside": 1686,
      "Ġcamp": 1687,
      "Ġmiss": 1688,
      "way": 1689,
      "Ġbased": 1690,
      "Ġplan": 1691,
      "unk": 1692,
      "Ġaway": 1693,
      "iod": 1694,
      "Ã§": 1695,
      "izer": 1696,
      "ĠUp": 1697,
      "Ġnear": 1698,
      "alt": 1699,
      "Ġcountry": 1700,
      "Ġauthor": 1701,
      "Ġspecific": 1702,
      "ones": 1703,
      "ĠDo": 1704,
      "Ġalong": 1705,
      "Ġexpress": 1706,
      ".'": 1707,
      "env": 1708,
      "Ġbegin": 1709,
      "Ġsoftware": 1710,
      "Ġimp": 1711,
      "Ġwin": 1712,
      "Ã³n": 1713,
      "Ġthing": 1714,
      "Trans": 1715,
      "ĠTHE": 1716,
      "Ġwhy": 1717,
      "Ġdoesn": 1718,
      "ij": 1719,
      "Ġsingle": 1720,
      "ley": 1721,
      "create": 1722,
      "isk": 1723,
      "Ġrights": 1724,
      "Ġpo": 1725,
      "Ġant": 1726,
      "ĠWhen": 1727,
      "Ġwomen": 1728,
      "Ġdest": 1729,
      "Ã£": 1730,
      "Ġpossible": 1731,
      "Ġdidn": 1732,
      "Ġsent": 1733,
      "Ġenc": 1734,
      "Ġcommand": 1735,
      "Ġrecent": 1736,
      "ĠMay": 1737,
      "Ġmoney": 1738,
      "sl": 1739,
      "Ġtold": 1740,
      "current": 1741,
      "Ġauto": 1742,
      "ĠState": 1743,
      "da": 1744,
      "Ġworking": 1745,
      "Ġwindow": 1746,
      "Ġleast": 1747,
      "agn": 1748,
      "ĠGeneral": 1749,
      "Ġrecord": 1750,
      "Ġdat": 1751,
      "Ġmaking": 1752,
      "ued": 1753,
      "emp": 1754,
      "\".": 1755,
      "Ġclose": 1756,
      "Ġpercent": 1757,
      "Ġpast": 1758,
      "Ġmove": 1759,
      "Ġpat": 1760,
      "Ġvi": 1761,
      "'ll": 1762,
      "Ġspecial": 1763,
      "Ġcity": 1764,
      "ario": 1765,
      "Ġtell": 1766,
      "imum": 1767,
      "esc": 1768,
      "Ġfont": 1769,
      "ĠAm": 1770,
      "Ġcourse": 1771,
      "Ġlate": 1772,
      "43": 1773,
      "Ġamount": 1774,
      "ino": 1775,
      "Ġì": 1776,
      "andle": 1777,
      "Ġben": 1778,
      "Ġenough": 1779,
      "now": 1780,
      "Ġlooking": 1781,
      "Ġhold": 1782,
      "vo": 1783,
      "ison": 1784,
      "yc": 1785,
      "Ġpot": 1786,
      "rt": 1787,
      "go": 1788,
      "Ġlow": 1789,
      "Ġpara": 1790,
      "Ġprice": 1791,
      "Ġtoday": 1792,
      "Ġpolit": 1793,
      "Ġ''": 1794,
      "Ġattack": 1795,
      "ana": 1796,
      "Ġmeans": 1797,
      "Ġstory": 1798,
      "ids": 1799,
      "aken": 1800,
      "Ġmeet": 1801,
      "Ġmom": 1802,
      "Ġden": 1803,
      "change": 1804,
      "ici": 1805,
      "na": 1806,
      "Ġsort": 1807,
      "pare": 1808,
      "Ġthought": 1809,
      "umer": 1810,
      "Ġdet": 1811,
      "Ġreview": 1812,
      "Ġswitch": 1813,
      "Ġabove": 1814,
      "56": 1815,
      "Ġquestion": 1816,
      "gle": 1817,
      "Ġword": 1818,
      "Ġprovide": 1819,
      "Ġresearch": 1820,
      "Ã£o": 1821,
      "Ġcover": 1822,
      "ĠIS": 1823,
      "Ġwhether": 1824,
      "Ġhaving": 1825,
      "lem": 1826,
      "ney": 1827,
      "show": 1828,
      "lev": 1829,
      "ades": 1830,
      "ause": 1831,
      "Ġfre": 1832,
      "Ġlarge": 1833,
      "ral": 1834,
      "Ġfac": 1835,
      "ias": 1836,
      "top": 1837,
      "Ġweb": 1838,
      "Ġdev": 1839,
      "Ġdeal": 1840,
      "Ġproblem": 1841,
      "Ġpress": 1842,
      "Ġthough": 1843,
      "Ġpoints": 1844,
      "Ġever": 1845,
      "Ġservices": 1846,
      "Ġactually": 1847,
      "Ġmillion": 1848,
      "Ġconc": 1849,
      "ios": 1850,
      "Ġunderstand": 1851,
      "Ġhappen": 1852,
      "ĠCo": 1853,
      "Ġles": 1854,
      "Ġoften": 1855,
      "Ġinfo": 1856,
      "ony": 1857,
      "Ġspace": 1858,
      "umb": 1859,
      "Ġpassword": 1860,
      "Ġstore": 1861,
      "ĠWhat": 1862,
      "ged": 1863,
      "most": 1864,
      "sm": 1865,
      "New": 1866,
      "Ġdetails": 1867,
      "Ġprob": 1868,
      "Ġface": 1869,
      "Ġsave": 1870,
      "dev": 1871,
      "Ġitems": 1872,
      "Ġsocial": 1873,
      "ien": 1874,
      "Ġmar": 1875,
      "Ġmajor": 1876,
      "Ġexpected": 1877,
      "Ġyet": 1878,
      "Ġfood": 1879,
      "ites": 1880,
      "dr": 1881,
      "Ġmembers": 1882,
      "Ġcomb": 1883,
      "Ġbar": 1884,
      "comm": 1885,
      "Ġsend": 1886,
      "Ġinc": 1887,
      "apping": 1888,
      "ros": 1889,
      "fa": 1890,
      "Ġbecome": 1891,
      "Ġev": 1892,
      "ĠUnited": 1893,
      "fully": 1894,
      "Ġmakes": 1895,
      "Ġglobal": 1896,
      "Ġcontact": 1897,
      "Ġcertain": 1898,
      "iÃ³n": 1899,
      "iles": 1900,
      "oss": 1901,
      "ilit": 1902,
      "ster": 1903,
      "Ġnews": 1904,
      "Ġdevice": 1905,
      "cel": 1906,
      "Ġprevious": 1907,
      "Ġbelow": 1908,
      "Ġmedia": 1909,
      "Ġfail": 1910,
      "Ġblack": 1911,
      "ĠAmerican": 1912,
      "Ġadded": 1913,
      "Ġbuy": 1914,
      "Ġcame": 1915,
      "Ġdelete": 1916,
      "Ġcard": 1917,
      "Ġgetting": 1918,
      "Ġclaim": 1919,
      "Ġair": 1920,
      "ops": 1921,
      "ements": 1922,
      "Ġenter": 1923,
      "Ġlocation": 1924,
      "Ġnight": 1925,
      "Ġdoing": 1926,
      "ĠRed": 1927,
      "lin": 1928,
      "Ġpick": 1929,
      "Ġwatch": 1930,
      "Ġhuman": 1931,
      "dir": 1932,
      "Ġtax": 1933,
      "Ġgirl": 1934,
      "Ġbox": 1935,
      "Ġstrong": 1936,
      "rel": 1937,
      "Ġhouse": 1938,
      "Ġtrack": 1939,
      "je": 1940,
      "ĠJohn": 1941,
      "Ġce": 1942,
      "Ġapplication": 1943,
      "any": 1944,
      "Ä±": 1945,
      "Ñĥ": 1946,
      "Ġwait": 1947,
      "ĠÃł": 1948,
      "Ġtogether": 1949,
      "Ġterms": 1950,
      "Ġapply": 1951,
      "Ġothers": 1952,
      "Ġfund": 1953,
      "Ġseveral": 1954,
      "ii": 1955,
      "Ġil": 1956,
      "main": 1957,
      "elt": 1958,
      "ĠUniversity": 1959,
      "cer": 1960,
      "ales": 1961,
      "Ġsubject": 1962,
      "ny": 1963,
      "Ġesc": 1964,
      "What": 1965,
      "Ġhistory": 1966,
      "Ġdu": 1967,
      "unt": 1968,
      "Ġmot": 1969,
      "Ġfuture": 1970,
      "Ġstarted": 1971,
      "Ġmode": 1972,
      "ires": 1973,
      "There": 1974,
      "Ġtook": 1975,
      "Ġgames": 1976,
      "Ġproducts": 1977,
      "Is": 1978,
      "Ġbad": 1979,
      "Ġneeds": 1980,
      "Ġknown": 1981,
      "Ġseen": 1982,
      "51": 1983,
      "ume": 1984,
      "Ġborder": 1985,
      "Ġlive": 1986,
      "temp": 1987,
      "iet": 1988,
      "Ġge": 1989,
      "eme": 1990,
      "Ġprovided": 1991,
      "Ġhope": 1992,
      "uly": 1993,
      "find": 1994,
      "Ġyoung": 1995,
      "ional": 1996,
      "Ġstudy": 1997,
      "ili": 1998,
      "Ġnetwork": 1999,
      "yl": 2000,
      "rest": 2001,
      "Ġlimit": 2002,
      "Ġcut": 2003,
      "Ġcou": 2004,
      "Ġwent": 2005,
      "Ġfire": 2006,
      "Ġacross": 2007,
      "Ġcommunity": 2008,
      "Ġofficial": 2009,
      "Ġvisit": 2010,
      "Ġreceived": 2011,
      "Ġmonths": 2012,
      "Ġanim": 2013,
      "ico": 2014,
      "ĠÃ©": 2015,
      "ball": 2016,
      "One": 2017,
      "pha": 2018,
      "fort": 2019,
      "Ġmind": 2020,
      "Ġcomment": 2021,
      "But": 2022,
      "ĠEl": 2023,
      "mark": 2024,
      "amic": 2025,
      "uel": 2026,
      "anger": 2027,
      "Ġbackground": 2028,
      "Ġseries": 2029,
      "52": 2030,
      "Ġhot": 2031,
      "Ġbill": 2032,
      "Ġframe": 2033,
      "Ġcomes": 2034,
      "pected": 2035,
      "Ġfilter": 2036,
      "Ġremove": 2037,
      "met": 2038,
      "Ġfront": 2039,
      "Ġvo": 2040,
      "uy": 2041,
      "Ġdig": 2042,
      "hr": 2043,
      "Ġgen": 2044,
      "vec": 2045,
      "Ġste": 2046,
      "Ġselected": 2047,
      "Ġaccording": 2048,
      "rag": 2049,
      "Ġactiv": 2050,
      "Ġvirtual": 2051,
      "aur": 2052,
      "Ġanything": 2053,
      "Ġhours": 2054,
      "Ġwar": 2055,
      "aging": 2056,
      "ams": 2057,
      "Ġearly": 2058,
      "86": 2059,
      "Ġcenter": 2060,
      "Ġago": 2061,
      "Ġstudents": 2062,
      "Ġdue": 2063,
      "Ġpor": 2064,
      "Ġcannot": 2065,
      "Ġwhite": 2066,
      "Ġperiod": 2067,
      "Ġscreen": 2068,
      "'d": 2069,
      "Ġnet": 2070,
      "ĠStates": 2071,
      "ĠNOT": 2072,
      "Ġneg": 2073,
      "Ġcommon": 2074,
      "ges": 2075,
      "Ġaccept": 2076,
      "Ġrandom": 2077,
      "Ġhit": 2078,
      "ria": 2079,
      "atal": 2080,
      "Ġamong": 2081,
      "Ġdeb": 2082,
      "ha": 2083,
      "Ġanswer": 2084,
      "Ġwalk": 2085,
      "Ġage": 2086,
      "Ñı": 2087,
      "Ġfive": 2088,
      "53": 2089,
      "Ġfriend": 2090,
      "Ġclean": 2091,
      "ows": 2092,
      "dis": 2093,
      "Ġwords": 2094,
      "zy": 2095,
      "Ġtre": 2096,
      "la": 2097,
      "ĠYork": 2098,
      "Ġdiscuss": 2099,
      "ĠGod": 2100,
      "Ġissue": 2101,
      "Ġland": 2102,
      "54": 2103,
      "Ġsal": 2104,
      "Ġworks": 2105,
      "Ġhalf": 2106,
      "vas": 2107,
      "Ġpolice": 2108,
      "ua": 2109,
      "Ġsimple": 2110,
      "Ġempty": 2111,
      "Ġeverything": 2112,
      "Ġrelations": 2113,
      "Ġnothing": 2114,
      "Ġrunning": 2115,
      "por": 2116,
      "ĠCity": 2117,
      "ĠWest": 2118,
      "Ġmor": 2119,
      "Ġna": 2120,
      "Ġsomeone": 2121,
      "ato": 2122,
      "Ġshare": 2123,
      "Ġur": 2124,
      "ĠWorld": 2125,
      "How": 2126,
      "Ġchanges": 2127,
      "Ġpersonal": 2128,
      "Ġevents": 2129,
      "za": 2130,
      "Ġneeded": 2131,
      "Ġfight": 2132,
      "Ġein": 2133,
      "gen": 2134,
      "ĠOut": 2135,
      "Ġwriting": 2136,
      "Ġrate": 2137,
      "inner": 2138,
      "Ġtw": 2139,
      "cd": 2140,
      "ĠMr": 2141,
      "Ġcorrect": 2142,
      "Ġfall": 2143,
      "Ġvol": 2144,
      "Ġdevelopment": 2145,
      "Ġsi": 2146,
      "ving": 2147,
      "Ġbelieve": 2148,
      "ns": 2149,
      "So": 2150,
      "Ġminutes": 2151,
      "Ġsimilar": 2152,
      "Ġtaken": 2153,
      "aced": 2154,
      "Ġisn": 2155,
      "Ġson": 2156,
      "Ġum": 2157,
      "Ġmoment": 2158,
      "Ġbring": 2159,
      "Ã¨": 2160,
      "Ġtrying": 2161,
      "Ġmember": 2162,
      "acc": 2163,
      "89": 2164,
      "Ġboard": 2165,
      "Ġsus": 2166,
      "Ġpush": 2167,
      "Ġplease": 2168,
      "bit": 2169,
      "Ġtypes": 2170,
      "When": 2171,
      "Ġedit": 2172,
      "ĠEurope": 2173,
      "ĠStr": 2174,
      "ille": 2175,
      "Ġinstead": 2176,
      "Ġidea": 2177,
      "Ġfilm": 2178,
      "Ġconn": 2179,
      "Ġphone": 2180,
      "Ġactive": 2181,
      "delete": 2182,
      "Ġmo": 2183,
      "Ġdeath": 2184,
      "Ġarticle": 2185,
      "rodu": 2186,
      "Ñĭ": 2187,
      "ka": 2188,
      "Ġalmost": 2189,
      "Ġsell": 2190,
      "rip": 2191,
      "Ġfeature": 2192,
      "Ġvia": 2193,
      "Ġlim": 2194,
      "block": 2195,
      "gy": 2196,
      "tag": 2197,
      "Ġcomplete": 2198,
      "Ġgeneral": 2199,
      "Ġasked": 2200,
      "ores": 2201,
      "SP": 2202,
      "ÅĤ": 2203,
      "rap": 2204,
      "Ġparty": 2205,
      "Ġnormal": 2206,
      "Ġfurther": 2207,
      "attle": 2208,
      "Ġmusic": 2209,
      "Ġtaking": 2210,
      "ĠAfter": 2211,
      "Ġfailed": 2212,
      "Ġconcern": 2213,
      "oe": 2214,
      "ba": 2215,
      "Ġterm": 2216,
      "has": 2217,
      "Ġpotential": 2218,
      "Ġpublished": 2219,
      "Ġprobably": 2220,
      "lim": 2221,
      "ague": 2222,
      "-year": 2223,
      "ering": 2224,
      "Ġreturns": 2225,
      "pat": 2226,
      "ĠHouse": 2227,
      "Ġconditions": 2228,
      "-to": 2229,
      "Ġfavor": 2230,
      "ĠNow": 2231,
      "Ġmer": 2232,
      "Ġloss": 2233,
      "net": 2234,
      "Ġengine": 2235,
      "Ġissues": 2236,
      "Ġstay": 2237,
      "Ġdom": 2238,
      "Ġlower": 2239,
      "ls": 2240,
      "uge": 2241,
      "Ġexact": 2242,
      "ief": 2243,
      "Ġformer": 2244,
      "Ġsix": 2245,
      "ida": 2246,
      "Ġheart": 2247,
      "ald": 2248,
      "Ġrather": 2249,
      "Ġbuilding": 2250,
      "Ġquestions": 2251,
      "Ġje": 2252,
      "Ġcas": 2253,
      "utf": 2254,
      "Ġsecurity": 2255,
      "Ġhowever": 2256,
      "Ġinside": 2257,
      "Ġpresident": 2258,
      "Ġtag": 2259,
      "Ġattempt": 2260,
      "opp": 2261,
      "uses": 2262,
      "Ġround": 2263,
      "Ġfriends": 2264,
      "ĠNorth": 2265,
      "ello": 2266,
      "That": 2267,
      "Ðº": 2268,
      "ĠPresident": 2269,
      "Ġcampaign": 2270,
      "Ġalt": 2271,
      "Ġenergy": 2272,
      "ington": 2273,
      "Ġseg": 2274,
      "Ġhor": 2275,
      "iers": 2276,
      "can": 2277,
      "Ġbehind": 2278,
      "fg": 2279,
      "ÑĮ": 2280,
      "long": 2281,
      "Ġraise": 2282,
      "Ġwanted": 2283,
      "lt": 2284,
      "eline": 2285,
      "ĠWill": 2286,
      "Ġpolicy": 2287,
      "Ġthird": 2288,
      "Ġbed": 2289,
      "ĠInc": 2290,
      "Ġserv": 2291,
      "Ġhar": 2292,
      "Ġtraining": 2293,
      "icht": 2294,
      "nes": 2295,
      "Ġmag": 2296,
      "Ġrelease": 2297,
      "ĠSouth": 2298,
      "ando": 2299,
      "sk": 2300,
      "Ġoutside": 2301,
      "gn": 2302,
      "ises": 2303,
      "Ġground": 2304,
      "Ġpour": 2305,
      "ĠOct": 2306,
      "Ġtree": 2307,
      "Ġmatter": 2308,
      "iam": 2309,
      "Ġshows": 2310,
      "Ġball": 2311,
      "Ġfast": 2312,
      "oved": 2313,
      "ante": 2314,
      "Ġfit": 2315,
      "Ġpolitical": 2316,
      "card": 2317,
      "och": 2318,
      "Ġindustry": 2319,
      "Ġextra": 2320,
      "Ġreported": 2321,
      "Ġwrong": 2322,
      "Ġseems": 2323,
      "Ġunit": 2324,
      "Ġtakes": 2325,
      "Ġappear": 2326,
      "Ġdifficult": 2327,
      "Ġcoming": 2328,
      "Ġsettings": 2329,
      "Ġautom": 2330,
      "Ġquite": 2331,
      "iqu": 2332,
      "Ġpretty": 2333,
      "Ġlonger": 2334,
      "Ġmenu": 2335,
      "Ġcurrently": 2336,
      "Ġnames": 2337,
      "Ġactual": 2338,
      "ters": 2339,
      "250": 2340,
      "Ġfix": 2341,
      "Ġcases": 2342,
      "My": 2343,
      "ĠSE": 2344,
      "alle": 2345,
      "ĠNational": 2346,
      "ara": 2347,
      "ĠÐ¿": 2348,
      "Ġhigher": 2349,
      "cr": 2350,
      "alert": 2351,
      "ĠGoogle": 2352,
      "Ġitself": 2353,
      "Ġuna": 2354,
      "Ġprogress": 2355,
      "Ġmid": 2356,
      "ĠMicrosoft": 2357,
      "Ġdim": 2358,
      "Ġadditional": 2359,
      "Ġnumbers": 2360,
      "Ġcompanies": 2361,
      "Ġsound": 2362,
      "Ġstatement": 2363,
      "Ġalert": 2364,
      "Ġcontract": 2365,
      "ev": 2366,
      "Ġlines": 2367,
      "Ġsoon": 2368,
      "Ġë": 2369,
      "Ġlas": 2370,
      "endar": 2371,
      "ÄĻ": 2372,
      "Ġchoose": 2373,
      "how": 2374,
      "ĠAmerica": 2375,
      "Ġoffice": 2376,
      "Ġinde": 2377,
      "Ġflag": 2378,
      "den": 2379,
      "Ġnote": 2380,
      "Ã¼r": 2381,
      "ester": 2382,
      "uz": 2383,
      "Ġvert": 2384,
      "Ġgroups": 2385,
      "lang": 2386,
      "Ġmut": 2387,
      "Ġve": 2388,
      "ĠPlease": 2389,
      "Ġrisk": 2390,
      "Ġwoman": 2391,
      "Ġgets": 2392,
      "Ġincluded": 2393,
      "igr": 2394,
      "Ġsem": 2395,
      "ĠBlack": 2396,
      "-up": 2397,
      "Ġcause": 2398,
      "Ġvan": 2399,
      "Ġfocus": 2400,
      "Ġmultiple": 2401,
      "ido": 2402,
      "-M": 2403,
      "Ġaddition": 2404,
      "Ġreceive": 2405,
      "ÐµÐ½": 2406,
      "Ġincrease": 2407,
      "ĠOpen": 2408,
      "Ġleave": 2409,
      "-n": 2410,
      "Ġbre": 2411,
      "Ġreading": 2412,
      "Ġnotice": 2413,
      "Ġstandard": 2414,
      "Ġstates": 2415,
      "aa": 2416,
      "Ġcross": 2417,
      "Ġnational": 2418,
      "Ġproblems": 2419,
      "istor": 2420,
      "Ġarch": 2421,
      "Ġimages": 2422,
      "ste": 2423,
      "Ġforce": 2424,
      "ds": 2425,
      "Ġprevent": 2426,
      "apan": 2427,
      "ĠService": 2428,
      "ador": 2429,
      "Top": 2430,
      "po": 2431,
      "ãĢģ": 2432,
      "bum": 2433,
      "ians": 2434,
      "63": 2435,
      "Ġliving": 2436,
      "Ġtool": 2437,
      "Ġok": 2438,
      "Ġfeed": 2439,
      "IX": 2440,
      "Ã©s": 2441,
      "ĠNews": 2442,
      "remove": 2443,
      "erry": 2444,
      "ares": 2445,
      "Do": 2446,
      "ustral": 2447,
      "ĠÑģ": 2448,
      "Ġpopular": 2449,
      "cal": 2450,
      "Ġdir": 2451,
      "Ġallowed": 2452,
      "62": 2453,
      "Ġtrain": 2454,
      "rs": 2455,
      "ĠRepublic": 2456,
      "Ġvers": 2457,
      "Ġsil": 2458,
      "Ġtechnology": 2459,
      "should": 2460,
      "Ġmit": 2461,
      "Ġstudent": 2462,
      "Ġaverage": 2463,
      "ĠMarch": 2464,
      "fin": 2465,
      "Ġcourt": 2466,
      "Ð²": 2467,
      "Ġparts": 2468,
      "Ġdecision": 2469,
      "Ġsaw": 2470,
      "Ġsaying": 2471,
      "Ġanyone": 2472,
      "Ġsong": 2473,
      "Ġchanged": 2474,
      "Ãª": 2475,
      "Please": 2476,
      "à¤": 2477,
      "Ġkill": 2478,
      "Ġdrug": 2479,
      "Ġconvert": 2480,
      "ĠWindows": 2481,
      "Ġmat": 2482,
      "Ġplus": 2483,
      "lat": 2484,
      "aste": 2485,
      "Ġready": 2486,
      "Ġsense": 2487,
      "ĠJune": 2488,
      "Ġlatest": 2489,
      "Ġregion": 2490,
      "Ġreach": 2491,
      "ados": 2492,
      "Ġweeks": 2493,
      "Ġdamage": 2494,
      "Ġlost": 2495,
      "ani": 2496,
      "Ġhimself": 2497,
      "Ġdog": 2498,
      "pir": 2499,
      "Ġpaper": 2500,
      "Ġstaff": 2501,
      "Ġthemselves": 2502,
      "Ġdriver": 2503,
      "ja": 2504,
      "pu": 2505,
      "Ġoil": 2506,
      "Ġstock": 2507,
      "Ġdead": 2508,
      "dom": 2509,
      "Ġrules": 2510,
      "ham": 2511,
      "ula": 2512,
      "74": 2513,
      "mar": 2514,
      "ĠChina": 2515,
      "vey": 2516,
      "Ġplaying": 2517,
      "Ġcouple": 2518,
      "command": 2519,
      "Ġroad": 2520,
      "urt": 2521,
      "ych": 2522,
      "Ġheld": 2523,
      "Ġtab": 2524,
      "ano": 2525,
      "Ã±": 2526,
      "Ġmachine": 2527,
      "Ġoperation": 2528,
      "Ġren": 2529,
      "men": 2530,
      "zen": 2531,
      "Ġtor": 2532,
      "ura": 2533,
      "Ġestablish": 2534,
      "Ġsch": 2535,
      "Ġmovie": 2536,
      "Ġsec": 2537,
      "Ġactivity": 2538,
      "Ø§": 2539,
      "Ġwasn": 2540,
      "aciÃ³n": 2541,
      "Ġjud": 2542,
      "inder": 2543,
      "Ġrot": 2544,
      "Ġpen": 2545,
      "Ġchoice": 2546,
      "enced": 2547,
      "ĠJuly": 2548,
      "iler": 2549,
      "Card": 2550,
      "aly": 2551,
      "Ġlegal": 2552,
      "role": 2553,
      "Ġten": 2554,
      "Ġgoes": 2555,
      "Ġmis": 2556,
      "icks": 2557,
      "des": 2558,
      "91": 2559,
      "ĠÐ²": 2560,
      "acion": 2561,
      "81": 2562,
      "ĠApril": 2563,
      "Ġtravel": 2564,
      "Ġsou": 2565,
      "Ġpassed": 2566,
      "Ġbus": 2567,
      "ĠCenter": 2568,
      "Ġprec": 2569,
      "ĠSan": 2570,
      "Ġcountries": 2571,
      "kt": 2572,
      "Ġqual": 2573,
      "idad": 2574,
      "ĠPM": 2575,
      "ci": 2576,
      "Äħ": 2577,
      "Ġlooks": 2578,
      "Ġnecessary": 2579,
      "Ġreleased": 2580,
      "ĠTV": 2581,
      "inq": 2582,
      "ĠDepartment": 2583,
      "Ġrespond": 2584,
      "ael": 2585,
      "Ġfinancial": 2586,
      "Ġthreat": 2587,
      "Ã§Ã£o": 2588,
      "Ġevidence": 2589,
      "Ġou": 2590,
      "dat": 2591,
      "Ġrule": 2592,
      "Ġrecently": 2593,
      "Ġreturned": 2594,
      "Ġseek": 2595,
      "ĠGerman": 2596,
      "Ġsystems": 2597,
      "Ġdrop": 2598,
      "83": 2599,
      "Å¼": 2600,
      "Ġdirectly": 2601,
      "ris": 2602,
      "bon": 2603,
      "pite": 2604,
      "-based": 2605,
      "ordin": 2606,
      "Ġgrad": 2607,
      "Ġusually": 2608,
      "Ġist": 2609,
      "Ġserious": 2610,
      "Ġcustomer": 2611,
      "odo": 2612,
      "Ġdoor": 2613,
      "Ġplant": 2614,
      "Ġbegan": 2615,
      "Ġchance": 2616,
      "Ġord": 2617,
      "Ġprotect": 2618,
      "Ñĩ": 2619,
      "Ġroute": 2620,
      "ĠSchool": 2621,
      "hi": 2622,
      "After": 2623,
      "Ġcontr": 2624,
      "Ġprimary": 2625,
      "Ġbi": 2626,
      "Red": 2627,
      "Ġleaders": 2628,
      "Ġgun": 2629,
      "Ġupdated": 2630,
      "Ġinform": 2631,
      "ala": 2632,
      "Ġhab": 2633,
      "ĠDay": 2634,
      "ĠOver": 2635,
      "Ġled": 2636,
      "uri": 2637,
      "gl": 2638,
      "Ġbank": 2639,
      "Ġhands": 2640,
      "Ġsold": 2641,
      "ota": 2642,
      "Am": 2643,
      "Ġsens": 2644,
      "Ġremember": 2645,
      "cout": 2646,
      "Ġenv": 2647,
      "Ġscene": 2648,
      "Ġpark": 2649,
      "ĠSeptember": 2650,
      "Ġsen": 2651,
      "uts": 2652,
      "inn": 2653,
      "aling": 2654,
      "conf": 2655,
      "Ġwrote": 2656,
      "Ġequal": 2657,
      "Ġmiddle": 2658,
      "94": 2659,
      "ĠAugust": 2660,
      "Ġquickly": 2661,
      "ho": 2662,
      "Ġcop": 2663,
      "Ġinn": 2664,
      "Ġones": 2665,
      "Ġgreen": 2666,
      "comment": 2667,
      "Ġune": 2668,
      "avi": 2669,
      "iring": 2670,
      "ails": 2671,
      "ĠKing": 2672,
      "ora": 2673,
      "Ġir": 2674,
      "-S": 2675,
      "Ġelection": 2676,
      "Ġchat": 2677,
      "Ġmanagement": 2678,
      "illa": 2679,
      "tk": 2680,
      "Ġsetting": 2681,
      "Ġhappy": 2682,
      "Ġfinish": 2683,
      "Ġcamera": 2684,
      "cons": 2685,
      "ita": 2686,
      "ĠCounty": 2687,
      "Ġmilitary": 2688,
      "Ġsale": 2689,
      "non": 2690,
      "rim": 2691,
      "-old": 2692,
      "contact": 2693,
      "Ġtown": 2694,
      "elling": 2695,
      "omen": 2696,
      "Ġslow": 2697,
      "Ġblue": 2698,
      "ago": 2699,
      "inst": 2700,
      "Ġcustomers": 2701,
      "Ġdark": 2702,
      "si": 2703,
      "ĠJapan": 2704,
      "ĠEast": 2705,
      "Ġpackage": 2706,
      "Ġclub": 2707,
      "ione": 2708,
      "Ġplayed": 2709,
      "mo": 2710,
      "ito": 2711,
      "Ġdeliver": 2712,
      "Ãł": 2713,
      "ĠEnglish": 2714,
      "Ġcomputer": 2715,
      "Ġpas": 2716,
      "Ġrais": 2717,
      "Ġmobile": 2718,
      "more": 2719,
      "pass": 2720,
      "Ġha": 2721,
      "Ġleading": 2722,
      "Ġzu": 2723,
      "Ġinvolved": 2724,
      "Ġio": 2725,
      "asy": 2726,
      "Ġeyes": 2727,
      "iforn": 2728,
      "Ġnice": 2729,
      "Ġfloor": 2730,
      "ĠUK": 2731,
      "Ġwish": 2732,
      "Ġstage": 2733,
      "igen": 2734,
      "Ġmeeting": 2735,
      "Ġworked": 2736,
      "iny": 2737,
      "Ð¼": 2738,
      "eff": 2739,
      "cha": 2740,
      "Ġang": 2741,
      "Ġhour": 2742,
      "Ġspeak": 2743,
      "Ġseconds": 2744,
      "Ġinternational": 2745,
      "iate": 2746,
      "ivo": 2747,
      "rd": 2748,
      "Ġroll": 2749,
      "Ġgrowth": 2750,
      "ĠWashington": 2751,
      "Ġturned": 2752,
      "Ġletter": 2753,
      "Ġsituation": 2754,
      "ette": 2755,
      "Ġvon": 2756,
      "Ġdrive": 2757,
      "Ġblood": 2758,
      "Ġphoto": 2759,
      "Ġgave": 2760,
      "Ġshot": 2761,
      "ĠAir": 2762,
      "Ġmorning": 2763,
      "Ġtrade": 2764,
      "wer": 2765,
      "Ġsy": 2766,
      "Ġpiece": 2767,
      "ran": 2768,
      "va": 2769,
      "Ġcompletely": 2770,
      "ini": 2771,
      "Ġcam": 2772,
      "Ġsites": 2773,
      "pa": 2774,
      "ÑģÑĤ": 2775,
      "ĠFriday": 2776,
      "è¯": 2777,
      "Ġbuf": 2778,
      "Ġnov": 2779,
      "Ġdas": 2780,
      "Ġheard": 2781,
      "Ġgold": 2782,
      "Ġfair": 2783,
      "Ġsales": 2784,
      "save": 2785,
      "Ġdecided": 2786,
      "ki": 2787,
      "ĠUN": 2788,
      "Ġmanager": 2789,
      "ĠFire": 2790,
      "Ġplans": 2791,
      "lay": 2792,
      "Ãº": 2793,
      "call": 2794,
      "wood": 2795,
      "Ġgrand": 2796,
      "Ġcredit": 2797,
      "orge": 2798,
      "Ġdifference": 2799,
      "Ġfra": 2800,
      "Ġtried": 2801,
      "send": 2802,
      "Ġreports": 2803,
      "ĠStreet": 2804,
      "Ġgives": 2805,
      "ĠNovember": 2806,
      "ellig": 2807,
      "Äĥ": 2808,
      "ĠÐ½": 2809,
      "elle": 2810,
      "Can": 2811,
      "Ð¾Ð²": 2812,
      "arty": 2813,
      "ona": 2814,
      "Ġcapital": 2815,
      "Ġhear": 2816,
      "emo": 2817,
      "oi": 2818,
      "Ġcalls": 2819,
      "Ġbrand": 2820,
      "ga": 2821,
      "ĠIndia": 2822,
      "Ġing": 2823,
      "Ġpet": 2824,
      "Ġcharge": 2825,
      "ened": 2826,
      "grad": 2827,
      "eds": 2828,
      "lich": 2829,
      "Ġarm": 2830,
      "Ġstar": 2831,
      "Ġfederal": 2832,
      "Ġcarry": 2833,
      "ĠIsrael": 2834,
      "Ġearlier": 2835,
      "Ġtim": 2836,
      "Ġtemper": 2837,
      "ĠDavid": 2838,
      "Ġwants": 2839,
      "Ġpicture": 2840,
      "-de": 2841,
      "Ġpull": 2842,
      "ente": 2843,
      "Ġgas": 2844,
      "Ġedge": 2845,
      "Ġkids": 2846,
      "Ġshown": 2847,
      "ella": 2848,
      "Ġlat": 2849,
      "ban": 2850,
      "pet": 2851,
      "bin": 2852,
      "ĠCanada": 2853,
      "They": 2854,
      "Ġdans": 2855,
      "Ġhair": 2856,
      "Ġcu": 2857,
      "Ġlaws": 2858,
      "ped": 2859,
      "Ġpow": 2860,
      "Ġjobs": 2861,
      "ĠPaul": 2862,
      "mas": 2863,
      "ĠTop": 2864,
      "Ġvote": 2865,
      "Ġfine": 2866,
      "car": 2867,
      "Ġaltern": 2868,
      "make": 2869,
      "Ġfavorite": 2870,
      "Ġhappened": 2871,
      "ĠÂ£": 2872,
      "oms": 2873,
      "Ġnamed": 2874,
      "Ġpanel": 2875,
      "Ġrock": 2876,
      "Ð´": 2877,
      "Ġtrust": 2878,
      "Ar": 2879,
      "Ġeconomic": 2880,
      "Ġrace": 2881,
      "Ġphysical": 2882,
      "Ġremoved": 2883,
      "Ġlooked": 2884,
      "gest": 2885,
      "aturday": 2886,
      "Ġdro": 2887,
      "Ġtowards": 2888,
      "Ġuns": 2889,
      "Ġdefine": 2890,
      "Did": 2891,
      "Ġhistor": 2892,
      "Ġnature": 2893,
      "Ġnation": 2894,
      "ih": 2895,
      "sem": 2896,
      "Ġwall": 2897,
      "Ġnearly": 2898,
      "ĠMonday": 2899,
      "Ġsun": 2900,
      "vest": 2901,
      "Ġbul": 2902,
      "Ġtests": 2903,
      "ĠNote": 2904,
      "Ġmyself": 2905,
      "arts": 2906,
      "Ġpopulation": 2907,
      "ĠCalifornia": 2908,
      "\"I": 2909,
      "uesday": 2910,
      "Ġcosts": 2911,
      "Ġlaunch": 2912,
      "ker": 2913,
      "band": 2914,
      "Ġband": 2915,
      "Ġwer": 2916,
      "Ã¡s": 2917,
      "ican": 2918,
      "ett": 2919,
      "Ġimmediately": 2920,
      "zer": 2921,
      "Ġfigure": 2922,
      "eller": 2923,
      "Ġpoll": 2924,
      "Ġgiving": 2925,
      "Ġbillion": 2926,
      "Ġequipment": 2927,
      "Ġple": 2928,
      "ĠObama": 2929,
      "Ġpa": 2930,
      "ĠDirect": 2931,
      "ĠCall": 2932,
      "Ġremain": 2933,
      "Ġanti": 2934,
      "ĠLondon": 2935,
      "Ġsafety": 2936,
      "ĠCourt": 2937,
      "ena": 2938,
      "Ġzero": 2939,
      "Ġpaid": 2940,
      "Ġincreased": 2941,
      "Ġqueue": 2942,
      "ĠInternational": 2943,
      "ĠfÃ¼r": 2944,
      "ursday": 2945,
      "Ġmaximum": 2946,
      "Ġlimited": 2947,
      "Ġforeign": 2948,
      "Ġpan": 2949,
      "Ġtour": 2950,
      "Ġmoving": 2951,
      "Ġauf": 2952,
      "ÅŁ": 2953,
      "Ġannounced": 2954,
      "Ġagreed": 2955,
      "rie": 2956,
      "Ġsexual": 2957,
      "-time": 2958,
      "Ġcoach": 2959,
      "Ġsupported": 2960,
      "rier": 2961,
      "aver": 2962,
      "ige": 2963,
      "Ġpressure": 2964,
      "begin": 2965,
      "rian": 2966,
      "ĠSunday": 2967,
      "iger": 2968,
      "Ġthinking": 2969,
      "Ġsets": 2970,
      "eder": 2971,
      "Ġdaily": 2972,
      "jo": 2973,
      "Ġpool": 2974,
      "nesday": 2975,
      "Ġsummer": 2976,
      "Ġrap": 2977,
      "Ġopin": 2978,
      "Ð°Ð½": 2979,
      "Ġworkers": 2980,
      "Ġmaster": 2981,
      "Ġstories": 2982,
      "inese": 2983,
      "Ġsteps": 2984,
      "Ġofficials": 2985,
      "vc": 2986,
      "Ġgar": 2987,
      "ĠAT": 2988,
      "Ġdigital": 2989,
      "Ġspent": 2990,
      "ÅĽ": 2991,
      "Ġprincip": 2992,
      "Ġmissing": 2993,
      "Ġwife": 2994,
      "Ġtalking": 2995,
      "Ġcart": 2996,
      "Ġlocated": 2997,
      "Ġcards": 2998,
      "Ġguy": 2999,
      "Ġpers": 3000,
      "olar": 3001,
      "Ġkilled": 3002,
      "Ġpurpose": 3003,
      "ÃŃa": 3004,
      "Ġsin": 3005,
      "ĠdÃ©": 3006,
      "Ġhop": 3007,
      "Ġnorm": 3008,
      "Ġweak": 3009,
      "Ġmil": 3010,
      "Ġfirm": 3011,
      "Ġdemand": 3012,
      "Ġplaces": 3013,
      "Ġalone": 3014,
      "Ġactivities": 3015,
      "Ġma": 3016,
      "Ġagree": 3017,
      "Ġpod": 3018,
      "ĠEuropean": 3019,
      "?\"": 3020,
      "chen": 3021,
      "ima": 3022,
      "Ġdirector": 3023,
      "Ġyield": 3024,
      "Ġrestaur": 3025,
      "duc": 3026,
      "iki": 3027,
      "Ġgirls": 3028,
      "Ġsocket": 3029,
      "Ġprices": 3030,
      "Ġsat": 3031,
      "Ġwood": 3032,
      "dk": 3033,
      "Ġreset": 3034,
      "Ġforms": 3035,
      "ĠÐ¸": 3036,
      "ĠTuesday": 3037,
      "Ġguys": 3038,
      "ÐµÑĢ": 3039,
      "Ġinternet": 3040,
      "Ġguard": 3041,
      "Ġpurchase": 3042,
      "Ġaren": 3043,
      "lik": 3044,
      "Ġfish": 3045,
      "??": 3046,
      "Ġjo": 3047,
      "Ġleader": 3048,
      "More": 3049,
      "ĠÐº": 3050,
      "alm": 3051,
      "house": 3052,
      "Ġconfirm": 3053,
      "Ġcouldn": 3054,
      "rate": 3055,
      "Ġaudio": 3056,
      "Ġspot": 3057,
      "Ġcompared": 3058,
      "lig": 3059,
      "ete": 3060,
      "Ġdetail": 3061,
      "Ġfresh": 3062,
      "Ġmoved": 3063,
      "ĠSaturday": 3064,
      "Äĩ": 3065,
      "Ġpul": 3066,
      "Ġhundred": 3067,
      "Ġtransaction": 3068,
      "ĠIndian": 3069,
      "ni": 3070,
      "ji": 3071,
      "ya": 3072,
      "Your": 3073,
      "Ġlargest": 3074,
      "Ġqui": 3075,
      "Ġng": 3076,
      "Ġsing": 3077,
      "Ġsuit": 3078,
      "Ġjump": 3079,
      "Ġsmart": 3080,
      "Ġassist": 3081,
      "ĠThursday": 3082,
      "Ġbur": 3083,
      "ĠÐ´": 3084,
      "ĠJames": 3085,
      "-se": 3086,
      "Show": 3087,
      "Ġrates": 3088,
      "Ġbon": 3089,
      "Ð¾Ð»": 3090,
      "igo": 3091,
      "Ġadding": 3092,
      "Ġmach": 3093,
      "Ġaware": 3094,
      "ĠBritish": 3095,
      "Ġom": 3096,
      "eler": 3097,
      "Ġprev": 3098,
      "Ġclosed": 3099,
      "Ġpermission": 3100,
      "Ã©e": 3101,
      "ky": 3102,
      "Ġau": 3103,
      "Ġeye": 3104,
      "ĠWednesday": 3105,
      "olver": 3106,
      "ola": 3107,
      "Close": 3108,
      "alar": 3109,
      "ĠMichael": 3110,
      "She": 3111,
      "Ġguess": 3112,
      "ĠJava": 3113,
      "å¹´": 3114,
      "Ġappears": 3115,
      "Ġcomo": 3116,
      "ali": 3117,
      "Ġtele": 3118,
      "ben": 3119,
      "Ġreasons": 3120,
      "lines": 3121,
      "Ð°ÑĤ": 3122,
      "rent": 3123,
      "Ġaf": 3124,
      "While": 3125,
      "Ġcolors": 3126,
      "kin": 3127,
      "ĠCongress": 3128,
      "ÃŁ": 3129,
      "Ġarrest": 3130,
      "Ð¿": 3131,
      "ĠIndex": 3132,
      "Ġinterested": 3133,
      "Ġrent": 3134,
      "Ġalbum": 3135,
      "olicy": 3136,
      "Ġminimum": 3137,
      "ĠInternet": 3138,
      "å¤": 3139,
      "Exp": 3140,
      "Ġbasis": 3141,
      "Ġbudget": 3142,
      "PA": 3143,
      "dt": 3144,
      "Ġgone": 3145,
      "Ġbattle": 3146,
      "uda": 3147,
      "Ġstation": 3148,
      "Ġfinished": 3149,
      "Ġshop": 3150,
      "Ġeight": 3151,
      "Ġmail": 3152,
      "Ġnav": 3153,
      "but": 3154,
      "Ġseven": 3155,
      "RR": 3156,
      "ĠHill": 3157,
      "Ġvolume": 3158,
      "Ġtit": 3159,
      "Ġcompleted": 3160,
      "Ġsupply": 3161,
      "Ġspr": 3162,
      "mi": 3163,
      "Ġpayment": 3164,
      "ĠApple": 3165,
      "dec": 3166,
      "Ġboy": 3167,
      "Ġbalance": 3168,
      "-top": 3169,
      "ÐµÑĤ": 3170,
      "Ġeat": 3171,
      "Ġtro": 3172,
      "Ġclaims": 3173,
      "arc": 3174,
      "ander": 3175,
      "Ġwarm": 3176,
      "which": 3177,
      "Ġtal": 3178,
      "gi": 3179,
      "ĠÐ¾": 3180,
      "bi": 3181,
      "contr": 3182,
      "Ġsett": 3183,
      "abe": 3184,
      "Ġsociety": 3185,
      "ĠSecurity": 3186,
      "Ġcat": 3187,
      "ĠTexas": 3188,
      "Ġtraff": 3189,
      "anta": 3190,
      "Ġfeeling": 3191,
      "Ġcivil": 3192,
      "Ġwouldn": 3193,
      "Ġship": 3194,
      "Ġreplace": 3195,
      "ela": 3196,
      "iques": 3197,
      "Ġahead": 3198,
      "Ġpun": 3199,
      "fc": 3200,
      "Ġtransfer": 3201,
      "Ġgay": 3202,
      "Ġjournal": 3203,
      "Ġol": 3204,
      "ĠAustralia": 3205,
      "Ġquarter": 3206,
      "yan": 3207,
      "zi": 3208,
      "aine": 3209,
      "Ġcash": 3210,
      "Ġeen": 3211,
      "Ġapplications": 3212,
      "ĠRussia": 3213,
      "Ġsan": 3214,
      "Some": 3215,
      "pop": 3216,
      "Ġtend": 3217,
      "Ġdegree": 3218,
      "ĠMal": 3219,
      "elen": 3220,
      "Ġfan": 3221,
      "Ġsoft": 3222,
      "Ġhighest": 3223,
      "ĠWhy": 3224,
      "Ġforces": 3225,
      "Many": 3226,
      "ĠPress": 3227,
      "hol": 3228,
      "ĠChinese": 3229,
      "Ġposted": 3230,
      "Ġremains": 3231,
      "Ġcin": 3232,
      "organ": 3233,
      "Ġdied": 3234,
      "mat": 3235,
      "Ġstarts": 3236,
      "Ġruns": 3237,
      "uler": 3238,
      "Ġemp": 3239,
      "Ġdefinitely": 3240,
      "Ġsigned": 3241,
      "Ġult": 3242,
      "Ġdress": 3243,
      "Ġfamilies": 3244,
      "ĠRussian": 3245,
      "ches": 3246,
      "unes": 3247,
      "ÙĦ": 3248,
      "agen": 3249,
      "Ġbiggest": 3250,
      "Ġshowed": 3251,
      "ĠBank": 3252,
      "record": 3253,
      "produ": 3254,
      "Ġul": 3255,
      "una": 3256,
      "ugar": 3257,
      "Ġopening": 3258,
      "Ġhappens": 3259,
      "di": 3260,
      "Ġwaiting": 3261,
      "Ġeconomy": 3262,
      "ĠFrench": 3263,
      "Ġstreet": 3264,
      "ĠBill": 3265,
      "Ġpreviously": 3266,
      "Ġkept": 3267,
      "ju": 3268,
      "olly": 3269,
      "Ġê": 3270,
      "Ġut": 3271,
      "Ġcentral": 3272,
      "Ġonto": 3273,
      "Ġfactory": 3274,
      "aws": 3275,
      "Ġmal": 3276,
      "Ġreached": 3277,
      "Ġterror": 3278,
      "Ġmir": 3279,
      "help": 3280,
      "kan": 3281,
      "Ġfat": 3282,
      "Ġprotest": 3283,
      "ils": 3284,
      "inds": 3285,
      "Ġrelative": 3286,
      "Ġserve": 3287,
      "zone": 3288,
      "Ġlang": 3289,
      "endo": 3290,
      "iro": 3291,
      "Ġreflect": 3292,
      "Ġpros": 3293,
      "ĠAre": 3294,
      "gu": 3295,
      "rm": 3296,
      "Ġdies": 3297,
      "Ġdos": 3298,
      "Ġmiles": 3299,
      "izz": 3300,
      "Ġton": 3301,
      "Ġbaby": 3302,
      "Ġattacks": 3303,
      "Ġhospital": 3304,
      "Ġchain": 3305,
      "Ġfarm": 3306,
      "Ġknows": 3307,
      "encia": 3308,
      "Ġnicht": 3309,
      "uer": 3310,
      "Ġspeech": 3311,
      "Ġwarn": 3312,
      "Ġheavy": 3313,
      "Ġinvestigation": 3314,
      "Ġchurch": 3315,
      "Ġdespite": 3316,
      "chain": 3317,
      "Ġregarding": 3318,
      "mes": 3319,
      "Ġresolve": 3320,
      "ira": 3321,
      "Ã¢": 3322,
      "Ġupdates": 3323,
      "Ġtoward": 3324,
      "Ġlisten": 3325,
      "Car": 3326,
      "emb": 3327,
      "activ": 3328,
      "æķ°": 3329,
      "Ġclock": 3330,
      "Ġvir": 3331,
      "Ġefforts": 3332,
      "Ġbranch": 3333,
      "Ġindust": 3334,
      "Ġmotor": 3335,
      "ĠChristian": 3336,
      "ĠAmericans": 3337,
      "Ġcaused": 3338,
      "Ġradio": 3339,
      "Ġhat": 3340,
      "Ġoffered": 3341,
      "æĹ¥": 3342,
      "Ġhelped": 3343,
      "ws": 3344,
      "Ġpeace": 3345,
      "nu": 3346,
      "tf": 3347,
      "Ġpi": 3348,
      "Ġban": 3349,
      "istan": 3350,
      "Ġmission": 3351,
      "Ð·": 3352,
      "Ġfootball": 3353,
      "Ġbag": 3354,
      "Ġrac": 3355,
      "Ġmac": 3356,
      "amente": 3357,
      "Ġpin": 3358,
      "Ġti": 3359,
      "Ġhaven": 3360,
      "Ġglass": 3361,
      "Ġweekend": 3362,
      "oon": 3363,
      "ye": 3364,
      "Ġvous": 3365,
      "Ġolder": 3366,
      "Ġhet": 3367,
      "Ġtimer": 3368,
      "Ġcritical": 3369,
      "Ġshowing": 3370,
      "cher": 3371,
      "Ġdefense": 3372,
      "Ġbes": 3373,
      "Ð¾ÑĢ": 3374,
      "Where": 3375,
      "Ġelectric": 3376,
      "ĠCouncil": 3377,
      "idade": 3378,
      "Ġrich": 3379,
      "sa": 3380,
      "ĠSmith": 3381,
      "ista": 3382,
      "Ġagency": 3383,
      "Ġsich": 3384,
      "Ġtrial": 3385,
      "Ġplaced": 3386,
      "Ġdan": 3387,
      "Ġweather": 3388,
      "Ġprovider": 3389,
      "Ġplanning": 3390,
      "Ġseeing": 3391,
      "Ġcancel": 3392,
      "Ġagreement": 3393,
      "Ġprotection": 3394,
      "Ġfi": 3395,
      "Ġcandidate": 3396,
      "Ġtrend": 3397,
      "aren": 3398,
      "ĠBay": 3399,
      "ius": 3400,
      "Ġcriminal": 3401,
      "bert": 3402,
      "Ġinvestment": 3403,
      "ania": 3404,
      "Ġviolence": 3405,
      "ema": 3406,
      "Lib": 3407,
      "hat": 3408,
      "Ġstick": 3409,
      "Ġraised": 3410,
      "uis": 3411,
      "Ġmas": 3412,
      "Ġfav": 3413,
      "eras": 3414,
      "Ġapplied": 3415,
      "lers": 3416,
      "Ġcold": 3417,
      "ĠChurch": 3418,
      "ses": 3419,
      "Ġsand": 3420,
      "Ġrid": 3421,
      "Ġentre": 3422,
      "Ġvac": 3423,
      "Ġexchange": 3424,
      "Ġdepartment": 3425,
      "Ġdocuments": 3426,
      "-P": 3427,
      "rend": 3428,
      "ĠAnn": 3429,
      "ati": 3430,
      "when": 3431,
      "Ġshut": 3432,
      "Ġtemperature": 3433,
      "Ġmetal": 3434,
      "Ġll": 3435,
      "ko": 3436,
      "you": 3437,
      "Ġcars": 3438,
      "ĠrÃ©": 3439,
      "Ġprison": 3440,
      "ĠTim": 3441,
      "Ġclearly": 3442,
      "ĠRepublican": 3443,
      "Ð¸ÑĤ": 3444,
      "bor": 3445,
      "çļĦ": 3446,
      "Ġbeat": 3447,
      "Ġminute": 3448,
      "Ġcancer": 3449,
      "Ġearth": 3450,
      "Ġsea": 3451,
      "cos": 3452,
      "Ã¶r": 3453,
      "Ġattend": 3454,
      "Ġaus": 3455,
      "oston": 3456,
      "bes": 3457,
      "Ġmess": 3458,
      "Ġtraffic": 3459,
      "ĠEngland": 3460,
      "Ġta": 3461,
      "Ġofficer": 3462,
      "Ġopinion": 3463,
      "Ġautomatically": 3464,
      "isco": 3465,
      "Ġended": 3466,
      "ilm": 3467,
      "ĠMinister": 3468,
      "stop": 3469,
      "Ġmi": 3470,
      "Ġhotel": 3471,
      "sel": 3472,
      "oz": 3473,
      "Ð¾Ð´": 3474,
      "Ġmixed": 3475,
      "step": 3476,
      "Ġputs": 3477,
      "Ġdeck": 3478,
      "Ġcontinues": 3479,
      "Ġbin": 3480,
      "Ġgather": 3481,
      "Ġidentity": 3482,
      "Ã´": 3483,
      "acer": 3484,
      "Ġtra": 3485,
      "ĠFlorida": 3486,
      "xa": 3487,
      "vin": 3488,
      "Ġofficers": 3489,
      "Ġaccounts": 3490,
      "ĠFrance": 3491,
      "reme": 3492,
      "uj": 3493,
      "Ġbal": 3494,
      "ĠCommission": 3495,
      "Ġnom": 3496,
      "Ġpieces": 3497,
      "Ġbusinesses": 3498,
      "Ġparties": 3499,
      "Ġjour": 3500,
      "ÐµÐ½Ð¸": 3501,
      "Ġdelivery": 3502,
      "yes": 3503,
      "enda": 3504,
      "Ġschedule": 3505,
      "Hello": 3506,
      "vt": 3507,
      "Ġarticles": 3508,
      "Ġwest": 3509,
      "reset": 3510,
      "Ġwid": 3511,
      "ĠWall": 3512,
      "Ġavec": 3513,
      "æľĪ": 3514,
      "Ġstars": 3515,
      "Ġcovered": 3516,
      "Ġelim": 3517,
      "Ġtu": 3518,
      "Ġmigr": 3519,
      "Ġannual": 3520,
      "Ġcrime": 3521,
      "bel": 3522,
      "Ġkitchen": 3523,
      "-out": 3524,
      "azz": 3525,
      "Ġdaughter": 3526,
      "Ġsouth": 3527,
      "lette": 3528,
      "aks": 3529,
      "ĠEU": 3530,
      "Ġbrief": 3531,
      "Ġconference": 3532,
      "anda": 3533,
      "Ġeine": 3534,
      "esso": 3535,
      "Ġris": 3536,
      "Ġsports": 3537,
      "Ġyes": 3538,
      "lu": 3539,
      "-pro": 3540,
      "Ġdriving": 3541,
      "Ġpropos": 3542,
      "Ġwear": 3543,
      "Ġice": 3544,
      "kr": 3545,
      "ĠGermany": 3546,
      "ĠGeorge": 3547,
      "Ġanimal": 3548,
      "Ġmais": 3549,
      "Ġprepar": 3550,
      "Ġbug": 3551,
      "Ġrom": 3552,
      "prev": 3553,
      "Ġgod": 3554,
      "ĠSenate": 3555,
      "Ġweapons": 3556,
      "Ġpurposes": 3557,
      "pol": 3558,
      "Ġmurder": 3559,
      "Ġbright": 3560,
      "Ġsie": 3561,
      "akt": 3562,
      "Ġcrash": 3563,
      "Ð±": 3564,
      "iva": 3565,
      "Ġreverse": 3566,
      "onto": 3567,
      "lets": 3568,
      "Will": 3569,
      "Ġwind": 3570,
      "Ġwarning": 3571,
      "Ġdraft": 3572,
      "Ġsam": 3573,
      "Ġholding": 3574,
      "Ġsupposed": 3575,
      "vi": 3576,
      "note": 3577,
      "Ġclimate": 3578,
      "Ġholds": 3579,
      "fi": 3580,
      "news": 3581,
      "wa": 3582,
      "Ġrise": 3583,
      "decl": 3584,
      "Ġlisted": 3585,
      "Ġmostly": 3586,
      "olo": 3587,
      "Ġoccurred": 3588,
      "Ġchanging": 3589,
      "\"The": 3590,
      "ĠAssociation": 3591,
      "Ġcalc": 3592,
      "Ġsz": 3593,
      "Ġaux": 3594,
      "Ġartist": 3595,
      "Ġring": 3596,
      "Ġflat": 3597,
      "Ġchecked": 3598,
      "ele": 3599,
      "ĠChristmas": 3600,
      "ĠPolice": 3601,
      "ÐµÐ¼": 3602,
      "Ġwatching": 3603,
      "Ġblank": 3604,
      "ez": 3605,
      "World": 3606,
      "Ġzone": 3607,
      "Ġverify": 3608,
      "ono": 3609,
      "Ġcer": 3610,
      "tre": 3611,
      "Ġasking": 3612,
      "Ġorders": 3613,
      "Ġspending": 3614,
      "ĠAfrica": 3615,
      "Ùħ": 3616,
      "Ġchief": 3617,
      "Ġtom": 3618,
      "Ġpolicies": 3619,
      "Ġcharges": 3620,
      "ĠBoston": 3621,
      "Ġfilled": 3622,
      "Ġnorth": 3623,
      "Ġtermin": 3624,
      "Ġber": 3625,
      "asi": 3626,
      "Why": 3627,
      "ĠMuslim": 3628,
      "Ġlie": 3629,
      "Ġprime": 3630,
      "ti": 3631,
      "dy": 3632,
      "ĠIran": 3633,
      "Ġju": 3634,
      "Ġdecide": 3635,
      "pool": 3636,
      "Ã©t": 3637,
      "uen": 3638,
      "Ġodd": 3639,
      "Ġkick": 3640,
      "Ġprocedure": 3641,
      "Ġends": 3642,
      "bus": 3643,
      "Ġexplain": 3644,
      "ĠCommittee": 3645,
      "Ġoperating": 3646,
      "Ġeste": 3647,
      "ĠWatch": 3648,
      "iat": 3649,
      "Ġbund": 3650,
      "Ġkid": 3651,
      "Ġyang": 3652,
      "ÑĨ": 3653,
      "Ġvent": 3654,
      "Ġrand": 3655,
      "uan": 3656,
      "plan": 3657,
      "Ã©n": 3658,
      "zz": 3659,
      "amento": 3660,
      "Ġhomes": 3661,
      "aria": 3662,
      "Ġshooting": 3663,
      "Ġwa": 3664,
      "iner": 3665,
      "Ġincident": 3666,
      "Ġlocations": 3667,
      "Ñħ": 3668,
      "Ġped": 3669,
      "ĠWho": 3670,
      "Ġmine": 3671,
      "Ġgro": 3672,
      "ĠÃ¼": 3673,
      "Ġalleged": 3674,
      "Ġchair": 3675,
      "Ġstopped": 3676,
      "Ġele": 3677,
      "Ġfunds": 3678,
      "uce": 3679,
      "ila": 3680,
      "Ġcup": 3681,
      "Ġstores": 3682,
      "mem": 3683,
      "Ġidentify": 3684,
      "Ġprepare": 3685,
      "Ġrob": 3686,
      "Ġsport": 3687,
      "Ġalternative": 3688,
      "ische": 3689,
      "kl": 3690,
      "king": 3691,
      "Ġsurvey": 3692,
      "hab": 3693,
      "Ġturns": 3694,
      "Ġmel": 3695,
      "amos": 3696,
      "Ġlinked": 3697,
      "ami": 3698,
      "Ġuma": 3699,
      "Ġran": 3700,
      "Ġentered": 3701,
      "Ġich": 3702,
      "prec": 3703,
      "Ġdur": 3704,
      "Ġsnap": 3705,
      "Ġphil": 3706,
      "Ġdoctor": 3707,
      "ĠCentral": 3708,
      "Ġputting": 3709,
      "oor": 3710,
      "after": 3711,
      "Ġprefer": 3712,
      "Ġskip": 3713,
      "Ġals": 3714,
      "\"We": 3715,
      "lan": 3716,
      "Ġseat": 3717,
      "reek": 3718,
      "Ġrating": 3719,
      "Ġrestaurant": 3720,
      "isa": 3721,
      "Ġí": 3722,
      "ĠJapanese": 3723,
      "Ġfunding": 3724,
      "Ġconfirmed": 3725,
      "Ġhearing": 3726,
      "Ġmouth": 3727,
      "oria": 3728,
      "Ġod": 3729,
      "Ġbought": 3730,
      "Ġmoves": 3731,
      "Ġcoffee": 3732,
      "Ġfighting": 3733,
      "nie": 3734,
      "ĠÑĤ": 3735,
      "Ġbond": 3736,
      "Ġidentified": 3737,
      "ĠMaster": 3738,
      "ateur": 3739,
      "Ġwed": 3740,
      "Ġmes": 3741,
      "Ġadvanced": 3742,
      "Ġpal": 3743,
      "Ġtruck": 3744,
      "ĠCup": 3745,
      "Ġbroken": 3746,
      "Ġmarriage": 3747,
      "iento": 3748,
      "Ġabsolutely": 3749,
      "ĠÐ·": 3750,
      "Ġkom": 3751,
      "Ġissued": 3752,
      "Ġleaves": 3753,
      "Ġexecutive": 3754,
      "Ġnu": 3755,
      "-R": 3756,
      "Ġtwice": 3757,
      "ĠmÃ¡s": 3758,
      "Ġdrag": 3759,
      "Ġsed": 3760,
      "Ġbot": 3761,
      "Ġresolution": 3762,
      "ende": 3763,
      "Ġmeasures": 3764,
      "Ġlay": 3765,
      "ĠWhere": 3766,
      "Ġflight": 3767,
      "Ġdrugs": 3768,
      "Ġproposed": 3769,
      "Ġstated": 3770,
      "Ġeast": 3771,
      "åį": 3772,
      "Ġdebate": 3773,
      "lf": 3774,
      "ÄŁ": 3775,
      "Ġpad": 3776,
      "Ġplane": 3777,
      "uard": 3778,
      "itz": 3779,
      "ĠPeter": 3780,
      "Ġfell": 3781,
      "aje": 3782,
      "Ġfee": 3783,
      "reh": 3784,
      "Ġproof": 3785,
      "Ø±": 3786,
      "Ð»Ð¸": 3787,
      "Ġclim": 3788,
      "Ġtv": 3789,
      "Ġplays": 3790,
      "Ġdiscount": 3791,
      "ĠIraq": 3792,
      "Ġsac": 3793,
      "adas": 3794,
      "May": 3795,
      "Ġdomin": 3796,
      "orno": 3797,
      "Ġru": 3798,
      "cy": 3799,
      "Ġtrading": 3800,
      "Ġtypically": 3801,
      "Ãµ": 3802,
      "izar": 3803,
      "Ġva": 3804,
      "Ġrain": 3805,
      "According": 3806,
      "Ġdollars": 3807,
      "Ġrequested": 3808,
      "-day": 3809,
      "Ġintelligence": 3810,
      "tle": 3811,
      "bur": 3812,
      "Ġrat": 3813,
      "Ġnuclear": 3814,
      "Ġcrisis": 3815,
      "Ġstanding": 3816,
      "ĠCross": 3817,
      "Ġauthorities": 3818,
      "Ġfamiliar": 3819,
      "Ġunion": 3820,
      "aret": 3821,
      "ĠÐ¼": 3822,
      "Ġnie": 3823,
      "ï¼Ł": 3824,
      "Ġbeach": 3825,
      "Ġquiet": 3826,
      "imo": 3827,
      "Ġprofit": 3828,
      "Ġera": 3829,
      "Ġho": 3830,
      "ĠJim": 3831,
      "Ã¡n": 3832,
      "ĠDemocratic": 3833,
      "Ġcurrency": 3834,
      "Ġclassic": 3835,
      "ĠÃ¨": 3836,
      "Ġaccident": 3837,
      "Ġcharged": 3838,
      "iones": 3839,
      "Ġwalking": 3840,
      "ifer": 3841,
      "war": 3842,
      "Ġordered": 3843,
      "Ġevening": 3844,
      "Ġtun": 3845,
      "Ġarrived": 3846,
      "Ġeconom": 3847,
      "-mail": 3848,
      "ĠPay": 3849,
      "Ġking": 3850,
      "ĠHelp": 3851,
      "Ġabuse": 3852,
      "Ġchemical": 3853,
      "Ġorient": 3854,
      "Ġsob": 3855,
      "ika": 3856,
      "Ġpolitics": 3857,
      "Ġrepeated": 3858,
      "Are": 3859,
      "Ġnotification": 3860,
      "Ġtargets": 3861,
      "Ġgoogle": 3862,
      "ĠMartin": 3863,
      "lie": 3864,
      "Ġmand": 3865,
      "-ch": 3866,
      "Ġbelieved": 3867,
      "nic": 3868,
      "ungen": 3869,
      "Two": 3870,
      "eting": 3871,
      "æĺ": 3872,
      "çĶ¨": 3873,
      "Ġdin": 3874,
      "Ġnine": 3875,
      "Ġsending": 3876,
      "Ġdebt": 3877,
      "ĠAfrican": 3878,
      "Ġexperts": 3879,
      "Ġjudge": 3880,
      "Ġtrace": 3881,
      "Ġconcerned": 3882,
      "Ġaccepted": 3883,
      "Ġsongs": 3884,
      "uent": 3885,
      "zt": 3886,
      "Ġsitting": 3887,
      "Ġassault": 3888,
      "ogen": 3889,
      "ãĥ¼": 3890,
      "Ġarms": 3891,
      "Ġbear": 3892,
      "Ġmarkets": 3893,
      "ĠForce": 3894,
      "Ġvictim": 3895,
      "Ġfourth": 3896,
      "sen": 3897,
      "ĠStandard": 3898,
      "Ġassets": 3899,
      "Ġinterests": 3900,
      "eno": 3901,
      "Ġapproved": 3902,
      "Ġsnow": 3903,
      "ÙĨ": 3904,
      "Ġtodo": 3905,
      "Ġsel": 3906,
      "Ġpel": 3907,
      "Ġillegal": 3908,
      "Ġci": 3909,
      "Ġbuying": 3910,
      "Ġmu": 3911,
      "Ġlands": 3912,
      "Ġfort": 3913,
      "Ġnue": 3914,
      "aus": 3915,
      "ĠKorea": 3916,
      "hal": 3917,
      "Ġride": 3918,
      "ĠCanadian": 3919,
      "Ġunable": 3920,
      "Ġnos": 3921,
      "elly": 3922,
      "Ġmigration": 3923,
      "Ġadvance": 3924,
      "Ñİ": 3925,
      "pio": 3926,
      "Ġshopping": 3927,
      "Ġsigns": 3928,
      "ĠJones": 3929,
      "Ġja": 3930,
      "actual": 3931,
      "Ġoch": 3932,
      "Ġbird": 3933,
      "Ġrelax": 3934,
      "Ġplate": 3935,
      "osa": 3936,
      "aire": 3937,
      "aba": 3938,
      "ĠArea": 3939,
      "hen": 3940,
      "Ġbegins": 3941,
      "uv": 3942,
      "iser": 3943,
      "Ġwave": 3944,
      "iche": 3945,
      "Ã¨re": 3946,
      "anz": 3947,
      "\"It": 3948,
      "alendar": 3949,
      "Ġspeaking": 3950,
      "Ġprove": 3951,
      "ÐµÐ»": 3952,
      "Ġcommission": 3953,
      "Ġcloser": 3954,
      "ku": 3955,
      "ĠFederal": 3956,
      "Ð¹": 3957,
      "Ã¨s": 3958,
      "ÑĪ": 3959,
      "ĠCEO": 3960,
      "gar": 3961,
      "Ġcum": 3962,
      "Ã«": 3963,
      "Ġeating": 3964,
      "Ġtar": 3965,
      "Ġplastic": 3966,
      "Ġscores": 3967,
      "Ġhate": 3968,
      "Ġpand": 3969,
      "Ġnur": 3970,
      "Ġmarried": 3971,
      "Ġdropped": 3972,
      "Ð¾Ð¼": 3973,
      "Ġwearing": 3974,
      "Ġstatements": 3975,
      "ĠShould": 3976,
      "Ġcentre": 3977,
      "Ã³w": 3978,
      "Ġtrouble": 3979,
      "ĠMexico": 3980,
      "Mr": 3981,
      "idi": 3982,
      "ĠÐ¿ÑĢ": 3983,
      "eli": 3984,
      "Ġaid": 3985,
      "Ġfaces": 3986,
      "iti": 3987,
      "Ġalle": 3988,
      "Ġrobot": 3989,
      "Ġreceiving": 3990,
      "ered": 3991,
      "Ġchecks": 3992,
      "Head": 3993,
      "Ġfilms": 3994,
      "itar": 3995,
      "Ð½Ñĭ": 3996,
      "ĠWilliam": 3997,
      "Ġaz": 3998,
      "Ġanywhere": 3999,
      "Ġoder": 4000,
      "ĠnÃ£o": 4001,
      "nam": 4002,
      "Ġwinter": 4003,
      "Ġtrees": 4004,
      "Ġhier": 4005,
      "Ġvictims": 4006,
      "iana": 4007,
      "Ġble": 4008,
      "Ġtelevision": 4009,
      "aciones": 4010,
      "Ġprincipal": 4011,
      "Ġfees": 4012,
      "Ġcorrectly": 4013,
      "fil": 4014,
      "Ġwel": 4015,
      "aga": 4016,
      "Ġfacility": 4017,
      "Ġhappening": 4018,
      "iden": 4019,
      "Ġhasn": 4020,
      "nen": 4021,
      "Ġspl": 4022,
      "Ġpaying": 4023,
      "Ġarrested": 4024,
      "ĠPrime": 4025,
      "abb": 4026,
      "alo": 4027,
      "vol": 4028,
      "uh": 4029,
      "mente": 4030,
      "imm": 4031,
      "Since": 4032,
      "what": 4033,
      "eur": 4034,
      "Ġvictory": 4035,
      "Ġsind": 4036,
      "åĩ": 4037,
      "aya": 4038,
      "Ġdogs": 4039,
      "Ġdelivered": 4040,
      ".-": 4041,
      "à¥": 4042,
      "ĠSyria": 4043,
      "ring": 4044,
      "Ġwerden": 4045,
      "Ġmachines": 4046,
      "ĠStock": 4047,
      "Ãµes": 4048,
      "ÙĪ": 4049,
      "agra": 4050,
      "ova": 4051,
      "ĠsiÄĻ": 4052,
      "Ġvotes": 4053,
      "Help": 4054,
      "aza": 4055,
      "ĠÃ¤": 4056,
      "Ġlights": 4057,
      "aman": 4058,
      "Ġminister": 4059,
      "Ġnombre": 4060,
      "zo": 4061,
      "Ġgest": 4062,
      "Ġdot": 4063,
      "Ġdiam": 4064,
      "Ġbomb": 4065,
      "ĠRepublicans": 4066,
      "sup": 4067,
      "Microsoft": 4068,
      "ras": 4069,
      "Ġindustrial": 4070,
      "Ġni": 4071,
      "Ġba": 4072,
      "Ġmad": 4073,
      "ìĿ´": 4074,
      "Ġdivision": 4075,
      "itÃ©": 4076,
      "iente": 4077,
      "itan": 4078,
      "Ġemergency": 4079,
      "æĪĲ": 4080,
      "Ġbodies": 4081,
      "Ġsky": 4082,
      "Could": 4083,
      "Ġhurt": 4084,
      "Ġplanned": 4085,
      "oment": 4086,
      "eres": 4087,
      "Ġparking": 4088,
      "dim": 4089,
      "Ġvoor": 4090,
      "ĠMedical": 4091,
      "Ġsolar": 4092,
      "Ġestimated": 4093,
      "Ġrevenue": 4094,
      "ĠØ§": 4095,
      "Ġbike": 4096,
      "aÃ§Ã£o": 4097,
      "har": 4098,
      "Ġhits": 4099,
      "ĠâĤ¬": 4100,
      "ĠVirginia": 4101,
      "Ġassistance": 4102,
      "Ġboys": 4103,
      "Ġwedding": 4104,
      "vision": 4105,
      "Ġtech": 4106,
      "iel": 4107,
      "Ð¾ÑĤ": 4108,
      "ĠkÃ¶": 4109,
      "Ġmeat": 4110,
      "Hi": 4111,
      "éĹ": 4112,
      "-end": 4113,
      "åĲį": 4114,
      "ĠÐ½Ð°": 4115,
      "Ġconducted": 4116,
      "Ġrealize": 4117,
      "iano": 4118,
      "ÐµÐ´": 4119,
      "Ġtid": 4120,
      "Ġkilling": 4121,
      "ÐºÐ°": 4122,
      "Ġshouldn": 4123,
      "Ġbeauty": 4124,
      "ëĭ¤": 4125,
      "Ġrepeat": 4126,
      "uten": 4127,
      "ìŀ": 4128,
      "Ġcalendar": 4129,
      "Ġstrike": 4130,
      "orem": 4131,
      "Ġgang": 4132,
      "Ġaccused": 4133,
      "Ġdire": 4134,
      "ĠBritain": 4135,
      "isi": 4136,
      "Ġtur": 4137,
      "Ġpulled": 4138,
      "Ġlegislation": 4139,
      "ego": 4140,
      "Ġcompr": 4141,
      "Ġshares": 4142,
      "Ġrig": 4143,
      "asse": 4144,
      "Ġholiday": 4145,
      "ĠYoung": 4146,
      "Ġbei": 4147,
      "Ġwheel": 4148,
      "Ġchecking": 4149,
      "Ġjest": 4150,
      "Ġsole": 4151,
      "bal": 4152,
      "Ġpresidential": 4153,
      "Ø¯": 4154,
      "aka": 4155,
      "stra": 4156,
      "æĹ¶": 4157,
      "idos": 4158,
      "Ġstands": 4159,
      "Ġafternoon": 4160,
      "Ġik": 4161,
      "lag": 4162,
      "Ġwie": 4163,
      "ĠAustralian": 4164,
      "Ġaccurate": 4165,
      "ĠSW": 4166,
      "Ġlimits": 4167,
      "Ġarmy": 4168,
      "Ġboss": 4169,
      "uma": 4170,
      "Ġkan": 4171,
      "Ġbench": 4172,
      "Ġcrowd": 4173,
      "Ġpowers": 4174,
      "Ġtalks": 4175,
      "iest": 4176,
      "Ġstorm": 4177,
      "onna": 4178,
      "fall": 4179,
      "owa": 4180,
      "brand": 4181,
      "agues": 4182,
      "Ð¸Ñģ": 4183,
      "ĠSupreme": 4184,
      "Ġga": 4185,
      "Ġham": 4186,
      "Ġcha": 4187,
      "aten": 4188,
      "åĨ": 4189,
      "Ġya": 4190,
      "Ġsoul": 4191,
      "Ġsolo": 4192,
      "Ġgi": 4193,
      "zie": 4194,
      "Ġscheduled": 4195,
      "aha": 4196,
      "Ġgarden": 4197,
      "Ġattempts": 4198,
      "anto": 4199,
      "ìĹ": 4200,
      "iar": 4201,
      "Ġty": 4202,
      "idades": 4203,
      "Ġkeeps": 4204,
      "ori": 4205,
      "azy": 4206,
      "Ġkeyboard": 4207,
      "ĠRyan": 4208,
      "Ġcoast": 4209,
      "Ġyesterday": 4210,
      "Ð½Ð¾": 4211,
      "Ġnoticed": 4212,
      "Ð»Ñı": 4213,
      "Ã©es": 4214,
      "Ġglo": 4215,
      "Ġze": 4216,
      "bat": 4217,
      "Ġreplacement": 4218,
      "apis": 4219,
      "Ġmg": 4220,
      "Ġattorney": 4221,
      "Ġyellow": 4222,
      "Ġopposition": 4223,
      "Ã©r": 4224,
      "Ð¾Ð±": 4225,
      "Ġreact": 4226,
      "cz": 4227,
      "Ġdiss": 4228,
      "days": 4229,
      "ĠÃ¼ber": 4230,
      "lar": 4231,
      "confirm": 4232,
      "het": 4233,
      "ansas": 4234,
      "Ġcontest": 4235,
      "Ġfrequently": 4236,
      "erte": 4237,
      "lights": 4238,
      "Ġbedroom": 4239,
      "Ġdw": 4240,
      "ĠFBI": 4241,
      "dm": 4242,
      "Ġdinner": 4243,
      "Ġbrown": 4244,
      "erto": 4245,
      "Ġfired": 4246,
      "icion": 4247,
      "Ġvor": 4248,
      "ĠÃ©t": 4249,
      "Ġtracks": 4250,
      "cht": 4251,
      "Ġimmediate": 4252,
      "ĠÑĥ": 4253,
      "Â·": 4254,
      "aller": 4255,
      "Ġreceiver": 4256,
      "ques": 4257,
      "Ã¤r": 4258,
      "athan": 4259,
      "oda": 4260,
      "Ġrum": 4261,
      "Ð°Ð½Ð¸": 4262,
      "aylor": 4263,
      "Ã¤t": 4264,
      "Ġnearby": 4265,
      "Ġnach": 4266,
      "ashes": 4267,
      "inv": 4268,
      "ĠÐ±": 4269,
      "Ġtrick": 4270,
      "White": 4271,
      "awa": 4272,
      "ĠBush": 4273,
      "Ġbutter": 4274,
      "Ġbid": 4275,
      "ollywood": 4276,
      "Ġlista": 4277,
      "Ġtransactions": 4278,
      "Ġhabit": 4279,
      "eden": 4280,
      "Ġaircraft": 4281,
      "Ġinstrument": 4282,
      "Ñī": 4283,
      "Ġot": 4284,
      "ijn": 4285,
      "convert": 4286,
      "Ġpayments": 4287,
      "Ġconcrete": 4288,
      "onder": 4289,
      "Ð½Ð°": 4290,
      "Ġtan": 4291,
      "ä»¶": 4292,
      "oli": 4293,
      "ĠBob": 4294,
      "Ġcrazy": 4295,
      "Ġdeclared": 4296,
      "Ġnormally": 4297,
      "IFT": 4298,
      "Øª": 4299,
      "asta": 4300,
      "Ġappeal": 4301,
      "ĠLinux": 4302,
      "ĠChief": 4303,
      "Ġelectronic": 4304,
      "erd": 4305,
      "ĠOhio": 4306,
      "sz": 4307,
      "Ġbien": 4308,
      "Ġstreets": 4309,
      "Ġcutting": 4310,
      "Ġcausing": 4311,
      "bra": 4312,
      "will": 4313,
      "Ġwet": 4314,
      "Ġges": 4315,
      "ouston": 4316,
      "Black": 4317,
      "Ġbroke": 4318,
      "erring": 4319,
      "Google": 4320,
      "Ġgear": 4321,
      "Ġexpansion": 4322,
      "Ġupcoming": 4323,
      "las": 4324,
      "Ð¾Ð³": 4325,
      "icide": 4326,
      "Ġreprodu": 4327,
      "Ġont": 4328,
      "Ġly": 4329,
      "Ã±o": 4330,
      "ĠAsian": 4331,
      "Ġtwe": 4332,
      "Ġchose": 4333,
      "ÙĬ": 4334,
      "ìĦ": 4335,
      "ĠDid": 4336,
      "ucc": 4337,
      "Ġanymore": 4338,
      "chi": 4339,
      "seg": 4340,
      "Ġremained": 4341,
      "who": 4342,
      "aki": 4343,
      "Ġheads": 4344,
      "ĠMichigan": 4345,
      "ĠTour": 4346,
      "mal": 4347,
      "Ġcable": 4348,
      "agem": 4349,
      "iten": 4350,
      "Ġuk": 4351,
      "Ġhang": 4352,
      "ãģĹ": 4353,
      "some": 4354,
      "Ġza": 4355,
      "Ġsomewhere": 4356,
      "Ġbreaking": 4357,
      "Ġpurchased": 4358,
      "Ð¾Ðº": 4359,
      "Ġbatt": 4360,
      "Ġhal": 4361,
      "atin": 4362,
      "lower": 4363,
      "Ġpag": 4364,
      "ä¸Ģ": 4365,
      "Ġhell": 4366,
      "sim": 4367,
      "Ġsont": 4368,
      "para": 4369,
      "Ġriver": 4370,
      "Ġwithdraw": 4371,
      "Ġwins": 4372,
      "Ġdenied": 4373,
      "Ġwird": 4374,
      "ouver": 4375,
      "Ġsurgery": 4376,
      "Ġcouncil": 4377,
      "Ġreform": 4378,
      "Ġbis": 4379,
      "Ġsuddenly": 4380,
      "Ġao": 4381,
      "Ġtracking": 4382,
      "Ġbathroom": 4383,
      "ĠÄĳ": 4384,
      "Ġsoldiers": 4385,
      "ĠEgypt": 4386,
      "ĠConference": 4387,
      "è¯·": 4388,
      "Ġstrange": 4389,
      "program": 4390,
      "een": 4391,
      "Ġvotre": 4392,
      "Ġmanufacturing": 4393,
      "Ã¹": 4394,
      "emos": 4395,
      "Ġdass": 4396,
      "ÐµÐº": 4397,
      "Ġsilver": 4398,
      "Ġhouses": 4399,
      "Ġslide": 4400,
      "hello": 4401,
      "Should": 4402,
      "æī": 4403,
      "don": 4404,
      "azione": 4405,
      "ĠDead": 4406,
      "imento": 4407,
      "ĠSea": 4408,
      "Ġkil": 4409,
      "Ġscenario": 4410,
      "ĠHospital": 4411,
      "Ġwallet": 4412,
      "Ġimmigration": 4413,
      "Ġclothes": 4414,
      "Ġactivation": 4415,
      "Ġcuts": 4416,
      "ahr": 4417,
      "Ġincorrect": 4418,
      "Ġliv": 4419,
      "Ġra": 4420,
      "mu": 4421,
      "Ġregional": 4422,
      "Ġsobre": 4423,
      "times": 4424,
      "Ġesta": 4425,
      "Ġmeal": 4426,
      "Ġwake": 4427,
      "cker": 4428,
      "Ġfunny": 4429,
      "icas": 4430,
      "Who": 4431,
      "Ġbirthday": 4432,
      "weather": 4433,
      "Ġsuspect": 4434,
      "Ġmarch": 4435,
      "Ġhorse": 4436,
      "Ġdella": 4437,
      "amer": 4438,
      "Ġprocessed": 4439,
      "Ġko": 4440,
      "Ġrein": 4441,
      "Ġbir": 4442,
      "Ã§Ãµes": 4443,
      "iller": 4444,
      "Ġdance": 4445,
      "iami": 4446,
      "Ġdar": 4447,
      "Ġbow": 4448,
      "ĠPosted": 4449,
      "Ġpending": 4450,
      "Ġrecognize": 4451,
      "Ġpipeline": 4452,
      "Ġearned": 4453,
      "lica": 4454,
      "ãģ¯": 4455,
      "ede": 4456,
      "Ġboat": 4457,
      "Ġpermanent": 4458,
      "Ġcarrying": 4459,
      "ĠItaly": 4460,
      "anti": 4461,
      "Today": 4462,
      "Ġgal": 4463,
      "Ð³": 4464,
      "isse": 4465,
      "dam": 4466,
      "tele": 4467,
      "Ġlawyer": 4468,
      "iso": 4469,
      "asa": 4470,
      "Ġlies": 4471,
      "raf": 4472,
      "Ġeinen": 4473,
      "ĠMust": 4474,
      "ĠestÃ¡": 4475,
      "Ġbias": 4476,
      "antes": 4477,
      "Ġshirt": 4478,
      "Ġsans": 4479,
      "Ġsupporters": 4480,
      "Ġtodos": 4481,
      "Ġdont": 4482,
      "Ġinjured": 4483,
      "Ġses": 4484,
      "amar": 4485,
      "Ġeu": 4486,
      "Ġrestaurants": 4487,
      "tw": 4488,
      "ussian": 4489,
      "Ġhi": 4490,
      "Ġmul": 4491,
      "nl": 4492,
      "Å¼e": 4493,
      "Ġhoping": 4494,
      "Ġmoral": 4495,
      "ellen": 4496,
      "Ġforever": 4497,
      "Ġpapers": 4498,
      "ãĥ³": 4499,
      "Ġstuck": 4500,
      "uni": 4501,
      "ghan": 4502,
      "Ġkann": 4503,
      "Ġgran": 4504,
      "ubs": 4505,
      "Ġbat": 4506,
      "Ġharder": 4507,
      "ãģ®": 4508,
      "Ġlunch": 4509,
      "sten": 4510,
      "Ġcleaning": 4511,
      "è¾": 4512,
      "best": 4513,
      "allas": 4514,
      "Ð°Ðº": 4515,
      "Ġjoy": 4516,
      "omo": 4517,
      "zed": 4518,
      "ĠIsraeli": 4519,
      "ĠDeath": 4520,
      "People": 4521,
      "ë¥": 4522,
      "acht": 4523,
      "sin": 4524,
      "ä¸Ń": 4525,
      "ĠBrazil": 4526,
      "Ð°Ð»": 4527,
      "quer": 4528,
      "anim": 4529,
      "His": 4530,
      "Ġelections": 4531,
      "ĠCoast": 4532,
      "uta": 4533,
      "Ġbread": 4534,
      "Ġnod": 4535,
      "Ġhopes": 4536,
      "Ġguilty": 4537,
      "Ġrose": 4538,
      "km": 4539,
      "ieren": 4540,
      "yo": 4541,
      "Ġzum": 4542,
      "Ġmens": 4543,
      "Ġrefused": 4544,
      "isch": 4545,
      "Ġlocked": 4546,
      "Ã¼n": 4547,
      "urd": 4548,
      "ÃŃt": 4549,
      "Ð¸Ð¼": 4550,
      "Ġsalary": 4551,
      "ogg": 4552,
      "bul": 4553,
      "Ġwir": 4554,
      "Ä±n": 4555,
      "Ġcontinu": 4556,
      "was": 4557,
      "Ġfraud": 4558,
      "ĠKorean": 4559,
      "Ġore": 4560,
      "Ùĩ": 4561,
      "Ġchicken": 4562,
      "ãģ§": 4563,
      "Ġdrinking": 4564,
      "Ġthousand": 4565,
      "íķĺ": 4566,
      "Ġswim": 4567,
      "union": 4568,
      "iy": 4569,
      "atan": 4570,
      "Ġìŀ": 4571,
      "Ġmeetings": 4572,
      "Ġtries": 4573,
      "Ġtipo": 4574,
      "Ġmountain": 4575,
      "Ġpounds": 4576,
      "Ġflying": 4577,
      "uno": 4578,
      "emen": 4579,
      "Ð¾Ð¹": 4580,
      "Ġgit": 4581,
      "Ġpenalty": 4582,
      "Ġgrass": 4583,
      "Ġai": 4584,
      "Ġchip": 4585,
      "Ġviolent": 4586,
      "Ġconstitution": 4587,
      "yt": 4588,
      "Ġtort": 4589,
      "aco": 4590,
      "Ġnam": 4591,
      "yal": 4592,
      "mates": 4593,
      "Ġcant": 4594,
      "Ġmerc": 4595,
      "Ġbottle": 4596,
      "åİ": 4597,
      "Ġka": 4598,
      "ĠCould": 4599,
      "Ġconfident": 4600,
      "Ġlect": 4601,
      "Ġmistake": 4602,
      "ä¸į": 4603,
      "Ġdeposit": 4604,
      "Ġkon": 4605,
      "Ġesp": 4606,
      "iga": 4607,
      "wan": 4608,
      "Ġtout": 4609,
      "ëĬĶ": 4610,
      "orte": 4611,
      "enta": 4612,
      "Ġtomorrow": 4613,
      "ãģĦ": 4614,
      "Ġcalculated": 4615,
      "Ġwy": 4616,
      "Ġjet": 4617,
      "enz": 4618,
      "Ġalarm": 4619,
      "icos": 4620,
      "æĸ°": 4621,
      "wi": 4622,
      "Ã©m": 4623,
      "ĠPakistan": 4624,
      "hes": 4625,
      "inois": 4626,
      "Ġnations": 4627,
      "inen": 4628,
      "Ġrt": 4629,
      "Ã¡t": 4630,
      "bec": 4631,
      "ãģ¾": 4632,
      "nh": 4633,
      "ahl": 4634,
      "Ġairport": 4635,
      "audio": 4636,
      "Ġmai": 4637,
      "hu": 4638,
      "æĸĩ": 4639,
      "ÐºÐ¸": 4640,
      "erk": 4641,
      "Ġimper": 4642,
      "Ġvice": 4643,
      "iste": 4644,
      "Ġrape": 4645,
      "ĠAfghan": 4646,
      "Ġnewspaper": 4647,
      "Ġini": 4648,
      "Ġbull": 4649,
      "Ġlady": 4650,
      "Ġquit": 4651,
      "Ġpou": 4652,
      "oca": 4653,
      "Ġprovince": 4654,
      "Ġpersonnel": 4655,
      "activate": 4656,
      "ĠBuilding": 4657,
      "Ġrestrictions": 4658,
      "ä¸ĭ": 4659,
      "Ġwaves": 4660,
      "Ġtroops": 4661,
      "wich": 4662,
      "Ġnous": 4663,
      "tit": 4664,
      "Ġokay": 4665,
      "Ġmayor": 4666,
      "ĠSu": 4667,
      "ĠÃ¶": 4668,
      "wen": 4669,
      "Ġautomatic": 4670,
      "Ð¶": 4671,
      "Ġguitar": 4672,
      "Ġcaptured": 4673,
      "ĠTurkey": 4674,
      "idas": 4675,
      "Ġfinance": 4676,
      "Ġgotten": 4677,
      "Ð¾Ð»ÑĮ": 4678,
      "iert": 4679,
      "bank": 4680,
      "ĠMiller": 4681,
      "Ġpose": 4682,
      "Ġfitness": 4683,
      "need": 4684,
      "ARS": 4685,
      "Ġeiner": 4686,
      "Ġweekly": 4687,
      "Ġfalls": 4688,
      "Ġtwenty": 4689,
      "Ġsettlement": 4690,
      "ĠJordan": 4691,
      "iza": 4692,
      "Ġvie": 4693,
      "aca": 4694,
      "Ġade": 4695,
      "Ġnome": 4696,
      "Ġconcentr": 4697,
      "Ġnas": 4698,
      "Ġcheese": 4699,
      "aro": 4700,
      "ĠØ§ÙĦ": 4701,
      "ÐµÐ½Ð¸Ðµ": 4702,
      "åĪĨ": 4703,
      "Ġrescue": 4704,
      "Ġrend": 4705,
      "Ġattempted": 4706,
      "ãģĻ": 4707,
      "onde": 4708,
      "Ġcooking": 4709,
      "Ġger": 4710,
      "åħ¥": 4711,
      "Ð°ÑĢ": 4712,
      "aires": 4713,
      "ĠÑĩ": 4714,
      "Ġzur": 4715,
      "Ð¾Ð½": 4716,
      "Ġmr": 4717,
      "'est": 4718,
      "Ġak": 4719,
      "Ġgenre": 4720,
      "Ġarrive": 4721,
      "Ġstations": 4722,
      "switch": 4723,
      "äºº": 4724,
      "Ġalg": 4725,
      "Ġloud": 4726,
      "Ġtamb": 4727,
      "ë¡ľ": 4728,
      "eren": 4729,
      "ĠExpress": 4730,
      "Ġruling": 4731,
      "inda": 4732,
      "ä¼": 4733,
      "Ġeinem": 4734,
      "Ġarmed": 4735,
      "ä¸Ĭ": 4736,
      "eln": 4737,
      "Ã§a": 4738,
      "Ġterrible": 4739,
      "google": 4740,
      "Ġstruck": 4741,
      "flix": 4742,
      "ento": 4743,
      "Ġjail": 4744,
      "Ġgray": 4745,
      "Ġrejected": 4746,
      "Ġleather": 4747,
      "ĠÑĦ": 4748,
      "Ġtear": 4749,
      "Ġbrill": 4750,
      "Ġforecast": 4751,
      "tery": 4752,
      "Ġws": 4753,
      "Ġhaben": 4754,
      "Ġappointment": 4755,
      "kel": 4756,
      "Ġhay": 4757,
      "Ġeuro": 4758,
      "ĠÐ¿Ð¾": 4759,
      "ĠSpain": 4760,
      "Ġdollar": 4761,
      "Ġjun": 4762,
      "Ġfifth": 4763,
      "Ġdecline": 4764,
      "inge": 4765,
      "ä¸º": 4766,
      "Ġlighting": 4767,
      "Ġdia": 4768,
      "ischen": 4769,
      "este": 4770,
      "dit": 4771,
      "Ð°Ð²": 4772,
      "Ð¸ÑĤÑĮ": 4773,
      "Ġnoch": 4774,
      "Ġmusical": 4775,
      "Ġoc": 4776,
      "Ġworried": 4777,
      "Ġram": 4778,
      "Ġgel": 4779,
      "Ġgut": 4780,
      "ĠGreek": 4781,
      "ìĿĦ": 4782,
      "éĹ´": 4783,
      "Ġspokesman": 4784,
      "ĠSaudi": 4785,
      "Ġub": 4786,
      "Ġtonight": 4787,
      "Ġdining": 4788,
      "arga": 4789,
      "Ġocean": 4790,
      "Ð°Ñģ": 4791,
      "Ġdirections": 4792,
      "ĠÃº": 4793,
      "Ġcz": 4794,
      "åı·": 4795,
      "Ð°ÑĤÑĮ": 4796,
      "Ġdesk": 4797,
      "Ġfel": 4798,
      "ilo": 4799,
      "Ġpes": 4800,
      "Ġtut": 4801,
      "Ġsouthern": 4802,
      "Ġsomebody": 4803,
      "ĠÃ§": 4804,
      "Ġclosest": 4805,
      "ĠÑĢ": 4806,
      "Ġtak": 4807,
      "eland": 4808,
      "Ġgate": 4809,
      "Ġprogramme": 4810,
      "ĠSyrian": 4811,
      "Ġhip": 4812,
      "Ġsuicide": 4813,
      "Ġdemands": 4814,
      "Ġdent": 4815,
      "åıĸ": 4816,
      "Ġgained": 4817,
      "Ġbom": 4818,
      "Ġnorthern": 4819,
      "Ġattended": 4820,
      "Ġcollapse": 4821,
      "ĠKong": 4822,
      "Ġpert": 4823,
      "Ġpink": 4824,
      "Ã±os": 4825,
      "Ġfer": 4826,
      "robot": 4827,
      "Ġstupid": 4828,
      "Ġpu": 4829,
      "Ġjed": 4830,
      "apa": 4831,
      "Ã±a": 4832,
      "obi": 4833,
      "agan": 4834,
      "Ġattacked": 4835,
      "may": 4836,
      "ĠÑģÑĤ": 4837,
      "åĽŀ": 4838,
      "Ġagenda": 4839,
      "ë¥¼": 4840,
      "ĠAttorney": 4841,
      "Ġfu": 4842,
      "Ġaan": 4843,
      "Ġcancell": 4844,
      "ÅĽci": 4845,
      "Ġzijn": 4846,
      "Ġoct": 4847,
      "ÐµÐ½Ð¸Ñı": 4848,
      "åľ¨": 4849,
      "Ġwestern": 4850,
      "Ġcomputers": 4851,
      "Ã©l": 4852,
      "æİ": 4853,
      "cancel": 4854,
      "Ġmehr": 4855,
      "Ð°Ð¹": 4856,
      "there": 4857,
      "good": 4858,
      "zens": 4859,
      "Ġorange": 4860,
      "Ġnobody": 4861,
      "Ġspeaker": 4862,
      "Ġpron": 4863,
      "à¹Ī": 4864,
      "angan": 4865,
      "Ġegg": 4866,
      "ĠÐ½Ðµ": 4867,
      "Hey": 4868,
      "Ð°Ð·": 4869,
      "Ġvend": 4870,
      "ÐµÐ½ÑĤ": 4871,
      "Ġwarned": 4872,
      "ĠÃ¡": 4873,
      "raise": 4874,
      "ĠExchange": 4875,
      "Ġtel": 4876,
      "uar": 4877,
      "iu": 4878,
      "Ġzo": 4879,
      "ĠsÃ©": 4880,
      "Ġgem": 4881,
      "ijk": 4882,
      "ĠUkraine": 4883,
      "Ġdeclined": 4884,
      "Ġfestival": 4885,
      "Ġeggs": 4886,
      "Ġgym": 4887,
      "æľī": 4888,
      "Ġdil": 4889,
      "alia": 4890,
      "iere": 4891,
      "Ġfest": 4892,
      "Ġcada": 4893,
      "Ã©g": 4894,
      "ĠWould": 4895,
      "Ġintense": 4896,
      "Ġay": 4897,
      "cow": 4898,
      "Æ°": 4899,
      "Ð¸Ð½": 4900,
      "ä¸ª": 4901,
      "eye": 4902,
      "immer": 4903,
      "Ã¡l": 4904,
      "Ġny": 4905,
      "have": 4906,
      "Ġcrypto": 4907,
      "jar": 4908,
      "aja": 4909,
      "Ġgovernor": 4910,
      "edi": 4911,
      "Ġfloating": 4912,
      "walk": 4913,
      "vez": 4914,
      "Ð°Ð¿": 4915,
      "ĠForeign": 4916,
      "Ġrecall": 4917,
      "pot": 4918,
      "Ġgolf": 4919,
      "ÅĦ": 4920,
      "anie": 4921,
      "wind": 4922,
      "ieve": 4923,
      "aug": 4924,
      "ĠHong": 4925,
      "ãģ¨": 4926,
      "kk": 4927,
      "Ġbowl": 4928,
      "Ġrally": 4929,
      "sal": 4930,
      "Ġmc": 4931,
      "Ġreleases": 4932,
      "Ġdestruction": 4933,
      "é¢": 4934,
      "akan": 4935,
      "Ġgarage": 4936,
      "Ġflowers": 4937,
      "vere": 4938,
      "Ġblocked": 4939,
      "Ġcalm": 4940,
      "Ġaug": 4941,
      "Ġsink": 4942,
      "atas": 4943,
      "Ġsein": 4944,
      "latest": 4945,
      "ÑĦ": 4946,
      "Ã¼ck": 4947,
      "Ġcow": 4948,
      "Stock": 4949,
      "Ġig": 4950,
      "ackson": 4951,
      "ìĹĲ": 4952,
      "Ġjak": 4953,
      "ä½ľ": 4954,
      "Ġbrut": 4955,
      "Ġattempting": 4956,
      "Ġsab": 4957,
      "ulus": 4958,
      "uesta": 4959,
      "Ġfaire": 4960,
      "Ġaimed": 4961,
      "Ġye": 4962,
      "ativ": 4963,
      "encer": 4964,
      "hor": 4965,
      "oa": 4966,
      "Ġnin": 4967,
      "ĠUSD": 4968,
      "Ġhitting": 4969,
      "Ġsmoking": 4970,
      "Ġuntuk": 4971,
      "Ġgains": 4972,
      "Ġplug": 4973,
      "Three": 4974,
      "bu": 4975,
      "Ð¾Ð·": 4976,
      "Ġrice": 4977,
      "Ġbirds": 4978,
      "ãģ«": 4979,
      "Ã©c": 4980,
      "Ġmood": 4981,
      "Ġresolved": 4982,
      "ãĥĪ": 4983,
      "Ġfrozen": 4984,
      "Ġfait": 4985,
      "arma": 4986,
      "Ġmeng": 4987,
      "Ġterrorist": 4988,
      "Ġsle": 4989,
      "Ġaged": 4990,
      "Ġbene": 4991,
      "ÑĢÑĥ": 4992,
      "Ġdurch": 4993,
      "Ã¡rio": 4994,
      "Ġgrey": 4995,
      "sur": 4996,
      "ç¤º": 4997,
      "fecha": 4998,
      "Ġties": 4999,
      "Ġriding": 5000,
      "Ġpit": 5001,
      "arte": 5002,
      "à¹ī": 5003,
      "ĠÐ´Ð»Ñı": 5004,
      "enden": 5005,
      "-un": 5006,
      "iale": 5007,
      "mir": 5008,
      "Ġfishing": 5009,
      "Ġki": 5010,
      "pn": 5011,
      "rac": 5012,
      "ê°Ģ": 5013,
      "ei": 5014,
      "Ġpreg": 5015,
      "egen": 5016,
      "beit": 5017,
      "liche": 5018,
      "Ġmont": 5019,
      "Ġmeets": 5020,
      "Ġsucc": 5021,
      "Ġnumero": 5022,
      "eling": 5023,
      "Ġcette": 5024,
      "Ø³": 5025,
      "Ġjam": 5026,
      "tim": 5027,
      "via": 5028,
      "Ġabortion": 5029,
      "iÃ¨re": 5030,
      "Ġbra": 5031,
      "inas": 5032,
      "Ġallies": 5033,
      "eu": 5034,
      "Ġrib": 5035,
      "Ġhaz": 5036,
      "ugged": 5037,
      "Ġkont": 5038,
      "Ġvacation": 5039,
      "elo": 5040,
      "à¸Ļ": 5041,
      "Ġpent": 5042,
      "cu": 5043,
      "Ã§o": 5044,
      "Ġsword": 5045,
      "igg": 5046,
      "åĩº": 5047,
      "Ġkl": 5048,
      "Ġprecis": 5049,
      "Ġparticipation": 5050,
      "xit": 5051,
      "ĠÐ¾ÑĤ": 5052,
      "Ġactivate": 5053,
      "rij": 5054,
      "Ġsour": 5055,
      "pie": 5056,
      "Ġwondering": 5057,
      "mad": 5058,
      "Ġnh": 5059,
      "zn": 5060,
      "Ġbil": 5061,
      "ibt": 5062,
      "Ġlanding": 5063,
      "Ġcod": 5064,
      "pes": 5065,
      "zing": 5066,
      "éĶ": 5067,
      "ĠÐ°": 5068,
      "ìĿĺ": 5069,
      "rik": 5070,
      "æĺ¯": 5071,
      "Ġdengan": 5072,
      "mont": 5073,
      "Ġfare": 5074,
      "uum": 5075,
      "utos": 5076,
      "Ġartificial": 5077,
      "Ġlying": 5078,
      "æĹ¶éĹ´": 5079,
      "ãģĹãģ": 5080,
      "ardo": 5081,
      "Ġrag": 5082,
      "ê¸°": 5083,
      "sta": 5084,
      "Ġpremier": 5085,
      "ĠAfghanistan": 5086,
      "Ġneu": 5087,
      "elli": 5088,
      "Ã³d": 5089,
      "bre": 5090,
      "rock": 5091,
      "udi": 5092,
      "enez": 5093,
      "ÑģÑı": 5094,
      "Ġvez": 5095,
      "tol": 5096,
      "Ġrod": 5097,
      "Ġlung": 5098,
      "Ġlaptop": 5099,
      "jes": 5100,
      "Ġblast": 5101,
      "iri": 5102,
      "Ġconventional": 5103,
      "Ġtablet": 5104,
      "Ġhanging": 5105,
      "åī": 5106,
      "è¡¨": 5107,
      "éĻ¤": 5108,
      "Ġfrequent": 5109,
      "Ġsne": 5110,
      "Ġbol": 5111,
      "plain": 5112,
      "zym": 5113,
      "à¸²": 5114,
      "oni": 5115,
      "Ġniet": 5116,
      "such": 5117,
      "ĠÐ²Ñĭ": 5118,
      "Ġpoker": 5119,
      "Ġsono": 5120,
      "plant": 5121,
      "Ġconcert": 5122,
      "Ġmortgage": 5123,
      "Ġcyber": 5124,
      "nia": 5125,
      "Ġdonne": 5126,
      "Ġactivists": 5127,
      "uir": 5128,
      "ĠÑį": 5129,
      "åĬł": 5130,
      "Ùģ": 5131,
      "facebook": 5132,
      "Ġrefund": 5133,
      "Ġtraveling": 5134,
      "album": 5135,
      "éĿ": 5136,
      "Ġsep": 5137,
      "ÐµÐ¹": 5138,
      "Ġapr": 5139,
      "Ġvisits": 5140,
      "Ġkiss": 5141,
      "Ġsilent": 5142,
      "sch": 5143,
      "Ġcondem": 5144,
      "vens": 5145,
      "amo": 5146,
      "ĠPutin": 5147,
      "Ġsleeping": 5148,
      "Ġparliament": 5149,
      "Ġpicking": 5150,
      "aden": 5151,
      "Ġtorn": 5152,
      "Ġlawyers": 5153,
      "Ġchairman": 5154,
      "Ġfert": 5155,
      "Ġfond": 5156,
      "uren": 5157,
      "itas": 5158,
      "ĠÐ¾Ð±": 5159,
      "Ġjury": 5160,
      "entes": 5161,
      "Ġdic": 5162,
      "bag": 5163,
      "onia": 5164,
      "Ġcorruption": 5165,
      "Ġprz": 5166,
      "Ð¾Ð¶": 5167,
      "Ġtrop": 5168,
      "æ±": 5169,
      "çĶŁ": 5170,
      "Ġdit": 5171,
      "Ġsends": 5172,
      "Ġracing": 5173,
      "ä¿¡": 5174,
      "aran": 5175,
      "Ġspeakers": 5176,
      "ì§Ģ": 5177,
      "ĠktÃ³": 5178,
      "Ġtoy": 5179,
      "Ø¨": 5180,
      "Ġfailing": 5181,
      "elson": 5182,
      "etter": 5183,
      "Ġhij": 5184,
      "Ġdeadline": 5185,
      "issa": 5186,
      "Ġknife": 5187,
      "Ġmemo": 5188,
      "Ġlag": 5189,
      "Ġale": 5190,
      "Does": 5191,
      "nik": 5192,
      "Ġunter": 5193,
      "Ġsmartphone": 5194,
      "Ã¤h": 5195,
      "\"This": 5196,
      "ÅĤa": 5197,
      "Ġbass": 5198,
      "ìĭ": 5199,
      "Ġprox": 5200,
      "Ã¤nd": 5201,
      "anno": 5202,
      "Ã¼h": 5203,
      "Ġanniversary": 5204,
      "Ms": 5205,
      "Ġjoke": 5206,
      "Â£": 5207,
      "ãĤ¹": 5208,
      "lichen": 5209,
      "Ġfoi": 5210,
      "Ġrecipient": 5211,
      "Ġrefugees": 5212,
      "Ġprobe": 5213,
      "pow": 5214,
      "bie": 5215,
      "emi": 5216,
      "illo": 5217,
      "Ġlake": 5218,
      "Ġdei": 5219,
      "Ġster": 5220,
      "ĠPalestinian": 5221,
      "ĠStorm": 5222,
      "ĠCorp": 5223,
      "comb": 5224,
      "Ġsess": 5225,
      "çĲĨ": 5226,
      "Ġidentification": 5227,
      "æľ¬": 5228,
      "Ġpicks": 5229,
      "Ġprotests": 5230,
      "Ġcabinet": 5231,
      "igue": 5232,
      "notify": 5233,
      "Ġvom": 5234,
      "Ġactivated": 5235,
      "cciÃ³n": 5236,
      "Ġtens": 5237,
      "ê³": 5238,
      "estado": 5239,
      "Ġfue": 5240,
      "Ġë°": 5241,
      "ahan": 5242,
      "'un": 5243,
      "ĠÅŁ": 5244,
      "Ġwenn": 5245,
      "kom": 5246,
      "Ð¾Ð³Ð¾": 5247,
      "Ġdub": 5248,
      "empo": 5249,
      "ÑĢÐ°": 5250,
      "Ġabroad": 5251,
      "ĠÐµ": 5252,
      "Ġiz": 5253,
      "unden": 5254,
      "ãģĵ": 5255,
      "Ġceiling": 5256,
      "Ġpassengers": 5257,
      "Ġsoccer": 5258,
      "ieder": 5259,
      "strar": 5260,
      "Ã²": 5261,
      "Police": 5262,
      "tv": 5263,
      "ikan": 5264,
      "è¡Į": 5265,
      "çº": 5266,
      "dra": 5267,
      "cou": 5268,
      "Ġpulling": 5269,
      "Ġtwitter": 5270,
      "China": 5271,
      "David": 5272,
      "à¸£": 5273,
      "-month": 5274,
      "Ġakt": 5275,
      "Ġah": 5276,
      "Ġstolen": 5277,
      "Ġexpecting": 5278,
      "Ġwooden": 5279,
      "Ġstrikes": 5280,
      "esa": 5281,
      "å®ļ": 5282,
      "got": 5283,
      "enti": 5284,
      "Ġtransferred": 5285,
      "ĠMoscow": 5286,
      "æĶ¹": 5287,
      "Ġbij": 5288,
      "Ġupset": 5289,
      "Ġwalks": 5290,
      "ÐµÑģ": 5291,
      "Ġstocks": 5292,
      "ÑĤÐ¸": 5293,
      "Ġpizza": 5294,
      "Ġmuy": 5295,
      "Ġduplicate": 5296,
      "iao": 5297,
      "Ġgew": 5298,
      "wy": 5299,
      "Ġgig": 5300,
      "Ġsoll": 5301,
      "cion": 5302,
      "Ġamid": 5303,
      "Ð½Ð¸": 5304,
      "erta": 5305,
      "Ġlev": 5306,
      "Ġcharging": 5307,
      "alloween": 5308,
      "Ġmos": 5309,
      "å¸Ĥ": 5310,
      "Ġalla": 5311,
      "æľŁ": 5312,
      "Ġbay": 5313,
      "Ġdesde": 5314,
      "rob": 5315,
      "rez": 5316,
      "Ġsinger": 5317,
      "ĠpiÃ¹": 5318,
      "mers": 5319,
      "Ð¾Ñģ": 5320,
      "Ġreproduce": 5321,
      "amiento": 5322,
      "Ð°Ð´": 5323,
      "ilen": 5324,
      "azer": 5325,
      "Ġregistr": 5326,
      "Ġseller": 5327,
      "Ġsentences": 5328,
      "Ġcoat": 5329,
      "ĠKy": 5330,
      "nya": 5331,
      "Ġpac": 5332,
      "Ġverification": 5333,
      "ĠÃªtre": 5334,
      "ÅĤo": 5335,
      "did": 5336,
      "ande": 5337,
      "à¸Ń": 5338,
      "Ġfacebook": 5339,
      "Ġcleared": 5340,
      "lij": 5341,
      "termin": 5342,
      "Ġbez": 5343,
      "Ġsits": 5344,
      "Ġfecha": 5345,
      "ä»¥": 5346,
      "Ġrocks": 5347,
      "Ġcooperation": 5348,
      "Ġpolls": 5349,
      "Ġvoy": 5350,
      "ĠÐ¸Ð·": 5351,
      "ĠìĿ´": 5352,
      "Which": 5353,
      "Ġconvicted": 5354,
      "kle": 5355,
      "Ġkr": 5356,
      "Ġtex": 5357,
      "Ġterrorism": 5358,
      "Ġpassenger": 5359,
      "Ġeastern": 5360,
      "Ġkh": 5361,
      "Ġsatellite": 5362,
      "Ø¹": 5363,
      "Ġtempo": 5364,
      "ificar": 5365,
      "Ġwi": 5366,
      "ìĪĺ": 5367,
      "Ġapple": 5368,
      "à¸±": 5369,
      "Ġmich": 5370,
      "Ġrip": 5371,
      "Ġalto": 5372,
      "åħĥ": 5373,
      "esse": 5374,
      "Ġkun": 5375,
      "Ġtiene": 5376,
      "ĠÅ¼e": 5377,
      "Ã¶n": 5378,
      "enza": 5379,
      "ĠÙħ": 5380,
      "Ġswimming": 5381,
      "æĸ¹": 5382,
      "ÃŃs": 5383,
      "Ġkar": 5384,
      "æĬ": 5385,
      "pull": 5386,
      "nte": 5387,
      "ÃŁe": 5388,
      "Ġnearest": 5389,
      "Ġpurchases": 5390,
      "rod": 5391,
      "Ã¬": 5392,
      "iÃ©n": 5393,
      "aku": 5394,
      "far": 5395,
      "íķľ": 5396,
      "Ġresign": 5397,
      "uli": 5398,
      "Ġdip": 5399,
      "ĠFed": 5400,
      "ĠÃ©tÃ©": 5401,
      "oren": 5402,
      "å½ķ": 5403,
      "Ġearnings": 5404,
      "mitt": 5405,
      "Ãªncia": 5406,
      "owe": 5407,
      "uela": 5408,
      "Ġwo": 5409,
      "Ġsanctions": 5410,
      "Ð°Ð¼": 5411,
      "lam": 5412,
      "Ġsuspected": 5413,
      "Ġborders": 5414,
      "åĮº": 5415,
      "tests": 5416,
      "Ġraz": 5417,
      "ÑĢÐ¾Ð²": 5418,
      "à¤¾": 5419,
      "agne": 5420,
      "Ġìķ": 5421,
      "Ġvegetables": 5422,
      "alg": 5423,
      "Ġuno": 5424,
      "Ġverified": 5425,
      "oucher": 5426,
      "itÃł": 5427,
      "Ġhill": 5428,
      "ĠIndonesia": 5429,
      "Ġremind": 5430,
      "åįķ": 5431,
      "Ã´ng": 5432,
      "icia": 5433,
      "ãĥ¼ãĥ": 5434,
      "Ġestado": 5435,
      "anya": 5436,
      "imos": 5437,
      "cia": 5438,
      "Ġauss": 5439,
      "hn": 5440,
      "Ã®": 5441,
      "Ġcamb": 5442,
      "Ġdeadly": 5443,
      "ä½į": 5444,
      "ancia": 5445,
      "mul": 5446,
      "cie": 5447,
      "Ġri": 5448,
      "Ġdari": 5449,
      "ÃŃn": 5450,
      "ãĤ¤": 5451,
      "Ġneces": 5452,
      "Ġdell": 5453,
      "Ġintens": 5454,
      "Ġcasa": 5455,
      "Ã¨me": 5456,
      "Ð¾ÑģÑĤ": 5457,
      "Ġkle": 5458,
      "atura": 5459,
      "Ġuit": 5460,
      "Ġrocket": 5461,
      "ÃŃas": 5462,
      "umi": 5463,
      "æ³ķ": 5464,
      "Ġnel": 5465,
      "Ġpepper": 5466,
      "Ġoverseas": 5467,
      "ĠJet": 5468,
      "Ġzw": 5469,
      "Ġovernight": 5470,
      "Ġdisappointed": 5471,
      "Ġtob": 5472,
      "ulu": 5473,
      "Ġbail": 5474,
      "ĠGMT": 5475,
      "Ġgros": 5476,
      "Ġreaches": 5477,
      "tu": 5478,
      "Ġatomic": 5479,
      "scar": 5480,
      "Ġkiller": 5481,
      "Ġlocate": 5482,
      "Ġsor": 5483,
      "UK": 5484,
      "Ġcontacted": 5485,
      "åīį": 5486,
      "Ġdou": 5487,
      "Ġgrande": 5488,
      "eo": 5489,
      "iele": 5490,
      "ÑĤÐ¾": 5491,
      "Ġfence": 5492,
      "Ġaspir": 5493,
      "ÐµÐ³": 5494,
      "ĠÐ³": 5495,
      "Ġdal": 5496,
      "Ġlu": 5497,
      "Ġtin": 5498,
      "ãĤĵ": 5499,
      "Ġraid": 5500,
      "imi": 5501,
      "Ġbrick": 5502,
      "Ġministry": 5503,
      "Ġgan": 5504,
      "stm": 5505,
      "ÅĽÄĩ": 5506,
      "ìĬ¤": 5507,
      "ĠtrÃ¨s": 5508,
      "Ġflights": 5509,
      "Ġdann": 5510,
      "Ġpurple": 5511,
      "Ġwars": 5512,
      "Ġvida": 5513,
      "arta": 5514,
      "Ġfeeding": 5515,
      "South": 5516,
      "Ġquel": 5517,
      "Ġsixth": 5518,
      "Ġdispute": 5519,
      "volume": 5520,
      "ften": 5521,
      "Ġrefuse": 5522,
      "Ġjack": 5523,
      "æ³¨": 5524,
      "Ġlawmakers": 5525,
      "Ġsinging": 5526,
      "hop": 5527,
      "Ġdamages": 5528,
      "enne": 5529,
      "lio": 5530,
      "nis": 5531,
      "'a": 5532,
      "uka": 5533,
      "à¸ģ": 5534,
      "ãĥĥ": 5535,
      "hai": 5536,
      "Ġcoalition": 5537,
      "North": 5538,
      "Ġmissile": 5539,
      "á»ĩ": 5540,
      "his": 5541,
      "Ġboots": 5542,
      "Ġworkout": 5543,
      "Ġpant": 5544,
      "Ġdirt": 5545,
      "ĠPhilippines": 5546,
      "Ġhacer": 5547,
      "ĠRomney": 5548,
      "Ġsons": 5549,
      "omer": 5550,
      "Ġdressed": 5551,
      "unto": 5552,
      "ÐµÐ»ÑĮ": 5553,
      "Ġaj": 5554,
      "Ġbang": 5555,
      "ĠÐ»": 5556,
      "Ġtam": 5557,
      "uther": 5558,
      "Ġsehr": 5559,
      "essa": 5560,
      "Ġliver": 5561,
      "Ġcomprom": 5562,
      "ulas": 5563,
      "Ġdeux": 5564,
      "itos": 5565,
      "Ġscandal": 5566,
      "Ġdispon": 5567,
      "Ġunemployment": 5568,
      "lÄ±": 5569,
      "Ġgesch": 5570,
      "Ġmagnitude": 5571,
      "Ġtous": 5572,
      "Ġpeaceful": 5573,
      "ffen": 5574,
      "zu": 5575,
      "Ġcancelled": 5576,
      "Ġkeras": 5577,
      "ìŀĲ": 5578,
      "Ġdz": 5579,
      "adt": 5580,
      "iciÃ³n": 5581,
      "Ġprotesters": 5582,
      "ĠElection": 5583,
      "apat": 5584,
      "ãģª": 5585,
      "Æ°á»": 5586,
      "Ġsul": 5587,
      "Ġfrank": 5588,
      "loyd": 5589,
      "Ġchi": 5590,
      "ĠPeace": 5591,
      "iera": 5592,
      "izado": 5593,
      "Ġtoll": 5594,
      "atie": 5595,
      "Ġnap": 5596,
      "Ġtanks": 5597,
      "Ø©": 5598,
      "Ġmant": 5599,
      "Ġreflected": 5600,
      "Ġluc": 5601,
      "Ġmejor": 5602,
      "Ġshuffle": 5603,
      "umm": 5604,
      "Ð¸ÑĤÐµ": 5605,
      "?!": 5606,
      "Ġjumped": 5607,
      "Ġyoga": 5608,
      "uran": 5609,
      "Ġtemps": 5610,
      "Ġfires": 5611,
      "guard": 5612,
      "Ġwurde": 5613,
      "Ġsoldier": 5614,
      "Ġthirty": 5615,
      "President": 5616,
      "Ġcouch": 5617,
      "yer": 5618,
      "Ġmog": 5619,
      "kers": 5620,
      "Ġmud": 5621,
      "Ġros": 5622,
      "Ġwings": 5623,
      "Ġjacket": 5624,
      "amy": 5625,
      "èĥ½": 5626,
      "ientes": 5627,
      "Ġsuspend": 5628,
      "Ġwieder": 5629,
      "reduce": 5630,
      "Ġpiano": 5631,
      "à¸¡": 5632,
      "å¤§": 5633,
      "ĠprÃ©": 5634,
      "ĠChairman": 5635,
      "Ġrepet": 5636,
      "Ġcuando": 5637,
      "onn": 5638,
      "åº¦": 5639,
      "Ġexpired": 5640,
      "wal": 5641,
      "Ġmatt": 5642,
      "ĠNelson": 5643,
      "anza": 5644,
      "die": 5645,
      "ĠiÃ§": 5646,
      "etta": 5647,
      "Ġreminder": 5648,
      "ÄĻd": 5649,
      "Ġwc": 5650,
      "Ġstays": 5651,
      "Apple": 5652,
      "Ġfavorites": 5653,
      "æµ": 5654,
      "å§ĭ": 5655,
      "keit": 5656,
      "Ð°Ð½Ð¸Ðµ": 5657,
      "Ġces": 5658,
      "Ġvisa": 5659,
      "hub": 5660,
      "ahu": 5661,
      "ìĦľ": 5662,
      "ìļ©": 5663,
      "Ġdrone": 5664,
      "Ġamer": 5665,
      "Ġholy": 5666,
      "tar": 5667,
      "igu": 5668,
      "Ġace": 5669,
      "-ups": 5670,
      "Ġautor": 5671,
      "Ġdiese": 5672,
      "Ġplaylist": 5673,
      "Ġmixing": 5674,
      "Ġprimer": 5675,
      "ÃŁen": 5676,
      "Ġbroader": 5677,
      "Ġhorses": 5678,
      "oba": 5679,
      "ĠKill": 5680,
      "ĠGulf": 5681,
      "Ġek": 5682,
      "iem": 5683,
      "unda": 5684,
      "Ġmim": 5685,
      "Ð°ÐµÑĤ": 5686,
      "Ġburied": 5687,
      "Ġbere": 5688,
      "åĪ°": 5689,
      "Ġspi": 5690,
      "Ġhockey": 5691,
      "Ġbew": 5692,
      "Ġjou": 5693,
      "Four": 5694,
      "Ġdelle": 5695,
      "iaz": 5696,
      "inde": 5697,
      "ÑĢÐ°Ð²": 5698,
      "Ð¸Ð²": 5699,
      "Ãªn": 5700,
      "su": 5701,
      "does": 5702,
      "Ġsalv": 5703,
      "lett": 5704,
      "éĿ¢": 5705,
      "mel": 5706,
      "ĠPIN": 5707,
      "Ġprisoners": 5708,
      "oso": 5709,
      "bang": 5710,
      "Ġyoutube": 5711,
      "Å¼y": 5712,
      "åķ": 5713,
      "Ġdeport": 5714,
      "oko": 5715,
      "Ġkur": 5716,
      "Ġtidak": 5717,
      "zÄħ": 5718,
      "nych": 5719,
      "Ġgibt": 5720,
      "Ġsele": 5721,
      "Ġdelivers": 5722,
      "Ġlub": 5723,
      "osta": 5724,
      "ä¿¡æģ¯": 5725,
      "zel": 5726,
      "ĠIranian": 5727,
      "dem": 5728,
      "Ġreversed": 5729,
      "çĤ¹": 5730,
      "Ġcerca": 5731,
      "Ġook": 5732,
      "ÙĤ": 5733,
      "Ġwounded": 5734,
      "Ġpelo": 5735,
      "sound": 5736,
      "Ġdock": 5737,
      "ropa": 5738,
      "Ġartic": 5739,
      "inho": 5740,
      "Ġbacks": 5741,
      "Ġgra": 5742,
      "Ġvest": 5743,
      "ãģŁ": 5744,
      "Ġgef": 5745,
      "Ġalbums": 5746,
      "roc": 5747,
      "ĠMalaysia": 5748,
      "Ġpeu": 5749,
      "Ġindia": 5750,
      "Ġcomposite": 5751,
      "ukan": 5752,
      "Ġhabe": 5753,
      "ĠìĦ": 5754,
      "ĠØ¨": 5755,
      "ativa": 5756,
      "Ġcarpet": 5757,
      "Ġsandwich": 5758,
      "arak": 5759,
      "à¹Ģ": 5760,
      "Ġexpires": 5761,
      "ĠÃ¢": 5762,
      "Ġqueen": 5763,
      "ingen": 5764,
      "anh": 5765,
      "Ġalgo": 5766,
      "Ġgli": 5767,
      "Ġfolk": 5768,
      "uter": 5769,
      "Ġlamp": 5770,
      "Ġdancing": 5771,
      "Would": 5772,
      "Ġcommander": 5773,
      "anche": 5774,
      "ë¦¬": 5775,
      "Ð»ÑĮ": 5776,
      "Ġsar": 5777,
      "icher": 5778,
      "Ġdag": 5779,
      "æıĲ": 5780,
      "could": 5781,
      "amas": 5782,
      "ãĤ¯": 5783,
      "ungs": 5784,
      "ija": 5785,
      "Ġrifle": 5786,
      "kar": 5787,
      "Ġglasses": 5788,
      "Ð¾Ð¿": 5789,
      "ĠNigeria": 5790,
      "Ġunited": 5791,
      "Ġpode": 5792,
      "ãģĮ": 5793,
      "Ġvacuum": 5794,
      "pending": 5795,
      "Ġsang": 5796,
      "-Q": 5797,
      "ativo": 5798,
      "Ġinfected": 5799,
      "åıĳ": 5800,
      "Ġnuevo": 5801,
      "Ġlig": 5802,
      "à¸µ": 5803,
      "å¼ı": 5804,
      "Ġquestioned": 5805,
      "Ġmig": 5806,
      "Ġmundo": 5807,
      "ÑĥÑĩ": 5808,
      "Ġdisappeared": 5809,
      "Ð°ÑģÑģ": 5810,
      "åĽ½": 5811,
      "Ġbell": 5812,
      "ufen": 5813,
      "Ġcivilians": 5814,
      "ussia": 5815,
      "Ġsta": 5816,
      "ĠÐ¿Ð¾Ð»": 5817,
      "Ġhasta": 5818,
      "bet": 5819,
      "gd": 5820,
      "Ġforgot": 5821,
      "åĪłéĻ¤": 5822,
      "anan": 5823,
      "íĬ¸": 5824,
      "schedule": 5825,
      "ĠGaza": 5826,
      "ichten": 5827,
      "ĠmÃ¡": 5828,
      "ĠìĪĺ": 5829,
      "Ġtiempo": 5830,
      "ëł¥": 5831,
      "Ġtricks": 5832,
      "ĠcÃ³": 5833,
      "ÑĤÑĮ": 5834,
      "Ġmobil": 5835,
      "Ġkills": 5836,
      "Ġelderly": 5837,
      "Ġbeste": 5838,
      "Ġclassical": 5839,
      "Ġsistema": 5840,
      "eso": 5841,
      "ibo": 5842,
      "gel": 5843,
      "Ġdich": 5844,
      "asso": 5845,
      "unde": 5846,
      "Ġohne": 5847,
      "Ġìĭ": 5848,
      "Ġcivilian": 5849,
      "èĢħ": 5850,
      "onne": 5851,
      "Ġfich": 5852,
      "Ġdla": 5853,
      "owie": 5854,
      "ĠsÄĥ": 5855,
      "Ġexchanges": 5856,
      "Ġjumping": 5857,
      "Ġwat": 5858,
      "hem": 5859,
      "Ġmie": 5860,
      "æİ¥": 5861,
      "Ġabb": 5862,
      "Ġcaf": 5863,
      "Ġdorm": 5864,
      "Ġsentenced": 5865,
      "unter": 5866,
      "Ġgeb": 5867,
      "Ġnaj": 5868,
      "Ġmate": 5869,
      "esta": 5870,
      "Ġbent": 5871,
      "ĠÅĽ": 5872,
      "ãģĨ": 5873,
      "orie": 5874,
      "Ġdurante": 5875,
      "Ä±r": 5876,
      "ĠNATO": 5877,
      "Ġtwelve": 5878,
      "Ġmerchant": 5879,
      "åħ³": 5880,
      "éĩį": 5881,
      "jour": 5882,
      "ãĤĭ": 5883,
      "Ġprog": 5884,
      "uchar": 5885,
      "remember": 5886,
      "ìłķ": 5887,
      "ĠprÃ³": 5888,
      "ìĭľ": 5889,
      "Ð°ÑĨÐ¸": 5890,
      "Ã¡c": 5891,
      "ëĵľ": 5892,
      "Ġslim": 5893,
      "Ġswift": 5894,
      "ÑĪÐ¸": 5895,
      "Ġbeside": 5896,
      "ãĤĴ": 5897,
      "zeit": 5898,
      "ÃŃc": 5899,
      "Ġaplic": 5900,
      "Ġlemon": 5901,
      "Ġpom": 5902,
      "ifica": 5903,
      "åľ°": 5904,
      "ãģĤ": 5905,
      "Ġyo": 5906,
      "Ġclimbing": 5907,
      "-week": 5908,
      "cherche": 5909,
      "Ġkw": 5910,
      "ÐµÐºÑĤ": 5911,
      "ahn": 5912,
      "ÅĤy": 5913,
      "Ġgrocery": 5914,
      "Phil": 5915,
      "Mal": 5916,
      "à¥į": 5917,
      "ĠsÃ£o": 5918,
      "Ġpropose": 5919,
      "hir": 5920,
      "è®¾": 5921,
      "Ġterminate": 5922,
      "Ð¿Ð¸Ñģ": 5923,
      "zione": 5924,
      "Ġarrives": 5925,
      "Ġgeh": 5926,
      "Ġquando": 5927,
      "Ġchef": 5928,
      "Ġsag": 5929,
      "ãģķ": 5930,
      "jas": 5931,
      "çĽ®": 5932,
      "Ġwithdrawal": 5933,
      "Ġsuspects": 5934,
      "å¼Ģ": 5935,
      "ĠÐ·Ð°Ð¿": 5936,
      "Ġdalam": 5937,
      "Ġate": 5938,
      "adora": 5939,
      "Ġgust": 5940,
      "ØŃ": 5941,
      "äºĭ": 5942,
      "Ġnaar": 5943,
      "umbai": 5944,
      "Ġzn": 5945,
      "Ġamended": 5946,
      "Ġfreeze": 5947,
      "uelle": 5948,
      "Ġric": 5949,
      "æ¯": 5950,
      "Ġvessels": 5951,
      "Ġhav": 5952,
      "ÑħÐ¾Ð´": 5953,
      "ĠlÃ¤": 5954,
      "æ²": 5955,
      "'une": 5956,
      "please": 5957,
      "Ġpound": 5958,
      "bol": 5959,
      "Ġheadlines": 5960,
      "Ġtodas": 5961,
      "ÑĢÐ¸": 5962,
      "today": 5963,
      "Ġmomento": 5964,
      "Ġjog": 5965,
      "Ġrim": 5966,
      "Ġmana": 5967,
      "fÃ¼": 5968,
      "Ġworden": 5969,
      "Ð½Ð°Ñĩ": 5970,
      "Ġshore": 5971,
      "ĠgÃ¶": 5972,
      "Ġcents": 5973,
      "-le": 5974,
      "Ġtoe": 5975,
      "Ġwil": 5976,
      "ĠIraqi": 5977,
      "contre": 5978,
      "kie": 5979,
      "ãĤĬ": 5980,
      "Ð»Ð°": 5981,
      "Ġlately": 5982,
      "fen": 5983,
      "achi": 5984,
      "Ġspa": 5985,
      "ìķ": 5986,
      "Ġanalysts": 5987,
      "hole": 5988,
      "uba": 5989,
      "à¸ĩ": 5990,
      "Ã¨res": 5991,
      "åı¯": 5992,
      "quant": 5993,
      "Ġcruise": 5994,
      "odi": 5995,
      "à¥įà¤": 5996,
      "mag": 5997,
      "Ġpartir": 5998,
      "è¦ģ": 5999,
      "ä»£": 6000,
      "Ġrab": 6001,
      "Ġlecture": 6002,
      "Ġtrapped": 6003,
      "Ġtransfers": 6004,
      "Ġtres": 6005,
      "repeat": 6006,
      "Ġgarlic": 6007,
      "kh": 6008,
      "'Ã©": 6009,
      "Ġlan": 6010,
      "eri": 6011,
      "å°ı": 6012,
      "ĠMedicare": 6013,
      "arÃ¡": 6014,
      "usa": 6015,
      "oka": 6016,
      "éĢī": 6017,
      "zw": 6018,
      "à¸´": 6019,
      "Ġile": 6020,
      "Ġprosecutors": 6021,
      "iov": 6022,
      "æłĩ": 6023,
      "Former": 6024,
      "Ġprzy": 6025,
      "æĺİ": 6026,
      "Ġosc": 6027,
      "Ð°ÐµÐ¼": 6028,
      "Ġdieser": 6029,
      "Ġadvise": 6030,
      "ĠmÃ©": 6031,
      "ãĥ©": 6032,
      "ãģĭ": 6033,
      "Ġsofa": 6034,
      "Ùĥ": 6035,
      "ìĸ´": 6036,
      "Ġdod": 6037,
      "Ġverw": 6038,
      "åĪĹ": 6039,
      "ç½ĳ": 6040,
      "music": 6041,
      "ä¸ĩ": 6042,
      "Ġrides": 6043,
      "æľĢ": 6044,
      "had": 6045,
      "anic": 6046,
      "Ġclarity": 6047,
      "Ġket": 6048,
      "ìĿ¸": 6049,
      "Ø§ÙĦ": 6050,
      "à¤¾à¤": 6051,
      "Ġtennis": 6052,
      "Ġjokes": 6053,
      "ĠÃºlt": 6054,
      "Ġvic": 6055,
      "zm": 6056,
      "Ġsous": 6057,
      "Ġnewspapers": 6058,
      "Ġhelmet": 6059,
      "åĻ¨": 6060,
      "Ġlaughing": 6061,
      "Ġlam": 6062,
      "aggi": 6063,
      "Ġbor": 6064,
      "azioni": 6065,
      "Ġtourists": 6066,
      "ĠCuba": 6067,
      "Ġexpiration": 6068,
      "Ġfuse": 6069,
      "chied": 6070,
      "Ġpopul": 6071,
      "Ġcanada": 6072,
      "à¸¥": 6073,
      "zes": 6074,
      "Ġmenos": 6075,
      "Ġpada": 6076,
      "Ġtau": 6077,
      "æīĢ": 6078,
      "åĨħ": 6079,
      "uti": 6080,
      "ãĤĤ": 6081,
      "Ġcleaner": 6082,
      "ÐµÐ·": 6083,
      "Ġsla": 6084,
      "Ġsheep": 6085,
      "éĢļ": 6086,
      "gra": 6087,
      "ientos": 6088,
      "ĠOlympics": 6089,
      "Ġlun": 6090,
      "ãĤĮ": 6091,
      "åķĨ": 6092,
      "ucht": 6093,
      "ìĿ¼": 6094,
      "Ġdre": 6095,
      "Ġolive": 6096,
      "ĠìĤ¬": 6097,
      "Ġsau": 6098,
      "Ġasylum": 6099,
      "Ġange": 6100,
      "Ġbrightness": 6101,
      "ijd": 6102,
      "ãģĬ": 6103,
      "elijk": 6104,
      "igos": 6105,
      "Ã¤ll": 6106,
      "alan": 6107,
      "ë©´": 6108,
      "Ġparas": 6109,
      "æ¶Ī": 6110,
      "prime": 6111,
      "itu": 6112,
      "aÃ±": 6113,
      "Ġaccidentally": 6114,
      "ãĤī": 6115,
      "Ġfifty": 6116,
      "ãģ¾ãģĻ": 6117,
      "tro": 6118,
      "Ã¶s": 6119,
      "ä¿Ŀ": 6120,
      "quier": 6121,
      "Ä±ÅŁ": 6122,
      "Ġtaxi": 6123,
      "Ġbombs": 6124,
      "Ġvu": 6125,
      "Ġchina": 6126,
      "Ġwoods": 6127,
      "ski": 6128,
      "Ġexpire": 6129,
      "Ġavant": 6130,
      "æ¬¡": 6131,
      "ãĥ«": 6132,
      "bru": 6133,
      "ÐµÐ²": 6134,
      "æľº": 6135,
      "lista": 6136,
      "å¯¹": 6137,
      "Ġakan": 6138,
      "ĠYemen": 6139,
      "ÑģÐ¿": 6140,
      "ischer": 6141,
      "Ġmam": 6142,
      "Ġups": 6143,
      "éĩı": 6144,
      "usk": 6145,
      "Ø´": 6146,
      "ivi": 6147,
      "ìĦ±": 6148,
      "Ġjan": 6149,
      "ellt": 6150,
      "ajÄħ": 6151,
      "æŁ¥": 6152,
      "ĠserÃ¡": 6153,
      "Ġagrees": 6154,
      "Ġliste": 6155,
      "Ġandere": 6156,
      "éĥ¨": 6157,
      "Ġhu": 6158,
      "Ġzap": 6159,
      "Ġë§": 6160,
      "orum": 6161,
      "Ġoppose": 6162,
      "Ġhast": 6163,
      "azar": 6164,
      "ÑĥÑİ": 6165,
      "'ai": 6166,
      "emu": 6167,
      "san": 6168,
      "esi": 6169,
      "Ø¬": 6170,
      "nee": 6171,
      "åĴĮ": 6172,
      "æĽ´": 6173,
      "eni": 6174,
      "ĠPalestinians": 6175,
      "ĠiÃ§in": 6176,
      "izi": 6177,
      "Ġcloses": 6178,
      "Ġmall": 6179,
      "ieten": 6180,
      "rique": 6181,
      "Ġnog": 6182,
      "Ġangel": 6183,
      "ilio": 6184,
      "Ġantes": 6185,
      "Ġmodo": 6186,
      "Ġmissiles": 6187,
      "enen": 6188,
      "spe": 6189,
      "acji": 6190,
      "Ð°Ð³": 6191,
      "Ġwifi": 6192,
      "Ġrope": 6193,
      "Ġtener": 6194,
      "Ġcanceled": 6195,
      "åĲİ": 6196,
      "á»ĥ": 6197,
      "arking": 6198,
      "Ġquesto": 6199,
      "Ġtrafficking": 6200,
      "inta": 6201,
      "mart": 6202,
      "Ġmetro": 6203,
      "ugo": 6204,
      "Ð½ÑĭÐ¹": 6205,
      "Israel": 6206,
      "Ġnad": 6207,
      "India": 6208,
      "Ġgrup": 6209,
      "eft": 6210,
      "íĻ": 6211,
      "Ġkam": 6212,
      "Ġurgent": 6213,
      "Ġker": 6214,
      "ìĿĢ": 6215,
      "Ġcham": 6216,
      "Ġusa": 6217,
      "regar": 6218,
      "eten": 6219,
      "Ġmuito": 6220,
      "kat": 6221,
      "Ãºs": 6222,
      "iban": 6223,
      "Ġhunger": 6224,
      "uche": 6225,
      "ĠÑģÐ¾": 6226,
      "ocy": 6227,
      "íĦ°": 6228,
      "mis": 6229,
      "é¢ĺ": 6230,
      "íķ´": 6231,
      "Ġjazz": 6232,
      "Ġlugar": 6233,
      "Ġpon": 6234,
      "ĠmÃ©d": 6235,
      "Ġministers": 6236,
      "-me": 6237,
      "æł¼": 6238,
      "Ð¸ÑģÑĤ": 6239,
      "Ġhora": 6240,
      "ladesh": 6241,
      "dar": 6242,
      "ĠAirlines": 6243,
      "emas": 6244,
      "äºĨ": 6245,
      "lene": 6246,
      "Ġjumps": 6247,
      "iamo": 6248,
      "Ġdeze": 6249,
      "'il": 6250,
      "éĩĳ": 6251,
      "playlist": 6252,
      "Ġada": 6253,
      "Ġslices": 6254,
      "Ġestar": 6255,
      "Ġessere": 6256,
      "Ã¼nd": 6257,
      "Ġstatue": 6258,
      "iaÅĤ": 6259,
      "Ð¾Ð·Ð´": 6260,
      "Ġmotorcycle": 6261,
      "åįĪ": 6262,
      "Ġsept": 6263,
      "ÃŃvel": 6264,
      "Ġprend": 6265,
      "Ġnouvel": 6266,
      "Ġerst": 6267,
      "à¥ĩ": 6268,
      "Ġtribute": 6269,
      "ê³ł": 6270,
      "Ã³g": 6271,
      "Ġbog": 6272,
      "Ġrepublic": 6273,
      "voir": 6274,
      "Ġencore": 6275,
      "à¸¢": 6276,
      "Ġchamp": 6277,
      "Ġsempre": 6278,
      "ÑĭÐ²": 6279,
      "ÑĢÐ°Ð½": 6280,
      "ÑĭÐ¹": 6281,
      "why": 6282,
      "Ġsap": 6283,
      "Ġsera": 6284,
      "Ġreun": 6285,
      "Ġlaying": 6286,
      "Sy": 6287,
      "agnitude": 6288,
      "eer": 6289,
      "íĺ": 6290,
      "Several": 6291,
      "ç©º": 6292,
      "sil": 6293,
      "Ġhace": 6294,
      "Ġspraw": 6295,
      "itÃ©s": 6296,
      "ĠdÃŃa": 6297,
      "das": 6298,
      "zc": 6299,
      "leur": 6300,
      "Ġbicycle": 6301,
      "ìĺ": 6302,
      "Ġcuisine": 6303,
      "iek": 6304,
      "Ġhelicopter": 6305,
      "Ø§Ø±": 6306,
      "zenia": 6307,
      "Ġfinden": 6308,
      "Ġdefin": 6309,
      "Ġdentro": 6310,
      "Ġmuss": 6311,
      "ĠmÃ©t": 6312,
      "dan": 6313,
      "Ġbob": 6314,
      "Ã¡m": 6315,
      "Ø®": 6316,
      "ÐºÑĥ": 6317,
      "ellij": 6318,
      "Ġsore": 6319,
      "Ġpilots": 6320,
      "atu": 6321,
      "jÄĻ": 6322,
      "Ġprima": 6323,
      "Ġrebel": 6324,
      "ĠChemical": 6325,
      "atro": 6326,
      "ĠìŀĪ": 6327,
      "Ġkal": 6328,
      "zig": 6329,
      "Ð°Ñı": 6330,
      "Ġforty": 6331,
      "aida": 6332,
      "Ð¾ÑĤÐ¾ÑĢ": 6333,
      "Ġê°Ģ": 6334,
      "Ġschw": 6335,
      "Ã¼l": 6336,
      "kal": 6337,
      "hey": 6338,
      "Ġcurrencies": 6339,
      "wart": 6340,
      "Ġespa": 6341,
      "Ġrebels": 6342,
      "otto": 6343,
      "Ġsuis": 6344,
      "èģ": 6345,
      "à¸ª": 6346,
      "alen": 6347,
      "Ð²ÐµÐ´": 6348,
      "ãģł": 6349,
      "Ġitu": 6350,
      "Ġcores": 6351,
      "ìļĶ": 6352,
      "å¤©": 6353,
      "Ġdern": 6354,
      "Ġpunk": 6355,
      "Ġprograma": 6356,
      "Ġshorts": 6357,
      "osto": 6358,
      "Ġimportante": 6359,
      "nej": 6360,
      "ĠaÃ±o": 6361,
      "Ð¾Ð±Ð°Ð²": 6362,
      "à¸Ĺ": 6363,
      "Ġmismo": 6364,
      "Ġvirgin": 6365,
      "ÑĥÐ´": 6366,
      "Ġnella": 6367,
      "arto": 6368,
      "æĪĳ": 6369,
      "Ġczy": 6370,
      "Ġalles": 6371,
      "åħ¨": 6372,
      "Ãªte": 6373,
      "Ġdivert": 6374,
      "Ġcricket": 6375,
      "iendo": 6376,
      "Ġclay": 6377,
      "Ġìłķ": 6378,
      "Ġsmiling": 6379,
      "Ġviel": 6380,
      "Ġpont": 6381,
      "Ġcollar": 6382,
      "vor": 6383,
      "Ġcrashes": 6384,
      "à¸ļ": 6385,
      "Ġdeve": 6386,
      "Ġappointments": 6387,
      "ä»Ĭ": 6388,
      "ÐµÑģÑĤ": 6389,
      "Ġfois": 6390,
      "Ġbak": 6391,
      "ĠÐ¿ÑĢÐ¸": 6392,
      "Ġì¶": 6393,
      "Ġbombing": 6394,
      "ardi": 6395,
      "æĿ¥": 6396,
      "mini": 6397,
      "Ġpasta": 6398,
      "Su": 6399,
      "Ġmonitors": 6400,
      "Ġdildo": 6401,
      "Ġnag": 6402,
      "anson": 6403,
      "æŃ£": 6404,
      "è¯´": 6405,
      "æĦı": 6406,
      "atorio": 6407,
      "meld": 6408,
      "éĢģ": 6409,
      "ĠProtest": 6410,
      "ĠKenya": 6411,
      "ÑĤÐ¾ÑĢ": 6412,
      "Ġpeng": 6413,
      "richt": 6414,
      "Ġbud": 6415,
      "ãĥª": 6416,
      "Ġdiesem": 6417,
      "áºŃp": 6418,
      "Ð»Ñİ": 6419,
      "elles": 6420,
      "Ġfutures": 6421,
      "Ġauthorize": 6422,
      "Ãªs": 6423,
      "jÄħ": 6424,
      "Ġkay": 6425,
      "Ġquar": 6426,
      "owy": 6427,
      "iÃŁ": 6428,
      "Ġmex": 6429,
      "charged": 6430,
      "Tur": 6431,
      "alu": 6432,
      "ä¼ļ": 6433,
      "Ġsext": 6434,
      "Ġnueva": 6435,
      "Five": 6436,
      "ä½¿çĶ¨": 6437,
      "Ġfrau": 6438,
      "à¸Ķ": 6439,
      "ãģ¦": 6440,
      "nehmen": 6441,
      "Ġìľ": 6442,
      "Ġfaz": 6443,
      "Ġlaunches": 6444,
      "Ã¡rios": 6445,
      "ìłľ": 6446,
      "ĠEUR": 6447,
      "ĠsÄħ": 6448,
      "zent": 6449,
      "Ġnoon": 6450,
      "ãĥ¼ãĤ": 6451,
      "Ġrises": 6452,
      "à¸§": 6453,
      "rir": 6454,
      "Originally": 6455,
      "alter": 6456,
      "Ġwaar": 6457,
      "Ä±m": 6458,
      "Ġearthquake": 6459,
      "Ġonion": 6460,
      "Ġbrit": 6461,
      "Ð¾Ñĩ": 6462,
      "ichte": 6463,
      "Ġwit": 6464,
      "ologie": 6465,
      "Ġheeft": 6466,
      "tom": 6467,
      "Ä±nÄ±": 6468,
      "ÑĥÑĤ": 6469,
      "Ġfeared": 6470,
      "æ®µ": 6471,
      "ĠAssad": 6472,
      "ĠÙĪ": 6473,
      "Ġeurope": 6474,
      "ãģ§ãģĻ": 6475,
      "Ð°Ð¶": 6476,
      "Ġadalah": 6477,
      "ĠrÃ©g": 6478,
      "obre": 6479,
      "Ð°Ð±": 6480,
      "Ġprzez": 6481,
      "licht": 6482,
      "ĠÐ±Ñĭ": 6483,
      "Ġjetzt": 6484,
      "ÑĢÐ°Ð¼": 6485,
      "Ġarrests": 6486,
      "agar": 6487,
      "Ð¸Ðº": 6488,
      "mus": 6489,
      "Ġonder": 6490,
      "boat": 6491,
      "affe": 6492,
      "Ġmonde": 6493,
      "Ġverg": 6494,
      "Ġvind": 6495,
      "Ð¼ÐµÐ½": 6496,
      "dz": 6497,
      "Ġmachen": 6498,
      "Ġtreaty": 6499,
      "ĠlÃł": 6500,
      "ĠÃ§a": 6501,
      "ĠmoÅ¼": 6502,
      "Ġklass": 6503,
      "Ġmeer": 6504,
      "ologia": 6505,
      "æºĲ": 6506,
      "ÑĢÑĭ": 6507,
      "Ġpak": 6508,
      "Ġano": 6509,
      "èī²": 6510,
      "Ġblanket": 6511,
      "Ġtrump": 6512,
      "yi": 6513,
      "æĻĤ": 6514,
      "iÃ§Ã£o": 6515,
      "ĠÑĨ": 6516,
      "ycz": 6517,
      "Ġìŀħ": 6518,
      "ç³»": 6519,
      "ë°": 6520,
      "Ð°Ð½Ð¸Ñı": 6521,
      "è¿ĩ": 6522,
      "ambah": 6523,
      "Ġnada": 6524,
      "çĶµ": 6525,
      "Ġtrabajo": 6526,
      "ĠNas": 6527,
      "Ġmemb": 6528,
      "iku": 6529,
      "Ġere": 6530,
      "Ġsage": 6531,
      "aat": 6532,
      "Ġlamb": 6533,
      "Ġnovo": 6534,
      "Ġmilitants": 6535,
      "uenta": 6536,
      "izione": 6537,
      "Ġatau": 6538,
      "Ġtym": 6539,
      "ĠÑĢÐ°Ð·": 6540,
      "Ġneue": 6541,
      "ĠSandy": 6542,
      "zenie": 6543,
      "ëŀ": 6544,
      "Ġamerican": 6545,
      "ĠatÃ©": 6546,
      "ĠBangladesh": 6547,
      "ç¨ĭ": 6548,
      "Ġìĺ": 6549,
      "posta": 6550,
      "ĠoÃ¹": 6551,
      "Ġcand": 6552,
      "Ä±nda": 6553,
      "Ġmonkey": 6554,
      "Æ¡": 6555,
      "Ġpotato": 6556,
      "ãĥ¡": 6557,
      "Ġroz": 6558,
      "Ð»Ð¾": 6559,
      "ãĤ¢": 6560,
      "Ã©tÃ©": 6561,
      "Ġpoco": 6562,
      "Ð½Ð¾Ð³Ð¾": 6563,
      "Ġpasse": 6564,
      "EU": 6565,
      "essen": 6566,
      "ãģĹãģ¦": 6567,
      "Ġavoir": 6568,
      "Ãªm": 6569,
      "Ġfox": 6570,
      "à¤¿": 6571,
      "emente": 6572,
      "Ġville": 6573,
      "Ð½Ð¾Ð¹": 6574,
      "Ġhoras": 6575,
      "Ġcanal": 6576,
      "å¸¸": 6577,
      "Ġdesp": 6578,
      "æĿ¡": 6579,
      "Ġlion": 6580,
      "Ġhue": 6581,
      "Ġaura": 6582,
      "sess": 6583,
      "Ġwonders": 6584,
      "pod": 6585,
      "ÑĥÐ¼": 6586,
      "chet": 6587,
      "Ð¸Ñı": 6588,
      "Ð½Ñı": 6589,
      "spi": 6590,
      "å½ĵ": 6591,
      "à¸«": 6592,
      "nement": 6593,
      "Ġkicking": 6594,
      "iman": 6595,
      "ĠKerry": 6596,
      "ĠcÄĥ": 6597,
      "Death": 6598,
      "Ġgeht": 6599,
      "ĠLebanon": 6600,
      "istani": 6601,
      "Ġciudad": 6602,
      "Ġwont": 6603,
      "æĥħ": 6604,
      "Ã¢n": 6605,
      "ĠNorthwest": 6606,
      "Ø§ÙĨ": 6607,
      "åı£": 6608,
      "Ġyap": 6609,
      "ĠØª": 6610,
      "Ð»ÑİÑĩ": 6611,
      "ppo": 6612,
      "Ġvai": 6613,
      "Ð´Ð°": 6614,
      "Ġstole": 6615,
      "Åº": 6616,
      "kon": 6617,
      "atra": 6618,
      "orgen": 6619,
      "Ġjohn": 6620,
      "Ġtoutes": 6621,
      "Ø²": 6622,
      "Ġsunny": 6623,
      "god": 6624,
      "kont": 6625,
      "Ġsalon": 6626,
      "ĠÐ¿Ð¾Ð´": 6627,
      "elas": 6628,
      "Ġpla": 6629,
      "Ġpostal": 6630,
      "Ġhebben": 6631,
      "åĲĪ": 6632,
      "Ġetwas": 6633,
      "bucks": 6634,
      "elim": 6635,
      "Ġtopped": 6636,
      "Ġfazer": 6637,
      "opa": 6638,
      "à¸ķ": 6639,
      "Ã¼k": 6640,
      "Ġmoins": 6641,
      "entre": 6642,
      "Ġclash": 6643,
      "ÑģÐ»": 6644,
      "á»ģ": 6645,
      "è½¦": 6646,
      "pez": 6647,
      "rina": 6648,
      "Ġbisa": 6649,
      "Ġmoi": 6650,
      "rais": 6651,
      "visions": 6652,
      "endi": 6653,
      "Ġlust": 6654,
      "ĠÃŃ": 6655,
      "Ġlandlord": 6656,
      "Ġlum": 6657,
      "Ġtoda": 6658,
      "cken": 6659,
      "ĠÐ¿ÑĢÐ¾": 6660,
      "utar": 6661,
      "esty": 6662,
      "Ġmesmo": 6663,
      "Ġwordt": 6664,
      "Ġlis": 6665,
      "ìļ°": 6666,
      "Ġlok": 6667,
      "Ġusu": 6668,
      "Ġana": 6669,
      "à¸Ħ": 6670,
      "Ġdias": 6671,
      "Ġkos": 6672,
      "inform": 6673,
      "Tell": 6674,
      "Ġzwei": 6675,
      "Ġwt": 6676,
      "inz": 6677,
      "Ġnova": 6678,
      "Ġjul": 6679,
      "åĳ¨": 6680,
      "Ġinterim": 6681,
      "ĠComposite": 6682,
      "ĠHamas": 6683,
      "rike": 6684,
      "ãĤ°": 6685,
      "Ġrode": 6686,
      "ĠTaliban": 6687,
      "Ġpoz": 6688,
      "Ġelf": 6689,
      "ëª": 6690,
      "uales": 6691,
      "Ġcredited": 6692,
      "Ð¸Ð·": 6693,
      "Ġaument": 6694,
      "lez": 6695,
      "ullah": 6696,
      "'en": 6697,
      "Ġisso": 6698,
      "ĠbÄĻd": 6699,
      "è®°": 6700,
      "äºĮ": 6701,
      "xo": 6702,
      "Ġtecn": 6703,
      "ìŀ¥": 6704,
      "Ġparis": 6705,
      "ĠÃ³": 6706,
      "Ġatual": 6707,
      "awi": 6708,
      "Ġcentro": 6709,
      "Ä±k": 6710,
      "Ġrund": 6711,
      "Ġcafe": 6712,
      "ÑĢÐ¾Ñģ": 6713,
      "Ġcet": 6714,
      "ĠÐ¸Ð½": 6715,
      "Ġsaber": 6716,
      "Ġtomato": 6717,
      "ĠaprÃ¨s": 6718,
      "Ġmeteor": 6719,
      "Ġdok": 6720,
      "Ġdib": 6721,
      "Ġfilme": 6722,
      "Ġdoit": 6723,
      "Ġsidewalk": 6724,
      "à¸·": 6725,
      "pas": 6726,
      "Ġrevert": 6727,
      "stell": 6728,
      "Ġteng": 6729,
      "Ġgez": 6730,
      "adir": 6731,
      "Ġpuppy": 6732,
      "vim": 6733,
      "Ġmein": 6734,
      "è¿Ľ": 6735,
      "Ġesse": 6736,
      "ìĦ¸": 6737,
      "mant": 6738,
      "Six": 6739,
      "Ġgospel": 6740,
      "izaciÃ³n": 6741,
      "Ġpunto": 6742,
      "Ġpend": 6743,
      "ãĥŃ": 6744,
      "Ġdatum": 6745,
      "Ġquand": 6746,
      "à¸¹": 6747,
      "Øµ": 6748,
      "Ġsiempre": 6749,
      "Ġinmates": 6750,
      "uell": 6751,
      "ĠpaÃŃs": 6752,
      "ë³´": 6753,
      "Ġtravail": 6754,
      "iona": 6755,
      "aan": 6756,
      "ÃŃo": 6757,
      "Ġprince": 6758,
      "Ġpendant": 6759,
      "ĠPresidential": 6760,
      "Ġmilano": 6761,
      "ãģ£": 6762,
      "Ġese": 6763,
      "acz": 6764,
      "ĠestÃ¡n": 6765,
      "ĠktÃ³ry": 6766,
      "Ġprisoner": 6767,
      "rek": 6768,
      "amba": 6769,
      "amat": 6770,
      "quel": 6771,
      "Ġgeld": 6772,
      "Ġbah": 6773,
      "Ġviele": 6774,
      "ĠtÃ©lÃ©": 6775,
      "ìľ¼ë¡ľ": 6776,
      "ë²Ī": 6777,
      "unta": 6778,
      "Ð°ÑĤÐ°": 6779,
      "uw": 6780,
      "ĠhÃ¡": 6781,
      "Ġsei": 6782,
      "å¤ļ": 6783,
      "Ġtelefon": 6784,
      "Ġreddit": 6785,
      "ÑĥÑī": 6786,
      "Ġindian": 6787,
      "Ġting": 6788,
      "Ġparked": 6789,
      "æĬ¥": 6790,
      "Ġdiz": 6791,
      "ĠquÃ©": 6792,
      "nde": 6793,
      "Ġnivel": 6794,
      "Ġnouveau": 6795,
      "Ġmicrophone": 6796,
      "Ġconfirms": 6797,
      "uci": 6798,
      "ueba": 6799,
      "ãģ¡": 6800,
      "Ġhips": 6801,
      "ĠDow": 6802,
      "Ġiphone": 6803,
      "ĠSudan": 6804,
      "nten": 6805,
      "fang": 6806,
      "Ġninth": 6807,
      "igung": 6808,
      "rÃ©": 6809,
      "Ġcans": 6810,
      "Ġbos": 6811,
      "anni": 6812,
      "Ġhatte": 6813,
      "olla": 6814,
      "tek": 6815,
      "Ġaby": 6816,
      "arin": 6817,
      "Ġdeclining": 6818,
      "ĠhÃ¶": 6819,
      "æ·»åĬł": 6820,
      "ĠÃ©tait": 6821,
      "ĠktÃ³re": 6822,
      "íķĺëĬĶ": 6823,
      "Ġairplane": 6824,
      "Ð½ÑĭÐµ": 6825,
      "ÑĢÐµÐ´": 6826,
      "Ġsunset": 6827,
      "Ġcliff": 6828,
      "ÑĥÑģ": 6829,
      "Ġê²½": 6830,
      "ĠÐºÐ¾Ð¼": 6831,
      "ĠnÃ¤": 6832,
      "Ġparliamentary": 6833,
      "French": 6834,
      "Ġjets": 6835,
      "Ġparl": 6836,
      "Ġaustralia": 6837,
      "inha": 6838,
      "Ġsubway": 6839,
      "çº¿": 6840,
      "Ġtutti": 6841,
      "ÄŁÄ±": 6842,
      "è¿Ļ": 6843,
      "Ġbureau": 6844,
      "Ã¡vel": 6845,
      "åĪ¶": 6846,
      "ĠVisa": 6847,
      "jd": 6848,
      "Ġvas": 6849,
      "Ġcompromised": 6850,
      "Ġindie": 6851,
      "Ġfranc": 6852,
      "ÑĤÐ°": 6853,
      "éĵ": 6854,
      "Ġnar": 6855,
      "Ġaqui": 6856,
      "ìĨĮ": 6857,
      "Ġblues": 6858,
      "Ø·": 6859,
      "à¥Ģ": 6860,
      "Ġprimera": 6861,
      "Ð½ÑĭÑħ": 6862,
      "jam": 6863,
      "Ġinformations": 6864,
      "Ġpuis": 6865,
      "contro": 6866,
      "Ġire": 6867,
      "Ð½Ð°Ñı": 6868,
      "Ð¾Ðµ": 6869,
      "Ġdisposable": 6870,
      "ĠKilled": 6871,
      "ÄŁi": 6872,
      "Ġexploded": 6873,
      "Ġrecognise": 6874,
      "Ġsek": 6875,
      "Ð¸Ð¹": 6876,
      "ĠÐ·Ð°": 6877,
      "bir": 6878,
      "ãĥ¬": 6879,
      "è®¾ç½®": 6880,
      "alore": 6881,
      "abra": 6882,
      "ĠØ¹": 6883,
      "rar": 6884,
      "ĠÐ²ÑģÐµ": 6885,
      "Ġanda": 6886,
      "irma": 6887,
      "Ġzona": 6888,
      "æĻ": 6889,
      "Ñĳ": 6890,
      "atÃ³": 6891,
      "Ġnota": 6892,
      "å°Ĩ": 6893,
      "çĬ¶æĢģ": 6894,
      "Ġdra": 6895,
      "Ġdapat": 6896,
      "Ġamor": 6897,
      "Ġtornado": 6898,
      "åĪĹè¡¨": 6899,
      "à¤°": 6900,
      "ugal": 6901,
      "Ġpok": 6902,
      "Ġeleven": 6903,
      "conom": 6904,
      "-vous": 6905,
      "ustin": 6906,
      "piel": 6907,
      "Ġpasser": 6908,
      "Ġkat": 6909,
      "Ġpouvez": 6910,
      "Ġcours": 6911,
      "Ġafrica": 6912,
      "encial": 6913,
      "noÅĽci": 6914,
      "ĠØ¯": 6915,
      "Obama": 6916,
      "Ġsoit": 6917,
      "Rom": 6918,
      "Ġmeine": 6919,
      "ÅĤÄħ": 6920,
      "Ġclimbed": 6921,
      "Ġevento": 6922,
      "ĠPakistani": 6923,
      "Ġunauthorized": 6924,
      "Ġmigli": 6925,
      "ĠÐ¼Ð¾Ð¶": 6926,
      "Russia": 6927,
      "Ġìĭľ": 6928,
      "ĠÑħ": 6929,
      "Ġberlin": 6930,
      "Ġonions": 6931,
      "Ġtir": 6932,
      "Ġburger": 6933,
      "é«ĺ": 6934,
      "Ġporch": 6935,
      "ĠPoor": 6936,
      "¤í": 6937,
      "warz": 6938,
      "åŃĲ": 6939,
      "Ġmend": 6940,
      "Ġmarvel": 6941,
      "Ġquelques": 6942,
      "éģĵ": 6943,
      "heid": 6944,
      "ĠÑģÐ²": 6945,
      "èª": 6946,
      "ãĥī": 6947,
      "Ġwszyst": 6948,
      "éĤ": 6949,
      "Ġsog": 6950,
      "Ġkap": 6951,
      "ĠArmstrong": 6952,
      "liga": 6953,
      "ÅĤad": 6954,
      "Chinese": 6955,
      "æīĭ": 6956,
      "Ġlumin": 6957,
      "Ġsemana": 6958,
      "uchen": 6959,
      "izio": 6960,
      "ä¸ī": 6961,
      "Ġpetit": 6962,
      "Ġvoir": 6963,
      "rale": 6964,
      "gesch": 6965,
      "JI": 6966,
      "Ġnama": 6967,
      "Ġchin": 6968,
      "ĠÐ¸Ð»Ð¸": 6969,
      "ĠdÃŃas": 6970,
      "ovi": 6971,
      "Ġchez": 6972,
      "Ġê³": 6973,
      "gio": 6974,
      "Ġcows": 6975,
      "ä»İ": 6976,
      "Ġstan": 6977,
      "orean": 6978,
      "Ġgor": 6979,
      "umat": 6980,
      "enci": 6981,
      "Ã§as": 6982,
      "gli": 6983,
      "ĠÑı": 6984,
      "Ġmois": 6985,
      "inte": 6986,
      "conte": 6987,
      "Ġdebit": 6988,
      "Ġalta": 6989,
      "teenth": 6990,
      "accion": 6991,
      "nas": 6992,
      "Ġtrouver": 6993,
      "Ġembassy": 6994,
      "ÃŃf": 6995,
      "ĠÙģ": 6996,
      "Ġencontrar": 6997,
      "å®¶": 6998,
      "Ġpint": 6999,
      "ssi": 7000,
      "Ġchaque": 7001,
      "Ġmelhor": 7002,
      "vu": 7003,
      "Ġnour": 7004,
      "achen": 7005,
      "cek": 7006,
      "wie": 7007,
      "anmar": 7008,
      "ĠMonte": 7009,
      "æĹ¥æľŁ": 7010,
      "zej": 7011,
      "Ġhap": 7012,
      "Ġnaz": 7013,
      "Ġsuiv": 7014,
      "larÄ±": 7015,
      "vir": 7016,
      "éķ¿": 7017,
      "Ġhoe": 7018,
      "Ġdob": 7019,
      "Ġberg": 7020,
      "ä»ĺ": 7021,
      "owych": 7022,
      "Ġtema": 7023,
      "ç§Ĵ": 7024,
      "Ġcorreo": 7025,
      "Ġhog": 7026,
      "ÐµÑĪ": 7027,
      "è·¯": 7028,
      "Ġmarca": 7029,
      "Ġrelacion": 7030,
      "gang": 7031,
      "ĠATM": 7032,
      "Ġhai": 7033,
      "ĠÅ¼": 7034,
      "Ġlied": 7035,
      "ãĤ³": 7036,
      "Ð¸Ð¸": 7037,
      "Ġmaison": 7038,
      "ÐµÐ³Ð¾": 7039,
      "ftar": 7040,
      "ãĤ¿": 7041,
      "į°ìĿ´": 7042,
      "gni": 7043,
      "ĠÐµÑģÐ»Ð¸": 7044,
      "acie": 7045,
      "Ġdrums": 7046,
      "qui": 7047,
      "Ġahora": 7048,
      "hora": 7049,
      "ixa": 7050,
      "yet": 7051,
      "Ġgoed": 7052,
      "give": 7053,
      "uso": 7054,
      "Ġcerc": 7055,
      "ä¿ĿåŃĺ": 7056,
      "Ġdenies": 7057,
      "Ġavez": 7058,
      "Ġusar": 7059,
      "erna": 7060,
      "äº¬": 7061,
      "ĠbaÅŁ": 7062,
      "ĠWeapons": 7063,
      "Ġdegli": 7064,
      "Ø³Øª": 7065,
      "Ġsip": 7066,
      "recent": 7067,
      "Ġapenas": 7068,
      "Ġdieses": 7069,
      "è½¬": 7070,
      "stag": 7071,
      "Ð½Ð¾Ð²": 7072,
      "agu": 7073,
      "ensch": 7074,
      "leri": 7075,
      "ãģı": 7076,
      "Ġsavoir": 7077,
      "iÄħ": 7078,
      "rene": 7079,
      "Ġmettre": 7080,
      "Ġcara": 7081,
      "è¾ĳ": 7082,
      "ä¸Ģä¸ª": 7083,
      "orgia": 7084,
      "Ġjue": 7085,
      "ilih": 7086,
      "Ġconfigur": 7087,
      "Ð²ÐµÑĤ": 7088,
      "Ġbach": 7089,
      "Ġkillings": 7090,
      "uner": 7091,
      "Ð½Ð¾Ðµ": 7092,
      "ãģĶ": 7093,
      "ÐºÐ¾": 7094,
      "Ġkol": 7095,
      "Ġzm": 7096,
      "Ð¸Ð´": 7097,
      "à¸µà¹Ī": 7098,
      "lis": 7099,
      "yor": 7100,
      "Ġzwischen": 7101,
      "Ð°Ð»Ð¸": 7102,
      "lijk": 7103,
      "Ġdimin": 7104,
      "Ġhind": 7105,
      "íĺ¸": 7106,
      "Ġmitt": 7107,
      "ĠÐºÐ»": 7108,
      "Ġmars": 7109,
      "izaÃ§Ã£o": 7110,
      "ĠÑĩÑĤÐ¾": 7111,
      "Ã³ÅĤ": 7112,
      "ÅŁt": 7113,
      "Ġexchanged": 7114,
      "Ġczas": 7115,
      "ãĥĥãĤ¯": 7116,
      "stin": 7117,
      "Ġestas": 7118,
      "Ġbans": 7119,
      "Ġcosa": 7120,
      "åĬĽ": 7121,
      "Ġmolto": 7122,
      "Ġnouvelle": 7123,
      "Ġconsulta": 7124,
      "Indian": 7125,
      "primer": 7126,
      "Ã¡nd": 7127,
      "Strong": 7128,
      "Ġfrance": 7129,
      "Ġdidnt": 7130,
      "Ġrainbow": 7131,
      "Ø§Øª": 7132,
      "à¸¸": 7133,
      "Ġkas": 7134,
      "Ġneuen": 7135,
      "jal": 7136,
      "Russian": 7137,
      "ĠvÃł": 7138,
      "czy": 7139,
      "Ġaller": 7140,
      "Ġà¤ķ": 7141,
      "å¤ĸ": 7142,
      "ĠìĥĿ": 7143,
      "Ġgeen": 7144,
      "ĠcÃ¢": 7145,
      "rias": 7146,
      "íķł": 7147,
      "à¸Ĥ": 7148,
      "è°ĥ": 7149,
      "Ä±z": 7150,
      "é¡¹": 7151,
      "Ġumbrella": 7152,
      "Ġì§": 7153,
      "isia": 7154,
      "ëıĦ": 7155,
      "Ġbeet": 7156,
      "Australia": 7157,
      "Ġwarns": 7158,
      "wis": 7159,
      "'av": 7160,
      "ujÄħ": 7161,
      "Ġpaar": 7162,
      "lies": 7163,
      "Ġë©": 7164,
      "à¸Ĭ": 7165,
      "nym": 7166,
      "Ġstato": 7167,
      "Ġersten": 7168,
      "clair": 7169,
      "Ð²ÐµÑĢ": 7170,
      "Ġmart": 7171,
      "Ġjours": 7172,
      "Ġdalla": 7173,
      "Ġkel": 7174,
      "Ġmeilleur": 7175,
      "Ġmassacre": 7176,
      "arl": 7177,
      "anye": 7178,
      "åĮĹ": 7179,
      "Ġdost": 7180,
      "Ġgek": 7181,
      "Ġeing": 7182,
      "ĠìķĦ": 7183,
      "ìĿĮ": 7184,
      "registr": 7185,
      "Ġtha": 7186,
      "vre": 7187,
      "Ã¼m": 7188,
      "utan": 7189,
      "mak": 7190,
      "inci": 7191,
      "ê·¸": 7192,
      "Ġheute": 7193,
      "Ġici": 7194,
      "Ġordin": 7195,
      "ĠrÃ¡": 7196,
      "ifik": 7197,
      "Ġhurricane": 7198,
      "å·¥": 7199,
      "tanggal": 7200,
      "Ġaugment": 7201,
      "orrent": 7202,
      "ç¬ĳ": 7203,
      "Ġhoy": 7204,
      "Japan": 7205,
      "Ð¾Ð·Ð²": 7206,
      "-te": 7207,
      "ÑĥÐ¿": 7208,
      "bil": 7209,
      "Ġmercado": 7210,
      "Ġeve": 7211,
      "Ġdecir": 7212,
      "çĽ¸": 7213,
      "å¾®": 7214,
      "ĠÐ½Ð¾Ð²": 7215,
      "Ġsteak": 7216,
      "Ġadam": 7217,
      "Ã¼ber": 7218,
      "France": 7219,
      "staw": 7220,
      "jest": 7221,
      "Ġdun": 7222,
      "å¹³": 7223,
      "Ð°Ñĩ": 7224,
      "owaÄĩ": 7225,
      "Ġprzed": 7226,
      "åĲ¬": 7227,
      "Ð¸Ðµ": 7228,
      "Ġken": 7229,
      "ĠBrotherhood": 7230,
      "è§£": 7231,
      "uale": 7232,
      "ÐµÐ¶": 7233,
      "Ġrapper": 7234,
      "imas": 7235,
      "Ġëĭ¤": 7236,
      "Ø§Ùħ": 7237,
      "ÐµÐµ": 7238,
      "Ġtego": 7239,
      "ĠdespuÃ©s": 7240,
      "Ġyork": 7241,
      "Ġwithdrawn": 7242,
      "Ġorang": 7243,
      "ë¡Ŀ": 7244,
      "Ġdzie": 7245,
      "Ġeats": 7246,
      "icias": 7247,
      "Ð°Ð¼Ð¸": 7248,
      "wor": 7249,
      "ÐµÑĤÑģÑı": 7250,
      "Ġjako": 7251,
      "ãģį": 7252,
      "atif": 7253,
      "à¹Ħ": 7254,
      "Ġletz": 7255,
      "Ġdeclares": 7256,
      "Ġsudah": 7257,
      "Ã¶l": 7258,
      "iesz": 7259,
      "å¾Ĺ": 7260,
      "ĠÑĤÐ°Ðº": 7261,
      "Ġesa": 7262,
      "áº¡n": 7263,
      "Ġsia": 7264,
      "Ġolarak": 7265,
      "Ġras": 7266,
      "Ġbek": 7267,
      "Ġlebih": 7268,
      "Ġtransferring": 7269,
      "onds": 7270,
      "Ġcalend": 7271,
      "aty": 7272,
      "Ã³m": 7273,
      "Ġseize": 7274,
      "akukan": 7275,
      "æĽ´æĸ°": 7276,
      "æĶ¶": 7277,
      "otte": 7278,
      "Ġsailing": 7279,
      "Ġallen": 7280,
      "ropical": 7281,
      "iras": 7282,
      "Ġllam": 7283,
      "itung": 7284,
      "ĠMarathon": 7285,
      "Ġmang": 7286,
      "Clinton": 7287,
      "ãģĵãģ®": 7288,
      "ĠÙĨ": 7289,
      "å®ī": 7290,
      "ĠsÃ¶": 7291,
      "ìĦ¸ìļĶ": 7292,
      "ÐµÐ½Ð°": 7293,
      "Ġzak": 7294,
      "ëĿ¼": 7295,
      "Ġdois": 7296,
      "Ġjaar": 7297,
      "åıĸæ¶Ī": 7298,
      "Ã³t": 7299,
      "six": 7300,
      "Ġlain": 7301,
      "åĪĽå»º": 7302,
      "uur": 7303,
      "éĢīæĭ©": 7304,
      "è®¢åįķ": 7305,
      "Ġpouring": 7306,
      "Ġdiesen": 7307,
      "ĠÐ±ÑĥÐ´": 7308,
      "Ġexercising": 7309,
      "otle": 7310,
      "ÑĤÐµ": 7311,
      "auf": 7312,
      "Ġbonne": 7313,
      "Ġlett": 7314,
      "ÑĭÐµ": 7315,
      "dag": 7316,
      "ÑģÑĤÑĢ": 7317,
      "Ġsworn": 7318,
      "aktu": 7319,
      "Ð°ÑĪ": 7320,
      "ĠìķĬ": 7321,
      "ĠÃ©v": 7322,
      "Ġgraz": 7323,
      "Ġtrending": 7324,
      "eti": 7325,
      "ajar": 7326,
      "Ġmak": 7327,
      "Ġsollte": 7328,
      "çľĭ": 7329,
      "Ġkes": 7330,
      "Äĳ": 7331,
      "Ġdzi": 7332,
      "Ġkissing": 7333,
      "'in": 7334,
      "á»ĩn": 7335,
      "Ġmejores": 7336,
      "ahi": 7337,
      "Ã³b": 7338,
      "uali": 7339,
      "Ã¶ff": 7340,
      "Ġtutto": 7341,
      "eker": 7342,
      "Ġmilitant": 7343,
      "Ġarab": 7344,
      "ãĥ³ãĥĪ": 7345,
      "Ġoleh": 7346,
      "ÐµÐ½ÑĮ": 7347,
      "ĠÐ¿Ð¾Ð»ÑĥÑĩ": 7348,
      "ixo": 7349,
      "Ġsaat": 7350,
      "Ġpresidente": 7351,
      "Ġë©Ķ": 7352,
      "ÐºÐ»ÑİÑĩ": 7353,
      "ienia": 7354,
      "è¡¨ç¤º": 7355,
      "Ġraids": 7356,
      "ãĥķ": 7357,
      "éľ": 7358,
      "Ġsant": 7359,
      "Ġclashes": 7360,
      "Ġmenc": 7361,
      "avez": 7362,
      "ë¬¸": 7363,
      "Ġquesta": 7364,
      "sla": 7365,
      "ÐµÑģÑĤÐ²Ð¾": 7366,
      "à¹īà¸Ń": 7367,
      "ifique": 7368,
      "Ġminutos": 7369,
      "iges": 7370,
      "ĠÐºÐ°Ðº": 7371,
      "spr": 7372,
      "acja": 7373,
      "keiten": 7374,
      "Ġhin": 7375,
      "Ġtiger": 7376,
      "ãĥĸ": 7377,
      "Ġpedido": 7378,
      "Ã¶rt": 7379,
      "å¸ĥ": 7380,
      "British": 7381,
      "Ġtreffen": 7382,
      "Ġposing": 7383,
      "ĠìĥĿìĦ±": 7384,
      "ĠcafÃ©": 7385,
      "Ġniveau": 7386,
      "rz": 7387,
      "sez": 7388,
      "amu": 7389,
      "Ġrockets": 7390,
      "Ġtylko": 7391,
      "'app": 7392,
      "Ġfim": 7393,
      "anj": 7394,
      "nego": 7395,
      "ĠØ´": 7396,
      "çŁ¥": 7397,
      "Ġged": 7398,
      "mute": 7399,
      "icz": 7400,
      "Ġnorthwest": 7401,
      "onte": 7402,
      "Ġlange": 7403,
      "Ġlocales": 7404,
      "ëĲľ": 7405,
      "asz": 7406,
      "yna": 7407,
      "ificaciÃ³n": 7408,
      "Ġrus": 7409,
      "æ°´": 7410,
      "ĠÃłs": 7411,
      "ĠCairo": 7412,
      "Ãłi": 7413,
      "Ġbrighter": 7414,
      "ÐºÐµ": 7415,
      "ĠÐ¸ÑģÐ¿": 7416,
      "kker": 7417,
      "Ġsic": 7418,
      "Ġtijd": 7419,
      "Ġnast": 7420,
      "ieux": 7421,
      "Ġrepro": 7422,
      "Ġbesten": 7423,
      "yar": 7424,
      "å¥½": 7425,
      "ambia": 7426,
      "çī©": 7427,
      "Tok": 7428,
      "áºŃt": 7429,
      "venta": 7430,
      "Ġott": 7431,
      "ìķĦ": 7432,
      "Ġmijn": 7433,
      "Ġrz": 7434,
      "Ãły": 7435,
      "ĠkhÃ´ng": 7436,
      "Ġgio": 7437,
      "ĠaquÃŃ": 7438,
      "Ġjeden": 7439,
      "Ġtg": 7440,
      "ìĬ¤íĬ¸": 7441,
      "Ġchristmas": 7442,
      "-ce": 7443,
      "Ġmute": 7444,
      "æĶ¾": 7445,
      "regist": 7446,
      "ologÃŃa": 7447,
      "iphone": 7448,
      "ç»ı": 7449,
      "quina": 7450,
      "ëŀĺ": 7451,
      "Ġdeposited": 7452,
      "Ð¾Ð»ÑĮÐºÐ¾": 7453,
      "Ġpraw": 7454,
      "ĠØ§ÙĦÙħ": 7455,
      "ì¶": 7456,
      "cura": 7457,
      "bis": 7458,
      "ĠëķĮ": 7459,
      "ĠlÃ¡": 7460,
      "adan": 7461,
      "ê³¼": 7462,
      "vac": 7463,
      "ĠØ±": 7464,
      "Ġbuen": 7465,
      "Ġska": 7466,
      "achten": 7467,
      "icionar": 7468,
      "Ġnieu": 7469,
      "atk": 7470,
      "cem": 7471,
      "ãģĻãĤĭ": 7472,
      "Ġfiat": 7473,
      "Ìģ": 7474,
      "Ġdisco": 7475,
      "Ġfraudulent": 7476,
      "Ġdomic": 7477,
      "eken": 7478,
      "Ġíķĺ": 7479,
      "Ġdoen": 7480,
      "ĠgÃ¼": 7481,
      "ĠjuÅ¼": 7482,
      "Ġdisputed": 7483,
      "ä¹ĭ": 7484,
      "ãģĭãĤī": 7485,
      "Ġsaya": 7486,
      "åı°": 7487,
      "Ġdavid": 7488,
      "ìĹ´": 7489,
      "Ġswinging": 7490,
      "Ġvolta": 7491,
      "Ġì¤": 7492,
      "Ġtunes": 7493,
      "æĺ¾ç¤º": 7494,
      "ĠpremiÃ¨re": 7495,
      "å·ŀ": 7496,
      "Ġmidi": 7497,
      "Ġmaken": 7498,
      "Ġvou": 7499,
      "Ġgerne": 7500,
      "Ġëª¨": 7501,
      "rze": 7502,
      "Ġcurry": 7503,
      "endet": 7504,
      "Ġhele": 7505,
      "Ġê¸°": 7506,
      "Ġjapan": 7507,
      "Ð¾Ð±Ñī": 7508,
      "ĠÃ¡rea": 7509,
      "uat": 7510,
      "Ġpem": 7511,
      "Ġyer": 7512,
      "Ġkita": 7513,
      "ubi": 7514,
      "mach": 7515,
      "Ġthuis": 7516,
      "Ġjusqu": 7517,
      "ìĽĲ": 7518,
      "ì£¼": 7519,
      "Af": 7520,
      "Ġmenjadi": 7521,
      "Ġogni": 7522,
      "ucha": 7523,
      "éħį": 7524,
      "oran": 7525,
      "nez": 7526,
      "Ġmeny": 7527,
      "Ġwann": 7528,
      "Someone": 7529,
      "ĠÑĪ": 7530,
      "pour": 7531,
      "'int": 7532,
      "ochen": 7533,
      "Ġwys": 7534,
      "à¥ĭ": 7535,
      "tere": 7536,
      "çĶ»": 7537,
      "Ġessa": 7538,
      "Ġtrabalho": 7539,
      "à¸Ľ": 7540,
      "iran": 7541,
      "cciones": 7542,
      "ĠiÅŁ": 7543,
      "toc": 7544,
      "à¥ĩà¤": 7545,
      "Ä±l": 7546,
      "Ġmoet": 7547,
      "gia": 7548,
      "Ġê·¸": 7549,
      "Ġtoc": 7550,
      "ĠcÃ³mo": 7551,
      "Ġsiguiente": 7552,
      "Ġduplicated": 7553,
      "Ġzwe": 7554,
      "ãģĹãģŁ": 7555,
      "ĠíĮĮ": 7556,
      "Ġsegunda": 7557,
      "Ġgaz": 7558,
      "ìĤ¬": 7559,
      "Ùī": 7560,
      "Ġcidade": 7561,
      "edu": 7562,
      "æµ·": 7563,
      "Ġmeu": 7564,
      "ĠBaghdad": 7565,
      "Ġtrois": 7566,
      "å¼Ģå§ĭ": 7567,
      "Ġroku": 7568,
      "rei": 7569,
      "Ø°": 7570,
      "æīĢæľī": 7571,
      "Ġcommence": 7572,
      "Ġviene": 7573,
      "Ġdisturbed": 7574,
      "ÑĥÑĢ": 7575,
      "oger": 7576,
      "ÅĽli": 7577,
      "chs": 7578,
      "Ġprogramm": 7579,
      "ensi": 7580,
      "èĬĤ": 7581,
      "ĠÐ·Ð°Ð¿Ð¸Ñģ": 7582,
      "Ġcosas": 7583,
      "Ġshrimp": 7584,
      "assa": 7585,
      "Ġbluetooth": 7586,
      "ĠIsraelis": 7587,
      "Ġì£¼": 7588,
      "Ġtudo": 7589,
      "opo": 7590,
      "ieÅ¼": 7591,
      "ÐµÑĩ": 7592,
      "à¹Į": 7593,
      "Ġkim": 7594,
      "Ð»ÐµÐ½Ð¸Ðµ": 7595,
      "Ġonze": 7596,
      "éĸĵ": 7597,
      "bens": 7598,
      "bac": 7599,
      "Ġlivre": 7600,
      "ĠÙĩ": 7601,
      "undi": 7602,
      "ÑĥÐ¶": 7603,
      "ìĥģ": 7604,
      "datum": 7605,
      "Ġamsterdam": 7606,
      "tin": 7607,
      "Ġnei": 7608,
      "æ¯Ķ": 7609,
      "éĹ®": 7610,
      "ë¯¸": 7611,
      "Ġprimeiro": 7612,
      "ÑĨÐ¸Ð¸": 7613,
      "ãĤ·": 7614,
      "Ġmama": 7615,
      "ĠPhilippine": 7616,
      "ĠÐ´Ð¾": 7617,
      "ipzig": 7618,
      "ãĥĹ": 7619,
      "Ã´le": 7620,
      "Ġmia": 7621,
      "-il": 7622,
      "Ġleuk": 7623,
      "íĻĶ": 7624,
      "Ġolan": 7625,
      "nÄħ": 7626,
      "Ġmise": 7627,
      "ĠgroÃŁe": 7628,
      "Ġchinese": 7629,
      "ĠìłĦ": 7630,
      "ĠestÃ£o": 7631,
      "ìĹĲìĦľ": 7632,
      "Ġalex": 7633,
      "Ġdow": 7634,
      "xima": 7635,
      "lover": 7636,
      "Ġgeben": 7637,
      "ifie": 7638,
      "piar": 7639,
      "pla": 7640,
      "Ä±s": 7641,
      "iej": 7642,
      "Ġamigos": 7643,
      "Ã©rieur": 7644,
      "ä½ł": 7645,
      "Ġgw": 7646,
      "é»ĳ": 7647,
      "bies": 7648,
      "alarm": 7649,
      "ĠÙĦ": 7650,
      "mor": 7651,
      "ãģĤãĤĬ": 7652,
      "ĠÐ¿ÑĢÐµÐ´": 7653,
      "ãĥĨ": 7654,
      "Ġhamburg": 7655,
      "Ġbardzo": 7656,
      "ãĤĪ": 7657,
      "Ġsoir": 7658,
      "ietet": 7659,
      "ÅĽcie": 7660,
      "Ġsulla": 7661,
      "ibu": 7662,
      "Ġë¦¬": 7663,
      "roma": 7664,
      "-par": 7665,
      "Ġoldu": 7666,
      "ĠÃ§ok": 7667,
      "ìĹ¬": 7668,
      "gend": 7669,
      "orda": 7670,
      "ëıĻ": 7671,
      "Ġvier": 7672,
      "zin": 7673,
      "ìŀ¬": 7674,
      "uestas": 7675,
      "łí": 7676,
      "Ã³Å¼": 7677,
      "ĠÐ¶": 7678,
      "ä¸İ": 7679,
      "ìĺ¤": 7680,
      "allen": 7681,
      "-quarter": 7682,
      "ãģĿãģ®": 7683,
      "Ġyen": 7684,
      "Ġtup": 7685,
      "è¯Ŀ": 7686,
      "Ġseguir": 7687,
      "Ġdisposit": 7688,
      "Ġroma": 7689,
      "Ġdang": 7690,
      "Ġdrei": 7691,
      "Ġtahun": 7692,
      "Ġbomber": 7693,
      "zych": 7694,
      "ĠìłĢìŀ¥": 7695,
      "è¯»": 7696,
      "åĳĬ": 7697,
      "ç¾İ": 7698,
      "ĠAUD": 7699,
      "fund": 7700,
      "Ġquem": 7701,
      "äºĭä»¶": 7702,
      "Ġtelah": 7703,
      "otty": 7704,
      "ocese": 7705,
      "owo": 7706,
      "Ġqualquer": 7707,
      "ê²Į": 7708,
      "å±±": 7709,
      "Ġì¶Ķ": 7710,
      "ãģĪ": 7711,
      "Ø¶": 7712,
      "kim": 7713,
      "Ð´ÐµÐ»": 7714,
      "Ġsala": 7715,
      "Ã¡ria": 7716,
      "à¹īà¸²": 7717,
      "Ġìĥģ": 7718,
      "Ð¶Ðµ": 7719,
      "wat": 7720,
      "Whats": 7721,
      "aysia": 7722,
      "ĠÐ»Ð¸": 7723,
      "ATO": 7724,
      "Ġcrackdown": 7725,
      "Ġheb": 7726,
      "stellen": 7727,
      "ì¤": 7728,
      "von": 7729,
      "Ġdeber": 7730,
      "iÃ¨res": 7731,
      "ĠÐ·Ð°Ðº": 7732,
      "inden": 7733,
      "ĠbÄĻdzie": 7734,
      "Ġspielen": 7735,
      "ĠÑĤÐ¾": 7736,
      "unas": 7737,
      "ĠÐ´Ð¾Ð±Ð°Ð²": 7738,
      "Ġhaber": 7739,
      "ĠmÃ¼": 7740,
      "Ġprendre": 7741,
      "Ġairst": 7742,
      "Ġwelche": 7743,
      "chains": 7744,
      "å¤į": 7745,
      "æīĭæľº": 7746,
      "uger": 7747,
      "ioso": 7748,
      "åįĹ": 7749,
      "Ġharus": 7750,
      "å¿ħ": 7751,
      "Ġbers": 7752,
      "å¡": 7753,
      "Ġsatu": 7754,
      "Äĥng": 7755,
      "Ġwerk": 7756,
      "ãģ¤": 7757,
      "ÙĪØ±": 7758,
      "ĠìĿ¸": 7759,
      "ä¸ŃåĽ½": 7760,
      "Looks": 7761,
      "xin": 7762,
      "gende": 7763,
      "Ġêµ¬": 7764,
      "Ð¸ÑĢÐ¾Ð²": 7765,
      "Ġzar": 7766,
      "Ã³a": 7767,
      "prend": 7768,
      "ĠwÃ¼rde": 7769,
      "ÑĪÐµ": 7770,
      "Ġmau": 7771,
      "Ġvraiment": 7772,
      "Ġpuedes": 7773,
      "Ġgiorn": 7774,
      "Ġbuurt": 7775,
      "Ġpian": 7776,
      "Ġdopo": 7777,
      "Ġtexas": 7778,
      "cum": 7779,
      "è¿ĳ": 7780,
      "Ġora": 7781,
      "Ġdaar": 7782,
      "ampoline": 7783,
      "Ã³r": 7784,
      "esch": 7785,
      "Ð°ÑĢÑĤ": 7786,
      "Ã¼nst": 7787,
      "stub": 7788,
      "Ġrejects": 7789,
      "owied": 7790,
      "Ġintellig": 7791,
      "alten": 7792,
      "ĠbyÄĩ": 7793,
      "Ġenvoy": 7794,
      "åĪ©": 7795,
      "ç§»": 7796,
      "zÄĻ": 7797,
      "zers": 7798,
      "ĠÐºÐ»Ð°ÑģÑģ": 7799,
      "ì¹ĺ": 7800,
      "Ġbic": 7801,
      "Ġcá»§a": 7802,
      "ĠsÃ¼": 7803,
      "æĢ»": 7804,
      "ãĤµ": 7805,
      "Ġmarc": 7806,
      "Ġerh": 7807,
      "Ġitaliano": 7808,
      "apr": 7809,
      "ĠØ³": 7810,
      "Ġjac": 7811,
      "ĠmÃºs": 7812,
      "à¸ŀ": 7813,
      "niej": 7814,
      "é¦ĸ": 7815,
      "Ġjars": 7816,
      "Ġhoch": 7817,
      "Ġìłķë³´": 7818,
      "orea": 7819,
      "Ġrapp": 7820,
      "olÃ³g": 7821,
      "à¤¨": 7822,
      "Ġnoodles": 7823,
      "è¨ĺ": 7824,
      "imin": 7825,
      "ieber": 7826,
      "cke": 7827,
      "Ġtopping": 7828,
      "Ð½Ð¾ÑģÑĤÑĮ": 7829,
      "Ð¾Ñı": 7830,
      "ëŁ¬": 7831,
      "ãĥ¼ãĤ¹": 7832,
      "ëĤĺ": 7833,
      "owej": 7834,
      "Ġluego": 7835,
      "Ð»ÐµÐ½": 7836,
      "ikit": 7837,
      "à¸Ī": 7838,
      "Ġzam": 7839,
      "ÐµÐ»Ð¸": 7840,
      "ãģĦãģ¾ãģĻ": 7841,
      "Ġapa": 7842,
      "idue": 7843,
      "Ġtarde": 7844,
      "è¥¿": 7845,
      "ĠÐ¿Ð¾ÑģÐ»": 7846,
      "Ġíķ´": 7847,
      "åħĪ": 7848,
      "zet": 7849,
      "Ġdni": 7850,
      "gil": 7851,
      "Ġnieuwe": 7852,
      "hei": 7853,
      "ĠKills": 7854,
      "ãĤģ": 7855,
      "Ġspor": 7856,
      "lok": 7857,
      "Ġwyn": 7858,
      "aket": 7859,
      "ĠëĮĢ": 7860,
      "atr": 7861,
      "olie": 7862,
      "á»±": 7863,
      "Äħd": 7864,
      "inya": 7865,
      "Ġtard": 7866,
      "parer": 7867,
      "arseille": 7868,
      "Ġmemes": 7869,
      "anst": 7870,
      "Ġhaut": 7871,
      "prech": 7872,
      "Ġprimo": 7873,
      "Ġrover": 7874,
      "bij": 7875,
      "Ġíķľ": 7876,
      "Ã³j": 7877,
      "Ġthi": 7878,
      "Ġchanger": 7879,
      "blocked": 7880,
      "irim": 7881,
      "ĠuÅ¼y": 7882,
      "ĠÃºltimo": 7883,
      "Ġsamp": 7884,
      "ĠpolÃŃtica": 7885,
      "Ġdaha": 7886,
      "isti": 7887,
      "Ġgaan": 7888,
      "ĠÐ±ÑĭÑĤÑĮ": 7889,
      "Ġwithdrew": 7890,
      "Ã¤nger": 7891,
      "Ð»ÐµÐ½Ð¸Ñı": 7892,
      "Ġkata": 7893,
      "Iran": 7894,
      "íļĮ": 7895,
      "ĠhÃłng": 7896,
      "Ġdernier": 7897,
      "Ġlouder": 7898,
      "ãĤŃ": 7899,
      "altung": 7900,
      "Ġzosta": 7901,
      "arkan": 7902,
      "Ġbanyak": 7903,
      "ĠHezbollah": 7904,
      "quoi": 7905,
      "deaux": 7906,
      "Ġtej": 7907,
      "ĠcÃ´ng": 7908,
      "Ġviolin": 7909,
      "izia": 7910,
      "Ġlondon": 7911,
      "Ġìłľ": 7912,
      "jad": 7913,
      "Ġë§Į": 7914,
      "Ġminha": 7915,
      "ÑĭÑħ": 7916,
      "ÅĤu": 7917,
      "å¦Ĥæŀľ": 7918,
      "vrir": 7919,
      "unu": 7920,
      "ê°Ħ": 7921,
      "Snow": 7922,
      "iego": 7923,
      "Ġcanc": 7924,
      "Ġalarms": 7925,
      "-ci": 7926,
      "jak": 7927,
      "Ġbajo": 7928,
      "burger": 7929,
      "Ġgehen": 7930,
      "Ġbesoin": 7931,
      "ĠmoÅ¼na": 7932,
      "iÄĻ": 7933,
      "ĠnÃ¤ch": 7934,
      "ĠÐ¿Ð°ÑĢ": 7935,
      "Ġresto": 7936,
      "Ġenviar": 7937,
      "Bang": 7938,
      "Ġvolum": 7939,
      "Ġbeneficiary": 7940,
      "Ġurges": 7941,
      "dre": 7942,
      "kas": 7943,
      "ĠaÃ§": 7944,
      "Ġlatin": 7945,
      "åĪ«": 7946,
      "å¹¶": 7947,
      "Ġíģ´": 7948,
      "Ġvog": 7949,
      "iad": 7950,
      "ãģ¿": 7951,
      "ÄĻp": 7952,
      "auss": 7953,
      "Ġtitre": 7954,
      "ãĥ¼ãĥ«": 7955,
      "ë¶Ģ": 7956,
      "Ġguardar": 7957,
      "å¿ĥ": 7958,
      "Ġrussian": 7959,
      "ë¦Ħ": 7960,
      "Ð¸Ð»": 7961,
      "ĠÙħÙĨ": 7962,
      "ë£Į": 7963,
      "ĠkaÅ¼": 7964,
      "fte": 7965,
      "Ġë³´": 7966,
      "villa": 7967,
      "ĠØ£": 7968,
      "æķ´": 7969,
      "Ä±na": 7970,
      "ÑĥÐ±": 7971,
      "Ġdunk": 7972,
      "ĠÄĳÆ°á»£c": 7973,
      "amenti": 7974,
      "quÃ©": 7975,
      "Ġmereka": 7976,
      "arendra": 7977,
      "Ġort": 7978,
      "Ġpemb": 7979,
      "åĽĽ": 7980,
      "ãĤ»": 7981,
      "Ġtomar": 7982,
      "igeria": 7983,
      "Ġë°ĺ": 7984,
      "ocht": 7985,
      "Ð¼Ð¸": 7986,
      "ĠcÃ©": 7987,
      "fait": 7988,
      "usu": 7989,
      "ogi": 7990,
      "Ġfatto": 7991,
      "Ġtua": 7992,
      "ĠMali": 7993,
      "ippines": 7994,
      "Gun": 7995,
      "-feira": 7996,
      "Ġquello": 7997,
      "Ġforte": 7998,
      "Ġwiel": 7999,
      "roz": 8000,
      "wiÄĻ": 8001,
      "ĠthÃłnh": 8002,
      "ëĲĺ": 8003,
      "ziel": 8004,
      "ãĤ¦": 8005,
      "æ¶Īæģ¯": 8006,
      "ãģķãģĦ": 8007,
      "Boston": 8008,
      "å¤´": 8009,
      "Ġunk": 8010,
      "Ġluz": 8011,
      "æĺ¯åĲ¦": 8012,
      "éĤ®": 8013,
      "zimmer": 8014,
      "ãĥ¼ãĥī": 8015,
      "angs": 8016,
      "ĠÑĩÐ¸ÑģÐ»Ð¾": 8017,
      "ĠìŀĪëĬĶ": 8018,
      "ĠìŀĲ": 8019,
      "redi": 8020,
      "Ġmidd": 8021,
      "ĠTray": 8022,
      "åı¸": 8023,
      "Ġfuturo": 8024,
      "liste": 8025,
      "engo": 8026,
      "à¸·à¹Ī": 8027,
      "éĹ¨": 8028,
      "atÃ³rio": 8029,
      "à¤ķ": 8030,
      "uelles": 8031,
      "à¹Īà¸²": 8032,
      "å®¢": 8033,
      "Ġmadrid": 8034,
      "ëĭ¹": 8035,
      "Ġbuena": 8036,
      "Ġëı": 8037,
      "verte": 8038,
      "bao": 8039,
      "ëĵ¤": 8040,
      "akhir": 8041,
      "zeÅĦ": 8042,
      "pun": 8043,
      "Ã®tre": 8044,
      "Ġcen": 8045,
      "Ġcucumber": 8046,
      "ÑģÐº": 8047,
      "elijke": 8048,
      "Ġperk": 8049,
      "mur": 8050,
      "Ġweer": 8051,
      "íĻĺ": 8052,
      "çī¹": 8053,
      "ĠÑģÐµÑĢ": 8054,
      "ê²½": 8055,
      "ierz": 8056,
      "shuffle": 8057,
      "tur": 8058,
      "Ġlavoro": 8059,
      "Ġdepois": 8060,
      "Ø§Ø¯": 8061,
      "Ġfais": 8062,
      "Ġespresso": 8063,
      "Ã¨te": 8064,
      "Ġì¡°": 8065,
      "Ġsá»ĳ": 8066,
      "Ġrendez": 8067,
      "Ġzal": 8068,
      "Ġspre": 8069,
      "Ġreminders": 8070,
      "ĠZimmerman": 8071,
      "ĠgÅĤ": 8072,
      "Ġench": 8073,
      "chu": 8074,
      "çľģ": 8075,
      "Ġameric": 8076,
      "Ġagora": 8077,
      "Ġnell": 8078,
      "Ġkannst": 8079,
      "ãĥĲ": 8080,
      "ìłĦ": 8081,
      "ĠìĦ¤ìłķ": 8082,
      "Ġmeio": 8083,
      "Ġproprio": 8084,
      "ĠkÃ¼": 8085,
      "ãĥĥãĥĪ": 8086,
      "ĠÑģÐ¾Ð¾Ð±Ñī": 8087,
      "ÐµÐ¿": 8088,
      "Ġipt": 8089,
      "ufe": 8090,
      "ÑĥÐº": 8091,
      "íĮ": 8092,
      "Ð»Ð¸ÑĨ": 8093,
      "ĠëĤ´": 8094,
      "Ġsushi": 8095,
      "à¸±à¸Ļ": 8096,
      "ĠmÃ¶chte": 8097,
      "íķĺê¸°": 8098,
      "Ġding": 8099,
      "endir": 8100,
      "ĠASAP": 8101,
      "rebbe": 8102,
      "Ð¸Ð»ÑĮ": 8103,
      "ãģ©": 8104,
      "iosa": 8105,
      "czas": 8106,
      "Ð¸Ñħ": 8107,
      "atoire": 8108,
      "prÃ¼": 8109,
      "Ġpours": 8110,
      "Ġafs": 8111,
      "Ġì§Ģ": 8112,
      "Ġecht": 8113,
      "ëĮĢ": 8114,
      "iete": 8115,
      "ĠÐºÐ¾ÑĢ": 8116,
      "Ġtengo": 8117,
      "ĠãĤ³": 8118,
      "Ġletzten": 8119,
      "Ġpaul": 8120,
      "Ġbeb": 8121,
      "Ġaconte": 8122,
      "Ġgerade": 8123,
      "Ġestamos": 8124,
      "çĶ±": 8125,
      "Ġbert": 8126,
      "arÄ±": 8127,
      "ukkan": 8128,
      "Ġsings": 8129,
      "åĮħ": 8130,
      "ãĥĩ": 8131,
      "hay": 8132,
      "Ġstatt": 8133,
      "ÑģÑĤÐ°Ð½Ð¾Ð²": 8134,
      "ä¸ľ": 8135,
      "Ġbitte": 8136,
      "illez": 8137,
      "Ñį": 8138,
      "Ġkem": 8139,
      "Asian": 8140,
      "Ġpierws": 8141,
      "Ġromant": 8142,
      "ìŀĳ": 8143,
      "Ġeerste": 8144,
      "Ġhuis": 8145,
      "Æ¡n": 8146,
      "ãĥŀ": 8147,
      "Putin": 8148,
      "Ġznaj": 8149,
      "rego": 8150,
      "iap": 8151,
      "Ġprimeira": 8152,
      "Ġcommande": 8153,
      "Ã©rÃ©": 8154,
      "iÄĩ": 8155,
      "rai": 8156,
      "ĠÑįÑĤÐ¾": 8157,
      "amd": 8158,
      "kir": 8159,
      "Prince": 8160,
      "Ġgost": 8161,
      "å½ĵåīį": 8162,
      "hapus": 8163,
      "Ġgrap": 8164,
      "Ġcrist": 8165,
      "ppelin": 8166,
      "Ġgaat": 8167,
      "Ġstellen": 8168,
      "Ġexecutions": 8169,
      "Ġà¤¸": 8170,
      "lÃ©": 8171,
      "Ġìŀĳ": 8172,
      "ĠØŃ": 8173,
      "Ġentend": 8174,
      "Ġfunk": 8175,
      "kur": 8176,
      "Ġbaru": 8177,
      "Ġaggi": 8178,
      "ĠÑģÐº": 8179,
      "åĲ¯": 8180,
      "Ġmij": 8181,
      "Ġì¶Ķê°Ģ": 8182,
      "inem": 8183,
      "ĠÐ¿ÑĢÐ¾Ð²ÐµÑĢ": 8184,
      "jourd": 8185,
      "roit": 8186,
      "ëį": 8187,
      "Ð¸Ð½Ð°": 8188,
      "atak": 8189,
      "Ġbombers": 8190,
      "ĠÐ±ÑĥÐ´ÐµÑĤ": 8191,
      "Ġverifying": 8192,
      "unj": 8193,
      "nero": 8194,
      "ÑĢÐ¾Ð²ÐµÑĢ": 8195,
      "åĮĹäº¬": 8196,
      "Ġmio": 8197,
      "boa": 8198,
      "åĲĳ": 8199,
      "Ġtrong": 8200,
      "ç®Ĺ": 8201,
      "ziaÅĤ": 8202,
      "æ±Ł": 8203,
      "zioni": 8204,
      "Thai": 8205,
      "acje": 8206,
      "Ġhospitalized": 8207,
      "éĩĮ": 8208,
      "Ð¸Ð³": 8209,
      "Ġchaud": 8210,
      "Ġagar": 8211,
      "ìĥ": 8212,
      "ÙĪØ¯": 8213,
      "Ġkrij": 8214,
      "ä»½": 8215,
      "ãĥĶ": 8216,
      "ç§ĳ": 8217,
      "Ġllevar": 8218,
      "zyÄĩ": 8219,
      "Ġvrij": 8220,
      "áº§n": 8221,
      "Ġgusta": 8222,
      "Ġfuera": 8223,
      "Ø£": 8224,
      "Ġhari": 8225,
      "Ġmondo": 8226,
      "Ġcambiar": 8227,
      "æ°ĳ": 8228,
      "isz": 8229,
      "Ġatm": 8230,
      "è£": 8231,
      "Ġbrunch": 8232,
      "Ġsujet": 8233,
      "Ġhanya": 8234,
      "buat": 8235,
      "Ð½Ð¸Ðº": 8236,
      "Ð°Ð¹Ð´": 8237,
      "uhan": 8238,
      "æ²»": 8239,
      "ì¶ľ": 8240,
      "Ġseventy": 8241,
      "Ġbele": 8242,
      "å£°": 8243,
      "ãĤĦ": 8244,
      "Ġsop": 8245,
      "Ġamigo": 8246,
      "Ġhaus": 8247,
      "Ġcinco": 8248,
      "ĠmÃºsica": 8249,
      "éĩįæĸ°": 8250,
      "ãĤ«": 8251,
      "Ġmeld": 8252,
      "rese": 8253,
      "Ġtorino": 8254,
      "Ġsangat": 8255,
      "Ġank": 8256,
      "achsen": 8257,
      "Ġweg": 8258,
      "ĠÐ¸Ð³": 8259,
      "Ġsalle": 8260,
      "ãĤ¹ãĥĪ": 8261,
      "ë¹Ħ": 8262,
      "Ġë¡": 8263,
      "ä»¥ä¸Ĭ": 8264,
      "ngo": 8265,
      "Ġventil": 8266,
      "Ø§Ø¨": 8267,
      "Ġzad": 8268,
      "Ġdonner": 8269,
      "Ġmasa": 8270,
      "dur": 8271,
      "Ġdez": 8272,
      "Ġmadre": 8273,
      "kich": 8274,
      "ĠprÃ³ximo": 8275,
      "ĠÐ¿ÐµÑĢÐµÐ¼": 8276,
      "indre": 8277,
      "Ġjika": 8278,
      "æ²¡": 8279,
      "Ġì¤ĳ": 8280,
      "awaii": 8281,
      "ĠÐ²ÑĭÐ¿": 8282,
      "çľĮ": 8283,
      "Ġë¡ľ": 8284,
      "éĽħ": 8285,
      "ĠÃºltima": 8286,
      "opi": 8287,
      "Ġactivating": 8288,
      "Ġtienes": 8289,
      "annya": 8290,
      "Ġê²ĥ": 8291,
      "Ġmeiner": 8292,
      "æį¢": 8293,
      "Ġmemiliki": 8294,
      "Ġalleen": 8295,
      "á»ī": 8296,
      "Ġbild": 8297,
      "ãģıãģłãģķãģĦ": 8298,
      "ãģĽ": 8299,
      "Ġduas": 8300,
      "éĥ½": 8301,
      "ãĥ¥": 8302,
      "à¹ģ": 8303,
      "ĠArrest": 8304,
      "owi": 8305,
      "Ġjorn": 8306,
      "åºĹ": 8307,
      "Ġschl": 8308,
      "Ã³mo": 8309,
      "ĠÐ·Ð°Ð³": 8310,
      "afs": 8311,
      "Ġgiov": 8312,
      "Ġincontro": 8313,
      "arda": 8314,
      "ãģ§ãĤĤ": 8315,
      "Ġsemaine": 8316,
      "èµ·": 8317,
      "noÅĽÄĩ": 8318,
      "ein": 8319,
      "bz": 8320,
      "rente": 8321,
      "aporan": 8322,
      "dio": 8323,
      "Ġnelle": 8324,
      "itti": 8325,
      "Ġxa": 8326,
      "Ġfilt": 8327,
      "wahl": 8328,
      "Ġhinter": 8329,
      "Ġalguna": 8330,
      "Ġkho": 8331,
      "bright": 8332,
      "Ġzou": 8333,
      "ĠÐ¿ÑĢÐ°Ð²": 8334,
      "âĢļ": 8335,
      "Ġming": 8336,
      "ĠaÃ±": 8337,
      "onden": 8338,
      "æĭī": 8339,
      "ç±³": 8340,
      "à¸°": 8341,
      "Ġyuan": 8342,
      "ĠÐµÐ³Ð¾": 8343,
      "à¤Ĥ": 8344,
      "Ġsecara": 8345,
      "ĠëĲ": 8346,
      "ysz": 8347,
      "tell": 8348,
      "Ġeventos": 8349,
      "Ġlaat": 8350,
      "aniu": 8351,
      "iciar": 8352,
      "æ»": 8353,
      "ĠÐ½Ð°Ñĩ": 8354,
      "ë§Į": 8355,
      "Ġtwee": 8356,
      "à¥ģ": 8357,
      "Ð¾Ð»Ð¾Ð²": 8358,
      "Ġlij": 8359,
      "tam": 8360,
      "Turkey": 8361,
      "vio": 8362,
      "Ġponer": 8363,
      "Ġnuovo": 8364,
      "Ġdong": 8365,
      "sei": 8366,
      "ÙĪÙĦ": 8367,
      "changer": 8368,
      "è¯Ń": 8369,
      "rellas": 8370,
      "Ġvere": 8371,
      "åľŁ": 8372,
      "uais": 8373,
      "Shares": 8374,
      "cych": 8375,
      "Ġzab": 8376,
      "Ġmnie": 8377,
      "Ġìĺ¤": 8378,
      "orsi": 8379,
      "sono": 8380,
      "Ġajust": 8381,
      "çĽ´": 8382,
      "ĠÐ´Ð²": 8383,
      "æ¯ı": 8384,
      "Ġhoje": 8385,
      "Ġverde": 8386,
      "Ġconna": 8387,
      "daq": 8388,
      "Ð¾ÐºÐ°": 8389,
      "ĠÙĬ": 8390,
      "Ä±c": 8391,
      "ç®±": 8392,
      "ĠÑģÐ¿Ð¸ÑģÐ¾Ðº": 8393,
      "Ġmee": 8394,
      "owane": 8395,
      "Ġbombings": 8396,
      "å¾Į": 8397,
      "ÙĬØ©": 8398,
      "Ã«l": 8399,
      "ĠÅ¼yc": 8400,
      "ĠëĤĺ": 8401,
      "Ġê°ľ": 8402,
      "Ġqua": 8403,
      "Ġcloudy": 8404,
      "ĠgÃ©": 8405,
      "ĠÄĳi": 8406,
      "Ġmaintenant": 8407,
      "aktiv": 8408,
      "aar": 8409,
      "kish": 8410,
      "ernes": 8411,
      "ĠÑĤÐ¾Ð»ÑĮÐºÐ¾": 8412,
      "Ġë°°": 8413,
      "åı¯ä»¥": 8414,
      "ulaire": 8415,
      "Ġyak": 8416,
      "Ġsagen": 8417,
      "Ġapril": 8418,
      "Ġgrub": 8419,
      "mek": 8420,
      "Ġalgunas": 8421,
      "Ġstaat": 8422,
      "Ġquelle": 8423,
      "Ġdime": 8424,
      "Ġplaats": 8425,
      "ĠíĻķìĿ¸": 8426,
      "arme": 8427,
      "Ġkadar": 8428,
      "Ġlagi": 8429,
      "favor": 8430,
      "Ġë¹Ħ": 8431,
      "Ġkab": 8432,
      "Ã¨tres": 8433,
      "chÃ©": 8434,
      "esz": 8435,
      "åıĺ": 8436,
      "Ġblasts": 8437,
      "åŁº": 8438,
      "rello": 8439,
      "Ġquoi": 8440,
      "Ġtutte": 8441,
      "Ġponto": 8442,
      "å¾ħ": 8443,
      "Ġcarrot": 8444,
      "ĽĦ": 8445,
      "Australian": 8446,
      "ĠsÅĤ": 8447,
      "ahkan": 8448,
      "Ġcuc": 8449,
      "ĠØ®": 8450,
      "Ġimportantes": 8451,
      "ienie": 8452,
      "ĠaplicaciÃ³n": 8453,
      "ÅĤem": 8454,
      "Ä±ÄŁÄ±": 8455,
      "istes": 8456,
      "Ġíĥ": 8457,
      "berapa": 8458,
      "Ġnoche": 8459,
      "ĠÅĤ": 8460,
      "anian": 8461,
      "Ġpus": 8462,
      "Ġbailout": 8463,
      "Ġbekommen": 8464,
      "Ġaujourd": 8465,
      "Ġbulletin": 8466,
      "Ġmigliori": 8467,
      "ä¹Ł": 8468,
      "ĠschÃ¶n": 8469,
      "heure": 8470,
      "Ġë°©": 8471,
      "dzi": 8472,
      "Ġvak": 8473,
      "kerja": 8474,
      "ingt": 8475,
      "elah": 8476,
      "åħ³éĹŃ": 8477,
      "Ġler": 8478,
      "ĠannÃ©e": 8479,
      "Ġheures": 8480,
      "éĴŁ": 8481,
      "à¸³": 8482,
      "ãĤ¤ãĥ³": 8483,
      "ghi": 8484,
      "ankan": 8485,
      "äºĶ": 8486,
      "Ġwissen": 8487,
      "ëĦ": 8488,
      "ayar": 8489,
      "Ġclaro": 8490,
      "Ġnied": 8491,
      "ĠÐ¿Ð¾Ð¼": 8492,
      "odzi": 8493,
      "ãĤ¸": 8494,
      "uestra": 8495,
      "æľ¨": 8496,
      "ozy": 8497,
      "æīĵ": 8498,
      "zik": 8499,
      "ãģĳ": 8500,
      "Ġcouleur": 8501,
      "Ġszcz": 8502,
      "æ´»": 8503,
      "ĠmÃ¡ximo": 8504,
      "ãĤ¨": 8505,
      "æĴŃ": 8506,
      "Ġflorida": 8507,
      "Ġç§": 8508,
      "eci": 8509,
      "à¸²à¸£": 8510,
      "aroo": 8511,
      "ãģ£ãģ¦": 8512,
      "urar": 8513,
      "Ġhut": 8514,
      "è¯¥": 8515,
      "Ġkla": 8516,
      "hari": 8517,
      "hoe": 8518,
      "ĠÐ½ÑĥÐ¶": 8519,
      "Ġbamb": 8520,
      "Ġcuatro": 8521,
      "ãģ§ãģ¯": 8522,
      "Ġise": 8523,
      "ĠgeÃ§": 8524,
      "è¨ĺäºĭ": 8525,
      "Ġdeste": 8526,
      "igli": 8527,
      "Ġmembuat": 8528,
      "Ġaplik": 8529,
      "icie": 8530,
      "á»Ŀ": 8531,
      "Ġdifficile": 8532,
      "å±ķ": 8533,
      "Ã®t": 8534,
      "ĠmÃŃ": 8535,
      "ìĭĿ": 8536,
      "pert": 8537,
      "Ð½ÑĥÑİ": 8538,
      "Ġclimbs": 8539,
      "akah": 8540,
      "ìĥĿ": 8541,
      "Ġvows": 8542,
      "raison": 8543,
      "bek": 8544,
      "leurs": 8545,
      "ĠvÃ©r": 8546,
      "Ġmusica": 8547,
      "ĠìĤŃìłľ": 8548,
      "ãģĿãĤĮ": 8549,
      "Ġcambi": 8550,
      "Ġurgently": 8551,
      "ĠÐ½ÐµÑĤ": 8552,
      "Ġkitten": 8553,
      "uellement": 8554,
      "zÄħd": 8555,
      "Ġheure": 8556,
      "Ġpob": 8557,
      "ĠÐ¿ÐµÑĢÐ²": 8558,
      "jej": 8559,
      "ÑģÑĤÑĢÐ¾Ð¹": 8560,
      "antas": 8561,
      "Ġpaw": 8562,
      "Ġmiejs": 8563,
      "omba": 8564,
      "attro": 8565,
      "Ġcheque": 8566,
      "Ġscho": 8567,
      "phoon": 8568,
      "ambil": 8569,
      "ãĤı": 8570,
      "icho": 8571,
      "Ġzeit": 8572,
      "è´Ń": 8573,
      "Ġdiferente": 8574,
      "ìĥī": 8575,
      "ĠÙģÙĬ": 8576,
      "ÅŁÄ±": 8577,
      "Ġcade": 8578,
      "Ġgib": 8579,
      "ãģĹãģ¾ãģĻ": 8580,
      "ĠìĹ°": 8581,
      "Äĥm": 8582,
      "ãĥģ": 8583,
      "Ġthu": 8584,
      "æĺŁ": 8585,
      "Sus": 8586,
      "ãĤº": 8587,
      "Ġtys": 8588,
      "Ġneste": 8589,
      "ĠÃ§alÄ±ÅŁ": 8590,
      "Ġsemua": 8591,
      "Ġbist": 8592,
      "ä¸¤": 8593,
      "Pale": 8594,
      "ãĥĭ": 8595,
      "Ġfreund": 8596,
      "Ð¸ÑĢ": 8597,
      "ãĥ¼ãĤ¸": 8598,
      "Ã¡o": 8599,
      "ĠÙĤ": 8600,
      "kraine": 8601,
      "Ġwelt": 8602,
      "ĠÑĢÐ°Ñģ": 8603,
      "åł±": 8604,
      "Ġninety": 8605,
      "ãĤ¤ãĥĪ": 8606,
      "erca": 8607,
      "Ġcena": 8608,
      "Ġpolitique": 8609,
      "çĲĥ": 8610,
      "Ġquelque": 8611,
      "Ð¼Ð¾Ð¶": 8612,
      "cis": 8613,
      "Ġchoses": 8614,
      "ê³µ": 8615,
      "Ġspiel": 8616,
      "Ġbroccoli": 8617,
      "ÐµÐºÑģ": 8618,
      "ĠcÃ¡c": 8619,
      "belum": 8620,
      "Ġquella": 8621,
      "imu": 8622,
      "angi": 8623,
      "YT": 8624,
      "ihanna": 8625,
      "à¤¸": 8626,
      "Ġê°Ļ": 8627,
      "porno": 8628,
      "Ġentrega": 8629,
      "ĠÃºltimos": 8630,
      "Ġexchanging": 8631,
      "kus": 8632,
      "increase": 8633,
      "ĠmÃ¼nchen": 8634,
      "enk": 8635,
      "Ġmies": 8636,
      "Ã¼z": 8637,
      "ãģ¾ãģĹãģŁ": 8638,
      "acak": 8639,
      "éŁ³": 8640,
      "Ð½Ðµ": 8641,
      "Ġsaja": 8642,
      "Ġcolore": 8643,
      "á»Ł": 8644,
      "ÅĽnie": 8645,
      "Ġcalifornia": 8646,
      "ĠSinai": 8647,
      "ÅŁi": 8648,
      "aÄĩ": 8649,
      "æĲľç´¢": 8650,
      "Ġnouvelles": 8651,
      "ë²Ħ": 8652,
      "Ġked": 8653,
      "ĠsarÃł": 8654,
      "praak": 8655,
      "ç«ĭ": 8656,
      "ĠÄĳÃ£": 8657,
      "Ġtofu": 8658,
      "Ġkond": 8659,
      "ĠÐµÑģÑĤÑĮ": 8660,
      "Ġbaik": 8661,
      "ĠìĬ": 8662,
      "Ġstata": 8663,
      "à¤¤": 8664,
      "Ġairstrikes": 8665,
      "Ġfriday": 8666,
      "Ġjapon": 8667,
      "Ġzien": 8668,
      "Ġpaz": 8669,
      "Ġhaya": 8670,
      "ĠheiÃŁ": 8671,
      "Ġmalaysia": 8672,
      "çģ«": 8673,
      "Ġwol": 8674,
      "'elle": 8675,
      "Ä±nÄ±n": 8676,
      "ëªħ": 8677,
      "cip": 8678,
      "ĠÄĳá»ĥ": 8679,
      "onald": 8680,
      "ãĥĳ": 8681,
      "ë¶Ħ": 8682,
      "æ¸ħ": 8683,
      "Ġvriend": 8684,
      "voy": 8685,
      "Ġdici": 8686,
      "Ø¯ÙĬ": 8687,
      "á»įn": 8688,
      "Ħìŀ¬": 8689,
      "ĠrÃ³Å¼": 8690,
      "lama": 8691,
      "Ġtekn": 8692,
      "Ġsve": 8693,
      "Ġgiorno": 8694,
      "ãģ°": 8695,
      "china": 8696,
      "Thousands": 8697,
      "å°±": 8698,
      "Ð¸ÑĩÐµÑģ": 8699,
      "erais": 8700,
      "Ġpog": 8701,
      "Ġald": 8702,
      "Ġilk": 8703,
      "æ²¡æľī": 8704,
      "ĠwiÄĻcej": 8705,
      "ĠTalks": 8706,
      "Æ°Æ¡": 8707,
      "ĠpassÃ©": 8708,
      "Ġvoiture": 8709,
      "ìĻĢ": 8710,
      "à¹īà¸Ńà¸¡": 8711,
      "Ġnehmen": 8712,
      "Ġswims": 8713,
      "æ¡Ī": 8714,
      "Ġpequ": 8715,
      "ÅĤe": 8716,
      "ĠÐ¿Ð¾ÑĤ": 8717,
      "Ġoutra": 8718,
      "ÐµÐ»Ðµ": 8719,
      "Ġpuedo": 8720,
      "ihat": 8721,
      "spiel": 8722,
      "'Ãł": 8723,
      "ìľĦ": 8724,
      "å¹¿": 8725,
      "ìłģ": 8726,
      "ÙĦØ§": 8727,
      "Ġfrat": 8728,
      "cil": 8729,
      "ceu": 8730,
      "íģ¬": 8731,
      "ĠcomeÃ§": 8732,
      "ĠÑĩÑĤÐ¾Ð±Ñĭ": 8733,
      "ç¡®è®¤": 8734,
      "Ġìµľ": 8735,
      "åİĨ": 8736,
      "Ġpracy": 8737,
      "Ġmeinen": 8738,
      "unya": 8739,
      "Ġestoy": 8740,
      "ubah": 8741,
      "Ġminut": 8742,
      "bring": 8743,
      "Ġseventeen": 8744,
      "Ġimpost": 8745,
      "Ġprincipales": 8746,
      "onio": 8747,
      "Ġbarcelona": 8748,
      "æŃ¢": 8749,
      "oord": 8750,
      "ificaÃ§Ã£o": 8751,
      "ungi": 8752,
      "Ġdap": 8753,
      "ĠtrÃªs": 8754,
      "Ġalb": 8755,
      "zoek": 8756,
      "iedy": 8757,
      "ĠbyÅĤ": 8758,
      "ëĵł": 8759,
      "Ġretir": 8760,
      "Ġë°Ķ": 8761,
      "abilir": 8762,
      "haft": 8763,
      "Øº": 8764,
      "Ġkop": 8765,
      "Ð»Ð¾Ð¶": 8766,
      "Ġpct": 8767,
      "Ġenam": 8768,
      "æĻĤéĸĵ": 8769,
      "usta": 8770,
      "Ġuy": 8771,
      "ĠÅĽw": 8772,
      "Ġisl": 8773,
      "Ġboa": 8774,
      "bew": 8775,
      "ĠÐ¸Ð½ÑĦÐ¾ÑĢÐ¼": 8776,
      "ellung": 8777,
      "æĸĩç«ł": 8778,
      "á»įc": 8779,
      "Ã¼gen": 8780,
      "éĺ³": 8781,
      "Ġsunscreen": 8782,
      "Ġsoutheastern": 8783,
      "ĠktÃ³ra": 8784,
      "éĺŁ": 8785,
      "ĠØ¬": 8786,
      "Ġentfer": 8787,
      "ouve": 8788,
      "Ġkolej": 8789,
      "ìĭł": 8790,
      "ÄŁer": 8791,
      "ÑĥÐ¹": 8792,
      "Ġlief": 8793,
      "ĠØ¨Ø§": 8794,
      "lus": 8795,
      "arÃŃa": 8796,
      "Ġjuni": 8797,
      "inesis": 8798,
      "Ġxe": 8799,
      "Ġgermany": 8800,
      "Ġavere": 8801,
      "Ġpouco": 8802,
      "fur": 8803,
      "Ġgep": 8804,
      "Ġtemperatura": 8805,
      "Ġwithdrawing": 8806,
      "ë¥¸": 8807,
      "legg": 8808,
      "åĪĨéĴŁ": 8809,
      "ëĭĪ": 8810,
      "ÐµÐ½Ð¸Ð¸": 8811,
      "Ġzaman": 8812,
      "Ġlanz": 8813,
      "ê¹": 8814,
      "umu": 8815,
      "Ġbelang": 8816,
      "Ð°ÑģÑĤ": 8817,
      "Ġraining": 8818,
      "Ġanak": 8819,
      "ĠGBP": 8820,
      "ĠprÃ¨s": 8821,
      "à¹ĩ": 8822,
      "ê¸Ģ": 8823,
      "Ġì´Ī": 8824,
      "ãĥ¼ãĥĪ": 8825,
      "Ġgrazing": 8826,
      "Ġquale": 8827,
      "kah": 8828,
      "Ġdziew": 8829,
      "rete": 8830,
      "ĠìĹ¬": 8831,
      "à¸±à¸ļ": 8832,
      "ĠìĿ¼": 8833,
      "ÙĦÙī": 8834,
      "à¸·à¸Ń": 8835,
      "Ġë°Ľ": 8836,
      "kop": 8837,
      "ĠÑģÐ¿": 8838,
      "Ġë¦¬ìĬ¤íĬ¸": 8839,
      "Ġà¤ª": 8840,
      "Ġsui": 8841,
      "Ġcola": 8842,
      "Ġsok": 8843,
      "Ø¨Ø±": 8844,
      "evento": 8845,
      "Ġrouge": 8846,
      "Ġlem": 8847,
      "Ġvoz": 8848,
      "Ġsonra": 8849,
      "Ġnovember": 8850,
      "Ġaktual": 8851,
      "ĠalgÃºn": 8852,
      "Ġà¤¹": 8853,
      "ultimo": 8854,
      "Ġprise": 8855,
      "Ġnuit": 8856,
      "Ġviet": 8857,
      "Ġindonesia": 8858,
      "Ġsean": 8859,
      "kÄĻ": 8860,
      "áº¥y": 8861,
      "riere": 8862,
      "Ø«": 8863,
      "Ġlokal": 8864,
      "markt": 8865,
      "ãģĵãĤĮ": 8866,
      "Ġë²Ī": 8867,
      "osci": 8868,
      "midd": 8869,
      "ë©Ķ": 8870,
      "Ġmeisten": 8871,
      "Ð¾ÑģÑĤÐ¸": 8872,
      "Ġdesta": 8873,
      "à¸ľ": 8874,
      "Ġcoz": 8875,
      "coles": 8876,
      "Ġbesar": 8877,
      "Ġslicing": 8878,
      "Ġbeberapa": 8879,
      "Ġfora": 8880,
      "Ø±ÙĪ": 8881,
      "ç§ģ": 8882,
      "à¥įà¤°": 8883,
      "à¸´à¸Ļ": 8884,
      "ìĤ°": 8885,
      "éľĢè¦ģ": 8886,
      "á»ı": 8887,
      "ĠÑĤÐµÐºÑĥÑī": 8888,
      "ĠØ¥": 8889,
      "Ġjap": 8890,
      "Ġkamu": 8891,
      "Ġwithdrawals": 8892,
      "coni": 8893,
      "Ġcalor": 8894,
      "ĠjournÃ©e": 8895,
      "Ġwah": 8896,
      "Ã¤hlen": 8897,
      "åħ¨éĥ¨": 8898,
      "ì§Ħ": 8899,
      "åİ»": 8900,
      "odie": 8901,
      "åįİ": 8902,
      "Ġë¶Ģ": 8903,
      "Ã¡nt": 8904,
      "Ġtidal": 8905,
      "ÐµÑī": 8906,
      "Ġmarzo": 8907,
      "Æ°á»Ŀi": 8908,
      "Ġnuova": 8909,
      "Ä±cÄ±": 8910,
      "ologi": 8911,
      "uste": 8912,
      "Egypt": 8913,
      "Ġaime": 8914,
      "Hong": 8915,
      "Ġgiorni": 8916,
      "Ġitalia": 8917,
      "èı": 8918,
      "Ġláº¡i": 8919,
      "Ġwaktu": 8920,
      "ĠÑĤÑĢ": 8921,
      "ÑĤÑĭ": 8922,
      "Ġeuropean": 8923,
      "isas": 8924,
      "orque": 8925,
      "ĠìļĶ": 8926,
      "Ġpakistan": 8927,
      "Senate": 8928,
      "angkan": 8929,
      "ÃŃd": 8930,
      "à¹Ħà¸¡": 8931,
      "ĠìĿ´ë¦Ħ": 8932,
      "ĠìĦłíĥĿ": 8933,
      "è©±": 8934,
      "wij": 8935,
      "ĠÐ¾ÑĤÐ¿ÑĢÐ°Ð²": 8936,
      "Ġfrying": 8937,
      "çķª": 8938,
      "Ġstad": 8939,
      "ĠvÃło": 8940,
      "à¤ª": 8941,
      "Ġaku": 8942,
      "Ġseasoning": 8943,
      "æĬ¥éģĵ": 8944,
      "çİ¯": 8945,
      "uzu": 8946,
      "å¼ł": 8947,
      "éĸĭ": 8948,
      "à¸ĵ": 8949,
      "Ã©rt": 8950,
      "íĥľ": 8951,
      "Ġseis": 8952,
      "urma": 8953,
      "rijk": 8954,
      "Ġpasa": 8955,
      "Ã¢m": 8956,
      "æĺĵ": 8957,
      "ĠÐ½Ð°Ð¹Ð´": 8958,
      "Ð¾Ð´Ð°": 8959,
      "hani": 8960,
      "Ġë²Ħ": 8961,
      "Ġchambre": 8962,
      "ÑĨÐ°": 8963,
      "Ġsieht": 8964,
      "ĠÐ·Ð°ÐºÐ°Ð·": 8965,
      "Ġspaghetti": 8966,
      "Ġwerde": 8967,
      "Ġnovamente": 8968,
      "ĠÙĥ": 8969,
      "ÃĦ": 8970,
      "Ġfern": 8971,
      "Ġpoj": 8972,
      "Ġcita": 8973,
      "kiem": 8974,
      "'hui": 8975,
      "ilihan": 8976,
      "quelle": 8977,
      "Ġporter": 8978,
      "Saudi": 8979,
      "à¤®": 8980,
      "åĨį": 8981,
      "Ġirgend": 8982,
      "åı¯èĥ½": 8983,
      "Ġabril": 8984,
      "æļ": 8985,
      "ĠMandela": 8986,
      "stinian": 8987,
      "Ġquake": 8988,
      "Ġdever": 8989,
      "spotify": 8990,
      "ĠÐºÐ¾": 8991,
      "Ġatas": 8992,
      "íķĺì§Ģ": 8993,
      "imd": 8994,
      "Ð½Ð¸ÐºÐ°": 8995,
      "æĿ¿": 8996,
      "Ġust": 8997,
      "Ġposto": 8998,
      "ëª©": 8999,
      "Ġbaja": 9000,
      "Ġmoc": 9001,
      "ĠgÃ¼n": 9002,
      "ĠderniÃ¨re": 9003,
      "Ġë³Ģê²½": 9004,
      "Ġvedere": 9005,
      "Ġpizzas": 9006,
      "Ġspotify": 9007,
      "ĠspÃ¤ter": 9008,
      "çĶµè¯Ŀ": 9009,
      "Ġwereld": 9010,
      "chine": 9011,
      "Ġmichael": 9012,
      "Ġingin": 9013,
      "éĢ£": 9014,
      "ÑĮÑİ": 9015,
      "ulares": 9016,
      "çľŁ": 9017,
      "ãĥĿ": 9018,
      "Ġmop": 9019,
      "Ġdiner": 9020,
      "antor": 9021,
      "Ġbols": 9022,
      "Ġpanda": 9023,
      "Pakistan": 9024,
      "ÐµÑģÑĤÐ¸": 9025,
      "sip": 9026,
      "eliminar": 9027,
      "êµ¬": 9028,
      "Ġingest": 9029,
      "Ã¶ren": 9030,
      "ä»Ĭå¹´": 9031,
      "áº¡o": 9032,
      "Ġiets": 9033,
      "Ġpotrze": 9034,
      "Ġtakeaway": 9035,
      "Ġparler": 9036,
      "Ġlyon": 9037,
      "ÑĢÐ°Ð·": 9038,
      "Ã©o": 9039,
      "á»ĥm": 9040,
      "cznie": 9041,
      "ì°": 9042,
      "Ġmusique": 9043,
      "ichern": 9044,
      "Ġoggi": 9045,
      "æµģ": 9046,
      "ĠprÃ©sident": 9047,
      "Ġtussen": 9048,
      "ĠduÅ¼": 9049,
      "Ġhamburger": 9050,
      "Ġeins": 9051,
      "Ġuur": 9052,
      "Ã¹ng": 9053,
      "Ġmeinem": 9054,
      "Ġê°Ģìł¸": 9055,
      "Ġartikel": 9056,
      "Ġtechno": 9057,
      "Ġmeno": 9058,
      "antar": 9059,
      "è§ģ": 9060,
      "ikut": 9061,
      "ç»Ļ": 9062,
      "ãģĵãĤĵãģ«ãģ¡ãģ¯": 9063,
      "Ġqualche": 9064,
      "Ġì»": 9065,
      "ĠÑģÐ»ÑĥÑĩ": 9066,
      "uft": 9067,
      "Ġmaks": 9068,
      "zego": 9069,
      "ÑıÑĤ": 9070,
      "porter": 9071,
      "ëĶĶ": 9072,
      "Ġmamma": 9073,
      "baru": 9074,
      "Ä±sÄ±": 9075,
      "Ġbáº¡n": 9076,
      "Ġdomingo": 9077,
      "wel": 9078,
      "Ġalm": 9079,
      "ãģŁãģł": 9080,
      "Ġblanco": 9081,
      "Ġcocina": 9082,
      "Ġsegundos": 9083,
      "Ġintelig": 9084,
      "ìķ¼": 9085,
      "ÃŃcia": 9086,
      "Ġyok": 9087,
      "Ġpronto": 9088,
      "Ġphoenix": 9089,
      "à¸ģà¸£": 9090,
      "Ġsnowy": 9091,
      "ÐºÐ¾Ð²": 9092,
      "ĠìĦľ": 9093,
      "ãĤª": 9094,
      "wake": 9095,
      "ìľ¼ë©´": 9096,
      "Ġdagen": 9097,
      "ãĥł": 9098,
      "Ġtelevis": 9099,
      "ĠÐ½Ð°Ð¿": 9100,
      "ĠcaÅĤ": 9101,
      "Ä±kl": 9102,
      "Ġtah": 9103,
      "Ġvener": 9104,
      "ĠprÃ³xima": 9105,
      "ĠÃ©c": 9106,
      "ĠÐ¼Ð¾Ð¶Ð½Ð¾": 9107,
      "Ġcomer": 9108,
      "ãĥĵ": 9109,
      "Ġvais": 9110,
      "Ġgore": 9111,
      "anneer": 9112,
      "ĠìĹĲ": 9113,
      "ĠLeast": 9114,
      "polit": 9115,
      "apatkan": 9116,
      "ihn": 9117,
      "ĠÐ¿Ð¾ÑģÐ»ÐµÐ´": 9118,
      "æĢĿ": 9119,
      "è¦ĭ": 9120,
      "Ġì¹": 9121,
      "Ġkaz": 9122,
      "Britain": 9123,
      "Ġstil": 9124,
      "åĭķ": 9125,
      "ÐµÑĢÐ°": 9126,
      "Ã¤hl": 9127,
      "Ġtaco": 9128,
      "æł·": 9129,
      "Ġtanggal": 9130,
      "ĠnÃ¤chsten": 9131,
      "Ġnigeria": 9132,
      "ĠÐ²ÑģÐµÑħ": 9133,
      "Ġbj": 9134,
      "à¸¹à¸¥": 9135,
      "uids": 9136,
      "Ġà¤®": 9137,
      "Ġtrumpet": 9138,
      "niejs": 9139,
      "Ø¯Ùĩ": 9140,
      "Ø§Ø³": 9141,
      "ĠÐ±ÐµÐ·": 9142,
      "Ġraj": 9143,
      "Ġgrac": 9144,
      "ì£¼ìĦ¸ìļĶ": 9145,
      "åį³": 9146,
      "åıª": 9147,
      "Ġquiero": 9148,
      "ĠmÃº": 9149,
      "Bomb": 9150,
      "lÄ±k": 9151,
      "èĢģ": 9152,
      "ĠÐ²ÑĢÐµÐ¼Ñı": 9153,
      "à¤²": 9154,
      "Singapore": 9155,
      "Ġspiele": 9156,
      "amedi": 9157,
      "Ġkeer": 9158,
      "Ø¥": 9159,
      "Ã³nica": 9160,
      "Ġbalk": 9161,
      "Ġalgumas": 9162,
      "ìħĺ": 9163,
      "jadi": 9164,
      "Ġtentang": 9165,
      "Ã¼ler": 9166,
      "ĠØµ": 9167,
      "Ġmá»Ľi": 9168,
      "æī¾": 9169,
      "ê±°": 9170,
      "Ġchicago": 9171,
      "Ġtav": 9172,
      "ĠÐ·Ð°Ð²": 9173,
      "asÄ±": 9174,
      "isci": 9175,
      "alte": 9176,
      "Æ°a": 9177,
      "Ġsunday": 9178,
      "zap": 9179,
      "Ø¸": 9180,
      "ãĥ©ãĥ³": 9181,
      "ĠthÃ´ng": 9182,
      "pizza": 9183,
      "ĠbÄĻdÄħ": 9184,
      "Ġdeutschland": 9185,
      "ethoven": 9186,
      "å°ıæĹ¶": 9187,
      "Ġmoeten": 9188,
      "ĠkÃ¶ln": 9189,
      "porto": 9190,
      "Ä±ÄŁ": 9191,
      "áº¿u": 9192,
      "nio": 9193,
      "Ġxu": 9194,
      "Ġê´Ģ": 9195,
      "ì¡°": 9196,
      "Ġpeny": 9197,
      "Ġnesta": 9198,
      "Ġnajle": 9199,
      "ndern": 9200,
      "ĠgehÃ¶rt": 9201,
      "Ġnga": 9202,
      "Ġpeux": 9203,
      "Ġmonday": 9204,
      "Ġjenis": 9205,
      "Ġentreg": 9206,
      "ĠdoÄŁ": 9207,
      "izzer": 9208,
      "Ġjoe": 9209,
      "ãĥ³ãĤ°": 9210,
      "Ġrefunded": 9211,
      "è¾¾": 9212,
      "bic": 9213,
      "Ġestados": 9214,
      "Ġlaut": 9215,
      "ÙĬØ±": 9216,
      "Ġreverted": 9217,
      "ansa": 9218,
      "Ġguten": 9219,
      "Ġmeilleure": 9220,
      "Ġwashington": 9221,
      "ìļ´": 9222,
      "Ġìĭľìŀĳ": 9223,
      "importe": 9224,
      "apk": 9225,
      "Ġapproves": 9226,
      "Ð½Ð¾Ð¼": 9227,
      "à¸ģà¸²à¸£": 9228,
      "ÑıÑĤÑĮ": 9229,
      "Ġlokale": 9230,
      "ä¾¡": 9231,
      "altet": 9232,
      "à¤¹": 9233,
      "anja": 9234,
      "Ġpeter": 9235,
      "etten": 9236,
      "æ°Ĺ": 9237,
      "íĦ´": 9238,
      "ĠpÅĤ": 9239,
      "çº¦": 9240,
      "ĠãĤĴ": 9241,
      "éĢŁ": 9242,
      "ĠíĽĦ": 9243,
      "werp": 9244,
      "Ġmelhores": 9245,
      "Ã´m": 9246,
      "åģľ": 9247,
      "Ġdiferencia": 9248,
      "ÑĥÐ³": 9249,
      "Ġà¹Ģ": 9250,
      "Ġfeliz": 9251,
      "åįģ": 9252,
      "Ġbevor": 9253,
      "Ġquali": 9254,
      "itag": 9255,
      "Ġtá»«": 9256,
      "Ġessen": 9257,
      "lamp": 9258,
      "Ã³st": 9259,
      "ntag": 9260,
      "Ġmartin": 9261,
      "ĠØ§ÙĦØª": 9262,
      "Ġkhi": 9263,
      "Ġgia": 9264,
      "Ġdispositivo": 9265,
      "Ġíķł": 9266,
      "ĠhÃ¤tte": 9267,
      "Woman": 9268,
      "ĠsÃ¡ch": 9269,
      "ĠìķĪ": 9270,
      "iare": 9271,
      "'Ã©tait": 9272,
      "ÙĬÙĦ": 9273,
      "kiye": 9274,
      "æ¶": 9275,
      "ëĤ´": 9276,
      "quisar": 9277,
      "Ġsotto": 9278,
      "Ġrosa": 9279,
      "Ġê°ĢëĬ¥": 9280,
      "ãĥĬ": 9281,
      "Ġostat": 9282,
      "Ð¾Ð»Ñı": 9283,
      "ä¸ĵ": 9284,
      "Ġstanza": 9285,
      "Ġjim": 9286,
      "eel": 9287,
      "Ġdemasi": 9288,
      "uÃ©": 9289,
      "Ġsebuah": 9290,
      "à¸ĸ": 9291,
      "Ġvenir": 9292,
      "Ġdeducted": 9293,
      "ĠmaÃ±ana": 9294,
      "Ġë§Ī": 9295,
      "Ġnoticias": 9296,
      "ĠìĺĪ": 9297,
      "zac": 9298,
      "Ġflute": 9299,
      "awy": 9300,
      "Ġhablar": 9301,
      "Ġchu": 9302,
      "Ġstrengthens": 9303,
      "Ð°Ð»Ð°": 9304,
      "ĠlanÃ§": 9305,
      "Ø§Ùģ": 9306,
      "itorio": 9307,
      "Ġë°ľ": 9308,
      "Ġkontrol": 9309,
      "ĠÑģÐ°Ð¼": 9310,
      "Ġbanda": 9311,
      "ĠfÃ¼n": 9312,
      "íķ´ìĦľ": 9313,
      "Ġmata": 9314,
      "Ð¸ÑĤÑģÑı": 9315,
      "Ð¾Ð½ÑĤ": 9316,
      "Ġmelod": 9317,
      "pesan": 9318,
      "Ġchopping": 9319,
      "como": 9320,
      "ampilkan": 9321,
      "Ġkali": 9322,
      "éĸ¢": 9323,
      "Ġsemanas": 9324,
      "Ġbella": 9325,
      "éĽ·": 9326,
      "Ġbian": 9327,
      "eczy": 9328,
      "ĠnÃły": 9329,
      "ÌĢ": 9330,
      "æŃ£åľ¨": 9331,
      "Ġãģ®": 9332,
      "Ġjean": 9333,
      "Ġalgum": 9334,
      "Ġcoisa": 9335,
      "Iraq": 9336,
      "contra": 9337,
      "Ð¾Ð±ÑĭÑĤÐ¸": 9338,
      "Ġzach": 9339,
      "Ġdua": 9340,
      "ĠÑĥÑģÐ»": 9341,
      "Ġbais": 9342,
      "ĠcittÃł": 9343,
      "Ġrendre": 9344,
      "Ġdak": 9345,
      "äºĽ": 9346,
      "Ġtert": 9347,
      "Ġprogramma": 9348,
      "ĠëĲĺ": 9349,
      "Ġbola": 9350,
      "Ġaktuellen": 9351,
      "ãģķãĤĵ": 9352,
      "produce": 9353,
      "åĢį": 9354,
      "Ã¼nde": 9355,
      "Ġguarda": 9356,
      "nev": 9357,
      "èªŃ": 9358,
      "Ġtrance": 9359,
      "cosa": 9360,
      "ĠsÃ¡bado": 9361,
      "blings": 9362,
      "á»ķi": 9363,
      "iasi": 9364,
      "æĪĳçļĦ": 9365,
      "æĪĳä»¬": 9366,
      "Ġmike": 9367,
      "Ð°ÑĤÑĮÑģÑı": 9368,
      "è¿ĺ": 9369,
      "ĠÐºÐ¾ÑĤÐ¾ÑĢÑĭÐ¹": 9370,
      "Ġcomida": 9371,
      "Ġbestellen": 9372,
      "iÅŁ": 9373,
      "åıĭ": 9374,
      "Ġsinh": 9375,
      "ë³µ": 9376,
      "Ġletto": 9377,
      "à¸µà¸¢": 9378,
      "ungkin": 9379,
      "Ġskateboard": 9380,
      "ynet": 9381,
      "ĠíļĮ": 9382,
      "Ġconseg": 9383,
      "Ġtapi": 9384,
      "sar": 9385,
      "Israeli": 9386,
      "Ġhoog": 9387,
      "Ġchá»ī": 9388,
      "Ġwykon": 9389,
      "ĠlÃ²ng": 9390,
      "Ġquatre": 9391,
      "Ġkang": 9392,
      "Ġbuiten": 9393,
      "imitÃ©": 9394,
      "ĠserÃ£o": 9395,
      "Ġquotid": 9396,
      "Ġgoede": 9397,
      "ãĥļ": 9398,
      "æĦŁ": 9399,
      "åĵĪ": 9400,
      "Ġcosta": 9401,
      "Ġyeni": 9402,
      "Ø§Ø¡": 9403,
      "Ð¾ÑģÑĮ": 9404,
      "ä½ķ": 9405,
      "crear": 9406,
      "é¢Ħ": 9407,
      "ãĥĢ": 9408,
      "Ġíı¬": 9409,
      "Ġdanh": 9410,
      "Ġê²Į": 9411,
      "Ð´Ðµ": 9412,
      "vais": 9413,
      "å°Ķ": 9414,
      "Ġjouer": 9415,
      "ãģĺ": 9416,
      "Ġnaam": 9417,
      "à¸²à¸": 9418,
      "à¥Ī": 9419,
      "à¥ĩà¤Ĥ": 9420,
      "à¤¾à¤°": 9421,
      "ÙĨØ¯": 9422,
      "Ġà¤¬": 9423,
      "Ġà¤ľ": 9424,
      "à¤Ĺ": 9425,
      "ĠØ¢": 9426,
      "Ġà¤¨": 9427,
      "Ġà¤ħ": 9428,
      "ÑģÑĮ": 9429,
      "Ġà¤µ": 9430,
      "Ġà¤¦": 9431,
      "Ġà¤²": 9432,
      "à¥Ĥ": 9433,
      "à¤¦": 9434,
      "à¸Ńà¸ĩ": 9435,
      "ÙĪÙĨ": 9436,
      "à¤µ": 9437,
      "à¹Ĥ": 9438,
      "Ġà¤°": 9439,
      "à¥įà¤¯": 9440,
      "à¤¾à¤¨": 9441,
      "Ø§Ùĩ": 9442,
      "à¥ĭà¤Ĥ": 9443,
      "à¤¯": 9444,
      "ĠØ¨Ø±": 9445,
      "Ġà¤Ĩ": 9446,
      "à¤¿à¤¯": 9447,
      "Ø±Ø¯": 9448,
      "ÙĬÙĨ": 9449,
      "Ġà¤¤": 9450,
      "ÑĩÐ¸": 9451,
      "Ġà¤ķà¤°": 9452,
      "Ø§Ø²": 9453,
      "Ġà¤ī": 9454,
      "à¤¬": 9455,
      "ØªØ±": 9456,
      "ÙĩØ§": 9457,
      "Ġà¤Ĺ": 9458,
      "à¤ľ": 9459,
      "à¸²à¸Ļ": 9460,
      "Ġà¤Ń": 9461,
      "à¤¿à¤ķ": 9462,
      "à¸²à¸¢": 9463,
      "Ø§ÙĪ": 9464,
      "Ġà¤Ķà¤°": 9465,
      "à¤¡": 9466,
      "Ġà¤ĩ": 9467,
      "à¥įà¤¤": 9468,
      "à¤Ł": 9469,
      "dÄ±": 9470,
      "ĠØ²": 9471,
      "à¸²à¸ĩ": 9472,
      "Ġà¹Ģà¸": 9473,
      "Ø§ÙĬ": 9474,
      "ÑĢÐµ": 9475,
      "åĴ": 9476,
      "Ø§Ø´": 9477,
      "à¤¾à¤²": 9478,
      "ëħĦ": 9479,
      "Ġà¤¯": 9480,
      "ĠØ±Ø§": 9481,
      "à¤¼": 9482,
      "ÑĥÐ²": 9483,
      "ÙĪÙħ": 9484,
      "à¥Īà¤Ĥ": 9485,
      "à¸²à¸¡": 9486,
      "Ġmá»Ļt": 9487,
      "Ġà¤ı": 9488,
      "Ġà¤ªà¤°": 9489,
      "ĠØ§ÙĨ": 9490,
      "Ġvá»Ľi": 9491,
      "à¤ļ": 9492,
      "à¸²à¸ģ": 9493,
[...]
