{
  "version": "1.0",
  "truncation": {
    "direction": "Right",
    "max_length": 128,
    "strategy": "LongestFirst",
    "stride": 0
  },
  "padding": {
    "strategy": "BatchLongest",
    "direction": "Right",
    "pad_to_multiple_of": null,
    "pad_id": 128004,
    "pad_type_id": 0,
    "pad_token": "<|pad|>"
  },
  "added_tokens": [
    {
      "id": 12792,
      "content": "<|begin_of_text|>",
      "single_word": false,
      "lstrip": false,
      "rstrip": false,
      "normalized": false,
      "special": true
    },
    {
      "id": 12793,
      "content": "<|end_of_text|>",
      "single_word": false,
      "lstrip": false,
      "rstrip": false,
      "normalized": false,
      "special": true
    },
    {
      "id": 12794,
      "content": "<|mask|>",
      "single_word": false,
      "lstrip": true,
      "rstrip": false,
      "normalized": false,
      "special": true
    },
    {
      "id": 12795,
      "content": "<|pad|>",
      "single_word": false,
      "lstrip": false,
      "rstrip": false,
      "normalized": false,
      "special": true
    }
  ],
  "normalizer": null,
  "pre_tokenizer": {
    "type": "Sequence",
    "pretokenizers": [
      {
        "type": "Split",
        "pattern": {
          "Regex": "(?i:'s|'t|'re|'ve|'m|'ll|'d)|[^\\r\\n\\p{L}\\p{N}]?\\p{L}+|\\p{N}{1,3}| ?[^\\s\\p{L}\\p{N}]+[\\r\\n]*|\\s*[\\r\\n]+|\\s+(?!\\S)|\\s+"
        },
        "behavior": "Isolated",
        "invert": false
      },
      {
        "type": "ByteLevel",
        "add_prefix_space": false,
        "trim_offsets": true,
        "use_regex": false
      }
    ]
  },
  "post_processor": {
    "type": "Sequence",
    "processors": [
      {
        "type": "ByteLevel",
        "add_prefix_space": true,
        "trim_offsets": false,
        "use_regex": true
      },
      {
        "type": "TemplateProcessing",
        "single": [
          {
            "Sequence": {
              "id": "A",
              "type_id": 0
            }
          },
          {
            "SpecialToken": {
              "id": "<|end_of_text|>",
              "type_id": 0
            }
          }
        ],
        "pair": [
          {
            "Sequence": {
              "id": "A",
              "type_id": 0
            }
          },
          {
            "SpecialToken": {
              "id": "<|begin_of_text|>",
              "type_id": 1
            }
          },
          {
            "Sequence": {
              "id": "B",
              "type_id": 1
            }
          },
          {
            "SpecialToken": {
              "id": "<|end_of_text|>",
              "type_id": 1
            }
          }
        ],
        "special_tokens": {
          "<|begin_of_text|>": {
            "id": "<|begin_of_text|>",
            "ids": [
              12792
            ],
            "tokens": [
              "<|begin_of_text|>"
            ]
          },
          "<|end_of_text|>": {
            "id": "<|end_of_text|>",
            "ids": [
              12793
            ],
            "tokens": [
              "<|end_of_text|>"
            ]
          }
        }
      }
    ]
  },
  "decoder": {
    "type": "ByteLevel",
    "add_prefix_space": true,
    "trim_offsets": true,
    "use_regex": true
  },
  "model": {
    "type": "BPE",
    "dropout": null,
    "unk_token": null,
    "continuing_subword_prefix": null,
    "end_of_word_suffix": null,
    "fuse_unk": false,
    "byte_fallback": false,
    "ignore_merges": true,
    "vocab": {
      "!": 0,
      "\"": 1,
      "#": 2,
      "$": 3,
      "%": 4,
      "&": 5,
      "'": 6,
      "(": 7,
      ")": 8,
      "*": 9,
      "+": 10,
      ",": 11,
      "-": 12,
      ".": 13,
      "/": 14,
      "0": 15,
      "1": 16,
      "2": 17,
      "3": 18,
      "4": 19,
      "5": 20,
      "6": 21,
      "7": 22,
      "8": 23,
      "9": 24,
      ":": 25,
      ";": 26,
      "<": 27,
      "=": 28,
      ">": 29,
      "?": 30,
      "@": 31,
      "A": 32,
      "B": 33,
      "C": 34,
      "D": 35,
      "E": 36,
      "F": 37,
      "G": 38,
      "H": 39,
      "I": 40,
      "J": 41,
      "K": 42,
      "L": 43,
      "M": 44,
      "N": 45,
      "O": 46,
      "P": 47,
      "Q": 48,
      "R": 49,
      "S": 50,
      "T": 51,
      "U": 52,
      "V": 53,
      "W": 54,
      "X": 55,
      "Y": 56,
      "Z": 57,
      "[": 58,
      "\\": 59,
      "]": 60,
      "^": 61,
      "_": 62,
      "`": 63,
      "a": 64,
      "b": 65,
      "c": 66,
      "d": 67,
      "e": 68,
      "f": 69,
      "g": 70,
      "h": 71,
      "i": 72,
      "j": 73,
      "k": 74,
      "l": 75,
      "m": 76,
      "n": 77,
      "o": 78,
      "p": 79,
      "q": 80,
      "r": 81,
      "s": 82,
      "t": 83,
      "u": 84,
      "v": 85,
      "w": 86,
      "x": 87,
      "y": 88,
      "z": 89,
      "{": 90,
      "|": 91,
      "}": 92,
      "~": 93,
      "¡": 94,
      "¢": 95,
      "£": 96,
      "¤": 97,
      "¥": 98,
      "¦": 99,
      "§": 100,
      "¨": 101,
      "©": 102,
      "ª": 103,
      "«": 104,
      "¬": 105,
      "®": 106,
      "¯": 107,
      "°": 108,
      "±": 109,
      "²": 110,
      "³": 111,
      "´": 112,
      "µ": 113,
      "¶": 114,
      "·": 115,
      "¸": 116,
      "¹": 117,
      "º": 118,
      "»": 119,
      "¼": 120,
      "½": 121,
      "¾": 122,
      "¿": 123,
      "À": 124,
      "Á": 125,
      "Â": 126,
      "Ã": 127,
      "Ä": 128,
      "Å": 129,
      "Æ": 130,
      "Ç": 131,
      "È": 132,
      "É": 133,
      "Ê": 134,
      "Ë": 135,
      "Ì": 136,
      "Í": 137,
      "Î": 138,
      "Ï": 139,
      "Ð": 140,
      "Ñ": 141,
      "Ò": 142,
      "Ó": 143,
      "Ô": 144,
      "Õ": 145,
      "Ö": 146,
      "×": 147,
      "Ø": 148,
      "Ù": 149,
      "Ú": 150,
      "Û": 151,
      "Ü": 152,
      "Ý": 153,
      "Þ": 154,
      "ß": 155,
      "à": 156,
      "á": 157,
      "â": 158,
      "ã": 159,
      "ä": 160,
      "å": 161,
      "æ": 162,
      "ç": 163,
      "è": 164,
      "é": 165,
      "ê": 166,
      "ë": 167,
      "ì": 168,
      "í": 169,
      "î": 170,
      "ï": 171,
      "ð": 172,
      "ñ": 173,
      "ò": 174,
      "ó": 175,
      "ô": 176,
      "õ": 177,
      "ö": 178,
      "÷": 179,
      "ø": 180,
      "ù": 181,
      "ú": 182,
      "û": 183,
      "ü": 184,
      "ý": 185,
      "þ": 186,
      "ÿ": 187,
      "Ā": 188,
      "ā": 189,
      "Ă": 190,
      "ă": 191,
      "Ą": 192,
      "ą": 193,
      "Ć": 194,
      "ć": 195,
      "Ĉ": 196,
      "ĉ": 197,
      "Ċ": 198,
      "ċ": 199,
      "Č": 200,
      "č": 201,
      "Ď": 202,
      "ď": 203,
      "Đ": 204,
      "đ": 205,
      "Ē": 206,
      "ē": 207,
      "Ĕ": 208,
      "ĕ": 209,
      "Ė": 210,
      "ė": 211,
      "Ę": 212,
      "ę": 213,
      "Ě": 214,
      "ě": 215,
      "Ĝ": 216,
      "ĝ": 217,
      "Ğ": 218,
      "ğ": 219,
      "Ġ": 220,
      "ġ": 221,
      "Ģ": 222,
      "ģ": 223,
      "Ĥ": 224,
      "ĥ": 225,
      "Ħ": 226,
      "ħ": 227,
      "Ĩ": 228,
      "ĩ": 229,
      "Ī": 230,
      "ī": 231,
      "Ĭ": 232,
      "ĭ": 233,
      "Į": 234,
      "į": 235,
      "İ": 236,
      "ı": 237,
      "Ĳ": 238,
      "ĳ": 239,
      "Ĵ": 240,
      "ĵ": 241,
      "Ķ": 242,
      "ķ": 243,
      "ĸ": 244,
      "Ĺ": 245,
      "ĺ": 246,
      "Ļ": 247,
      "ļ": 248,
      "Ľ": 249,
      "ľ": 250,
      "Ŀ": 251,
      "ŀ": 252,
      "Ł": 253,
      "ł": 254,
      "Ń": 255,
      "in": 256,
      "Ġt": 257,
      "er": 258,
      "on": 259,
      "Ġa": 260,
      "re": 261,
      "at": 262,
      "st": 263,
      "en": 264,
      "or": 265,
      "Ġth": 266,
      "Ġc": 267,
      "le": 268,
      "Ġs": 269,
      "it": 270,
      "an": 271,
      "ar": 272,
      "al": 273,
      "Ġthe": 274,
      "Ġp": 275,
      "Ġf": 276,
      "ou": 277,
      "is": 278,
      "ing": 279,
      "es": 280,
      "Ġw": 281,
      "ion": 282,
      "ed": 283,
      "ic": 284,
      "Ġb": 285,
      "Ġd": 286,
      "et": 287,
      "Ġm": 288,
      "Ġo": 289,
      "ro": 290,
      "as": 291,
      "el": 292,
      "ct": 293,
      "nd": 294,
      "Ġin": 295,
      "Ġh": 296,
      "ent": 297,
      "id": 298,
      "Ġn": 299,
      "am": 300,
      "Ġto": 301,
      "Ġre": 302,
      "--": 303,
      "Ġof": 304,
      "om": 305,
      "im": 306,
      "Ġ(": 307,
      "il": 308,
      "Ġand": 309,
      "ur": 310,
      "se": 311,
      "Ġl": 312,
      "ex": 313,
      "ĠS": 314,
      "ad": 315,
      "Ġ\"": 316,
      "ch": 317,
      "ut": 318,
      "if": 319,
      "em": 320,
      "ol": 321,
      "th": 322,
      "Ġg": 323,
      "ig": 324,
      "iv": 325,
      "ce": 326,
      "od": 327,
      "Ġv": 328,
      "ate": 329,
      "ĠT": 330,
      "ag": 331,
      "ay": 332,
      "ot": 333,
      "us": 334,
      "ĠC": 335,
      "Ġst": 336,
      "ĠI": 337,
      "un": 338,
      "ul": 339,
      "ue": 340,
      "ĠA": 341,
      "ow": 342,
      "Ġ'": 343,
      "ew": 344,
      "Ġ<": 345,
      "ation": 346,
      "Ġfor": 347,
      "ab": 348,
      "ort": 349,
      "um": 350,
      "ame": 351,
      "Ġis": 352,
      "pe": 353,
      "tr": 354,
      "ck": 355,
      "Ġy": 356,
      "ist": 357,
      "he": 358,
      "Ġe": 359,
      "lo": 360,
      "ĠM": 361,
      "Ġbe": 362,
      "ers": 363,
      "Ġon": 364,
      "Ġcon": 365,
      "ap": 366,
      "ub": 367,
      "ĠP": 368,
      "ass": 369,
      "int": 370,
      "ly": 371,
      "urn": 372,
      "Ġ$": 373,
      "av": 374,
      "port": 375,
      "ir": 376,
      "nt": 377,
      "end": 378,
      "Ġde": 379,
      "ith": 380,
      "out": 381,
      "turn": 382,
      "our": 383,
      "lic": 384,
      "res": 385,
      "pt": 386,
      "Ġthis": 387,
      "Ġif": 388,
      "ĠD": 389,
      "ver": 390,
      "age": 391,
      "ĠB": 392,
      "ht": 393,
      "Ġthat": 394,
      "ĠR": 395,
      "Ġit": 396,
      "ess": 397,
      "ĠF": 398,
      "Ġr": 399,
      "os": 400,
      "and": 401,
      "Ġas": 402,
      "ke": 403,
      "rom": 404,
      "con": 405,
      "ĠL": 406,
      "qu": 407,
      "lass": 408,
      "Ġwith": 409,
      "iz": 410,
      "de": 411,
      "ĠN": 412,
      "Ġal": 413,
      "op": 414,
      "up": 415,
      "get": 416,
      "ile": 417,
      "Ġan": 418,
      "ata": 419,
      "ore": 420,
      "ri": 421,
      "Ġpro": 422,
      "ter": 423,
      "ain": 424,
      "ĠW": 425,
      "ĠE": 426,
      "Ġcom": 427,
      "Ġreturn": 428,
      "art": 429,
      "ĠH": 430,
      "ack": 431,
      "Ġor": 432,
      "est": 433,
      "ment": 434,
      "ĠG": 435,
      "able": 436,
      "Ġ-": 437,
      "ine": 438,
      "ill": 439,
      "ind": 440,
      "ere": 441,
      "ity": 442,
      "Ġtr": 443,
      "ult": 444,
      "str": 445,
      "..": 446,
      "Ġyou": 447,
      "pl": 448,
      "Ġnew": 449,
      "Ġj": 450,
      "Ġfrom": 451,
      "Ġex": 452,
      "ĠO": 453,
      "20": 454,
      "oc": 455,
      "Ġse": 456,
      "Ġle": 457,
      ".s": 458,
      "ant": 459,
      "Ġat": 460,
      "ase": 461,
      "Ġch": 462,
      "ave": 463,
      "ang": 464,
      "Ġare": 465,
      "Ġint": 466,
      "âĢĻ": 467,
      "ert": 468,
      "ial": 469,
      "act": 470,
      "ive": 471,
      "ode": 472,
      "ost": 473,
      "Ġclass": 474,
      "Ġnot": 475,
      "og": 476,
      "ord": 477,
      "all": 478,
      "ff": 479,
      "ont": 480,
      "ime": 481,
      "are": 482,
      "ĠU": 483,
      "Ġpr": 484,
      "ies": 485,
      "ize": 486,
      "ure": 487,
      "Ġby": 488,
      "ire": 489,
      "Ġsh": 490,
      "ice": 491,
      "ast": 492,
      "ok": 493,
      "cl": 494,
      "Ġhe": 495,
      "ard": 496,
      ").": 497,
      "iew": 498,
      "Ġwas": 499,
      "ip": 500,
      "this": 501,
      "Ġu": 502,
      "ĠThe": 503,
      "ide": 504,
      "ace": 505,
      "ib": 506,
      "ac": 507,
      "rou": 508,
      "Ġwe": 509,
      "Ġpublic": 510,
      "ak": 511,
      "ve": 512,
      "ath": 513,
      "ust": 514,
      "que": 515,
      "Ġres": 516,
      "'s": 517,
      "Ġk": 518,
      "ans": 519,
      "yst": 520,
      "Ġi": 521,
      "Ġus": 522,
      "pp": 523,
      "10": 524,
      "one": 525,
      "ail": 526,
      "Ġstr": 527,
      "Ġ&": 528,
      "ach": 529,
      "div": 530,
      "ell": 531,
      "Ġhave": 532,
      "ull": 533,
      "pon": 534,
      "ĠJ": 535,
      "ign": 536,
      "St": 537,
      "Ġpl": 538,
      "put": 539,
      "dd": 540,
      "ite": 541,
      "Ġget": 542,
      "ĠâĢ": 543,
      "cc": 544,
      "In": 545,
      "les": 546,
      "ong": 547,
      "ie": 548,
      "Ġcan": 549,
      "ĠV": 550,
      "pr": 551,
      "Ġun": 552,
      "row": 553,
      "ber": 554,
      "Ġdo": 555,
      "ll": 556,
      "Ġel": 557,
      "Ġself": 558,
      "ated": 559,
      "ary": 560,
      "Ġ.": 561,
      "ud": 562,
      "Ġen": 563,
      "te": 564,
      "Ġab": 565,
      "ork": 566,
      "aw": 567,
      "ob": 568,
      "201": 569,
      "app": 570,
      "Ġall": 571,
      "ory": 572,
      "ition": 573,
      "ance": 574,
      "Ġcont": 575,
      "ia": 576,
      "Ġwill": 577,
      "data": 578,
      "Re": 579,
      "ple": 580,
      "Ġyour": 581,
      "Ġout": 582,
      "Ġhas": 583,
      "so": 584,
      "Ġup": 585,
      "Ġdef": 586,
      "Ġbo": 587,
      "ge": 588,
      "per": 589,
      "12": 590,
      "ich": 591,
      "Ġbut": 592,
      "add": 593,
      "quest": 594,
      "ery": 595,
      "ft": 596,
      "ens": 597,
      "ake": 598,
      ".C": 599,
      "Ġgo": 600,
      "Ġfunction": 601,
      "ĠK": 602,
      "ivate": 603,
      "Ġim": 604,
      "Ġset": 605,
      "cri": 606,
      "li": 607,
      ".m": 608,
      "ally": 609,
      "set": 610,
      "ep": 611,
      "âĢĻs": 612,
      "bo": 613,
      "def": 614,
      "Ġme": 615,
      "ec": 616,
      "ĠIn": 617,
      "ph": 618,
      "ence": 619,
      "ink": 620,
      "ug": 621,
      "eth": 622,
      "Ġelse": 623,
      "19": 624,
      "cont": 625,
      "Ġso": 626,
      "Ġlo": 627,
      "pro": 628,
      "ton": 629,
      "ss": 630,
      "own": 631,
      "abel": 632,
      "ous": 633,
      "The": 634,
      "olor": 635,
      "eg": 636,
      "ude": 637,
      "ĠSt": 638,
      "Ġar": 639,
      "ener": 640,
      "ser": 641,
      "11": 642,
      "fer": 643,
      "Ġmore": 644,
      "ations": 645,
      "ents": 646,
      "Ġhis": 647,
      "Ġthey": 648,
      ".S": 649,
      "ĠY": 650,
      "use": 651,
      "ne": 652,
      "ish": 653,
      "io": 654,
      "Ġper": 655,
      "ings": 656,
      "Ġdata": 657,
      "Ġsa": 658,
      "ef": 659,
      "fo": 660,
      "Ġone": 661,
      "eng": 662,
      "Ġdis": 663,
      "Ġname": 664,
      "Ġtrue": 665,
      "led": 666,
      "Ġne": 667,
      "Ġend": 668,
      "32": 669,
      "16": 670,
      "cre": 671,
      "ark": 672,
      "Ex": 673,
      "urre": 674,
      "ange": 675,
      "Ġnull": 676,
      "Ġmy": 677,
      "pan": 678,
      "ator": 679,
      "Ġpre": 680,
      "Ġx": 681,
      "arg": 682,
      "15": 683,
      "ov": 684,
      "Ġtheir": 685,
      "ick": 686,
      "gh": 687,
      "tem": 688,
      "com": 689,
      "Ġid": 690,
      "read": 691,
      "Ġwho": 692,
      "Ġtime": 693,
      "Ġman": 694,
      "ry": 695,
      "rop": 696,
      "vel": 697,
      "ble": 698,
      "Ġwhich": 699,
      "Ġany": 700,
      "Ġfalse": 701,
      "we": 702,
      "Ġvalue": 703,
      "Ġli": 704,
      "gr": 705,
      "Ġno": 706,
      "25": 707,
      ".com": 708,
      "Ġapp": 709,
      "ions": 710,
      "Ġabout": 711,
      "Ġadd": 712,
      "Ġsu": 713,
      "Ġover": 714,
      "000": 715,
      "Ġqu": 716,
      "ca": 717,
      "SE": 718,
      "Ġro": 719,
      "sh": 720,
      "ual": 721,
      "son": 722,
      "new": 723,
      "ern": 724,
      "Ġag": 725,
      "Ġ?": 726,
      "ical": 727,
      "Ġdes": 728,
      "ix": 729,
      "ays": 730,
      "Ġtype": 731,
      "'t": 732,
      "Ġinter": 733,
      "var": 734,
      "Ġpart": 735,
      "30": 736,
      "enc": 737,
      "ra": 738,
      "cho": 739,
      "18": 740,
      "ose": 741,
      "14": 742,
      "Ã©": 743,
      "oll": 744,
      "pos": 745,
      "ng": 746,
      "ates": 747,
      "Ġwork": 748,
      "Ġem": 749,
      "inal": 750,
      "Ġsp": 751,
      "Ġwhen": 752,
      "to": 753,
      "ash": 754,
      "Ġuse": 755,
      "Ġad": 756,
      "ove": 757,
      "atus": 758,
      "rit": 759,
      "Ġoff": 760,
      "Ġother": 761,
      "ms": 762,
      "Ġbeen": 763,
      "Ġte": 764,
      "co": 765,
      "nc": 766,
      "13": 767,
      "Ġ%": 768,
      "ann": 769,
      "ade": 770,
      "100": 771,
      "Ġsup": 772,
      "date": 773,
      "Ġacc": 774,
      "Ġhad": 775,
      "Ġbu": 776,
      "200": 777,
      "ĠRe": 778,
      "Ġwere": 779,
      "Ġfile": 780,
      "Ġwould": 781,
      "ven": 782,
      "iss": 783,
      "Ġour": 784,
      "raw": 785,
      "Ġyear": 786,
      "Ġval": 787,
      "Ġsome": 788,
      "ys": 789,
      "Ġpe": 790,
      "Ġthere": 791,
      "Ġsaid": 792,
      "du": 793,
      "of": 794,
      "line": 795,
      "Ġher": 796,
      "Ġco": 797,
      "Ġcomm": 798,
      "ise": 799,
      "min": 800,
      "ute": 801,
      "Ġass": 802,
      "ask": 803,
      "Ġlike": 804,
      "ody": 805,
      "Ġlet": 806,
      "Ġam": 807,
      "Ġgr": 808,
      "yp": 809,
      "Ġalso": 810,
      "ĠIt": 811,
      "ific": 812,
      "ors": 813,
      "Ġthan": 814,
      "ating": 815,
      "17": 816,
      "ĠThis": 817,
      "ref": 818,
      "roll": 819,
      "Ġjust": 820,
      "Ġresult": 821,
      "ian": 822,
      "Ġthem": 823,
      "der": 824,
      "ule": 825,
      "...": 826,
      "ement": 827,
      "50": 828,
      "ush": 829,
      "ense": 830,
      "arr": 831,
      "Ġinto": 832,
      "amp": 833,
      "ied": 834,
      "ument": 835,
      "wo": 836,
      "als": 837,
      "Ġwhat": 838,
      "anc": 839,
      "Ġpos": 840,
      "ages": 841,
      "Ġsc": 842,
      "ues": 843,
      "Ġlist": 844,
      "Ġcase": 845,
      "Ch": 846,
      "Ġz": 847,
      "let": 848,
      "red": 849,
      "Ġfe": 850,
      "Ġ,": 851,
      "Ġfirst": 852,
      "Ġimport": 853,
      "Ġact": 854,
      "Ġchar": 855,
      "24": 856,
      "ient": 857,
      "cent": 858,
      "lection": 859,
      "Ġonly": 860,
      "mer": 861,
      "Ġ--": 862,
      "Ġop": 863,
      "ank": 864,
      "Ġits": 865,
      "Ġback": 866,
      "Ġneed": 867,
      "Ġcl": 868,
      "Ġsub": 869,
      "Ġla": 870,
      ".\"": 871,
      "Ġstart": 872,
      "ner": 873,
      "ey": 874,
      "Ġent": 875,
      "its": 876,
      "ĠCon": 877,
      "ĠWe": 878,
      "64": 879,
      "ics": 880,
      "Ġunder": 881,
      "Ġreg": 882,
      "Ġthen": 883,
      "reat": 884,
      "ek": 885,
      "ning": 886,
      "Ġmay": 887,
      "und": 888,
      "Ġhow": 889,
      "To": 890,
      "40": 891,
      "Ġpeople": 892,
      ".n": 893,
      "Ġind": 894,
      "ĠHe": 895,
      "ful": 896,
      "ole": 897,
      "Ġshould": 898,
      "ier": 899,
      "ote": 900,
      "Ġtest": 901,
      "Ġbet": 902,
      "bs": 903,
      "ting": 904,
      "Ġmake": 905,
      "Ġafter": 906,
      "define": 907,
      "22": 908,
      "Ġright": 909,
      "day": 910,
      "Ġlong": 911,
      "ĠPro": 912,
      "Ġrem": 913,
      "mp": 914,
      "Ġmin": 915,
      "air": 916,
      "ait": 917,
      "IC": 918,
      "Ġph": 919,
      "Ġfl": 920,
      "br": 921,
      "Ġloc": 922,
      "ins": 923,
      ",\"": 924,
      "Pro": 925,
      "Ġshe": 926,
      "Ġexp": 927,
      "Ġpar": 928,
      "Ġread": 929,
      "Ġrel": 930,
      "Ġform": 931,
      "Ġdr": 932,
      "order": 933,
      "Ġaw": 934,
      "uff": 935,
      "play": 936,
      "Ġwant": 937,
      "az": 938,
      "be": 939,
      "Ġnumber": 940,
      "Ġrequire": 941,
      "60": 942,
      "Ġcol": 943,
      "Ġkey": 944,
      "ember": 945,
      "Ġtwo": 946,
      "Ġwhere": 947,
      "uch": 948,
      "ger": 949,
      "arent": 950,
      "Ġarg": 951,
      "Ġwhile": 952,
      "23": 953,
      "Ġrec": 954,
      "Ġdif": 955,
      "Ġlook": 956,
      "eter": 957,
      "ager": 958,
      "Ġcould": 959,
      "Ġbr": 960,
      "ends": 961,
      "ures": 962,
      "Ġknow": 963,
      "ets": 964,
      "ĠIf": 965,
      "Ġser": 966,
      "Ġfr": 967,
      "Ġhand": 968,
      "Ind": 969,
      "Ġmost": 970,
      "Ġtry": 971,
      "Ġnow": 972,
      "Ġhim": 973,
      "ify": 974,
      "Ġbreak": 975,
      "ren": 976,
      "itt": 977,
      "Ġap": 978,
      "ĠYou": 979,
      "-m": 980,
      "Ġevery": 981,
      "Ð¾": 982,
      "Ġpoint": 983,
      "Ġfil": 984,
      "80": 985,
      "Ġmod": 986,
      "Ġerror": 987,
      "ah": 988,
      "Ġpol": 989,
      "Ġshow": 990,
      "Ġfind": 991,
      "Ð°": 992,
      "enu": 993,
      "Ġcurrent": 994,
      "Ġused": 995,
      "Ġplay": 996,
      "Ġlog": 997,
      "Ġsee": 998,
      "Ġhelp": 999,
      "Ġthese": 1000,
      "Ġpass": 1001,
      "Ġdown": 1002,
      "Ġeven": 1003,
      "ason": 1004,
      "Ġbl": 1005,
      "Ðµ": 1006,
      "Ġob": 1007,
      "Ġitem": 1008,
      "orn": 1009,
      "Ġdon": 1010,
      "Se": 1011,
      "man": 1012,
      "27": 1013,
      "tn": 1014,
      "He": 1015,
      "Ġdid": 1016,
      "wn": 1017,
      "iver": 1018,
      "Ġsm": 1019,
      "Ġthrough": 1020,
      "che": 1021,
      "Ġinv": 1022,
      "Ġes": 1023,
      "ĠNew": 1024,
      "uto": 1025,
      "ler": 1026,
      "Ġlast": 1027,
      "Ġevent": 1028,
      "try": 1029,
      "ily": 1030,
      "ines": 1031,
      "sole": 1032,
      "Ġagain": 1033,
      "Ġhigh": 1034,
      "Ġline": 1035,
      "Ġdoes": 1036,
      "Ġcr": 1037,
      "ars": 1038,
      "28": 1039,
      "Ġtem": 1040,
      "ature": 1041,
      "ister": 1042,
      "Ġbefore": 1043,
      "ale": 1044,
      "Ġbecause": 1045,
      "roid": 1046,
      "ik": 1047,
      "reg": 1048,
      "ĠDe": 1049,
      "Ġstate": 1050,
      "Ġcons": 1051,
      "att": 1052,
      "Ġhere": 1053,
      "ined": 1054,
      "Ġfinal": 1055,
      "Ġdel": 1056,
      "26": 1057,
      "ĠAnd": 1058,
      "Ġrun": 1059,
      "ĠX": 1060,
      "ym": 1061,
      "Ġvery": 1062,
      "ces": 1063,
      "list": 1064,
      "olog": 1065,
      "33": 1066,
      "Ġac": 1067,
      "Ġmon": 1068,
      "Ġway": 1069,
      "Ġcall": 1070,
      "Ġatt": 1071,
      "Ġcal": 1072,
      "vert": 1073,
      "fr": 1074,
      "Ġnum": 1075,
      "aj": 1076,
      "Ġwell": 1077,
      "ĠAs": 1078,
      "Ġyears": 1079,
      "Ġsim": 1080,
      "mon": 1081,
      "29": 1082,
      "Ġview": 1083,
      "Ġpres": 1084,
      "We": 1085,
      "At": 1086,
      "Ġbel": 1087,
      "Ġmany": 1088,
      "21": 1089,
      "Man": 1090,
      "ender": 1091,
      "Ġbeing": 1092,
      "Ġgood": 1093,
      "Ġusing": 1094,
      "ists": 1095,
      "ĠAl": 1096,
      "Ġgu": 1097,
      "config": 1098,
      "time": 1099,
      "Ġrequest": 1100,
      "Ġchild": 1101,
      "Ġparam": 1102,
      "ps": 1103,
      "alk": 1104,
      "by": 1105,
      "Ġperson": 1106,
      "ince": 1107,
      "uf": 1108,
      "AC": 1109,
      "Ġque": 1110,
      "ident": 1111,
      "ott": 1112,
      "less": 1113,
      "Ġexpect": 1114,
      "35": 1115,
      "urs": 1116,
      "Ġprot": 1117,
      "pre": 1118,
      "ma": 1119,
      "Ġsur": 1120,
      "Ġfound": 1121,
      "par": 1122,
      "ains": 1123,
      "Ġpost": 1124,
      "-d": 1125,
      "45": 1126,
      "Ġsl": 1127,
      "Ġsuch": 1128,
      "Ġthink": 1129,
      "Ġdiffer": 1130,
      "qual": 1131,
      "Ġmuch": 1132,
      "uc": 1133,
      "Ġsom": 1134,
      "37": 1135,
      "ãĢĤ": 1136,
      "Ġmed": 1137,
      "org": 1138,
      "ider": 1139,
      "ache": 1140,
      "Ġcheck": 1141,
      "the": 1142,
      "ants": 1143,
      "-c": 1144,
      "Ġopen": 1145,
      "Ġest": 1146,
      "Ġnext": 1147,
      "ÑĤ": 1148,
      "Ã³": 1149,
      "Ġfollow": 1150,
      "Ð¸": 1151,
      "Ġcar": 1152,
      "Ġgame": 1153,
      "Ġpath": 1154,
      "ision": 1155,
      "Ġeach": 1156,
      "Ġav": 1157,
      "Ġsupport": 1158,
      "rem": 1159,
      "Ġown": 1160,
      "Ġcor": 1161,
      "Ġmem": 1162,
      "ience": 1163,
      "search": 1164,
      "Ġsex": 1165,
      "Ġsign": 1166,
      "Ġet": 1167,
      "ĠApp": 1168,
      "Ġthose": 1169,
      "off": 1170,
      "Ġsystem": 1171,
      "Ġbest": 1172,
      "code": 1173,
      "Ġsame": 1174,
      "Ġdi": 1175,
      "uss": 1176,
      "Ġcreate": 1177,
      "fe": 1178,
      "UN": 1179,
      "ats": 1180,
      "Ġmade": 1181,
      "Ġmark": 1182,
      "yn": 1183,
      "Ġgroup": 1184,
      "Ġfin": 1185,
      "Ġworld": 1186,
      "ty": 1187,
      "Ġprocess": 1188,
      "Ġcre": 1189,
      "arn": 1190,
      "ives": 1191,
      "Ġmain": 1192,
      "36": 1193,
      "Ġcolor": 1194,
      "Ġreport": 1195,
      "Ġtake": 1196,
      "rib": 1197,
      "Ġday": 1198,
      "Ġsk": 1199,
      "bers": 1200,
      "Ġcomple": 1201,
      "Ġtop": 1202,
      "Ġfree": 1203,
      "ĠOn": 1204,
      "90": 1205,
      "eta": 1206,
      "Ġaction": 1207,
      "34": 1208,
      "itor": 1209,
      "not": 1210,
      "Ġindex": 1211,
      "her": 1212,
      "On": 1213,
      "mand": 1214,
      "Ġreal": 1215,
      "Ġmax": 1216,
      "land": 1217,
      "Ġbuild": 1218,
      "leg": 1219,
      "Ġmessage": 1220,
      "test": 1221,
      "ivers": 1222,
      "38": 1223,
      "Ġart": 1224,
      "Ġbetween": 1225,
      "ene": 1226,
      "Ã¡": 1227,
      "ten": 1228,
      "oin": 1229,
      "Ġke": 1230,
      "ui": 1231,
      "Ġtable": 1232,
      "sub": 1233,
      "Ġhead": 1234,
      "Ġmust": 1235,
      "Ġorder": 1236,
      "over": 1237,
      "Ġsay": 1238,
      "Ġter": 1239,
      "head": 1240,
      "rg": 1241,
      "Ġproduct": 1242,
      "This": 1243,
      "70": 1244,
      "Ġdouble": 1245,
      "Ġplace": 1246,
      "Ġinformation": 1247,
      "ced": 1248,
      "Ġweek": 1249,
      "place": 1250,
      "ĠAll": 1251,
      "els": 1252,
      "ĠTo": 1253,
      "Sh": 1254,
      "come": 1255,
      "Ġsw": 1256,
      "ization": 1257,
      "bl": 1258,
      "Ġprogram": 1259,
      "ape": 1260,
      "check": 1261,
      "Ġund": 1262,
      "75": 1263,
      "ags": 1264,
      "Ġresponse": 1265,
      "US": 1266,
      "Ġcode": 1267,
      "Ġwithout": 1268,
      "Ġsol": 1269,
      "akes": 1270,
      "44": 1271,
      "ĠSo": 1272,
      "Ġstill": 1273,
      "med": 1274,
      "Ġcap": 1275,
      "Ġrep": 1276,
      "ved": 1277,
      ".N": 1278,
      "Ġfield": 1279,
      "oto": 1280,
      "col": 1281,
      "Ġcour": 1282,
      "An": 1283,
      "Ġteam": 1284,
      "55": 1285,
      "Ġsecond": 1286,
      "Ġgoing": 1287,
      "39": 1288,
      "Ġfam": 1289,
      "Ġfact": 1290,
      "31": 1291,
      "Al": 1292,
      "Ġandroid": 1293,
      "Ð½": 1294,
      "ond": 1295,
      "Ġret": 1296,
      "Ġhome": 1297,
      "Ġleft": 1298,
      "Ġdirect": 1299,
      "As": 1300,
      "ret": 1301,
      "ado": 1302,
      "ee": 1303,
      "It": 1304,
      "oute": 1305,
      "Ġallow": 1306,
      "ai": 1307,
      "ane": 1308,
      "no": 1309,
      "sp": 1310,
      "Ġdifferent": 1311,
      "ĠIs": 1312,
      "Ġca": 1313,
      "Ġaround": 1314,
      "Ġreally": 1315,
      "Ġdep": 1316,
      "tra": 1317,
      "ital": 1318,
      "Ġboth": 1319,
      "arm": 1320,
      "Ġput": 1321,
      "ÑĢ": 1322,
      "ung": 1323,
      "Ġlevel": 1324,
      "Ġconfig": 1325,
      "Ġdocument": 1326,
      "ux": 1327,
      "post": 1328,
      "Ġlocal": 1329,
      "ina": 1330,
      "Ġcontent": 1331,
      "ric": 1332,
      "Ġfa": 1333,
      "Ġquest": 1334,
      "Ġposs": 1335,
      "66": 1336,
      "Ġtoo": 1337,
      "Ġgreat": 1338,
      "Ñģ": 1339,
      "ron": 1340,
      "oy": 1341,
      "Ġmonth": 1342,
      "Ġsuper": 1343,
      "bar": 1344,
      "Ġtitle": 1345,
      "oh": 1346,
      "-p": 1347,
      "Ġmet": 1348,
      "Ġlife": 1349,
      "ĠUS": 1350,
      "sw": 1351,
      "Ġcatch": 1352,
      "Ġpay": 1353,
      "Ġchange": 1354,
      "'re": 1355,
      "los": 1356,
      "Ã¤": 1357,
      "ĠNo": 1358,
      "Ġposition": 1359,
      "Ġold": 1360,
      "Ġbook": 1361,
      "Ġversion": 1362,
      "Ġthree": 1363,
      "init": 1364,
      "ero": 1365,
      "Ġlaw": 1366,
      "Ġbase": 1367,
      "Ġduring": 1368,
      "tes": 1369,
      "Ġspe": 1370,
      "ves": 1371,
      "Ġagainst": 1372,
      "cur": 1373,
      "With": 1374,
      "Ġpower": 1375,
      "ium": 1376,
      "ĠIm": 1377,
      "ese": 1378,
      "ique": 1379,
      "erg": 1380,
      "ĠThey": 1381,
      "ons": 1382,
      "-t": 1383,
      "sc": 1384,
      "Ã¼": 1385,
      "Ġsuccess": 1386,
      "ram": 1387,
      "ched": 1388,
      "Ġdate": 1389,
      "ification": 1390,
      "Ġtri": 1391,
      "chem": 1392,
      "my": 1393,
      "Ġbig": 1394,
      "ĠAt": 1395,
      "era": 1396,
      "Ġpop": 1397,
      "Ġfew": 1398,
      "Ġlen": 1399,
      "ÃŃ": 1400,
      "Ġdem": 1401,
      "Ġmatch": 1402,
      "49": 1403,
      "Ġanother": 1404,
      "Ġsit": 1405,
      "Ġcare": 1406,
      "Ġeffect": 1407,
      "ending": 1408,
      "For": 1409,
      "ior": 1410,
      "Ġfun": 1411,
      "start": 1412,
      "Ġleg": 1413,
      "Ġservice": 1414,
      "Ġsince": 1415,
      "Ġnon": 1416,
      "Ġlos": 1417,
      "Ġfull": 1418,
      "board": 1419,
      "Ġturn": 1420,
      "Ġbody": 1421,
      "199": 1422,
      "pi": 1423,
      "Ġsomething": 1424,
      "Ġstand": 1425,
      "Ġavailable": 1426,
      "mt": 1427,
      "Ġblock": 1428,
      "Ġkeep": 1429,
      "open": 1430,
      "Ġthings": 1431,
      "Ġred": 1432,
      "js": 1433,
      "Ġcontrol": 1434,
      "Ġcome": 1435,
      "Ġsource": 1436,
      "odes": 1437,
      "Ġmill": 1438,
      "Ġask": 1439,
      "Ġemail": 1440,
      "47": 1441,
      "Ġdisc": 1442,
      "Ġbusiness": 1443,
      "ta": 1444,
      "field": 1445,
      "Ġrequired": 1446,
      "500": 1447,
      ".,": 1448,
      "ts": 1449,
      "af": 1450,
      "Ġmight": 1451,
      "Ġnever": 1452,
      "ada": 1453,
      "ĠHow": 1454,
      "Ġhard": 1455,
      "Ġintern": 1456,
      "mod": 1457,
      "Ġcalled": 1458,
      "Ġcho": 1459,
      "ird": 1460,
      "Ġoptions": 1461,
      "You": 1462,
      "ety": 1463,
      "Ġsmall": 1464,
      "Ġaccess": 1465,
      "Ġjob": 1466,
      "ĠThere": 1467,
      "Ġaddress": 1468,
      "Not": 1469,
      "oo": 1470,
      "atur": 1471,
      "Ġlittle": 1472,
      "Ġfri": 1473,
      "Ġport": 1474,
      "eh": 1475,
      "Ġstatus": 1476,
      "aim": 1477,
      "Ġos": 1478,
      "Ġupdate": 1479,
      "aff": 1480,
      "95": 1481,
      "Ġlink": 1482,
      "me": 1483,
      "Ġgiven": 1484,
      "Ġbetter": 1485,
      "Ġfeel": 1486,
      "enn": 1487,
      "Ġalready": 1488,
      "Ġincluding": 1489,
      "ru": 1490,
      "outer": 1491,
      "Ġalways": 1492,
      "If": 1493,
      "vis": 1494,
      "Ġgot": 1495,
      "Ġless": 1496,
      "Ġaccount": 1497,
      "Ġder": 1498,
      "Ġlot": 1499,
      "Ġbit": 1500,
      "Ġfollowing": 1501,
      "Ġsure": 1502,
      "Ġprom": 1503,
      "Ġsearch": 1504,
      "ken": 1505,
      "Ġer": 1506,
      "aut": 1507,
      "ling": 1508,
      "bed": 1509,
      "46": 1510,
      "Ġsays": 1511,
      "Ġtemp": 1512,
      "Ġrest": 1513,
      "Ġperform": 1514,
      "Ġver": 1515,
      "lib": 1516,
      "77": 1517,
      "Ġdie": 1518,
      "Ġsite": 1519,
      "No": 1520,
      "acy": 1521,
      "rec": 1522,
      "Ġwon": 1523,
      "Ġvideo": 1524,
      "adi": 1525,
      "Ġgl": 1526,
      "'m": 1527,
      "Ġcert": 1528,
      "Ġcell": 1529,
      "ari": 1530,
      "Ġplayer": 1531,
      "ais": 1532,
      "Ġcost": 1533,
      "Ġhum": 1534,
      "ks": 1535,
      "Ġtotal": 1536,
      "ope": 1537,
      "Ġstat": 1538,
      "Ġclear": 1539,
      "uro": 1540,
      "Ġtechn": 1541,
      "Ġrow": 1542,
      "Ġseem": 1543,
      "Ġshort": 1544,
      "ĠNot": 1545,
      "Ġcompany": 1546,
      "Ġdone": 1547,
      "Ġhealth": 1548,
      "ĠBe": 1549,
      "status": 1550,
      "inc": 1551,
      "Ġchildren": 1552,
      "Ġcur": 1553,
      "Ġdays": 1554,
      "-l": 1555,
      "irm": 1556,
      "omb": 1557,
      "Ġonline": 1558,
      "au": 1559,
      "ĠFr": 1560,
      "where": 1561,
      "Ġorgan": 1562,
      "Ġreason": 1563,
      "Ġwithin": 1564,
      "Ġdesign": 1565,
      "une": 1566,
      "Ġcent": 1567,
      "Ġarr": 1568,
      "len": 1569,
      "Ġbro": 1570,
      "Ġschool": 1571,
      "ava": 1572,
      "42": 1573,
      "Ġeng": 1574,
      "Ġinclude": 1575,
      "ĠDr": 1576,
      "!!": 1577,
      "side": 1578,
      "Ġann": 1579,
      "Ġstop": 1580,
      "Ġlater": 1581,
      "Ġclient": 1582,
      "raft": 1583,
      "Ġlove": 1584,
      "oud": 1585,
      "Ġable": 1586,
      "Ġmen": 1587,
      "Ã¶": 1588,
      "Ġgive": 1589,
      "amb": 1590,
      "ike": 1591,
      "Ġcondition": 1592,
      "Ġcopy": 1593,
      "ĠCan": 1594,
      "do": 1595,
      "ze": 1596,
      "Ġeither": 1597,
      "Ġimportant": 1598,
      "Ġlead": 1599,
      "Ġda": 1600,
      "Ġfamily": 1601,
      "Ġoption": 1602,
      "Ġexist": 1603,
      "ica": 1604,
      "'ve": 1605,
      "vers": 1606,
      "Ġoffer": 1607,
      "Ġwater": 1608,
      "Ġche": 1609,
      "ĠMy": 1610,
      "Ġstep": 1611,
      "ances": 1612,
      "300": 1613,
      "active": 1614,
      "ama": 1615,
      "product": 1616,
      "Ġgovernment": 1617,
      "ĠID": 1618,
      "And": 1619,
      "Ð»": 1620,
      "Ġtimes": 1621,
      "Ġfour": 1622,
      "Ġfar": 1623,
      "Ġpresent": 1624,
      "uest": 1625,
      "Ġbas": 1626,
      "ifier": 1627,
      "Ġlib": 1628,
      "Ġroom": 1629,
      "Ġonce": 1630,
      "Ġresults": 1631,
      "Ġcontinue": 1632,
      "Ġtalk": 1633,
      "eb": 1634,
      "ols": 1635,
      "Ġmass": 1636,
      "Ġmean": 1637,
      "Ġuntil": 1638,
      "Ġmarket": 1639,
      "Ġarea": 1640,
      "uit": 1641,
      "Ġlength": 1642,
      "Ġmus": 1643,
      "Ġkind": 1644,
      "mb": 1645,
      "41": 1646,
      "Ġlight": 1647,
      "uk": 1648,
      "ohn": 1649,
      "Ġside": 1650,
      "Ġcamp": 1651,
      "way": 1652,
      "Ġbased": 1653,
      "Ġplan": 1654,
      "unk": 1655,
      "Ġaway": 1656,
      "iod": 1657,
      "Ã§": 1658,
      "izer": 1659,
      "ĠUp": 1660,
      "Ġnear": 1661,
      "alt": 1662,
      "Ġcountry": 1663,
      "Ġauthor": 1664,
      "Ġspecific": 1665,
      "ones": 1666,
      "ĠDo": 1667,
      "Ġalong": 1668,
      "Ġexpress": 1669,
      "env": 1670,
      "Ġbegin": 1671,
      "Ġsoftware": 1672,
      "Ġimp": 1673,
      "Ġwin": 1674,
      "Ã³n": 1675,
      "Ġthing": 1676,
      "Trans": 1677,
      "ĠTHE": 1678,
      "Ġwhy": 1679,
      "Ġdoesn": 1680,
      "ij": 1681,
      "Ġsingle": 1682,
      "ley": 1683,
      "create": 1684,
      "isk": 1685,
      "Ġrights": 1686,
      "Ġpo": 1687,
      "Ġant": 1688,
      "ĠWhen": 1689,
      "Ġwomen": 1690,
      "Ġdest": 1691,
      "Ã£": 1692,
      "Ġpossible": 1693,
      "Ġdidn": 1694,
      "Ġsent": 1695,
      "Ġenc": 1696,
      "Ġcommand": 1697,
      "Ġrecent": 1698,
      "ĠMay": 1699,
      "Ġmoney": 1700,
      "Ġtold": 1701,
      "current": 1702,
      "Ġauto": 1703,
      "ĠState": 1704,
      "da": 1705,
      "Ġworking": 1706,
      "Ġwindow": 1707,
      "Ġleast": 1708,
      "agn": 1709,
      "ĠGeneral": 1710,
      "Ġrecord": 1711,
      "Ġdat": 1712,
      "Ġmaking": 1713,
      "ued": 1714,
      "emp": 1715,
      "\".": 1716,
      "Ġclose": 1717,
      "Ġpercent": 1718,
      "Ġpast": 1719,
      "Ġmove": 1720,
      "Ġpat": 1721,
      "Ġvi": 1722,
      "'ll": 1723,
      "Ġspecial": 1724,
      "Ġcity": 1725,
      "ario": 1726,
      "Ġtell": 1727,
      "esc": 1728,
      "Ġfont": 1729,
      "ĠAm": 1730,
      "Ġcourse": 1731,
      "Ġlate": 1732,
      "43": 1733,
      "Ġamount": 1734,
      "ino": 1735,
      "Ġì": 1736,
      "andle": 1737,
      "Ġben": 1738,
      "Ġenough": 1739,
      "now": 1740,
      "Ġlooking": 1741,
      "Ġhold": 1742,
      "vo": 1743,
      "ison": 1744,
      "yc": 1745,
      "Ġpot": 1746,
      "go": 1747,
      "Ġlow": 1748,
      "Ġpara": 1749,
      "Ġprice": 1750,
      "Ġtoday": 1751,
      "Ġpolit": 1752,
      "Ġ''": 1753,
      "Ġattack": 1754,
      "ana": 1755,
      "Ġmeans": 1756,
      "Ġstory": 1757,
      "Ġmeet": 1758,
      "Ġmom": 1759,
      "Ġden": 1760,
      "change": 1761,
      "ici": 1762,
      "na": 1763,
      "Ġsort": 1764,
      "pare": 1765,
      "Ġthought": 1766,
      "umer": 1767,
      "Ġdet": 1768,
      "Ġreview": 1769,
      "Ġswitch": 1770,
      "Ġabove": 1771,
      "56": 1772,
      "Ġquestion": 1773,
      "gle": 1774,
      "Ġword": 1775,
      "Ġprovide": 1776,
      "Ġresearch": 1777,
      "Ã£o": 1778,
      "Ġcover": 1779,
      "ĠIS": 1780,
      "Ġwhether": 1781,
      "Ġhaving": 1782,
      "lem": 1783,
      "ney": 1784,
      "show": 1785,
      "lev": 1786,
      "ades": 1787,
      "ause": 1788,
      "Ġfre": 1789,
      "Ġlarge": 1790,
      "ral": 1791,
      "Ġfac": 1792,
      "ias": 1793,
      "top": 1794,
      "Ġweb": 1795,
      "Ġdev": 1796,
      "Ġdeal": 1797,
      "Ġproblem": 1798,
      "Ġpress": 1799,
      "Ġthough": 1800,
      "Ġpoints": 1801,
      "Ġever": 1802,
      "Ġservices": 1803,
      "Ġactually": 1804,
      "Ġmillion": 1805,
      "Ġconc": 1806,
      "ios": 1807,
      "Ġunderstand": 1808,
      "Ġhappen": 1809,
      "ĠCo": 1810,
      "Ġles": 1811,
      "Ġoften": 1812,
      "Ġinfo": 1813,
      "ony": 1814,
      "Ġspace": 1815,
      "umb": 1816,
      "Ġpassword": 1817,
      "Ġstore": 1818,
      "ĠWhat": 1819,
      "most": 1820,
      "sm": 1821,
      "New": 1822,
      "Ġdetails": 1823,
      "Ġprob": 1824,
      "Ġface": 1825,
      "Ġsave": 1826,
      "dev": 1827,
      "Ġitems": 1828,
      "Ġsocial": 1829,
      "ien": 1830,
      "Ġmar": 1831,
      "Ġmajor": 1832,
      "Ġexpected": 1833,
      "Ġyet": 1834,
      "Ġfood": 1835,
      "ites": 1836,
      "Ġmembers": 1837,
      "Ġcomb": 1838,
      "Ġbar": 1839,
      "comm": 1840,
      "Ġsend": 1841,
      "Ġinc": 1842,
      "apping": 1843,
      "ros": 1844,
      "fa": 1845,
      "Ġbecome": 1846,
      "ĠUnited": 1847,
      "fully": 1848,
      "Ġmakes": 1849,
      "Ġglobal": 1850,
      "Ġcontact": 1851,
      "Ġcertain": 1852,
      "iÃ³n": 1853,
      "iles": 1854,
      "oss": 1855,
      "ilit": 1856,
      "ster": 1857,
      "Ġnews": 1858,
      "Ġdevice": 1859,
      "cel": 1860,
      "Ġprevious": 1861,
      "Ġbelow": 1862,
      "Ġmedia": 1863,
      "Ġfail": 1864,
      "Ġblack": 1865,
      "ĠAmerican": 1866,
      "Ġadded": 1867,
      "Ġbuy": 1868,
      "Ġcame": 1869,
      "Ġdelete": 1870,
      "Ġcard": 1871,
      "Ġgetting": 1872,
      "Ġclaim": 1873,
      "Ġair": 1874,
      "ops": 1875,
      "ements": 1876,
      "Ġenter": 1877,
      "Ġlocation": 1878,
      "Ġnight": 1879,
      "Ġdoing": 1880,
      "ĠRed": 1881,
      "lin": 1882,
      "Ġpick": 1883,
      "Ġwatch": 1884,
      "Ġhuman": 1885,
      "Ġtax": 1886,
      "Ġgirl": 1887,
      "Ġbox": 1888,
      "Ġstrong": 1889,
      "rel": 1890,
      "Ġhouse": 1891,
      "Ġtrack": 1892,
      "je": 1893,
      "ĠJohn": 1894,
      "Ġce": 1895,
      "Ġapplication": 1896,
      "any": 1897,
      "Ñĥ": 1898,
      "Ġwait": 1899,
      "ĠÃł": 1900,
      "Ġtogether": 1901,
      "Ġterms": 1902,
      "-r": 1903,
      "Ġapply": 1904,
      "Ġothers": 1905,
      "Ġfund": 1906,
      "Ġseveral": 1907,
      "ii": 1908,
      "Ġil": 1909,
      "main": 1910,
      "elt": 1911,
      "ĠUniversity": 1912,
      "cer": 1913,
      "ales": 1914,
      "Ġsubject": 1915,
      "ny": 1916,
      "Ġesc": 1917,
      "What": 1918,
      "Ġhistory": 1919,
      "Ġdu": 1920,
      "unt": 1921,
      "Ġmot": 1922,
      "Ġfuture": 1923,
      "Ġstarted": 1924,
      "Ġmode": 1925,
      "ires": 1926,
      "There": 1927,
      "Ġtook": 1928,
      "Ġgames": 1929,
      "Ġproducts": 1930,
      "Is": 1931,
      "Ġbad": 1932,
      "Ġneeds": 1933,
      "Ġknown": 1934,
      "Ġseen": 1935,
      "51": 1936,
      "ume": 1937,
      "Ġborder": 1938,
      "Ġlive": 1939,
      "temp": 1940,
      "iet": 1941,
      "Ġge": 1942,
      "eme": 1943,
      "Ġprovided": 1944,
      "Ġhope": 1945,
      "uly": 1946,
      "find": 1947,
      "Ġyoung": 1948,
      "ional": 1949,
      "Ġstudy": 1950,
      "ili": 1951,
      "Ġnetwork": 1952,
      "yl": 1953,
      "rest": 1954,
      "Ġlimit": 1955,
      "Ġcut": 1956,
      "Ġcou": 1957,
      "ival": 1958,
      "Ġwent": 1959,
      "Ġfire": 1960,
      "Ġacross": 1961,
      "Ġcommunity": 1962,
      "Ġofficial": 1963,
      "Ġvisit": 1964,
      "Ġreceived": 1965,
      "Ġmonths": 1966,
      "Ġanim": 1967,
      "ico": 1968,
      "ĠÃ©": 1969,
      "ball": 1970,
      "One": 1971,
      "pha": 1972,
      "fort": 1973,
      "Ġmind": 1974,
      "Ġcomment": 1975,
      "But": 1976,
      "ĠEl": 1977,
      "mark": 1978,
      "amic": 1979,
      "uel": 1980,
      "anger": 1981,
      "Ġbackground": 1982,
      "Ġseries": 1983,
      "52": 1984,
      "Ġhot": 1985,
      "Ġbill": 1986,
      "Ġframe": 1987,
      "Ġcomes": 1988,
      "pected": 1989,
      "Ġremove": 1990,
      "met": 1991,
      "Ġfront": 1992,
      "Ġvo": 1993,
      "uy": 1994,
      "Ġdig": 1995,
      "hr": 1996,
      "Ġgen": 1997,
      "vec": 1998,
      "Ġste": 1999,
      "Ġselected": 2000,
      "Ġaccording": 2001,
      "rag": 2002,
      "Ġactiv": 2003,
      "Ġvirtual": 2004,
      "aur": 2005,
      "Ġanything": 2006,
      "Ġhours": 2007,
      "Ġwar": 2008,
      "aging": 2009,
      "ams": 2010,
      "Ġearly": 2011,
      "86": 2012,
      "Ġcenter": 2013,
      "Ġago": 2014,
      "Ġstudents": 2015,
      "Ġdue": 2016,
      "Ġpor": 2017,
      "Ġcannot": 2018,
      "Ġwhite": 2019,
      "Ġperiod": 2020,
      "Ġscreen": 2021,
      "'d": 2022,
      "Ġnet": 2023,
      "ĠStates": 2024,
      "ĠNOT": 2025,
      "Ġneg": 2026,
      "Ġcommon": 2027,
      "ges": 2028,
      "Ġaccept": 2029,
      "Ġrandom": 2030,
      "Ġhit": 2031,
      "ria": 2032,
      "atal": 2033,
      "Ġplayers": 2034,
      "Ġamong": 2035,
      "Ġdeb": 2036,
      "ha": 2037,
      "Ġanswer": 2038,
      "Ġwalk": 2039,
      "Ġage": 2040,
      "Ñı": 2041,
      "Ġfive": 2042,
      "53": 2043,
      "Ġfriend": 2044,
      "Ġclean": 2045,
      "ows": 2046,
      "dis": 2047,
      "Ġwords": 2048,
      "zy": 2049,
      "Ġtre": 2050,
      "last": 2051,
      "la": 2052,
      "ĠYork": 2053,
      "Ġdiscuss": 2054,
      "ĠGod": 2055,
      "Ġissue": 2056,
      "Ġland": 2057,
      "54": 2058,
      "Ġsal": 2059,
      "Ġworks": 2060,
      "Ġhalf": 2061,
      "vas": 2062,
      "Ġpolice": 2063,
      "ua": 2064,
      "Ġsimple": 2065,
      "Ġempty": 2066,
      "Ġeverything": 2067,
      "Ġrelations": 2068,
      "Ġnothing": 2069,
      "Ġrunning": 2070,
      "por": 2071,
      "ĠCity": 2072,
      "ĠWest": 2073,
      "Ġmor": 2074,
      "Ġna": 2075,
      "Ġsomeone": 2076,
      "ato": 2077,
      "Ġshare": 2078,
      "Ġur": 2079,
      "ĠWorld": 2080,
      "How": 2081,
      "Ġchanges": 2082,
      "Ġpersonal": 2083,
      "Ġevents": 2084,
      "za": 2085,
      "Ġneeded": 2086,
      "Ġfight": 2087,
      "Ġein": 2088,
      "gen": 2089,
      "ĠOut": 2090,
      "Ġwriting": 2091,
      "Ġrate": 2092,
      "inner": 2093,
      "Ġtw": 2094,
      "cd": 2095,
      "ĠMr": 2096,
      "Ġcorrect": 2097,
      "Ġfall": 2098,
      "Ġvol": 2099,
      "Ġdevelopment": 2100,
      "Ġsi": 2101,
      "ving": 2102,
      "Ġbelieve": 2103,
      "ns": 2104,
      "So": 2105,
      "Ġminutes": 2106,
      "Ġsimilar": 2107,
      "Ġtaken": 2108,
      "aced": 2109,
      "Ġisn": 2110,
      "Ġson": 2111,
      "Ġum": 2112,
      "Ġmoment": 2113,
      "Ġbring": 2114,
      "Ã¨": 2115,
      "Ġtrying": 2116,
      "Ġmember": 2117,
      "acc": 2118,
      "89": 2119,
      "Ġboard": 2120,
      "Ġsus": 2121,
      "Ġpush": 2122,
      "Ġplease": 2123,
      "bit": 2124,
      "Ġtypes": 2125,
      "When": 2126,
      "Ġedit": 2127,
      "ĠEurope": 2128,
      "ĠStr": 2129,
      "ille": 2130,
      "Ġinstead": 2131,
      "Ġidea": 2132,
      "Ġfilm": 2133,
      "Ġconn": 2134,
      "Ġphone": 2135,
      "Ġactive": 2136,
      "delete": 2137,
      "Ġmo": 2138,
      "Ġdeath": 2139,
      "Ġarticle": 2140,
      "rodu": 2141,
      "Ñĭ": 2142,
      "ka": 2143,
      "Ġalmost": 2144,
      "Ġsell": 2145,
      "rip": 2146,
      "Ġfeature": 2147,
      "Ġvia": 2148,
      "Ġlim": 2149,
      "block": 2150,
      "gy": 2151,
      "tag": 2152,
      "Ġcomplete": 2153,
      "Ġgeneral": 2154,
      "Ġasked": 2155,
      "ores": 2156,
      "SP": 2157,
      "ÅĤ": 2158,
      "rap": 2159,
      "Ġparty": 2160,
      "Ġnormal": 2161,
      "Ġfurther": 2162,
      "attle": 2163,
      "Ġmusic": 2164,
      "Ġtaking": 2165,
      "ĠAfter": 2166,
      "Ġfailed": 2167,
      "Ġconcern": 2168,
      "ba": 2169,
      "Ġterm": 2170,
      "has": 2171,
      "Ġpotential": 2172,
      "Ġpublished": 2173,
      "Ġprobably": 2174,
      "lim": 2175,
      "ague": 2176,
      "-year": 2177,
      "Ġreturns": 2178,
      "pat": 2179,
      "ĠHouse": 2180,
      "Ġconditions": 2181,
      "-to": 2182,
      "Ġfavor": 2183,
      "ĠNow": 2184,
      "Ġmer": 2185,
      "Ġloss": 2186,
      "net": 2187,
      "Ġengine": 2188,
      "Ġissues": 2189,
      "Ġstay": 2190,
      "Ġdom": 2191,
      "Ġlower": 2192,
      "uge": 2193,
      "Ġexact": 2194,
      "ief": 2195,
      "Ġformer": 2196,
      "Ġsix": 2197,
      "ida": 2198,
      "Ġheart": 2199,
      "ald": 2200,
      "Ġrather": 2201,
      "Ġbuilding": 2202,
      "Ġquestions": 2203,
      "Ġje": 2204,
      "Ġcas": 2205,
      "Ġsecurity": 2206,
      "Ġhowever": 2207,
      "Ġinside": 2208,
      "Ġpresident": 2209,
      "Ġtag": 2210,
      "Ġattempt": 2211,
      "uses": 2212,
      "Ġround": 2213,
      "Ġfriends": 2214,
      "ĠNorth": 2215,
      "ello": 2216,
      "That": 2217,
      "Ðº": 2218,
      "ĠPresident": 2219,
      "Ġcampaign": 2220,
      "Ġalt": 2221,
      "Ġenergy": 2222,
      "ington": 2223,
      "Ġseg": 2224,
      "Ġhor": 2225,
      "iers": 2226,
      "can": 2227,
      "Ġbehind": 2228,
      "ÑĮ": 2229,
      "long": 2230,
      "Ġraise": 2231,
      "Ġwanted": 2232,
      "lt": 2233,
      "eline": 2234,
      "ĠWill": 2235,
      "Ġpolicy": 2236,
      "Ġthird": 2237,
      "Ġbed": 2238,
      "ĠInc": 2239,
      "Ġserv": 2240,
      "Ġhar": 2241,
      "Ġtraining": 2242,
      "icht": 2243,
      "nes": 2244,
      "Ġmag": 2245,
      "Ġrelease": 2246,
      "ĠSouth": 2247,
      "ando": 2248,
      "sk": 2249,
      "Ġoutside": 2250,
      "gn": 2251,
      "ises": 2252,
      "Ġground": 2253,
      "Ġpour": 2254,
      "ĠOct": 2255,
      "Ġtree": 2256,
      "Ġmatter": 2257,
      "iam": 2258,
      "Ġshows": 2259,
      "Ġball": 2260,
      "Ġfast": 2261,
      "oved": 2262,
      "ante": 2263,
      "Ġfit": 2264,
      "Ġpolitical": 2265,
      "card": 2266,
      "och": 2267,
      "Ġindustry": 2268,
      "Ġextra": 2269,
      "Ġreported": 2270,
      "Ġwrong": 2271,
      "Ġseems": 2272,
      "Ġunit": 2273,
      "Ġtakes": 2274,
      "Ġappear": 2275,
      "Ġdifficult": 2276,
      "Ġcoming": 2277,
      "Ġsettings": 2278,
      "Ġquite": 2279,
      "iqu": 2280,
      "Ġpretty": 2281,
      "Ġlonger": 2282,
      "Ġmenu": 2283,
      "Ġcurrently": 2284,
      "Ġnames": 2285,
      "Ġactual": 2286,
      "250": 2287,
      "Ġfix": 2288,
      "Ġcases": 2289,
      "My": 2290,
      "ĠSE": 2291,
      "alle": 2292,
      "ĠNational": 2293,
      "ara": 2294,
      "ĠÐ¿": 2295,
      "Ġhigher": 2296,
      "cr": 2297,
      "alert": 2298,
      "ĠGoogle": 2299,
      "Ġitself": 2300,
      "Ġuna": 2301,
      "Ġprogress": 2302,
      "Ġmid": 2303,
      "ĠMicrosoft": 2304,
      "Ġdim": 2305,
      "Ġadditional": 2306,
      "Ġnumbers": 2307,
      "Ġcompanies": 2308,
      "Ġsound": 2309,
      "Ġstatement": 2310,
      "Ġalert": 2311,
      "Ġcontract": 2312,
      "ev": 2313,
      "Ġlines": 2314,
      "Ġsoon": 2315,
      "Ġë": 2316,
      "Ġlas": 2317,
      "endar": 2318,
      "ÄĻ": 2319,
      "Ġchoose": 2320,
      "how": 2321,
      "ĠAmerica": 2322,
      "Ġoffice": 2323,
      "Ġinde": 2324,
      "Ġflag": 2325,
      "den": 2326,
      "Ġnote": 2327,
      "Ã¼r": 2328,
      "ester": 2329,
      "uz": 2330,
      "Ġvert": 2331,
      "Ġgroups": 2332,
      "Ġve": 2333,
      "ĠPlease": 2334,
      "Ġrisk": 2335,
      "Ġwoman": 2336,
      "Ġgets": 2337,
      "Ġincluded": 2338,
      "igr": 2339,
      "Ġsem": 2340,
      "ĠBlack": 2341,
      "-up": 2342,
      "Ġcause": 2343,
      "Ġvan": 2344,
      "Ġfocus": 2345,
      "Ġmultiple": 2346,
      "ido": 2347,
      "-M": 2348,
      "Ġaddition": 2349,
      "Ġreceive": 2350,
      "ÐµÐ½": 2351,
      "Ġincrease": 2352,
      "ĠOpen": 2353,
      "Ġleave": 2354,
      "-n": 2355,
      "Ġbre": 2356,
      "Ġreading": 2357,
      "Ġnotice": 2358,
      "Ġstandard": 2359,
      "Ġstates": 2360,
      "Ġcross": 2361,
      "Ġnational": 2362,
      "Ġproblems": 2363,
      "istor": 2364,
      "Ġarch": 2365,
      "Ġimages": 2366,
      "ste": 2367,
      "Ġforce": 2368,
      "Ġprevent": 2369,
      "apan": 2370,
      "ĠService": 2371,
      "ador": 2372,
      "Top": 2373,
      "po": 2374,
      "ãĢģ": 2375,
      "bum": 2376,
      "ians": 2377,
      "63": 2378,
      "Ġliving": 2379,
      "Ġtool": 2380,
      "Ġok": 2381,
      "Ġfeed": 2382,
      "IX": 2383,
      "Ã©s": 2384,
      "ĠNews": 2385,
      "remove": 2386,
      "erry": 2387,
      "ares": 2388,
      "Do": 2389,
      "ustral": 2390,
      "ĠÑģ": 2391,
      "Ġpopular": 2392,
      "cal": 2393,
      "Ġdir": 2394,
      "Ġallowed": 2395,
      "62": 2396,
      "Ġtrain": 2397,
      "ĠRepublic": 2398,
      "Ġvers": 2399,
      "Ġsil": 2400,
      "Ġtechnology": 2401,
      "should": 2402,
      "Ġmit": 2403,
      "Ġstudent": 2404,
      "Ġaverage": 2405,
      "ĠMarch": 2406,
      "fin": 2407,
      "Ġcourt": 2408,
      "Ð²": 2409,
      "Ġparts": 2410,
      "Ġdecision": 2411,
      "Ġsaw": 2412,
      "Ġsaying": 2413,
      "Ġanyone": 2414,
      "Ġsong": 2415,
      "Ġchanged": 2416,
      "Ãª": 2417,
      "Please": 2418,
      "à¤": 2419,
      "Ġkill": 2420,
      "Ġdrug": 2421,
      "Ġconvert": 2422,
      "ĠWindows": 2423,
      "Ġmat": 2424,
      "Ġplus": 2425,
      "aste": 2426,
      "Ġready": 2427,
      "Ġsense": 2428,
      "ĠJune": 2429,
      "Ġlatest": 2430,
      "Ġregion": 2431,
      "Ġreach": 2432,
      "ados": 2433,
      "Ġweeks": 2434,
      "Ġdamage": 2435,
      "Ġlost": 2436,
      "ani": 2437,
      "Ġhimself": 2438,
      "Ġdog": 2439,
      "pir": 2440,
      "Ġpaper": 2441,
      "Ġstaff": 2442,
      "Ġthemselves": 2443,
      "Ġdriver": 2444,
      "ja": 2445,
      "pu": 2446,
      "Ġoil": 2447,
      "Ġstock": 2448,
      "Ġdead": 2449,
      "dom": 2450,
      "Ġrules": 2451,
      "ula": 2452,
      "74": 2453,
      "mar": 2454,
      "ĠChina": 2455,
      "Ġplaying": 2456,
      "Ġcouple": 2457,
      "command": 2458,
      "Ġroad": 2459,
      "urt": 2460,
      "ych": 2461,
      "Ġheld": 2462,
      "Ġtab": 2463,
      "ano": 2464,
      "Ã±": 2465,
      "Ġmachine": 2466,
      "Ġoperation": 2467,
      "men": 2468,
      "zen": 2469,
      "Ġtor": 2470,
      "ura": 2471,
      "Ġestablish": 2472,
      "Ġsch": 2473,
      "Ġmovie": 2474,
      "Ġsec": 2475,
      "Ġactivity": 2476,
      "Ø§": 2477,
      "Ġwasn": 2478,
      "aciÃ³n": 2479,
      "Ġjud": 2480,
      "Ġrot": 2481,
      "Ġpen": 2482,
      "Ġchoice": 2483,
      "enced": 2484,
      "ĠJuly": 2485,
      "Card": 2486,
      "aly": 2487,
      "Ġlegal": 2488,
      "Ġten": 2489,
      "Ġgoes": 2490,
      "Ġmis": 2491,
      "icks": 2492,
      "des": 2493,
      "91": 2494,
      "ĠÐ²": 2495,
      "acion": 2496,
      "81": 2497,
      "ĠApril": 2498,
      "Ġtravel": 2499,
      "Ġsou": 2500,
      "Ġpassed": 2501,
      "Ġbus": 2502,
      "ĠCenter": 2503,
      "Ġprec": 2504,
      "ĠSan": 2505,
      "Ġcountries": 2506,
      "kt": 2507,
      "Ġqual": 2508,
      "idad": 2509,
      "ĠPM": 2510,
      "ci": 2511,
      "Äħ": 2512,
      "Ġlooks": 2513,
      "Ġnecessary": 2514,
      "Ġreleased": 2515,
      "ĠTV": 2516,
      "inq": 2517,
      "ĠDepartment": 2518,
      "Ġrespond": 2519,
      "ael": 2520,
      "Ġfinancial": 2521,
      "Ġthreat": 2522,
      "Ã§Ã£o": 2523,
      "Ġevidence": 2524,
      "Ġou": 2525,
      "Ġrule": 2526,
      "Ġrecently": 2527,
      "Ġreturned": 2528,
      "Ġseek": 2529,
      "ĠGerman": 2530,
      "Ġsystems": 2531,
      "Ġdrop": 2532,
      "83": 2533,
      "Å¼": 2534,
      "Ġdirectly": 2535,
      "ris": 2536,
      "bon": 2537,
      "pite": 2538,
      "-based": 2539,
      "ordin": 2540,
      "Ġgrad": 2541,
      "Ġusually": 2542,
      "Ġist": 2543,
      "Ġserious": 2544,
      "Ġcustomer": 2545,
      "odo": 2546,
      "Ġdoor": 2547,
      "Ġplant": 2548,
      "Ġbegan": 2549,
      "Ġchance": 2550,
      "Ġord": 2551,
      "Ġprotect": 2552,
      "Ñĩ": 2553,
      "Ġroute": 2554,
      "ĠSchool": 2555,
      "hi": 2556,
      "After": 2557,
      "Ġcontr": 2558,
      "Ġprimary": 2559,
      "Ġbi": 2560,
      "Red": 2561,
      "Ġleaders": 2562,
      "Ġgun": 2563,
      "Ġupdated": 2564,
      "Ġinform": 2565,
      "ala": 2566,
      "Ġhab": 2567,
      "ĠDay": 2568,
      "ĠOver": 2569,
      "Ġled": 2570,
      "uri": 2571,
      "gl": 2572,
      "Ġbank": 2573,
      "Ġhands": 2574,
      "Ġsold": 2575,
      "ota": 2576,
      "Am": 2577,
      "Ġsens": 2578,
      "Ġremember": 2579,
      "cout": 2580,
      "Ġenv": 2581,
      "Ġscene": 2582,
      "Ġpark": 2583,
      "ĠSeptember": 2584,
      "Ġsen": 2585,
      "uts": 2586,
      "inn": 2587,
      "aling": 2588,
      "conf": 2589,
      "Ġwrote": 2590,
      "Ġequal": 2591,
      "Ġmiddle": 2592,
      "94": 2593,
      "ĠAugust": 2594,
      "Ġquickly": 2595,
      "ho": 2596,
      "Ġcop": 2597,
      "Ġinn": 2598,
      "Ġones": 2599,
      "Ġgreen": 2600,
      "comment": 2601,
      "Ġune": 2602,
      "avi": 2603,
      "iring": 2604,
      "ails": 2605,
      "ĠKing": 2606,
      "ora": 2607,
      "Ġir": 2608,
      "-S": 2609,
      "Ġelection": 2610,
      "Ġchat": 2611,
      "illa": 2612,
      "tk": 2613,
      "Ġsetting": 2614,
      "Ġhappy": 2615,
      "Ġfinish": 2616,
      "Ġcamera": 2617,
      "cons": 2618,
      "ita": 2619,
      "ĠCounty": 2620,
      "Ġmilitary": 2621,
      "Ġsale": 2622,
      "non": 2623,
      "rim": 2624,
      "-old": 2625,
      "Ġtown": 2626,
      "Ġslow": 2627,
      "Ġblue": 2628,
      "ago": 2629,
      "Ġcustomers": 2630,
      "Ġdark": 2631,
      "si": 2632,
      "ĠJapan": 2633,
      "ĠEast": 2634,
      "Ġpackage": 2635,
      "Ġclub": 2636,
      "ione": 2637,
      "Ġplayed": 2638,
      "mo": 2639,
      "ito": 2640,
      "Ġdeliver": 2641,
      "Ãł": 2642,
      "ĠEnglish": 2643,
      "Ġcomputer": 2644,
      "Ġpas": 2645,
      "Ġrais": 2646,
      "Ġmobile": 2647,
      "more": 2648,
      "pass": 2649,
      "Ġha": 2650,
      "Ġleading": 2651,
      "Ġzu": 2652,
      "Ġinvolved": 2653,
      "Ġio": 2654,
      "asy": 2655,
      "Ġeyes": 2656,
      "iforn": 2657,
      "Ġnice": 2658,
      "Ġfloor": 2659,
      "ĠUK": 2660,
      "Ġwish": 2661,
      "Ġstage": 2662,
      "igen": 2663,
      "Ġmeeting": 2664,
      "Ġworked": 2665,
      "iny": 2666,
      "Ð¼": 2667,
      "eff": 2668,
      "cha": 2669,
      "Ġang": 2670,
      "Ġhour": 2671,
      "Ġspeak": 2672,
      "Ġseconds": 2673,
      "Ġinternational": 2674,
      "iate": 2675,
      "ivo": 2676,
      "rd": 2677,
      "Ġroll": 2678,
      "Ġgrowth": 2679,
      "ĠWashington": 2680,
      "Ġturned": 2681,
      "Ġletter": 2682,
      "Ġsituation": 2683,
      "ette": 2684,
      "Ġvon": 2685,
      "Ġdrive": 2686,
      "Ġblood": 2687,
      "Ġphoto": 2688,
      "Ġgave": 2689,
      "Ġshot": 2690,
      "ĠAir": 2691,
      "Ġmother": 2692,
      "Ġmorning": 2693,
      "Ġtrade": 2694,
      "Ġparents": 2695,
      "wer": 2696,
      "Ġsy": 2697,
      "Ġpiece": 2698,
      "ran": 2699,
      "va": 2700,
      "Ġcompletely": 2701,
      "ini": 2702,
      "Ġcam": 2703,
      "Ġsites": 2704,
      "pa": 2705,
      "ÑģÑĤ": 2706,
      "ĠFriday": 2707,
      "è¯": 2708,
      "Ġbuf": 2709,
      "Ġnov": 2710,
      "Ġdas": 2711,
      "Ġheard": 2712,
      "Ġgold": 2713,
      "Ġfair": 2714,
      "Ġsales": 2715,
      "save": 2716,
      "Ġdecided": 2717,
      "ki": 2718,
      "ĠUN": 2719,
      "Ġmanager": 2720,
      "ĠFire": 2721,
      "Ġplans": 2722,
      "Ãº": 2723,
      "call": 2724,
      "wood": 2725,
      "Ġgrand": 2726,
      "Ġcredit": 2727,
      "orge": 2728,
      "Ġdifference": 2729,
      "Ġfra": 2730,
      "Ġtried": 2731,
      "send": 2732,
      "Ġreports": 2733,
      "ĠStreet": 2734,
      "Ġgives": 2735,
      "ĠNovember": 2736,
      "ellig": 2737,
      "Äĥ": 2738,
      "ĠÐ½": 2739,
      "elle": 2740,
      "Can": 2741,
      "Ð¾Ð²": 2742,
      "arty": 2743,
      "ona": 2744,
      "Ġcapital": 2745,
      "Ġhear": 2746,
      "emo": 2747,
      "oi": 2748,
      "Ġcalls": 2749,
      "Ġbrand": 2750,
      "ga": 2751,
      "ĠIndia": 2752,
      "Ġing": 2753,
      "Ġpet": 2754,
      "Ġcharge": 2755,
      "ened": 2756,
      "grad": 2757,
      "eds": 2758,
      "lich": 2759,
      "Ġarm": 2760,
      "Ġstar": 2761,
      "Ġfederal": 2762,
      "Ġcarry": 2763,
      "ĠIsrael": 2764,
      "Ġearlier": 2765,
      "Ġtim": 2766,
      "Ġtemper": 2767,
      "ĠDavid": 2768,
      "Ġwants": 2769,
      "Ġpicture": 2770,
      "-de": 2771,
      "Ġpull": 2772,
      "ente": 2773,
      "Ġgas": 2774,
      "Ġedge": 2775,
      "Ġkids": 2776,
      "Ġshown": 2777,
      "ella": 2778,
      "Ġlat": 2779,
      "ban": 2780,
      "pet": 2781,
      "ĠCanada": 2782,
      "They": 2783,
      "Ġdans": 2784,
      "Ġhair": 2785,
      "Ġcu": 2786,
      "Ġlaws": 2787,
      "ped": 2788,
      "Ġpow": 2789,
      "Ġjobs": 2790,
      "Ġexactly": 2791,
      "ĠPaul": 2792,
      "mas": 2793,
      "ĠTop": 2794,
      "Ġvote": 2795,
      "Ġfine": 2796,
      "car": 2797,
      "Ġaltern": 2798,
      "make": 2799,
      "Ġfavorite": 2800,
      "Ġhappened": 2801,
      "ĠÂ£": 2802,
      "oms": 2803,
      "Ġnamed": 2804,
      "Ġpanel": 2805,
      "Ġrock": 2806,
      "Ð´": 2807,
      "Ġtrust": 2808,
      "Ar": 2809,
      "Ġeconomic": 2810,
      "Ġrace": 2811,
      "Ġphysical": 2812,
      "Ġremoved": 2813,
      "Ġlooked": 2814,
      "gest": 2815,
      "aturday": 2816,
      "Ġdro": 2817,
      "Ġtowards": 2818,
      "Ġuns": 2819,
      "Ġdefine": 2820,
      "Did": 2821,
      "Ġhistor": 2822,
      "Ġnature": 2823,
      "Ġnation": 2824,
      "ih": 2825,
      "sem": 2826,
      "Ġwall": 2827,
      "Ġnearly": 2828,
      "ĠMonday": 2829,
      "Ġsun": 2830,
      "Ġbul": 2831,
      "Ġtests": 2832,
      "ĠNote": 2833,
      "Ġmyself": 2834,
      "Ġpopulation": 2835,
      "ĠCalifornia": 2836,
      "\"I": 2837,
      "uesday": 2838,
      "Ġcosts": 2839,
      "Ġlaunch": 2840,
      "band": 2841,
      "Ġband": 2842,
      "Ã¡s": 2843,
      "ican": 2844,
      "ett": 2845,
      "Ġimmediately": 2846,
      "zer": 2847,
      "Ġfigure": 2848,
      "eller": 2849,
      "Ġpoll": 2850,
      "Ġgiving": 2851,
      "Ġplot": 2852,
      "Ġbillion": 2853,
      "Ġequipment": 2854,
      "Ġple": 2855,
      "ĠObama": 2856,
      "Ġpa": 2857,
      "ĠDirect": 2858,
      "ĠCall": 2859,
      "Ġremain": 2860,
      "Ġanti": 2861,
      "ĠLondon": 2862,
      "Ġsafety": 2863,
      "ĠCourt": 2864,
      "ena": 2865,
      "Ġzero": 2866,
      "Ġpaid": 2867,
      "Ġincreased": 2868,
      "Ġqueue": 2869,
      "ĠInternational": 2870,
      "ĠfÃ¼r": 2871,
      "ursday": 2872,
      "Ġmaximum": 2873,
      "Ġlimited": 2874,
      "Ġforeign": 2875,
      "Ġpan": 2876,
      "Ġtour": 2877,
      "Ġmoving": 2878,
      "Ġauf": 2879,
      "Ġannounced": 2880,
      "Ġagreed": 2881,
      "rie": 2882,
      "Ġsexual": 2883,
      "-time": 2884,
      "Ġcoach": 2885,
      "Ġsupported": 2886,
      "rier": 2887,
      "aver": 2888,
      "ige": 2889,
      "Ġpressure": 2890,
      "rian": 2891,
      "ĠSunday": 2892,
      "iger": 2893,
      "Ġthinking": 2894,
      "Ġsets": 2895,
      "eder": 2896,
      "Ġdaily": 2897,
      "jo": 2898,
      "Ġpool": 2899,
      "nesday": 2900,
      "Ġsummer": 2901,
      "Ġrap": 2902,
      "Ġopin": 2903,
      "Ð°Ð½": 2904,
      "Ġworkers": 2905,
      "Ġmaster": 2906,
      "Ġstories": 2907,
      "inese": 2908,
      "Ġsteps": 2909,
      "Ġofficials": 2910,
      "Ġgar": 2911,
      "ĠAT": 2912,
      "Ġdigital": 2913,
      "Ġspent": 2914,
      "ÅĽ": 2915,
      "Ġprincip": 2916,
      "Ġmissing": 2917,
      "Ġwife": 2918,
      "Ġtalking": 2919,
      "Ġcart": 2920,
      "Ġlocated": 2921,
      "Ġcards": 2922,
      "Ġguy": 2923,
      "Ġpers": 2924,
      "Ġkilled": 2925,
      "Ġpurpose": 2926,
      "ÃŃa": 2927,
      "Ġsin": 2928,
      "ĠdÃ©": 2929,
      "Ġhop": 2930,
      "Ġnorm": 2931,
      "Ġweak": 2932,
      "Ġmil": 2933,
      "Ġfirm": 2934,
      "Ġdemand": 2935,
      "Ġplaces": 2936,
      "Ġactivities": 2937,
      "Ġma": 2938,
      "Ġagree": 2939,
      "Ġpod": 2940,
      "ĠEuropean": 2941,
      "?\"": 2942,
      "chen": 2943,
      "ima": 2944,
      "Ġdirector": 2945,
      "Ġyield": 2946,
      "Ġrestaur": 2947,
      "duc": 2948,
      "iki": 2949,
      "Ġgirls": 2950,
      "Ġsocket": 2951,
      "Ġprices": 2952,
      "Ġsat": 2953,
      "Ġwood": 2954,
      "dk": 2955,
      "Ġreset": 2956,
      "Ġforms": 2957,
      "ĠÐ¸": 2958,
      "ĠTuesday": 2959,
      "Ġguys": 2960,
      "ÐµÑĢ": 2961,
      "Ġinternet": 2962,
      "Ġguard": 2963,
      "Ġpurchase": 2964,
      "Ġaren": 2965,
      "Ġfish": 2966,
      "??": 2967,
      "Ġjo": 2968,
      "Ġleader": 2969,
      "More": 2970,
      "ĠÐº": 2971,
      "house": 2972,
      "Ġconfirm": 2973,
      "Ġcouldn": 2974,
      "rate": 2975,
      "Ġaudio": 2976,
      "Ġspot": 2977,
      "Ġcompared": 2978,
      "lig": 2979,
      "ete": 2980,
      "Ġdetail": 2981,
      "Ġfresh": 2982,
      "Ġmoved": 2983,
      "ĠSaturday": 2984,
      "Äĩ": 2985,
      "Ġpul": 2986,
      "Ġhundred": 2987,
      "Ġtransaction": 2988,
      "ĠIndian": 2989,
      "ni": 2990,
      "ji": 2991,
      "ya": 2992,
      "Your": 2993,
      "Ġlargest": 2994,
      "Ġqui": 2995,
      "Ġng": 2996,
      "Ġsing": 2997,
      "Ġsuit": 2998,
      "Ġjump": 2999,
      "Ġsmart": 3000,
      "Ġassist": 3001,
      "ĠThursday": 3002,
      "Ġbur": 3003,
      "ĠÐ´": 3004,
      "ĠJames": 3005,
      "-se": 3006,
      "Show": 3007,
      "Ġrates": 3008,
      "Ġbon": 3009,
      "Ð¾Ð»": 3010,
      "igo": 3011,
      "Ġadding": 3012,
      "Ġmach": 3013,
      "Ġaware": 3014,
      "ĠBritish": 3015,
      "eler": 3016,
      "Ġprev": 3017,
      "Ġclosed": 3018,
      "Ġpermission": 3019,
      "Ã©e": 3020,
      "ky": 3021,
      "Ġau": 3022,
      "Ġeye": 3023,
      "ĠWednesday": 3024,
      "olver": 3025,
      "ola": 3026,
      "Close": 3027,
      "alar": 3028,
      "ĠMichael": 3029,
      "She": 3030,
      "Ġguess": 3031,
      "ĠJava": 3032,
      "å¹´": 3033,
      "Ġappears": 3034,
      "Ġcomo": 3035,
      "ali": 3036,
      "Ġtele": 3037,
      "ben": 3038,
      "Ġreasons": 3039,
      "lines": 3040,
      "Ð°ÑĤ": 3041,
      "rent": 3042,
      "Ġaf": 3043,
      "While": 3044,
      "Ġcolors": 3045,
      "kin": 3046,
      "ĠCongress": 3047,
      "ÃŁ": 3048,
      "Ġarrest": 3049,
      "Ð¿": 3050,
      "ĠIndex": 3051,
      "Ġinterested": 3052,
      "Ġrent": 3053,
      "Ġalbum": 3054,
      "olicy": 3055,
      "Ġminimum": 3056,
      "ĠInternet": 3057,
      "å¤": 3058,
      "Exp": 3059,
      "Ġbasis": 3060,
      "Ġbudget": 3061,
      "PA": 3062,
      "dt": 3063,
      "Ġgone": 3064,
      "Ġbattle": 3065,
      "uda": 3066,
      "Ġstation": 3067,
      "Ġfinished": 3068,
      "Ġshop": 3069,
      "Ġeight": 3070,
      "Ġmail": 3071,
      "Ġnav": 3072,
      "but": 3073,
      "Ġseven": 3074,
      "RR": 3075,
      "ĠHill": 3076,
      "Ġvolume": 3077,
      "Ġtit": 3078,
      "Ġcompleted": 3079,
      "Ġsupply": 3080,
      "Ġspr": 3081,
      "mi": 3082,
      "Ġpayment": 3083,
      "ĠApple": 3084,
      "dec": 3085,
      "Ġboy": 3086,
      "Ġbalance": 3087,
      "-top": 3088,
      "ÐµÑĤ": 3089,
      "Ġeat": 3090,
      "Ġtro": 3091,
      "Ġclaims": 3092,
      "arc": 3093,
      "ander": 3094,
      "Ġwarm": 3095,
      "which": 3096,
      "Ġtal": 3097,
      "gi": 3098,
      "ĠÐ¾": 3099,
      "bi": 3100,
      "contr": 3101,
      "Ġsett": 3102,
      "abe": 3103,
      "Ġsociety": 3104,
      "ĠSecurity": 3105,
      "Ġcat": 3106,
      "ĠTexas": 3107,
      "Ġtraff": 3108,
      "anta": 3109,
      "Ġfeeling": 3110,
      "Ġcivil": 3111,
      "Ġwouldn": 3112,
      "AF": 3113,
      "Ġship": 3114,
      "Ġreplace": 3115,
      "ela": 3116,
      "iques": 3117,
      "Ġahead": 3118,
      "Ġpun": 3119,
      "fc": 3120,
      "Ġtransfer": 3121,
      "Ġgay": 3122,
      "Ġjournal": 3123,
      "Ġol": 3124,
      "ĠAustralia": 3125,
      "Ġquarter": 3126,
      "yan": 3127,
      "zi": 3128,
      "aine": 3129,
      "Ġcash": 3130,
      "Ġapplications": 3131,
      "ĠRussia": 3132,
      "Ġsan": 3133,
      "Some": 3134,
      "pop": 3135,
      "Ġtend": 3136,
      "Ġdegree": 3137,
      "ĠMal": 3138,
      "elen": 3139,
      "Ġfan": 3140,
      "Ġsoft": 3141,
      "Ġhighest": 3142,
      "ĠWhy": 3143,
      "Ġforces": 3144,
      "Many": 3145,
      "ĠPress": 3146,
      "hol": 3147,
      "ĠChinese": 3148,
      "Ġposted": 3149,
      "Ġremains": 3150,
      "Ġcin": 3151,
      "organ": 3152,
      "Ġdied": 3153,
      "mat": 3154,
      "Ġstarts": 3155,
      "Ġruns": 3156,
      "uler": 3157,
      "Ġemp": 3158,
      "Ġdefinitely": 3159,
      "Ġsigned": 3160,
      "Ġult": 3161,
      "Ġdress": 3162,
      "Ġfamilies": 3163,
      "ĠRussian": 3164,
      "ches": 3165,
      "unes": 3166,
      "ÙĦ": 3167,
      "agen": 3168,
      "Ġbiggest": 3169,
      "Ġshowed": 3170,
      "ĠBank": 3171,
      "record": 3172,
      "produ": 3173,
      "Ġul": 3174,
      "una": 3175,
      "ugar": 3176,
      "Ġopening": 3177,
      "Ġhappens": 3178,
      "di": 3179,
      "Ġwaiting": 3180,
      "Ġeconomy": 3181,
      "ĠFrench": 3182,
      "Ġstreet": 3183,
      "ĠBill": 3184,
      "Ġpreviously": 3185,
      "Ġkept": 3186,
      "ju": 3187,
      "olly": 3188,
      "Ġê": 3189,
      "Ġut": 3190,
      "Ġcentral": 3191,
      "Ġonto": 3192,
      "Ġfactory": 3193,
      "aws": 3194,
      "Ġmal": 3195,
      "Ġreached": 3196,
      "Ġterror": 3197,
      "Ġmir": 3198,
      "help": 3199,
      "kan": 3200,
      "Ġfat": 3201,
      "Ġprotest": 3202,
      "ils": 3203,
      "inds": 3204,
      "Ġrelative": 3205,
      "Ġserve": 3206,
      "zone": 3207,
      "Ġlang": 3208,
      "endo": 3209,
      "iro": 3210,
      "Ġreflect": 3211,
      "Ġpros": 3212,
      "ĠAre": 3213,
      "gu": 3214,
      "rm": 3215,
      "Ġdies": 3216,
      "Ġdos": 3217,
      "Ġmiles": 3218,
      "izz": 3219,
      "Ġton": 3220,
      "Ġbaby": 3221,
      "Ġattacks": 3222,
      "Ġhospital": 3223,
      "Ġchain": 3224,
      "Ġfarm": 3225,
      "Ġknows": 3226,
      "encia": 3227,
      "Ġnicht": 3228,
      "uer": 3229,
      "Ġspeech": 3230,
      "Ġwarn": 3231,
      "Ġheavy": 3232,
      "Ġinvestigation": 3233,
      "Ġchurch": 3234,
      "Ġdespite": 3235,
      "chain": 3236,
      "Ġregarding": 3237,
      "mes": 3238,
      "Ġresolve": 3239,
      "ira": 3240,
      "Ã¢": 3241,
      "Ġupdates": 3242,
      "Ġtoward": 3243,
      "Ġlisten": 3244,
      "Car": 3245,
      "activ": 3246,
      "æķ°": 3247,
      "Ġclock": 3248,
      "Ġvir": 3249,
      "Ġefforts": 3250,
      "Ġbranch": 3251,
      "Ġmotor": 3252,
      "ĠChristian": 3253,
      "ĠAmericans": 3254,
      "Ġcaused": 3255,
      "Ġradio": 3256,
      "Ġhat": 3257,
      "Ġoffered": 3258,
      "æĹ¥": 3259,
      "Ġhelped": 3260,
      "Ġpeace": 3261,
      "Ġpi": 3262,
      "Ġban": 3263,
      "istan": 3264,
      "Ġmission": 3265,
      "Ð·": 3266,
      "Ġfootball": 3267,
      "Ġbag": 3268,
      "Ġrac": 3269,
      "Ġmac": 3270,
      "amente": 3271,
      "Ġpin": 3272,
      "Ġti": 3273,
      "Ġhaven": 3274,
      "Ġglass": 3275,
      "Ġweekend": 3276,
      "oon": 3277,
      "ye": 3278,
      "Ġvous": 3279,
      "Ġolder": 3280,
      "Ġtimer": 3281,
      "Ġcritical": 3282,
      "Ġshowing": 3283,
      "cher": 3284,
      "Ġdefense": 3285,
      "Ġbes": 3286,
      "Ð¾ÑĢ": 3287,
      "Where": 3288,
      "Ġelectric": 3289,
      "ĠCouncil": 3290,
      "idade": 3291,
      "Ġrich": 3292,
      "sa": 3293,
      "ĠSmith": 3294,
      "ista": 3295,
      "Ġagency": 3296,
      "Ġsich": 3297,
      "Ġtrial": 3298,
      "Ġplaced": 3299,
      "Ġdan": 3300,
      "Ġweather": 3301,
      "Ġprovider": 3302,
      "Ġplanning": 3303,
      "Ġseeing": 3304,
      "Ġcancel": 3305,
      "Ġagreement": 3306,
      "Ġprotection": 3307,
      "Ġfi": 3308,
      "Ġcandidate": 3309,
      "aren": 3310,
      "ĠBay": 3311,
      "ius": 3312,
      "Ġcriminal": 3313,
      "bert": 3314,
      "Ġinvestment": 3315,
      "ania": 3316,
      "Ġviolence": 3317,
      "ema": 3318,
      "Lib": 3319,
      "hat": 3320,
      "Ġstick": 3321,
      "Ġraised": 3322,
      "Ġmas": 3323,
      "Ġfav": 3324,
      "eras": 3325,
      "Ġapplied": 3326,
      "lers": 3327,
      "Ġcold": 3328,
      "ĠChurch": 3329,
      "Ġsand": 3330,
      "Ġrid": 3331,
      "Ġentre": 3332,
      "Ġvac": 3333,
      "Ġexchange": 3334,
      "Ġdepartment": 3335,
      "Ġdocuments": 3336,
      "-P": 3337,
      "rend": 3338,
      "ĠAnn": 3339,
      "ati": 3340,
      "when": 3341,
      "Ġshut": 3342,
      "Ġtemperature": 3343,
      "Ġmetal": 3344,
      "Ġll": 3345,
      "ko": 3346,
      "you": 3347,
      "Ġcars": 3348,
      "ĠrÃ©": 3349,
      "Ġprison": 3350,
      "ĠTim": 3351,
      "Ġclearly": 3352,
      "ĠRepublican": 3353,
      "Ð¸ÑĤ": 3354,
      "bor": 3355,
      "çļĦ": 3356,
      "Ġbeat": 3357,
      "Ġminute": 3358,
      "Ġcancer": 3359,
      "Ġearth": 3360,
      "Ġsea": 3361,
      "cos": 3362,
      "Ã¶r": 3363,
      "Ġattend": 3364,
      "Ġaus": 3365,
      "oston": 3366,
      "bes": 3367,
      "Ġmess": 3368,
      "Ġtraffic": 3369,
      "ĠEngland": 3370,
      "Ġta": 3371,
      "Ġofficer": 3372,
      "Ġopinion": 3373,
      "Ġautomatically": 3374,
      "isco": 3375,
      "Ġended": 3376,
      "ĠMinister": 3377,
      "stop": 3378,
      "Ġmi": 3379,
      "Ġhotel": 3380,
      "sel": 3381,
      "oz": 3382,
      "Ð¾Ð´": 3383,
      "Ġmixed": 3384,
      "step": 3385,
      "Ġputs": 3386,
      "Ġdeck": 3387,
      "Ġcontinues": 3388,
      "Ġbin": 3389,
      "Ġgather": 3390,
      "Ġidentity": 3391,
      "Ã´": 3392,
      "acer": 3393,
      "Ġtra": 3394,
      "ĠFlorida": 3395,
      "xa": 3396,
      "Ġofficers": 3397,
      "Ġaccounts": 3398,
      "ĠFrance": 3399,
      "reme": 3400,
      "uj": 3401,
      "Ġbal": 3402,
      "ĠCommission": 3403,
      "Ġnom": 3404,
      "Ġpieces": 3405,
      "Ġbusinesses": 3406,
      "Ġparties": 3407,
      "Ġjour": 3408,
      "ÐµÐ½Ð¸": 3409,
      "Ġdelivery": 3410,
      "yes": 3411,
      "enda": 3412,
      "Ġschedule": 3413,
      "Hello": 3414,
      "vt": 3415,
      "Ġarticles": 3416,
      "Ġwest": 3417,
      "Ġwid": 3418,
      "ĠWall": 3419,
      "Ġavec": 3420,
      "æľĪ": 3421,
      "Ġstars": 3422,
      "Ġcovered": 3423,
      "Ġelim": 3424,
      "Ġtu": 3425,
      "Ġmigr": 3426,
      "Ġannual": 3427,
      "Ġcrime": 3428,
      "bel": 3429,
      "Ġkitchen": 3430,
      "-out": 3431,
      "azz": 3432,
      "Ġdaughter": 3433,
      "Ġsouth": 3434,
      "lette": 3435,
      "aks": 3436,
      "ĠEU": 3437,
      "Ġbrief": 3438,
      "Ġconference": 3439,
      "anda": 3440,
      "Ġeine": 3441,
      "esso": 3442,
      "Ġris": 3443,
      "Ġsports": 3444,
      "Ġyes": 3445,
      "lu": 3446,
      "-pro": 3447,
      "Ġdriving": 3448,
      "Ġpropos": 3449,
      "Ġwear": 3450,
      "Ġice": 3451,
      "kr": 3452,
      "ĠGermany": 3453,
      "ĠGeorge": 3454,
      "Ġanimal": 3455,
      "Ġmais": 3456,
      "Ġprepar": 3457,
      "Ġrom": 3458,
      "prev": 3459,
      "Ġgod": 3460,
      "ĠSenate": 3461,
      "Ġweapons": 3462,
      "Ġpurposes": 3463,
      "pol": 3464,
      "Ġmurder": 3465,
      "Ġbright": 3466,
      "Ġsie": 3467,
      "akt": 3468,
      "Ġcrash": 3469,
      "Ð±": 3470,
      "iva": 3471,
      "Ġreverse": 3472,
      "onto": 3473,
      "lets": 3474,
      "Will": 3475,
      "Ġwind": 3476,
      "Ġwarning": 3477,
      "Ġdraft": 3478,
      "Ġsam": 3479,
      "Ġholding": 3480,
      "Ġsupposed": 3481,
      "vi": 3482,
      "Ġclimate": 3483,
      "Ġholds": 3484,
      "fi": 3485,
      "news": 3486,
      "wa": 3487,
      "Ġrise": 3488,
      "decl": 3489,
      "Ġlisted": 3490,
      "Ġmostly": 3491,
      "olo": 3492,
      "Ġoccurred": 3493,
      "Ġchanging": 3494,
      "\"The": 3495,
      "ĠAssociation": 3496,
      "Ġcalc": 3497,
      "Ġsz": 3498,
      "Ġaux": 3499,
      "Ġartist": 3500,
      "Ġring": 3501,
      "Ġflat": 3502,
      "Ġchecked": 3503,
      "ĠChristmas": 3504,
      "ĠPolice": 3505,
      "ÐµÐ¼": 3506,
      "Ġwatching": 3507,
      "Ġblank": 3508,
      "icing": 3509,
      "ez": 3510,
      "World": 3511,
      "Ġzone": 3512,
      "Ġverify": 3513,
      "ono": 3514,
      "Ġcer": 3515,
      "tre": 3516,
      "Ġasking": 3517,
      "Ġorders": 3518,
      "Ġspending": 3519,
      "ĠAfrica": 3520,
      "Ùħ": 3521,
      "Ġchief": 3522,
      "Ġtom": 3523,
      "Ġpolicies": 3524,
      "Ġcharges": 3525,
      "ĠBoston": 3526,
      "Ġfilled": 3527,
      "Ġnorth": 3528,
      "Ġtermin": 3529,
      "Ġber": 3530,
      "asi": 3531,
      "Why": 3532,
      "ĠMuslim": 3533,
      "Ġlie": 3534,
      "Ġprime": 3535,
      "ti": 3536,
      "dy": 3537,
      "ĠIran": 3538,
      "Ġju": 3539,
      "Ġrub": 3540,
      "Ġdecide": 3541,
      "pool": 3542,
      "Ġweapon": 3543,
      "Ã©t": 3544,
      "uen": 3545,
      "Ġodd": 3546,
      "Ġkick": 3547,
      "Ġprocedure": 3548,
      "Ġends": 3549,
      "bus": 3550,
      "Ġexplain": 3551,
      "ĠCommittee": 3552,
      "Ġoperating": 3553,
      "Ġeste": 3554,
      "ĠWatch": 3555,
      "iat": 3556,
      "Ġbund": 3557,
      "Ġkid": 3558,
      "Ġyang": 3559,
      "ÑĨ": 3560,
      "Ġvent": 3561,
      "uan": 3562,
      "plan": 3563,
      "Ã©n": 3564,
      "zz": 3565,
      "amento": 3566,
      "Ġhomes": 3567,
      "aria": 3568,
      "Ġshooting": 3569,
      "Ġwa": 3570,
      "iner": 3571,
      "Ġincident": 3572,
      "Ġlocations": 3573,
      "Ñħ": 3574,
      "Ġped": 3575,
      "ĠWho": 3576,
      "Ġmine": 3577,
      "ĠÃ¼": 3578,
      "Ġalleged": 3579,
      "Ġchair": 3580,
      "Ġstopped": 3581,
      "Ġele": 3582,
      "Ġfunds": 3583,
      "uce": 3584,
      "ila": 3585,
      "Ġcup": 3586,
      "Ġstores": 3587,
      "Ġidentify": 3588,
      "Ġprepare": 3589,
      "Ġrob": 3590,
      "Ġsport": 3591,
      "Ġalternative": 3592,
      "ische": 3593,
      "king": 3594,
      "Ġsurvey": 3595,
      "hab": 3596,
      "Ġturns": 3597,
      "Ġmel": 3598,
      "amos": 3599,
      "Ġlinked": 3600,
      "ami": 3601,
      "Ġuma": 3602,
      "Ġran": 3603,
      "Ġentered": 3604,
      "Ġich": 3605,
      "prec": 3606,
      "Ġdur": 3607,
      "Ġsnap": 3608,
      "Ġdoctor": 3609,
      "ĠCentral": 3610,
      "Ġputting": 3611,
      "after": 3612,
      "Ġprefer": 3613,
      "Ġskip": 3614,
      "Ġals": 3615,
      "\"We": 3616,
      "lan": 3617,
      "Ġseat": 3618,
      "Ġrating": 3619,
      "Ġrestaurant": 3620,
      "isa": 3621,
      "Ġí": 3622,
      "ĠJapanese": 3623,
      "Ġfunding": 3624,
      "Ġconfirmed": 3625,
      "Ġhearing": 3626,
      "Ġmouth": 3627,
      "oria": 3628,
      "Ġod": 3629,
      "Ġbought": 3630,
      "Ġmoves": 3631,
      "Ġcoffee": 3632,
      "Ġfighting": 3633,
      "nie": 3634,
      "ĠÑĤ": 3635,
      "Ġbond": 3636,
      "Ġidentified": 3637,
      "ĠMaster": 3638,
      "ateur": 3639,
      "Ġwed": 3640,
      "Ġmes": 3641,
      "Ġadvanced": 3642,
      "Ġpal": 3643,
      "Ġtruck": 3644,
      "ĠCup": 3645,
      "Ġbroken": 3646,
      "Ġmarriage": 3647,
      "iento": 3648,
      "Ġabsolutely": 3649,
      "ĠÐ·": 3650,
      "Ġkom": 3651,
      "Ġissued": 3652,
      "Ġleaves": 3653,
      "Ġexecutive": 3654,
      "Ġnu": 3655,
      "-R": 3656,
      "Ġtwice": 3657,
      "ĠmÃ¡s": 3658,
      "Ġdrag": 3659,
      "Ġsed": 3660,
      "Ġbot": 3661,
      "Ġresolution": 3662,
      "ende": 3663,
      "Ġmeasures": 3664,
      "Ġlay": 3665,
      "ĠWhere": 3666,
      "Ġflight": 3667,
      "Ġdrugs": 3668,
      "Ġproposed": 3669,
      "Ġstated": 3670,
      "Ġeast": 3671,
      "åį": 3672,
      "Ġdebate": 3673,
      "lf": 3674,
      "Ġpad": 3675,
      "Ġplane": 3676,
      "uard": 3677,
      "itz": 3678,
      "ĠPeter": 3679,
      "Ġfell": 3680,
      "aje": 3681,
      "Ġfee": 3682,
      "reh": 3683,
      "Ġproof": 3684,
      "Ø±": 3685,
      "Ð»Ð¸": 3686,
      "Ġclim": 3687,
      "Ġtv": 3688,
      "Ġplays": 3689,
      "Ġdiscount": 3690,
      "ĠIraq": 3691,
      "Ġsac": 3692,
      "adas": 3693,
      "May": 3694,
      "Ġdomin": 3695,
      "orno": 3696,
      "Ġru": 3697,
      "cy": 3698,
      "Ġtrading": 3699,
      "Ġtypically": 3700,
      "Ãµ": 3701,
      "izar": 3702,
      "Ġva": 3703,
      "Ġrain": 3704,
      "According": 3705,
      "Ġdollars": 3706,
      "Ġrequested": 3707,
      "-day": 3708,
      "Ġintelligence": 3709,
      "Ġrat": 3710,
      "Ġnuclear": 3711,
      "Ġcrisis": 3712,
      "Ġstanding": 3713,
      "ĠCross": 3714,
      "Ġauthorities": 3715,
      "Ġfamiliar": 3716,
      "Ġfreedom": 3717,
      "Ġunion": 3718,
      "aret": 3719,
      "ĠÐ¼": 3720,
      "Ġnie": 3721,
      "ï¼Ł": 3722,
      "Ġbeach": 3723,
      "Ġquiet": 3724,
      "imo": 3725,
      "Ġprofit": 3726,
      "Ġera": 3727,
      "Ġho": 3728,
      "ĠJim": 3729,
      "Ã¡n": 3730,
      "ĠDemocratic": 3731,
      "Ġcurrency": 3732,
      "Ġclassic": 3733,
      "ĠÃ¨": 3734,
      "Ġaccident": 3735,
      "Ġcharged": 3736,
      "iones": 3737,
      "Ġwalking": 3738,
      "ifer": 3739,
      "ĠHas": 3740,
      "war": 3741,
      "Ġordered": 3742,
      "Ġevening": 3743,
      "Ġtun": 3744,
      "Ġarrived": 3745,
      "Ġeconom": 3746,
      "-mail": 3747,
      "ĠPay": 3748,
      "Ġking": 3749,
      "ĠHelp": 3750,
      "Ġabuse": 3751,
      "Ġchemical": 3752,
      "Ġorient": 3753,
      "Ġsob": 3754,
      "ika": 3755,
      "Ġpolitics": 3756,
      "Ġrepeated": 3757,
      "Are": 3758,
      "Ġnotification": 3759,
      "Ġtargets": 3760,
      "Ġgoogle": 3761,
      "ĠMartin": 3762,
      "lie": 3763,
      "Ġmand": 3764,
      "-ch": 3765,
      "Ġbelieved": 3766,
      "nic": 3767,
      "ungen": 3768,
      "Two": 3769,
      "æĺ": 3770,
      "çĶ¨": 3771,
      "Ġnine": 3772,
      "Ġsending": 3773,
      "Ġdebt": 3774,
      "ĠAfrican": 3775,
      "Ġexperts": 3776,
      "Ġjudge": 3777,
      "Ġtrace": 3778,
      "Ġconcerned": 3779,
      "Ġaccepted": 3780,
      "Ġsongs": 3781,
      "uent": 3782,
      "zt": 3783,
      "Ġsitting": 3784,
      "Ġassault": 3785,
      "ãĥ¼": 3786,
      "Ġarms": 3787,
      "Ġbear": 3788,
      "Ġmarkets": 3789,
      "ĠForce": 3790,
      "Ġvictim": 3791,
      "Ġfourth": 3792,
      "ĠStandard": 3793,
      "Ġassets": 3794,
      "Ġinterests": 3795,
      "eno": 3796,
      "Ġapproved": 3797,
      "Ġsnow": 3798,
      "ÙĨ": 3799,
      "Ġtodo": 3800,
      "Ġsel": 3801,
      "Ġpel": 3802,
      "Ġillegal": 3803,
      "Ġci": 3804,
      "Ġbuying": 3805,
      "Ġmu": 3806,
      "Ġlands": 3807,
      "Ġfort": 3808,
      "Ġnue": 3809,
      "aus": 3810,
      "ĠKorea": 3811,
      "hal": 3812,
      "Ġride": 3813,
      "ĠCanadian": 3814,
      "Ġunable": 3815,
      "Ġnos": 3816,
      "elly": 3817,
      "Ġmigration": 3818,
      "Ġadvance": 3819,
      "Ñİ": 3820,
      "pio": 3821,
      "Ġshopping": 3822,
      "Ġsigns": 3823,
      "ĠJones": 3824,
      "Ġja": 3825,
      "actual": 3826,
      "Ġbird": 3827,
      "Ġrelax": 3828,
      "Ġplate": 3829,
      "osa": 3830,
      "aire": 3831,
      "aba": 3832,
      "ĠArea": 3833,
      "hen": 3834,
      "Ġbegins": 3835,
      "uv": 3836,
      "iser": 3837,
      "Ġwave": 3838,
      "iche": 3839,
      "Ã¨re": 3840,
      "anz": 3841,
      "\"It": 3842,
      "alendar": 3843,
      "Ġspeaking": 3844,
      "Ġprove": 3845,
      "ÐµÐ»": 3846,
      "Ġcommission": 3847,
      "Ġcloser": 3848,
      "ku": 3849,
      "Ġconfidence": 3850,
      "ĠFederal": 3851,
      "Ð¹": 3852,
      "Ã¨s": 3853,
      "ÑĪ": 3854,
      "ĠCEO": 3855,
      "gar": 3856,
      "Ġcum": 3857,
      "Ġeating": 3858,
      "Ġplastic": 3859,
      "Ġscores": 3860,
      "Ġhate": 3861,
      "Ġpand": 3862,
      "Ġnur": 3863,
      "Ġmarried": 3864,
      "Ġdropped": 3865,
      "Ð¾Ð¼": 3866,
      "Ġwearing": 3867,
      "Ġstatements": 3868,
      "ĠShould": 3869,
      "Ġcentre": 3870,
      "Ã³w": 3871,
      "Ġtrouble": 3872,
      "ĠMexico": 3873,
      "Mr": 3874,
      "idi": 3875,
      "ĠÐ¿ÑĢ": 3876,
      "Ġaid": 3877,
      "Ġfaces": 3878,
      "iti": 3879,
      "Ġalle": 3880,
      "Ġrobot": 3881,
      "Ġreceiving": 3882,
      "Ġchecks": 3883,
      "Head": 3884,
      "itar": 3885,
      "Ð½Ñĭ": 3886,
      "ĠWilliam": 3887,
      "Ġaz": 3888,
      "Ġanywhere": 3889,
      "Ġoder": 3890,
      "ĠnÃ£o": 3891,
      "Ġfigures": 3892,
      "nam": 3893,
      "Ġtrees": 3894,
      "Ġhier": 3895,
      "Ġvictims": 3896,
      "iana": 3897,
      "Ġble": 3898,
      "Ġtelevision": 3899,
      "aciones": 3900,
      "Ġprincipal": 3901,
      "Ġfees": 3902,
      "Ġcorrectly": 3903,
      "fil": 3904,
      "Ġwel": 3905,
      "aga": 3906,
      "Ġfacility": 3907,
      "Ġhappening": 3908,
      "iden": 3909,
      "Ġhasn": 3910,
      "nen": 3911,
      "Ġspl": 3912,
      "Ġpaying": 3913,
      "Ġarrested": 3914,
      "ĠPrime": 3915,
      "abb": 3916,
      "alo": 3917,
      "vol": 3918,
      "uh": 3919,
      "mente": 3920,
      "imm": 3921,
      "Since": 3922,
      "what": 3923,
      "eur": 3924,
      "Ġvictory": 3925,
      "Ġsind": 3926,
      "åĩ": 3927,
      "aya": 3928,
      "Ġdogs": 3929,
      "Ġdelivered": 3930,
      ".-": 3931,
      "à¥": 3932,
      "ĠSyria": 3933,
      "ring": 3934,
      "Ġwerden": 3935,
      "Ġmachines": 3936,
      "ĠStock": 3937,
      "Ãµes": 3938,
      "ÙĪ": 3939,
      "agra": 3940,
      "ova": 3941,
      "ĠsiÄĻ": 3942,
      "Ġvotes": 3943,
      "Help": 3944,
      "aza": 3945,
      "ĠÃ¤": 3946,
      "Ġlights": 3947,
      "aman": 3948,
      "Ġminister": 3949,
      "Ġnombre": 3950,
      "zo": 3951,
      "Ġgest": 3952,
      "Ġdot": 3953,
      "Ġdiam": 3954,
      "Ġbomb": 3955,
      "ĠRepublicans": 3956,
      "sup": 3957,
      "Microsoft": 3958,
      "Ġindustrial": 3959,
      "Ġba": 3960,
      "Ġmad": 3961,
      "ìĿ´": 3962,
      "Ġdivision": 3963,
      "itÃ©": 3964,
      "iente": 3965,
      "Ġemergency": 3966,
      "æĪĲ": 3967,
      "Ġbodies": 3968,
      "Ġsky": 3969,
      "Could": 3970,
      "Ġhurt": 3971,
      "Ġplanned": 3972,
      "oment": 3973,
      "eres": 3974,
      "Ġparking": 3975,
      "dim": 3976,
      "ĠMedical": 3977,
      "Ġsolar": 3978,
      "Ġestimated": 3979,
      "Ġrevenue": 3980,
      "ĠØ§": 3981,
      "Ġbike": 3982,
      "aÃ§Ã£o": 3983,
      "har": 3984,
      "Ġhits": 3985,
      "ĠâĤ¬": 3986,
      "ĠVirginia": 3987,
      "Ġassistance": 3988,
      "Ġboys": 3989,
      "Ġwedding": 3990,
      "vision": 3991,
      "Ġtech": 3992,
      "iel": 3993,
      "Ð¾ÑĤ": 3994,
      "Ġmeat": 3995,
      "Hi": 3996,
      "éĹ": 3997,
      "-end": 3998,
      "åĲį": 3999,
      "ĠÐ½Ð°": 4000,
      "Ġconducted": 4001,
      "Ġrealize": 4002,
      "iano": 4003,
      "ÐµÐ´": 4004,
      "Ġtid": 4005,
      "Ġkilling": 4006,
      "ÐºÐ°": 4007,
      "Ġshouldn": 4008,
      "ëĭ¤": 4009,
      "Ġrepeat": 4010,
      "uten": 4011,
      "ìŀ": 4012,
      "Ġcalendar": 4013,
      "Ġstrike": 4014,
      "orem": 4015,
      "Ġgang": 4016,
      "Ġaccused": 4017,
      "Ġdire": 4018,
      "ĠBritain": 4019,
      "Ġmodal": 4020,
      "isi": 4021,
      "Ġtur": 4022,
      "Ġpulled": 4023,
      "Ġlegislation": 4024,
      "ego": 4025,
      "Ġcompr": 4026,
      "Ġshares": 4027,
      "Ġrig": 4028,
      "asse": 4029,
      "Ġholiday": 4030,
      "ĠYoung": 4031,
      "Ġbei": 4032,
      "Ġwheel": 4033,
      "Ġchecking": 4034,
      "Ġjest": 4035,
      "Ġsole": 4036,
      "bal": 4037,
      "Ġpresidential": 4038,
      "Ø¯": 4039,
      "Ġdrawing": 4040,
      "aka": 4041,
      "stra": 4042,
      "æĹ¶": 4043,
      "idos": 4044,
      "Ġstands": 4045,
      "Ġafternoon": 4046,
      "Ġik": 4047,
      "lag": 4048,
      "Ġwie": 4049,
      "ĠAustralian": 4050,
      "Ġaccurate": 4051,
      "ĠSW": 4052,
      "Ġlimits": 4053,
      "Ġarmy": 4054,
      "Ġboss": 4055,
      "uma": 4056,
      "Ġkan": 4057,
      "Ġbench": 4058,
      "Ġcrowd": 4059,
      "Ġpowers": 4060,
      "Ġtalks": 4061,
      "Ġstorm": 4062,
      "onna": 4063,
      "fall": 4064,
      "owa": 4065,
      "agues": 4066,
      "Ð¸Ñģ": 4067,
      "ĠSupreme": 4068,
      "Ġga": 4069,
      "Ġham": 4070,
      "Ġcha": 4071,
      "aten": 4072,
      "åĨ": 4073,
      "Ġsoul": 4074,
      "Ġsolo": 4075,
      "Ġgi": 4076,
      "zie": 4077,
      "Ġscheduled": 4078,
      "Ġgarden": 4079,
      "Ġattempts": 4080,
      "anto": 4081,
      "ìĹ": 4082,
      "iar": 4083,
      "Ġty": 4084,
      "idades": 4085,
      "Ġkeeps": 4086,
      "ori": 4087,
      "azy": 4088,
      "Ġkeyboard": 4089,
      "ĠRyan": 4090,
      "Ġcoast": 4091,
      "Ġyesterday": 4092,
      "Ð½Ð¾": 4093,
      "Ġnoticed": 4094,
      "Ð»Ñı": 4095,
      "Ã©es": 4096,
      "Ġglo": 4097,
      "Ġze": 4098,
      "bat": 4099,
      "Ġreplacement": 4100,
      "apis": 4101,
      "Ġmg": 4102,
      "Ġattorney": 4103,
      "Ġyellow": 4104,
      "Ġopposition": 4105,
      "Ã©r": 4106,
      "Ð¾Ð±": 4107,
      "Ġreact": 4108,
      "cz": 4109,
      "Ġdiss": 4110,
      "days": 4111,
      "ĠÃ¼ber": 4112,
      "confirm": 4113,
      "Ġcontest": 4114,
      "Ġfrequently": 4115,
      "erte": 4116,
      "lights": 4117,
      "Ġbedroom": 4118,
      "Ġdw": 4119,
      "ĠFBI": 4120,
      "dm": 4121,
      "Ġdinner": 4122,
      "Ġbrown": 4123,
      "erto": 4124,
      "Ġfired": 4125,
      "icion": 4126,
      "Ġvor": 4127,
      "ĠÃ©t": 4128,
      "Ġtracks": 4129,
      "cht": 4130,
      "Ġimmediate": 4131,
      "ĠÑĥ": 4132,
      "Â·": 4133,
      "aller": 4134,
      "Ġreceiver": 4135,
      "Ġingredients": 4136,
      "ques": 4137,
      "Ã¤r": 4138,
      "oda": 4139,
      "Ġrum": 4140,
      "Ð°Ð½Ð¸": 4141,
      "aylor": 4142,
      "Ã¤t": 4143,
      "Ġnearby": 4144,
      "Ġnach": 4145,
      "ashes": 4146,
      "inv": 4147,
      "ĠÐ±": 4148,
      "Ġtrick": 4149,
      "White": 4150,
      "awa": 4151,
      "ĠBush": 4152,
      "Ġbutter": 4153,
      "Ġbid": 4154,
      "ollywood": 4155,
      "Ġlista": 4156,
      "Ġtransactions": 4157,
      "Ġhabit": 4158,
      "Ġaircraft": 4159,
      "Ġinstrument": 4160,
      "Ñī": 4161,
      "Ġot": 4162,
      "convert": 4163,
      "Ġpayments": 4164,
      "Ġconcrete": 4165,
      "Ð½Ð°": 4166,
      "Ġtan": 4167,
      "ä»¶": 4168,
      "oli": 4169,
      "ĠBob": 4170,
      "Ġcrazy": 4171,
      "Ġdeclared": 4172,
      "Ġnormally": 4173,
      "IFT": 4174,
      "Øª": 4175,
      "asta": 4176,
      "Ġappeal": 4177,
      "ĠLinux": 4178,
      "ĠChief": 4179,
      "Ġelectronic": 4180,
      "ĠOhio": 4181,
      "sz": 4182,
      "Ġbien": 4183,
      "Ġstreets": 4184,
      "Ġcutting": 4185,
      "Ġcausing": 4186,
      "bra": 4187,
      "will": 4188,
      "Ġwet": 4189,
      "Ġges": 4190,
      "ouston": 4191,
      "Black": 4192,
      "Ġbroke": 4193,
      "erring": 4194,
      "Google": 4195,
      "Ġgear": 4196,
      "Ġexpansion": 4197,
      "Ġupcoming": 4198,
      "las": 4199,
      "Ð¾Ð³": 4200,
      "icide": 4201,
      "Ġreprodu": 4202,
      "Ġly": 4203,
      "Ã±o": 4204,
      "ĠAsian": 4205,
      "Ġchose": 4206,
      "ÙĬ": 4207,
      "ìĦ": 4208,
      "ĠDid": 4209,
      "ucc": 4210,
      "Ġanymore": 4211,
      "chi": 4212,
      "seg": 4213,
      "Ġremained": 4214,
      "who": 4215,
      "aki": 4216,
      "Ġheads": 4217,
      "ĠMichigan": 4218,
      "ĠTour": 4219,
      "mal": 4220,
      "Ġcable": 4221,
      "agem": 4222,
      "iten": 4223,
      "Ġuk": 4224,
      "Ġhang": 4225,
      "ãģĹ": 4226,
      "some": 4227,
      "Ġza": 4228,
      "Ġsomewhere": 4229,
      "Ġbreaking": 4230,
      "Ġpurchased": 4231,
      "Ð¾Ðº": 4232,
      "Ġbatt": 4233,
      "Ġhal": 4234,
      "lower": 4235,
      "Ġpag": 4236,
      "ä¸Ģ": 4237,
      "Ġhell": 4238,
      "sim": 4239,
      "Ġsont": 4240,
      "para": 4241,
      "Ġriver": 4242,
      "Ġwithdraw": 4243,
      "ĠItalian": 4244,
      "Ġwins": 4245,
      "Ġdenied": 4246,
      "Ġwird": 4247,
      "ouver": 4248,
      "Ġsurgery": 4249,
      "Ġcouncil": 4250,
      "Ġreform": 4251,
      "Ġbis": 4252,
      "Ġsuddenly": 4253,
      "Ġao": 4254,
      "Ġtracking": 4255,
      "Ġbathroom": 4256,
      "ĠÄĳ": 4257,
      "Ġsoldiers": 4258,
      "ĠEgypt": 4259,
      "ĠConference": 4260,
      "è¯·": 4261,
      "Ġstrange": 4262,
      "program": 4263,
      "Ġvotre": 4264,
      "Ġmanufacturing": 4265,
      "Ã¹": 4266,
      "emos": 4267,
      "Ġdass": 4268,
      "ÐµÐº": 4269,
      "Ġsilver": 4270,
      "Ġhouses": 4271,
      "Ġslide": 4272,
      "hello": 4273,
      "lah": 4274,
      "Should": 4275,
      "æī": 4276,
      "don": 4277,
      "azione": 4278,
      "ĠDead": 4279,
      "imento": 4280,
      "ĠSea": 4281,
      "Ġkil": 4282,
      "ĠHospital": 4283,
      "Ġwallet": 4284,
      "Ġimmigration": 4285,
      "Ġclothes": 4286,
      "Ġactivation": 4287,
      "Ġcuts": 4288,
      "ahr": 4289,
      "Ġincorrect": 4290,
      "Ġliv": 4291,
      "Ġra": 4292,
      "mu": 4293,
      "Ġregional": 4294,
      "Ġsobre": 4295,
      "Ġesta": 4296,
      "Ġmeal": 4297,
      "Ġwake": 4298,
      "cker": 4299,
      "Ġfunny": 4300,
      "icas": 4301,
      "Who": 4302,
      "Ġbirthday": 4303,
      "weather": 4304,
      "Ġsuspect": 4305,
      "Ġmarch": 4306,
      "Ġhorse": 4307,
      "Ġdella": 4308,
      "Ġprocessed": 4309,
      "Ġko": 4310,
      "Ġrein": 4311,
      "Ġbir": 4312,
      "Ã§Ãµes": 4313,
      "iller": 4314,
      "Ġdance": 4315,
      "iami": 4316,
      "Ġdar": 4317,
      "Ġbow": 4318,
      "ĠPosted": 4319,
      "Ġpending": 4320,
      "Ġrecognize": 4321,
      "Ġpipeline": 4322,
      "Ġearned": 4323,
      "lica": 4324,
      "ãģ¯": 4325,
      "ede": 4326,
      "Ġboat": 4327,
      "Ġpermanent": 4328,
      "Ġcarrying": 4329,
      "ĠItaly": 4330,
      "anti": 4331,
      "Today": 4332,
      "Ġgal": 4333,
      "Ð³": 4334,
      "isse": 4335,
      "dam": 4336,
      "tele": 4337,
      "Ġlawyer": 4338,
      "iso": 4339,
      "asa": 4340,
      "Ġlies": 4341,
      "raf": 4342,
      "Ġeinen": 4343,
      "ĠMust": 4344,
      "ĠestÃ¡": 4345,
      "Ġbias": 4346,
      "antes": 4347,
      "Ġshirt": 4348,
      "Ġsans": 4349,
      "Ġsupporters": 4350,
      "Ġtodos": 4351,
      "Ġdont": 4352,
      "Ġinjured": 4353,
      "Ġses": 4354,
      "amar": 4355,
      "Ġeu": 4356,
      "Ġrestaurants": 4357,
      "tw": 4358,
      "ussian": 4359,
      "Ġhi": 4360,
      "Ġmul": 4361,
      "Å¼e": 4362,
      "Ġhoping": 4363,
      "Ġmoral": 4364,
      "ellen": 4365,
      "Ġfalling": 4366,
      "Ġforever": 4367,
      "Ġpapers": 4368,
      "ãĥ³": 4369,
      "Ġstuck": 4370,
      "uni": 4371,
      "ghan": 4372,
      "Ġkann": 4373,
      "Ġgran": 4374,
      "ubs": 4375,
      "Ġbat": 4376,
      "ãģ®": 4377,
      "Ġlunch": 4378,
      "sten": 4379,
      "Ġcleaning": 4380,
      "è¾": 4381,
      "best": 4382,
      "allas": 4383,
      "Ð°Ðº": 4384,
      "Ġjoy": 4385,
      "omo": 4386,
      "zed": 4387,
      "ĠIsraeli": 4388,
      "ĠDeath": 4389,
      "People": 4390,
      "ë¥": 4391,
      "acht": 4392,
      "ä¸Ń": 4393,
      "ĠBrazil": 4394,
      "Ð°Ð»": 4395,
      "quer": 4396,
      "anim": 4397,
      "His": 4398,
      "Ġelections": 4399,
      "ĠCoast": 4400,
      "uta": 4401,
      "Ġbread": 4402,
      "Ġhopes": 4403,
      "Ġguilty": 4404,
      "Ġrose": 4405,
      "ieren": 4406,
      "yo": 4407,
      "Ġzum": 4408,
      "Ġmens": 4409,
      "Ġrefused": 4410,
      "isch": 4411,
      "Ġlocked": 4412,
      "Ã¼n": 4413,
      "ÃŃt": 4414,
      "Ð¸Ð¼": 4415,
      "Ġsalary": 4416,
      "ogg": 4417,
      "Ġwir": 4418,
      "Ġcontinu": 4419,
      "was": 4420,
      "Ġfraud": 4421,
      "ĠKorean": 4422,
      "Ġore": 4423,
      "Ġexplanation": 4424,
      "Ùĩ": 4425,
      "Ġchicken": 4426,
      "ãģ§": 4427,
      "Ġdrinking": 4428,
      "Ġthousand": 4429,
      "íķĺ": 4430,
      "Ġswim": 4431,
      "union": 4432,
      "atan": 4433,
      "Ġìŀ": 4434,
      "Ġmeetings": 4435,
      "Ġtries": 4436,
      "Ġtipo": 4437,
      "Ġmountain": 4438,
      "Ġpounds": 4439,
      "Ġflying": 4440,
      "uno": 4441,
      "Ð¾Ð¹": 4442,
      "Ġpenalty": 4443,
      "Ġgrass": 4444,
      "Ġai": 4445,
      "Ġchip": 4446,
      "Ġviolent": 4447,
      "Ġconstitution": 4448,
      "yt": 4449,
      "Ġtort": 4450,
      "aco": 4451,
      "Ġnam": 4452,
      "yal": 4453,
      "mates": 4454,
      "Ġcant": 4455,
      "Ġmerc": 4456,
      "Ġbottle": 4457,
      "åİ": 4458,
      "ĠCould": 4459,
      "Ġconfident": 4460,
      "Ġlect": 4461,
      "Ġmistake": 4462,
      "ä¸į": 4463,
      "Ġdeposit": 4464,
      "Ġkon": 4465,
      "iga": 4466,
      "wan": 4467,
      "Ġtout": 4468,
      "ëĬĶ": 4469,
      "orte": 4470,
      "enta": 4471,
      "Ġtomorrow": 4472,
      "ãģĦ": 4473,
      "Ġcalculated": 4474,
      "Ġwy": 4475,
      "Ġjet": 4476,
      "enz": 4477,
      "Ġalarm": 4478,
      "icos": 4479,
      "æĸ°": 4480,
      "wi": 4481,
      "Ã©m": 4482,
      "ĠPakistan": 4483,
      "hes": 4484,
      "inois": 4485,
      "Ġnations": 4486,
      "inen": 4487,
      "Ġrt": 4488,
      "Ã¡t": 4489,
      "bec": 4490,
      "ãģ¾": 4491,
      "nh": 4492,
      "ahl": 4493,
      "Ġairport": 4494,
      "audio": 4495,
      "Ġmai": 4496,
      "hu": 4497,
      "æĸĩ": 4498,
      "ÐºÐ¸": 4499,
      "erk": 4500,
      "Ġimper": 4501,
      "Ġvice": 4502,
      "iste": 4503,
      "Ġrape": 4504,
      "ĠAfghan": 4505,
      "Ġnewspaper": 4506,
      "Ġini": 4507,
      "Ġbull": 4508,
      "Ġlady": 4509,
      "Ġquit": 4510,
      "Ġpou": 4511,
      "oca": 4512,
      "Ġprovince": 4513,
      "Ġpersonnel": 4514,
      "activate": 4515,
      "ĠBuilding": 4516,
      "Ġrestrictions": 4517,
      "ä¸ĭ": 4518,
      "Ġwaves": 4519,
      "Ġtroops": 4520,
      "Ġnous": 4521,
      "tit": 4522,
      "Ġokay": 4523,
      "Ġmayor": 4524,
      "ĠSu": 4525,
      "ĠÃ¶": 4526,
      "Ġautomatic": 4527,
      "Ð¶": 4528,
      "Ġguitar": 4529,
      "ĠJews": 4530,
      "Ġcaptured": 4531,
      "ĠTurkey": 4532,
      "idas": 4533,
      "Ġfinance": 4534,
      "Ġgotten": 4535,
      "Ð¾Ð»ÑĮ": 4536,
      "iert": 4537,
      "bank": 4538,
      "ĠMiller": 4539,
      "Ġpose": 4540,
      "Ġfitness": 4541,
      "need": 4542,
      "ARS": 4543,
      "Ġeiner": 4544,
      "Ġweekly": 4545,
      "Ġfalls": 4546,
      "Ġtwenty": 4547,
      "Ġsettlement": 4548,
      "ĠJordan": 4549,
      "iza": 4550,
      "Ġvie": 4551,
      "aca": 4552,
      "Ġade": 4553,
      "Ġnome": 4554,
      "Ġconcentr": 4555,
      "Ġnas": 4556,
      "Ġcheese": 4557,
      "aro": 4558,
      "ĠØ§ÙĦ": 4559,
      "ÐµÐ½Ð¸Ðµ": 4560,
      "åĪĨ": 4561,
      "Ġrescue": 4562,
      "Ġrend": 4563,
      "Ġattempted": 4564,
      "ãģĻ": 4565,
      "onde": 4566,
      "Ġcooking": 4567,
      "Ġger": 4568,
      "åħ¥": 4569,
      "Ð°ÑĢ": 4570,
      "aires": 4571,
      "ĠÑĩ": 4572,
      "Ġzur": 4573,
      "Ð¾Ð½": 4574,
      "Ġmr": 4575,
      "'est": 4576,
      "Ġak": 4577,
      "Ġgenre": 4578,
      "Ġarrive": 4579,
      "Ġstations": 4580,
      "switch": 4581,
      "äºº": 4582,
      "Ġalg": 4583,
      "Ġloud": 4584,
      "Ġtamb": 4585,
      "ë¡ľ": 4586,
      "eren": 4587,
      "ĠExpress": 4588,
      "Ġruling": 4589,
      "inda": 4590,
      "ä¼": 4591,
      "Ġeinem": 4592,
      "Ġarmed": 4593,
      "ä¸Ĭ": 4594,
      "eln": 4595,
      "Ã§a": 4596,
      "Ġterrible": 4597,
      "google": 4598,
      "Ġstruck": 4599,
      "flix": 4600,
      "ento": 4601,
      "Ġjail": 4602,
      "Ġgray": 4603,
      "Ġrejected": 4604,
      "Ġleather": 4605,
      "ĠÑĦ": 4606,
      "Ġtear": 4607,
      "Ġbrill": 4608,
      "Ġforecast": 4609,
      "tery": 4610,
      "Ġws": 4611,
      "Ġhaben": 4612,
      "Ġappointment": 4613,
      "kel": 4614,
      "Ġhay": 4615,
      "Ġeuro": 4616,
      "ĠÐ¿Ð¾": 4617,
      "ĠSpain": 4618,
      "Ġdollar": 4619,
      "Ġjun": 4620,
      "Ġfifth": 4621,
      "Ġdecline": 4622,
      "inge": 4623,
      "ä¸º": 4624,
      "Ġlighting": 4625,
      "Ġdia": 4626,
      "ischen": 4627,
      "este": 4628,
      "dit": 4629,
      "Ð°Ð²": 4630,
      "Ð¸ÑĤÑĮ": 4631,
      "Ġnoch": 4632,
      "Ġmusical": 4633,
      "Ġoc": 4634,
      "Ġworried": 4635,
      "Ġram": 4636,
      "Ġgel": 4637,
      "Ġgut": 4638,
      "ĠGreek": 4639,
      "ìĿĦ": 4640,
      "éĹ´": 4641,
      "Ġspokesman": 4642,
      "ĠSaudi": 4643,
      "Ġub": 4644,
      "Ġtonight": 4645,
      "Ġdining": 4646,
      "arga": 4647,
      "Ġocean": 4648,
      "Ð°Ñģ": 4649,
      "Ġdirections": 4650,
      "ĠÃº": 4651,
      "Ġcz": 4652,
      "åı·": 4653,
      "Ð°ÑĤÑĮ": 4654,
      "Ġdesk": 4655,
      "Ġfel": 4656,
      "ilo": 4657,
      "Ġpes": 4658,
      "Ġtut": 4659,
      "Ġsouthern": 4660,
      "Ġsomebody": 4661,
      "Ġclosest": 4662,
      "ĠÑĢ": 4663,
      "Ġtak": 4664,
      "Ġgate": 4665,
      "Ġprogramme": 4666,
      "ĠSyrian": 4667,
      "Ġhip": 4668,
      "Ġsuicide": 4669,
      "Ġdemands": 4670,
      "Ġdent": 4671,
      "åıĸ": 4672,
      "Ġgained": 4673,
      "Ġbom": 4674,
      "Ġnorthern": 4675,
      "Ġattended": 4676,
      "Ġcollapse": 4677,
      "ĠKong": 4678,
      "Ġpert": 4679,
      "Ġpink": 4680,
      "Ã±os": 4681,
      "Ġfer": 4682,
      "robot": 4683,
      "Ġstupid": 4684,
      "Ġpu": 4685,
      "Ġjed": 4686,
      "Ġbreaks": 4687,
      "apa": 4688,
      "Ã±a": 4689,
      "obi": 4690,
      "agan": 4691,
      "Ġattacked": 4692,
      "ĠÑģÑĤ": 4693,
      "åĽŀ": 4694,
      "Ġagenda": 4695,
      "ë¥¼": 4696,
      "ĠAttorney": 4697,
      "Ġfu": 4698,
      "Ġcancell": 4699,
      "ÅĽci": 4700,
      "Ġoct": 4701,
      "ÐµÐ½Ð¸Ñı": 4702,
      "åľ¨": 4703,
      "Ġwestern": 4704,
      "Ġcomputers": 4705,
      "Ã©l": 4706,
      "æİ": 4707,
      "cancel": 4708,
      "Ġmehr": 4709,
      "Ð°Ð¹": 4710,
      "there": 4711,
      "good": 4712,
      "zens": 4713,
      "Ġorange": 4714,
      "Ġspeaker": 4715,
      "Ġpron": 4716,
      "à¹Ī": 4717,
      "angan": 4718,
      "Ġegg": 4719,
      "ĠÐ½Ðµ": 4720,
      "Hey": 4721,
      "Ð°Ð·": 4722,
      "Ġvend": 4723,
      "ÐµÐ½ÑĤ": 4724,
      "Ġwarned": 4725,
      "ĠÃ¡": 4726,
      "raise": 4727,
      "ĠExchange": 4728,
      "Ġtel": 4729,
      "uar": 4730,
      "iu": 4731,
      "ĠsÃ©": 4732,
      "ĠUkraine": 4733,
      "Ġdeclined": 4734,
      "Ġfestival": 4735,
      "Ġeggs": 4736,
      "Ġswing": 4737,
      "Ġgym": 4738,
      "Ġrepeatedly": 4739,
      "æľī": 4740,
      "alia": 4741,
      "iere": 4742,
      "Ġfest": 4743,
      "Ġcada": 4744,
      "Ã©g": 4745,
      "ĠWould": 4746,
      "Ġintense": 4747,
      "Ġay": 4748,
      "cow": 4749,
      "Æ°": 4750,
      "Ð¸Ð½": 4751,
      "ä¸ª": 4752,
      "immer": 4753,
      "Ã¡l": 4754,
      "Ġny": 4755,
      "have": 4756,
      "Ġcrypto": 4757,
      "jar": 4758,
      "aja": 4759,
      "Ġgovernor": 4760,
      "edi": 4761,
      "Ġlip": 4762,
      "Ġfloating": 4763,
      "walk": 4764,
      "vez": 4765,
      "Ð°Ð¿": 4766,
      "ĠForeign": 4767,
      "Ġrecall": 4768,
      "pot": 4769,
      "Ġgolf": 4770,
      "ÅĦ": 4771,
      "anie": 4772,
      "aug": 4773,
      "ĠHong": 4774,
      "ãģ¨": 4775,
      "Ġbowl": 4776,
      "Ġrally": 4777,
      "sal": 4778,
      "Ġreleases": 4779,
      "Ġdestruction": 4780,
      "é¢": 4781,
      "akan": 4782,
      "Ġgarage": 4783,
      "Ġflowers": 4784,
      "vere": 4785,
      "Ġblocked": 4786,
      "Ġcalm": 4787,
      "Ġaug": 4788,
      "Ġsink": 4789,
      "atas": 4790,
      "Ġsein": 4791,
      "latest": 4792,
      "ÑĦ": 4793,
      "Ã¼ck": 4794,
      "Ġcow": 4795,
      "Stock": 4796,
      "Ġig": 4797,
      "ackson": 4798,
      "ìĹĲ": 4799,
      "Ġjak": 4800,
      "ä½ľ": 4801,
      "Ġbrut": 4802,
      "Ġattempting": 4803,
      "Ġsab": 4804,
      "Ġcats": 4805,
      "ulus": 4806,
      "uesta": 4807,
      "Ġfaire": 4808,
      "Ġaimed": 4809,
      "ativ": 4810,
      "Ġbaseball": 4811,
      "encer": 4812,
      "hor": 4813,
      "oa": 4814,
      "ĠUSD": 4815,
      "Ġhitting": 4816,
      "Ġsmoking": 4817,
      "Ġuntuk": 4818,
      "Ġgains": 4819,
      "Ġplug": 4820,
      "Three": 4821,
      "bu": 4822,
      "Ð¾Ð·": 4823,
      "Ġrice": 4824,
      "Ġbirds": 4825,
      "ãģ«": 4826,
      "Ã©c": 4827,
      "Ġmood": 4828,
      "Ġresolved": 4829,
      "ãĥĪ": 4830,
      "Ġfrozen": 4831,
      "Ġfait": 4832,
      "arma": 4833,
      "Ġmeng": 4834,
      "Ġterrorist": 4835,
      "Ġaged": 4836,
      "Ġbene": 4837,
      "ÑĢÑĥ": 4838,
      "Ġdurch": 4839,
      "Ã¡rio": 4840,
      "Ġgrey": 4841,
      "sur": 4842,
      "two": 4843,
      "ç¤º": 4844,
      "fecha": 4845,
      "Ġties": 4846,
      "Ġriding": 4847,
      "Ġpit": 4848,
      "arte": 4849,
      "à¹ī": 4850,
      "ĠÐ´Ð»Ñı": 4851,
      "enden": 4852,
      "-un": 4853,
      "iale": 4854,
      "mir": 4855,
      "Ġfishing": 4856,
      "Ġki": 4857,
      "pn": 4858,
      "rac": 4859,
      "ê°Ģ": 4860,
      "ei": 4861,
      "Ġpreg": 4862,
      "beit": 4863,
      "liche": 4864,
      "Ġmont": 4865,
      "Ġmeets": 4866,
      "Ġsucc": 4867,
      "Ġnumero": 4868,
      "eling": 4869,
      "Ġcette": 4870,
      "Ø³": 4871,
      "Ġjam": 4872,
      "via": 4873,
      "Ġabortion": 4874,
      "iÃ¨re": 4875,
      "Ġbra": 4876,
      "inas": 4877,
      "Ġallies": 4878,
      "eu": 4879,
      "Ġrib": 4880,
      "Ġhaz": 4881,
      "ugged": 4882,
      "Ġkont": 4883,
      "Ġvacation": 4884,
      "elo": 4885,
      "à¸Ļ": 4886,
      "Ġpent": 4887,
      "cu": 4888,
      "Ã§o": 4889,
      "Ġsword": 4890,
      "igg": 4891,
      "åĩº": 4892,
      "Ġkl": 4893,
      "Ġprecis": 4894,
      "Ġparticipation": 4895,
      "xit": 4896,
      "ĠÐ¾ÑĤ": 4897,
      "Ġactivate": 4898,
      "rij": 4899,
      "Ġsour": 4900,
      "pie": 4901,
      "Ġwondering": 4902,
      "mad": 4903,
      "Ġnh": 4904,
      "zn": 4905,
      "Ġbil": 4906,
      "ibt": 4907,
      "Ġlanding": 4908,
      "Ġcod": 4909,
      "pes": 4910,
      "éĶ": 4911,
      "ĠÐ°": 4912,
      "ìĿĺ": 4913,
      "æĺ¯": 4914,
      "Ġdengan": 4915,
      "mont": 4916,
      "Ġfare": 4917,
      "uum": 4918,
      "utos": 4919,
      "Ġartificial": 4920,
      "Ġlying": 4921,
      "æĹ¶éĹ´": 4922,
      "ãģĹãģ": 4923,
      "ardo": 4924,
      "Ġrag": 4925,
      "ê¸°": 4926,
      "sta": 4927,
      "Ġpremier": 4928,
      "ĠAfghanistan": 4929,
      "Ġneu": 4930,
      "elli": 4931,
      "Ã³d": 4932,
      "bre": 4933,
      "Ġwaters": 4934,
      "rock": 4935,
      "udi": 4936,
      "Ġtelephone": 4937,
      "enez": 4938,
      "ÑģÑı": 4939,
      "Ġvez": 4940,
      "tol": 4941,
      "Ġrod": 4942,
      "Ġlung": 4943,
      "Ġlaptop": 4944,
      "Ġblast": 4945,
      "iri": 4946,
      "Ġconventional": 4947,
      "Ġhanging": 4948,
      "åī": 4949,
      "è¡¨": 4950,
      "éĻ¤": 4951,
      "Ġfrequent": 4952,
      "Ġbol": 4953,
      "plain": 4954,
      "zym": 4955,
      "à¸²": 4956,
      "oni": 4957,
      "such": 4958,
      "ĠÐ²Ñĭ": 4959,
      "Ġpoker": 4960,
      "Ġsono": 4961,
      "plant": 4962,
      "Ġconcert": 4963,
      "Ġmortgage": 4964,
      "Ġcyber": 4965,
      "nia": 4966,
      "Ġdonne": 4967,
      "Ġactivists": 4968,
      "uir": 4969,
      "ĠÑį": 4970,
      "åĬł": 4971,
      "Ùģ": 4972,
      "facebook": 4973,
      "Ġrefund": 4974,
      "Ġtraveling": 4975,
      "album": 4976,
      "éĿ": 4977,
      "Ġsep": 4978,
      "ÐµÐ¹": 4979,
      "Ġapr": 4980,
      "Ġvisits": 4981,
      "Ġkiss": 4982,
      "Ġsilent": 4983,
      "sch": 4984,
      "Ġcondem": 4985,
      "amo": 4986,
      "ĠPutin": 4987,
      "Ġsleeping": 4988,
      "Ġparliament": 4989,
      "Ġpicking": 4990,
      "aden": 4991,
      "Ġtorn": 4992,
      "Ġlawyers": 4993,
      "Ġchairman": 4994,
      "Ġfert": 4995,
      "itas": 4996,
      "ĠÐ¾Ð±": 4997,
      "Ġjury": 4998,
      "entes": 4999,
      "Ġdic": 5000,
      "bag": 5001,
      "onia": 5002,
      "Ġcorruption": 5003,
      "Ġprz": 5004,
      "Ð¾Ð¶": 5005,
      "Ġtrop": 5006,
      "æ±": 5007,
      "çĶŁ": 5008,
      "Ġdit": 5009,
      "Ġsends": 5010,
      "Ġracing": 5011,
      "ä¿¡": 5012,
      "aran": 5013,
      "Ġspeakers": 5014,
      "ì§Ģ": 5015,
      "ĠktÃ³": 5016,
      "Ġtoy": 5017,
      "Ø¨": 5018,
      "Ġfailing": 5019,
      "elson": 5020,
      "etter": 5021,
      "Ġhij": 5022,
      "Ġdeadline": 5023,
      "issa": 5024,
      "Ġknife": 5025,
      "Ġlag": 5026,
      "Ġale": 5027,
      "Does": 5028,
      "nik": 5029,
      "Ġunter": 5030,
      "Ġsmartphone": 5031,
      "Ã¤h": 5032,
      "\"This": 5033,
      "ÅĤa": 5034,
      "Ġbass": 5035,
      "ìĭ": 5036,
      "Ġprox": 5037,
      "Ã¤nd": 5038,
      "anno": 5039,
      "Ã¼h": 5040,
      "Ġanniversary": 5041,
      "Ms": 5042,
      "Ġjoke": 5043,
      "Â£": 5044,
      "ãĤ¹": 5045,
      "lichen": 5046,
      "Ġfoi": 5047,
      "Ġrecipient": 5048,
      "Ġrefugees": 5049,
      "Ġprobe": 5050,
      "pow": 5051,
      "bie": 5052,
      "illo": 5053,
      "Ġlake": 5054,
      "Ġdei": 5055,
      "Ġster": 5056,
      "ĠPalestinian": 5057,
      "ĠStorm": 5058,
      "ĠCorp": 5059,
      "comb": 5060,
      "Ġsess": 5061,
      "çĲĨ": 5062,
      "Ġidentification": 5063,
      "æľ¬": 5064,
      "Ġpicks": 5065,
      "Ġprotests": 5066,
      "Ġcabinet": 5067,
      "igue": 5068,
      "notify": 5069,
      "Ġvom": 5070,
      "Ġactivated": 5071,
      "cciÃ³n": 5072,
      "Ġtens": 5073,
      "ê³": 5074,
      "estado": 5075,
      "Ġfue": 5076,
      "Ġë°": 5077,
      "ahan": 5078,
      "'un": 5079,
      "Ġwenn": 5080,
      "kom": 5081,
      "Ð¾Ð³Ð¾": 5082,
      "Ġdub": 5083,
      "empo": 5084,
      "ÑĢÐ°": 5085,
      "Ġabroad": 5086,
      "ĠÐµ": 5087,
      "unden": 5088,
      "ãģĵ": 5089,
      "Ġceiling": 5090,
      "Ġpassengers": 5091,
      "Ġsoccer": 5092,
      "ieder": 5093,
      "strar": 5094,
      "Ã²": 5095,
      "Police": 5096,
      "ikan": 5097,
      "è¡Į": 5098,
      "çº": 5099,
      "cou": 5100,
      "Ġpulling": 5101,
      "Ġtwitter": 5102,
      "China": 5103,
      "David": 5104,
      "à¸£": 5105,
      "-month": 5106,
      "Ġscar": 5107,
      "Ġakt": 5108,
      "Ġah": 5109,
      "Ġstolen": 5110,
      "Ġexpecting": 5111,
      "Ġwooden": 5112,
      "Ġstrikes": 5113,
      "esa": 5114,
      "å®ļ": 5115,
      "got": 5116,
      "enti": 5117,
      "Ġtransferred": 5118,
      "ĠMoscow": 5119,
      "æĶ¹": 5120,
      "Ġupset": 5121,
      "Ġwalks": 5122,
      "ÐµÑģ": 5123,
      "Ġstocks": 5124,
      "ÑĤÐ¸": 5125,
      "Ġpizza": 5126,
      "Ġmuy": 5127,
      "Ġduplicate": 5128,
      "iao": 5129,
      "wy": 5130,
      "Ġgig": 5131,
      "Ġsoll": 5132,
      "cion": 5133,
      "Ġamid": 5134,
      "Ð½Ð¸": 5135,
      "erta": 5136,
      "Ġlev": 5137,
      "Ġcharging": 5138,
      "alloween": 5139,
      "Ġmos": 5140,
      "å¸Ĥ": 5141,
      "Ġalla": 5142,
      "æľŁ": 5143,
      "Ġbay": 5144,
      "Ġdesde": 5145,
      "rob": 5146,
      "rez": 5147,
      "Ġsinger": 5148,
      "ĠpiÃ¹": 5149,
      "Ð¾Ñģ": 5150,
      "Ġreproduce": 5151,
      "amiento": 5152,
      "Ð°Ð´": 5153,
      "ilen": 5154,
      "azer": 5155,
      "Ġregistr": 5156,
      "Ġseller": 5157,
      "Ġsentences": 5158,
      "Ġcoat": 5159,
      "ĠKy": 5160,
      "nya": 5161,
      "Ġpac": 5162,
      "Ġverification": 5163,
      "ĠÃªtre": 5164,
      "ÅĤo": 5165,
      "did": 5166,
      "ande": 5167,
      "à¸Ń": 5168,
      "Ġfacebook": 5169,
      "Ġcleared": 5170,
      "lij": 5171,
      "termin": 5172,
      "Ġbez": 5173,
      "Ġsits": 5174,
      "Ġfecha": 5175,
      "ä»¥": 5176,
      "Ġrocks": 5177,
      "Ġcooperation": 5178,
      "Ġpolls": 5179,
      "Ġvoy": 5180,
      "ĠÐ¸Ð·": 5181,
      "ĠìĿ´": 5182,
      "Which": 5183,
      "Ġconvicted": 5184,
      "Ġkr": 5185,
      "Ġtex": 5186,
      "Ġterrorism": 5187,
      "Ġpassenger": 5188,
      "Ġeastern": 5189,
      "Ġkh": 5190,
      "Ġsatellite": 5191,
      "Ø¹": 5192,
      "Ġtempo": 5193,
      "ĠDutch": 5194,
      "ificar": 5195,
      "Ġwi": 5196,
      "ìĪĺ": 5197,
      "Ġapple": 5198,
      "à¸±": 5199,
      "Ġmich": 5200,
      "Ġrip": 5201,
      "Ġalto": 5202,
      "åħĥ": 5203,
      "esse": 5204,
      "Still": 5205,
      "Ġkun": 5206,
      "Ġtiene": 5207,
      "ĠÅ¼e": 5208,
      "Ã¶n": 5209,
      "enza": 5210,
      "ĠÙħ": 5211,
      "Ġswimming": 5212,
      "æĸ¹": 5213,
      "ÃŃs": 5214,
      "Ġkar": 5215,
      "æĬ": 5216,
      "pull": 5217,
      "nte": 5218,
      "ÃŁe": 5219,
      "Ġnearest": 5220,
      "Ġpurchases": 5221,
      "rod": 5222,
      "Ã¬": 5223,
      "iÃ©n": 5224,
      "aku": 5225,
      "far": 5226,
      "íķľ": 5227,
      "Ġresign": 5228,
      "uli": 5229,
      "Ġdip": 5230,
      "ĠFed": 5231,
      "ĠÃ©tÃ©": 5232,
      "å½ķ": 5233,
      "Ġearnings": 5234,
      "mitt": 5235,
      "Ãªncia": 5236,
      "owe": 5237,
      "uela": 5238,
      "Ġwo": 5239,
      "Ġsanctions": 5240,
      "Ð°Ð¼": 5241,
      "Ġsuspected": 5242,
      "Ġborders": 5243,
      "åĮº": 5244,
      "tests": 5245,
      "Ġraz": 5246,
      "ÑĢÐ¾Ð²": 5247,
      "à¤¾": 5248,
      "agne": 5249,
      "Ġìķ": 5250,
      "Ġvegetables": 5251,
      "alg": 5252,
      "Ġuno": 5253,
      "Ġverified": 5254,
      "oucher": 5255,
      "itÃł": 5256,
      "Ġhill": 5257,
      "ĠIndonesia": 5258,
      "Ġremind": 5259,
      "åįķ": 5260,
      "Ã´ng": 5261,
      "icia": 5262,
      "ãĥ¼ãĥ": 5263,
      "Ġestado": 5264,
      "anya": 5265,
      "imos": 5266,
      "cia": 5267,
      "Ġauss": 5268,
      "hn": 5269,
      "Ã®": 5270,
      "Ġcamb": 5271,
      "Ġdeadly": 5272,
      "ä½į": 5273,
      "ancia": 5274,
      "mul": 5275,
      "cie": 5276,
      "Ġri": 5277,
      "Ġdari": 5278,
      "ÃŃn": 5279,
      "ãĤ¤": 5280,
      "Ġneces": 5281,
      "Ġdell": 5282,
      "Ġintens": 5283,
      "Ġcasa": 5284,
      "Ã¨me": 5285,
      "Ð¾ÑģÑĤ": 5286,
      "atura": 5287,
      "Ġrocket": 5288,
      "ÃŃas": 5289,
      "umi": 5290,
      "æ³ķ": 5291,
      "Ġnel": 5292,
      "Ġpepper": 5293,
      "Ġoverseas": 5294,
      "ĠJet": 5295,
      "Ġzw": 5296,
      "Ġovernight": 5297,
      "Ġdisappointed": 5298,
      "Ġbail": 5299,
      "ĠGMT": 5300,
      "Ġgros": 5301,
      "Ġreaches": 5302,
      "tu": 5303,
      "Ġatomic": 5304,
      "Ġkiller": 5305,
      "Ġlocate": 5306,
      "UK": 5307,
      "Ġcontacted": 5308,
      "Ġforgotten": 5309,
      "åīį": 5310,
      "Ġdou": 5311,
      "Ġgrande": 5312,
      "eo": 5313,
      "iele": 5314,
      "ÑĤÐ¾": 5315,
      "Ġfence": 5316,
      "Ġaspir": 5317,
      "ÐµÐ³": 5318,
      "ĠÐ³": 5319,
      "Ġdal": 5320,
      "Ġlu": 5321,
      "Ġtin": 5322,
      "ãĤĵ": 5323,
      "Ġraid": 5324,
      "imi": 5325,
      "Ġbrick": 5326,
      "Ġministry": 5327,
      "Ġgan": 5328,
      "ÅĽÄĩ": 5329,
      "ìĬ¤": 5330,
      "ĠtrÃ¨s": 5331,
      "Ġflights": 5332,
      "Ġdann": 5333,
      "Ġpurple": 5334,
      "Ġwars": 5335,
      "Ġvida": 5336,
      "arta": 5337,
      "Ġfeeding": 5338,
      "South": 5339,
      "Ġquel": 5340,
      "Ġpole": 5341,
      "Ġsixth": 5342,
      "Ġdispute": 5343,
      "volume": 5344,
      "ften": 5345,
      "Ġrefuse": 5346,
      "Ġjack": 5347,
      "æ³¨": 5348,
      "Ġlawmakers": 5349,
      "Ġsinging": 5350,
      "Ġdamages": 5351,
      "enne": 5352,
      "lio": 5353,
      "nis": 5354,
      "'a": 5355,
      "uka": 5356,
      "à¸ģ": 5357,
      "ãĥĥ": 5358,
      "hai": 5359,
      "Ġcoalition": 5360,
      "North": 5361,
      "Ġmissile": 5362,
      "á»ĩ": 5363,
      "his": 5364,
      "Ġboots": 5365,
      "Ġworkout": 5366,
      "Ġpant": 5367,
      "Ġdirt": 5368,
      "ĠPhilippines": 5369,
      "Ġhacer": 5370,
      "ĠRomney": 5371,
      "omer": 5372,
      "Ġdressed": 5373,
      "unto": 5374,
      "ÐµÐ»ÑĮ": 5375,
      "Ġaj": 5376,
      "Ġbang": 5377,
      "ĠÐ»": 5378,
      "Ġtam": 5379,
      "Ġsehr": 5380,
      "essa": 5381,
      "Ġliver": 5382,
      "Ġcomprom": 5383,
      "ulas": 5384,
      "Ġdeux": 5385,
      "itos": 5386,
      "Ġscandal": 5387,
      "Ġdispon": 5388,
      "Ġunemployment": 5389,
      "Ġgesch": 5390,
      "Ġmagnitude": 5391,
      "Ġtous": 5392,
      "Ġpeaceful": 5393,
      "ffen": 5394,
      "zu": 5395,
      "Ġcancelled": 5396,
      "Ġkeras": 5397,
      "ìŀĲ": 5398,
      "Ġdz": 5399,
      "adt": 5400,
      "iciÃ³n": 5401,
      "Ġprotesters": 5402,
      "ĠElection": 5403,
      "apat": 5404,
      "ãģª": 5405,
      "Æ°á»": 5406,
      "Ġsul": 5407,
      "Ġfrank": 5408,
      "Ġchi": 5409,
      "ĠPeace": 5410,
      "iera": 5411,
      "izado": 5412,
      "Ġtoll": 5413,
      "Ġnap": 5414,
      "Ġtanks": 5415,
      "Ø©": 5416,
      "Ġmant": 5417,
      "Ġreflected": 5418,
      "ĠÅ": 5419,
      "Ġluc": 5420,
      "Ġmejor": 5421,
      "Ġshuffle": 5422,
      "umm": 5423,
      "Ð¸ÑĤÐµ": 5424,
      "?!": 5425,
      "Ġjumped": 5426,
      "Ġyoga": 5427,
      "uran": 5428,
      "Ġblonde": 5429,
      "Was": 5430,
      "Ġtemps": 5431,
      "áº¿": 5432,
      "Ġfires": 5433,
      "guard": 5434,
      "Ġwurde": 5435,
      "Ġsoldier": 5436,
      "Ġthirty": 5437,
      "President": 5438,
      "Ġcouch": 5439,
      "yer": 5440,
      "Ġmog": 5441,
      "Ġmud": 5442,
      "Ġros": 5443,
      "Ġwings": 5444,
      "Ġjacket": 5445,
      "amy": 5446,
      "èĥ½": 5447,
      "ientes": 5448,
      "Ġsuspend": 5449,
      "Ġwieder": 5450,
      "reduce": 5451,
      "Ġpiano": 5452,
      "à¸¡": 5453,
      "å¤§": 5454,
      "ĠprÃ©": 5455,
      "ĠChairman": 5456,
      "Ġrepet": 5457,
      "Ġcuando": 5458,
      "åº¦": 5459,
      "Ġexpired": 5460,
      "wal": 5461,
      "Ġmatt": 5462,
      "ĠNelson": 5463,
      "anza": 5464,
      "die": 5465,
      "etta": 5466,
      "Ġreminder": 5467,
      "ÄĻd": 5468,
      "Ġwc": 5469,
      "Ġstays": 5470,
      "Apple": 5471,
      "Ġfavorites": 5472,
      "æµ": 5473,
      "å§ĭ": 5474,
      "keit": 5475,
      "Ð°Ð½Ð¸Ðµ": 5476,
      "Ġces": 5477,
      "Ġvisa": 5478,
      "hub": 5479,
      "ahu": 5480,
      "ìĦľ": 5481,
      "ìļ©": 5482,
      "Ġdrone": 5483,
      "Ġamer": 5484,
      "Ġholy": 5485,
      "tar": 5486,
      "igu": 5487,
      "Ġace": 5488,
      "-ups": 5489,
      "Ġautor": 5490,
      "Ġdiese": 5491,
      "Ġplaylist": 5492,
      "Ġmixing": 5493,
      "Ġprimer": 5494,
      "ÃŁen": 5495,
      "Ġbroader": 5496,
      "Ġhorses": 5497,
      "oba": 5498,
      "ĠKill": 5499,
      "ĠGulf": 5500,
      "Ġek": 5501,
      "iem": 5502,
      "unda": 5503,
      "Ġmim": 5504,
      "Ð°ÐµÑĤ": 5505,
      "Ġburied": 5506,
      "Ġbere": 5507,
      "åĪ°": 5508,
      "Ġspi": 5509,
      "Ġbew": 5510,
      "Ġjou": 5511,
      "Four": 5512,
      "Ġdelle": 5513,
      "iaz": 5514,
      "ÑĢÐ°Ð²": 5515,
      "Ð¸Ð²": 5516,
      "Ãªn": 5517,
      "su": 5518,
      "does": 5519,
      "Ġsalv": 5520,
      "lett": 5521,
      "éĿ¢": 5522,
      "mel": 5523,
      "ĠPIN": 5524,
      "Ġprisoners": 5525,
      "oso": 5526,
      "bang": 5527,
      "Ġyoutube": 5528,
      "Å¼y": 5529,
      "åķ": 5530,
      "Ġdeport": 5531,
      "oko": 5532,
      "Ġkur": 5533,
      "Ġtidak": 5534,
      "zÄħ": 5535,
      "nych": 5536,
      "Ġgibt": 5537,
      "Ġsele": 5538,
      "Ġdelivers": 5539,
      "Ġlub": 5540,
      "osta": 5541,
      "ä¿¡æģ¯": 5542,
      "zel": 5543,
      "ĠIranian": 5544,
      "Ġreversed": 5545,
      "çĤ¹": 5546,
      "Ġcerca": 5547,
      "ÙĤ": 5548,
      "Ġwounded": 5549,
      "Ġpelo": 5550,
      "sound": 5551,
      "Ġdock": 5552,
      "ropa": 5553,
      "Ġartic": 5554,
      "inho": 5555,
      "Ġbacks": 5556,
      "Ġgra": 5557,
      "Ġvest": 5558,
      "ãģŁ": 5559,
      "Ġgef": 5560,
      "roc": 5561,
      "ĠMalaysia": 5562,
      "Ġpeu": 5563,
      "Ġindia": 5564,
      "Ġcomposite": 5565,
      "ukan": 5566,
      "Ġhabe": 5567,
      "ĠìĦ": 5568,
      "ĠØ¨": 5569,
      "ativa": 5570,
      "Ġcarpet": 5571,
      "Ġsandwich": 5572,
      "arak": 5573,
      "à¹Ģ": 5574,
      "Ġexpires": 5575,
      "ĠÃ¢": 5576,
      "anh": 5577,
      "Ġalgo": 5578,
      "Ġgli": 5579,
      "Ġfolk": 5580,
      "uter": 5581,
      "Ġlamp": 5582,
      "Ġdancing": 5583,
      "Would": 5584,
      "Ġcommander": 5585,
      "anche": 5586,
      "ë¦¬": 5587,
      "Ð»ÑĮ": 5588,
      "Ġsar": 5589,
      "icher": 5590,
      "æıĲ": 5591,
      "could": 5592,
      "amas": 5593,
      "ãĤ¯": 5594,
      "ungs": 5595,
      "ija": 5596,
      "Ġrifle": 5597,
      "kar": 5598,
      "Ġglasses": 5599,
      "Ð¾Ð¿": 5600,
      "ĠNigeria": 5601,
      "Ġunited": 5602,
      "Ġpode": 5603,
      "ãģĮ": 5604,
      "Ġvacuum": 5605,
      "pending": 5606,
      "Ġsang": 5607,
      "-Q": 5608,
      "ativo": 5609,
      "Ġinfected": 5610,
      "åıĳ": 5611,
      "Ġnuevo": 5612,
      "Ġlig": 5613,
      "à¸µ": 5614,
      "å¼ı": 5615,
      "Ġquestioned": 5616,
      "Ġmig": 5617,
      "Ġmundo": 5618,
      "ÑĥÑĩ": 5619,
      "Ġdisappeared": 5620,
      "Ð°ÑģÑģ": 5621,
      "åĽ½": 5622,
      "Ġbell": 5623,
      "ufen": 5624,
      "Ġcivilians": 5625,
      "ussia": 5626,
      "Ġsta": 5627,
      "ĠÐ¿Ð¾Ð»": 5628,
      "Ġhasta": 5629,
      "gd": 5630,
      "Ġforgot": 5631,
      "åĪłéĻ¤": 5632,
      "anan": 5633,
      "íĬ¸": 5634,
      "schedule": 5635,
      "ĠGaza": 5636,
      "ĠmÃ¡": 5637,
      "ĠìĪĺ": 5638,
      "Ġtiempo": 5639,
      "ëł¥": 5640,
      "Ġtricks": 5641,
      "ĠcÃ³": 5642,
      "ÑĤÑĮ": 5643,
      "Ġmobil": 5644,
      "Ġkills": 5645,
      "Ġelderly": 5646,
      "Ġbeste": 5647,
      "Ġclassical": 5648,
      "Ġsistema": 5649,
      "eso": 5650,
      "ibo": 5651,
      "Ġdich": 5652,
      "asso": 5653,
      "unde": 5654,
      "Ġohne": 5655,
      "Ġìĭ": 5656,
      "Ġcivilian": 5657,
      "èĢħ": 5658,
      "Ġfich": 5659,
      "Ġdla": 5660,
      "owie": 5661,
      "ĠsÄĥ": 5662,
      "Ġexchanges": 5663,
      "Ġjumping": 5664,
      "hem": 5665,
      "Ġmie": 5666,
      "æİ¥": 5667,
      "Ġabb": 5668,
      "Ġcaf": 5669,
      "Ġdorm": 5670,
      "Ġsentenced": 5671,
      "unter": 5672,
      "Ġgeb": 5673,
      "Ġnaj": 5674,
      "Ġmate": 5675,
      "esta": 5676,
      "ĠÅĽ": 5677,
      "ãģĨ": 5678,
      "orie": 5679,
      "Ġdurante": 5680,
      "ĠNATO": 5681,
      "Ġtwelve": 5682,
      "Ġmerchant": 5683,
      "åħ³": 5684,
      "éĩį": 5685,
      "jour": 5686,
      "ãĤĭ": 5687,
      "Ġprog": 5688,
      "uchar": 5689,
      "remember": 5690,
      "ìłķ": 5691,
      "ĠprÃ³": 5692,
      "ìĭľ": 5693,
      "Ð°ÑĨÐ¸": 5694,
      "Ã¡c": 5695,
      "ëĵľ": 5696,
      "Ġswift": 5697,
      "ÑĪÐ¸": 5698,
      "Ġbeside": 5699,
      "ãĤĴ": 5700,
      "zeit": 5701,
      "ÃŃc": 5702,
      "Ġaplic": 5703,
      "Ġlemon": 5704,
      "Ġpom": 5705,
      "ifica": 5706,
      "åľ°": 5707,
      "ãģĤ": 5708,
      "Ġyo": 5709,
      "Ġclimbing": 5710,
      "-week": 5711,
      "cherche": 5712,
      "Ġkw": 5713,
      "ÐµÐºÑĤ": 5714,
      "ahn": 5715,
      "ÅĤy": 5716,
      "Ġgrocery": 5717,
      "Phil": 5718,
      "Mal": 5719,
      "à¥į": 5720,
      "ĠsÃ£o": 5721,
      "Ġpropose": 5722,
      "hir": 5723,
      "è®¾": 5724,
      "Ġterminate": 5725,
      "Ð¿Ð¸Ñģ": 5726,
      "zione": 5727,
      "Ġarrives": 5728,
      "Ġquando": 5729,
      "Ġchef": 5730,
      "Ġsag": 5731,
      "ãģķ": 5732,
      "jas": 5733,
      "çĽ®": 5734,
      "Ġwithdrawal": 5735,
      "Ġsuspects": 5736,
      "å¼Ģ": 5737,
      "ĠÐ·Ð°Ð¿": 5738,
      "Ġdalam": 5739,
      "Ġate": 5740,
      "adora": 5741,
      "Ġgust": 5742,
      "ØŃ": 5743,
      "äºĭ": 5744,
      "umbai": 5745,
      "Ġzn": 5746,
      "Ġamended": 5747,
      "Ġfreeze": 5748,
      "uelle": 5749,
      "Ġric": 5750,
      "æ¯": 5751,
      "Ġvessels": 5752,
      "ÑħÐ¾Ð´": 5753,
      "ĠlÃ¤": 5754,
      "æ²": 5755,
      "'une": 5756,
      "please": 5757,
      "Ġpound": 5758,
      "bol": 5759,
      "Ġheadlines": 5760,
      "Ġtodas": 5761,
      "ÑĢÐ¸": 5762,
      "today": 5763,
      "Ġmomento": 5764,
      "Ġjog": 5765,
      "Ġrim": 5766,
      "Ġmana": 5767,
      "fÃ¼": 5768,
      "Ð½Ð°Ñĩ": 5769,
      "Ġshore": 5770,
      "Ġcents": 5771,
      "-le": 5772,
      "ĠIraqi": 5773,
      "contre": 5774,
      "kie": 5775,
      "Ġprze": 5776,
      "ãĤĬ": 5777,
      "Ð»Ð°": 5778,
      "Ġlately": 5779,
      "fen": 5780,
      "achi": 5781,
      "ìķ": 5782,
      "Ġanalysts": 5783,
      "hole": 5784,
      "uba": 5785,
      "à¸ĩ": 5786,
      "Ã¨res": 5787,
      "åı¯": 5788,
      "quant": 5789,
      "Ġcruise": 5790,
      "odi": 5791,
      "à¥įà¤": 5792,
      "Ġpartir": 5793,
      "è¦ģ": 5794,
      "ä»£": 5795,
      "Ġrab": 5796,
      "Ġlecture": 5797,
      "Ġtrapped": 5798,
      "Ġtransfers": 5799,
      "Ġtres": 5800,
      "repeat": 5801,
      "Ġgarlic": 5802,
      "kh": 5803,
      "'Ã©": 5804,
      "Ġlan": 5805,
      "eri": 5806,
      "å°ı": 5807,
      "ĠMedicare": 5808,
      "arÃ¡": 5809,
      "usa": 5810,
      "oka": 5811,
      "éĢī": 5812,
      "zw": 5813,
      "à¸´": 5814,
      "Ġprosecutors": 5815,
      "iov": 5816,
      "æłĩ": 5817,
      "Former": 5818,
      "Ġprzy": 5819,
      "æĺİ": 5820,
      "Ġosc": 5821,
      "Ð°ÐµÐ¼": 5822,
      "Ġdieser": 5823,
      "Ġadvise": 5824,
      "ĠmÃ©": 5825,
      "ãĥ©": 5826,
      "ãģĭ": 5827,
      "Ġsofa": 5828,
      "Ùĥ": 5829,
      "ìĸ´": 5830,
      "Ġdod": 5831,
      "åĪĹ": 5832,
      "ç½ĳ": 5833,
      "music": 5834,
      "ä¸ĩ": 5835,
      "Ġrides": 5836,
      "æľĢ": 5837,
      "had": 5838,
      "anic": 5839,
      "Ġclarity": 5840,
      "Ġket": 5841,
      "sed": 5842,
      "ìĿ¸": 5843,
      "Ø§ÙĦ": 5844,
      "à¤¾à¤": 5845,
      "Ġtennis": 5846,
      "Ġjokes": 5847,
      "ĠÃºlt": 5848,
      "Ġvic": 5849,
      "zm": 5850,
      "Ġsous": 5851,
      "Ġnewspapers": 5852,
      "Ġhelmet": 5853,
      "åĻ¨": 5854,
      "Ġlaughing": 5855,
      "Ġlam": 5856,
      "aggi": 5857,
      "Ġbor": 5858,
      "azioni": 5859,
      "Ġtourists": 5860,
      "ĠCuba": 5861,
      "Ġexpiration": 5862,
      "Ġfuse": 5863,
      "chied": 5864,
      "Ġpopul": 5865,
      "Ġcanada": 5866,
      "à¸¥": 5867,
      "zes": 5868,
      "Ġmenos": 5869,
      "Ġpada": 5870,
      "Ġtau": 5871,
      "æīĢ": 5872,
      "åĨħ": 5873,
      "uti": 5874,
      "ãĤĤ": 5875,
      "Ġcleaner": 5876,
      "ÐµÐ·": 5877,
      "Ġsheep": 5878,
      "éĢļ": 5879,
      "gra": 5880,
      "ientos": 5881,
      "ĠOlympics": 5882,
      "Ġlun": 5883,
      "ãĤĮ": 5884,
      "åķĨ": 5885,
      "ucht": 5886,
      "bee": 5887,
      "ìĿ¼": 5888,
      "Ġdre": 5889,
      "Ġolive": 5890,
      "ĠìĤ¬": 5891,
      "Ġsau": 5892,
      "Ġasylum": 5893,
      "Ġange": 5894,
      "Ġloses": 5895,
      "Ġbrightness": 5896,
      "ãģĬ": 5897,
      "igos": 5898,
      "Ã¤ll": 5899,
      "alan": 5900,
      "ë©´": 5901,
      "Ġparas": 5902,
      "æ¶Ī": 5903,
      "prime": 5904,
      "itu": 5905,
      "aÃ±": 5906,
      "Ġaccidentally": 5907,
      "ãĤī": 5908,
      "Ġfifty": 5909,
      "ãģ¾ãģĻ": 5910,
      "tro": 5911,
      "Ã¶s": 5912,
      "ä¿Ŀ": 5913,
      "quier": 5914,
      "Ġtaxi": 5915,
      "Ġbombs": 5916,
      "Ġvu": 5917,
      "Ġchina": 5918,
      "Ġwoods": 5919,
      "ski": 5920,
      "Ġexpire": 5921,
      "Ġavant": 5922,
      "æ¬¡": 5923,
      "ãĥ«": 5924,
      "ÐµÐ²": 5925,
      "æľº": 5926,
      "lista": 5927,
      "å¯¹": 5928,
      "Ġakan": 5929,
      "ĠYemen": 5930,
      "ÑģÐ¿": 5931,
      "ischer": 5932,
      "Ġmam": 5933,
      "Ġups": 5934,
      "éĩı": 5935,
      "usk": 5936,
      "Ø´": 5937,
      "ivi": 5938,
      "ìĦ±": 5939,
      "Ġjan": 5940,
      "ellt": 5941,
      "ajÄħ": 5942,
      "æŁ¥": 5943,
      "ĠserÃ¡": 5944,
      "Ġagrees": 5945,
      "Ġliste": 5946,
      "éĥ¨": 5947,
      "Ġhu": 5948,
      "Ġzap": 5949,
      "Ġë§": 5950,
      "prog": 5951,
      "Ġposes": 5952,
      "orum": 5953,
      "Ġoppose": 5954,
      "Ġhast": 5955,
      "ÑĥÑİ": 5956,
      "'ai": 5957,
      "emu": 5958,
      "Ø¬": 5959,
      "nee": 5960,
      "åĴĮ": 5961,
      "æĽ´": 5962,
      "ĠPalestinians": 5963,
      "izi": 5964,
      "Ġcloses": 5965,
      "Ġmall": 5966,
      "Ġjeans": 5967,
      "Ġangel": 5968,
      "ilio": 5969,
      "Ġantes": 5970,
      "Ġmodo": 5971,
      "Ġmissiles": 5972,
      "spe": 5973,
      "acji": 5974,
      "Ð°Ð³": 5975,
      "Ġwifi": 5976,
      "Ġrope": 5977,
      "Ġtener": 5978,
      "Ġcanceled": 5979,
      "åĲİ": 5980,
      "á»ĥ": 5981,
      "arking": 5982,
      "Ġquesto": 5983,
      "Ġtrafficking": 5984,
      "inta": 5985,
      "Ġmetro": 5986,
      "ugo": 5987,
      "Ð½ÑĭÐ¹": 5988,
      "Israel": 5989,
      "Ġnad": 5990,
      "India": 5991,
      "íĻ": 5992,
      "Ġkam": 5993,
      "Ġurgent": 5994,
      "Ġker": 5995,
      "ìĿĢ": 5996,
      "Ġcham": 5997,
      "Ġusa": 5998,
      "regar": 5999,
      "Ġmuito": 6000,
      "kat": 6001,
      "Ãºs": 6002,
      "iban": 6003,
      "Ġhunger": 6004,
      "uche": 6005,
      "ĠÑģÐ¾": 6006,
      "ocy": 6007,
      "íĦ°": 6008,
      "é¢ĺ": 6009,
      "íķ´": 6010,
      "Ġjazz": 6011,
      "Ġlugar": 6012,
      "Ġpon": 6013,
      "ĠmÃ©d": 6014,
      "Ġministers": 6015,
      "-me": 6016,
      "æł¼": 6017,
      "Ð¸ÑģÑĤ": 6018,
      "Ġhora": 6019,
      "ladesh": 6020,
      "dar": 6021,
      "ĠAirlines": 6022,
      "emas": 6023,
      "äºĨ": 6024,
      "Ġjumps": 6025,
      "iamo": 6026,
      "'il": 6027,
      "éĩĳ": 6028,
      "playlist": 6029,
      "Ġada": 6030,
      "Ġslices": 6031,
      "Ġestar": 6032,
      "Ġessere": 6033,
      "Ġstatue": 6034,
      "iaÅĤ": 6035,
      "Ð¾Ð·Ð´": 6036,
      "Ġmotorcycle": 6037,
      "åįĪ": 6038,
      "Ġsept": 6039,
      "ÃŃvel": 6040,
      "Ġprend": 6041,
      "Ġnouvel": 6042,
      "Ġerst": 6043,
      "à¥ĩ": 6044,
      "Ġtribute": 6045,
      "ê³ł": 6046,
      "Ã³g": 6047,
      "Ġbog": 6048,
      "Ġrepublic": 6049,
      "voir": 6050,
      "Ġencore": 6051,
      "à¸¢": 6052,
      "Ġsempre": 6053,
      "ÑĭÐ²": 6054,
      "ÑĢÐ°Ð½": 6055,
      "ÑĭÐ¹": 6056,
      "why": 6057,
      "Ġsap": 6058,
      "Ġsera": 6059,
      "Ġreun": 6060,
      "Ġlaying": 6061,
      "Sy": 6062,
      "agnitude": 6063,
      "íĺ": 6064,
      "Several": 6065,
      "ç©º": 6066,
      "sil": 6067,
      "Ġhace": 6068,
      "Ġspraw": 6069,
      "itÃ©s": 6070,
      "ĠdÃŃa": 6071,
      "das": 6072,
      "zc": 6073,
      "leur": 6074,
      "Ġbicycle": 6075,
      "ìĺ": 6076,
      "Ġcuisine": 6077,
      "iek": 6078,
      "Ġhelicopter": 6079,
      "Ø§Ø±": 6080,
      "zenia": 6081,
      "Ġfinden": 6082,
      "Ġdefin": 6083,
      "Ġdentro": 6084,
      "Ġmuss": 6085,
      "ĠmÃ©t": 6086,
      "Ġbob": 6087,
      "Ã¡m": 6088,
      "Ø®": 6089,
      "ÐºÑĥ": 6090,
      "Ġsore": 6091,
      "Ġpilots": 6092,
      "atu": 6093,
      "jÄĻ": 6094,
      "Ġprima": 6095,
      "Ġrebel": 6096,
      "ĠChemical": 6097,
      "atro": 6098,
      "ĠìŀĪ": 6099,
      "Ġkal": 6100,
      "zig": 6101,
      "Ð°Ñı": 6102,
      "aida": 6103,
      "Ð¾ÑĤÐ¾ÑĢ": 6104,
      "Ġê°Ģ": 6105,
      "Ġschw": 6106,
      "kal": 6107,
      "hey": 6108,
      "Ġcurrencies": 6109,
      "wart": 6110,
      "Ġespa": 6111,
      "Ġrebels": 6112,
      "otto": 6113,
      "Ġsuis": 6114,
      "èģ": 6115,
      "à¸ª": 6116,
      "Ð²ÐµÐ´": 6117,
      "ãģł": 6118,
      "Ġitu": 6119,
      "Ġcores": 6120,
      "ìļĶ": 6121,
      "å¤©": 6122,
      "Ġdern": 6123,
      "Ġpunk": 6124,
      "Ġprograma": 6125,
      "Ġshorts": 6126,
      "osto": 6127,
      "Ġimportante": 6128,
      "nej": 6129,
      "ĠaÃ±o": 6130,
      "Ð¾Ð±Ð°Ð²": 6131,
      "à¸Ĺ": 6132,
      "Ġmismo": 6133,
      "Ġvirgin": 6134,
      "ÑĥÐ´": 6135,
      "Ġnella": 6136,
      "arto": 6137,
      "æĪĳ": 6138,
      "Ġczy": 6139,
      "Ġalles": 6140,
      "åħ¨": 6141,
      "Ãªte": 6142,
      "Ġdivert": 6143,
      "Ġcricket": 6144,
      "iendo": 6145,
      "Ġìłķ": 6146,
      "Ġsmiling": 6147,
      "Ġviel": 6148,
      "Ġpont": 6149,
      "Ġcollar": 6150,
      "vor": 6151,
      "Ġcrashes": 6152,
      "à¸ļ": 6153,
      "Ġdeve": 6154,
      "Ġappointments": 6155,
      "ä»Ĭ": 6156,
      "ÐµÑģÑĤ": 6157,
      "Ġfois": 6158,
      "Ġbak": 6159,
      "ĠÐ¿ÑĢÐ¸": 6160,
      "Ġì¶": 6161,
      "Ġbombing": 6162,
      "ardi": 6163,
      "æĿ¥": 6164,
      "Ġpasta": 6165,
      "Su": 6166,
      "Ġmonitors": 6167,
      "Ġnag": 6168,
      "anson": 6169,
      "æŃ£": 6170,
      "è¯´": 6171,
      "æĦı": 6172,
      "atorio": 6173,
      "éĢģ": 6174,
      "ĠProtest": 6175,
      "ĠKenya": 6176,
      "ÑĤÐ¾ÑĢ": 6177,
      "Ġpeng": 6178,
      "richt": 6179,
      "Ġbud": 6180,
      "ãĥª": 6181,
      "Ġdiesem": 6182,
      "áºŃp": 6183,
      "Ð»Ñİ": 6184,
      "elles": 6185,
      "Ġfutures": 6186,
      "Ġauthorize": 6187,
      "Ãªs": 6188,
      "jÄħ": 6189,
      "Ġquar": 6190,
      "owy": 6191,
      "iÃŁ": 6192,
      "Ġmex": 6193,
      "charged": 6194,
      "Tur": 6195,
      "alu": 6196,
      "ä¼ļ": 6197,
      "Ġsext": 6198,
      "Ġnueva": 6199,
      "Five": 6200,
      "ä½¿çĶ¨": 6201,
      "Ġfrau": 6202,
      "à¸Ķ": 6203,
      "ãģ¦": 6204,
      "nehmen": 6205,
      "Ġìľ": 6206,
      "Ġfaz": 6207,
      "Ġlaunches": 6208,
      "Ã¡rios": 6209,
      "ìłľ": 6210,
      "ĠEUR": 6211,
      "ĠsÄħ": 6212,
      "zent": 6213,
      "Ġnoon": 6214,
      "ãĥ¼ãĤ": 6215,
      "Ġrises": 6216,
      "à¸§": 6217,
      "rir": 6218,
      "Originally": 6219,
      "alter": 6220,
      "Ġearthquake": 6221,
      "Ġonion": 6222,
      "Ġbrit": 6223,
      "Ð¾Ñĩ": 6224,
      "ichte": 6225,
      "Ġwit": 6226,
      "ologie": 6227,
      "tom": 6228,
      "ÑĥÑĤ": 6229,
      "Ġfeared": 6230,
      "æ®µ": 6231,
      "ĠAssad": 6232,
      "ĠÙĪ": 6233,
      "jang": 6234,
      "Ġeurope": 6235,
      "ãģ§ãģĻ": 6236,
      "Ð°Ð¶": 6237,
      "Ġadalah": 6238,
      "ĠrÃ©g": 6239,
      "obre": 6240,
      "Ð°Ð±": 6241,
      "Ġprzez": 6242,
      "licht": 6243,
      "ĠÐ±Ñĭ": 6244,
      "Ġjetzt": 6245,
      "ÑĢÐ°Ð¼": 6246,
      "Ġarrests": 6247,
      "agar": 6248,
      "Ð¸Ðº": 6249,
      "mus": 6250,
      "Ġshaking": 6251,
      "boat": 6252,
      "affe": 6253,
      "Ġmonde": 6254,
      "Ð¼ÐµÐ½": 6255,
      "dz": 6256,
      "Ġmachen": 6257,
      "Ġtreaty": 6258,
      "ĠlÃł": 6259,
      "ĠÃ§a": 6260,
      "ĠmoÅ¼": 6261,
      "Ġklass": 6262,
      "ologia": 6263,
      "æºĲ": 6264,
      "ÑĢÑĭ": 6265,
      "Ġpak": 6266,
      "Ġano": 6267,
      "èī²": 6268,
      "Ġblanket": 6269,
      "Ġtrump": 6270,
      "æĻĤ": 6271,
      "iÃ§Ã£o": 6272,
      "ĠÑĨ": 6273,
      "ycz": 6274,
      "Ġìŀħ": 6275,
      "ç³»": 6276,
      "ë°": 6277,
      "Ð°Ð½Ð¸Ñı": 6278,
      "è¿ĩ": 6279,
      "ambah": 6280,
      "Ġnada": 6281,
      "çĶµ": 6282,
      "Ġtrabajo": 6283,
      "ĠNas": 6284,
      "Ġmemb": 6285,
      "iku": 6286,
      "Ġere": 6287,
      "Ġsage": 6288,
      "Ġnovo": 6289,
      "Ġmilitants": 6290,
      "uenta": 6291,
      "izione": 6292,
      "Ġatau": 6293,
      "Ġtym": 6294,
      "ĠÑĢÐ°Ð·": 6295,
      "Ġneue": 6296,
      "ĠSandy": 6297,
      "zenie": 6298,
      "ëŀ": 6299,
      "Ġamerican": 6300,
      "ĠatÃ©": 6301,
      "ĠBangladesh": 6302,
      "ç¨ĭ": 6303,
      "Ġìĺ": 6304,
      "posta": 6305,
      "ĠoÃ¹": 6306,
      "Ġcand": 6307,
      "Ġmonkey": 6308,
      "Æ¡": 6309,
      "Ġpotato": 6310,
      "ãĥ¡": 6311,
      "Ġroz": 6312,
      "Ð»Ð¾": 6313,
      "ãĤ¢": 6314,
      "Ã©tÃ©": 6315,
      "Ġpoco": 6316,
      "Ð½Ð¾Ð³Ð¾": 6317,
      "Ġpasse": 6318,
      "EU": 6319,
      "essen": 6320,
      "ãģĹãģ¦": 6321,
      "Ġavoir": 6322,
      "Ãªm": 6323,
      "Ġfox": 6324,
      "à¤¿": 6325,
      "emente": 6326,
      "Ġville": 6327,
      "Ð½Ð¾Ð¹": 6328,
      "Ġhoras": 6329,
      "Ġcanal": 6330,
      "å¸¸": 6331,
      "Ġdesp": 6332,
      "æĿ¡": 6333,
      "Ġlion": 6334,
      "Ġhue": 6335,
      "Ġaura": 6336,
      "Ġwonders": 6337,
      "pod": 6338,
      "ÑĥÐ¼": 6339,
      "chet": 6340,
      "Ð¸Ñı": 6341,
      "Ð½Ñı": 6342,
      "spi": 6343,
      "å½ĵ": 6344,
      "à¸«": 6345,
      "nement": 6346,
      "Ġkicking": 6347,
      "iman": 6348,
      "ĠKerry": 6349,
      "ĠcÄĥ": 6350,
      "Death": 6351,
      "Ġgeht": 6352,
      "ĠLebanon": 6353,
      "istani": 6354,
      "Ġciudad": 6355,
      "Ġwont": 6356,
      "æĥħ": 6357,
      "Ã¢n": 6358,
      "ĠNorthwest": 6359,
      "Ø§ÙĨ": 6360,
      "åı£": 6361,
      "ĠØª": 6362,
      "Ð»ÑİÑĩ": 6363,
      "ppo": 6364,
      "Ġvai": 6365,
      "Ð´Ð°": 6366,
      "Ġstole": 6367,
      "Åº": 6368,
      "orgen": 6369,
      "Ġjohn": 6370,
      "Ġtoutes": 6371,
      "Ø²": 6372,
      "Ġsunny": 6373,
      "god": 6374,
      "kont": 6375,
      "Ġsalon": 6376,
      "ĠÐ¿Ð¾Ð´": 6377,
      "elas": 6378,
      "Ġpla": 6379,
      "Ġpostal": 6380,
      "åĲĪ": 6381,
      "Ġetwas": 6382,
      "bucks": 6383,
      "elim": 6384,
      "Ġtopped": 6385,
      "Ġfazer": 6386,
      "opa": 6387,
      "à¸ķ": 6388,
      "Ġmoins": 6389,
      "entre": 6390,
      "Ġclash": 6391,
      "ÑģÐ»": 6392,
      "á»ģ": 6393,
      "è½¦": 6394,
      "pez": 6395,
      "rina": 6396,
      "Ġbisa": 6397,
      "Ġmoi": 6398,
      "rais": 6399,
      "visions": 6400,
      "endi": 6401,
      "Ġlust": 6402,
      "ĠÃŃ": 6403,
      "Ġlandlord": 6404,
      "Ġlum": 6405,
      "Ġtoda": 6406,
      "cken": 6407,
      "ĠÐ¿ÑĢÐ¾": 6408,
      "utar": 6409,
      "esty": 6410,
      "Ġmesmo": 6411,
      "Ġlis": 6412,
      "ìļ°": 6413,
      "Ġlok": 6414,
      "Ġusu": 6415,
      "Ġana": 6416,
      "à¸Ħ": 6417,
      "Ġdias": 6418,
      "Ġkos": 6419,
      "inform": 6420,
      "Tell": 6421,
      "Ġzwei": 6422,
      "Ġwt": 6423,
      "inz": 6424,
      "Ġnova": 6425,
      "Ġjul": 6426,
      "åĳ¨": 6427,
      "Ġinterim": 6428,
      "ĠComposite": 6429,
      "ĠHamas": 6430,
      "rike": 6431,
      "ãĤ°": 6432,
      "ĠTaliban": 6433,
      "Ġpoz": 6434,
      "Ġelf": 6435,
      "ëª": 6436,
      "uales": 6437,
      "Ġcredited": 6438,
      "Ð¸Ð·": 6439,
      "Ġaument": 6440,
      "lez": 6441,
      "'en": 6442,
      "Ġisso": 6443,
      "ĠbÄĻd": 6444,
      "è®°": 6445,
      "äºĮ": 6446,
      "xo": 6447,
      "Ġtecn": 6448,
      "ìŀ¥": 6449,
      "Ġparis": 6450,
      "ĠÃ³": 6451,
      "Ġatual": 6452,
      "awi": 6453,
      "Ġcentro": 6454,
      "Ġrund": 6455,
      "Ġcafe": 6456,
      "ÑĢÐ¾Ñģ": 6457,
      "Ġcet": 6458,
      "ĠÐ¸Ð½": 6459,
      "Ġsaber": 6460,
      "Ġtomato": 6461,
      "ĠaprÃ¨s": 6462,
      "Ġmeteor": 6463,
      "Ġdok": 6464,
      "Ġdib": 6465,
      "Ġfilme": 6466,
      "Ġdoit": 6467,
      "Ġsidewalk": 6468,
      "à¸·": 6469,
      "pas": 6470,
      "Ġrevert": 6471,
      "stell": 6472,
      "Ġteng": 6473,
      "adir": 6474,
      "Ġpuppy": 6475,
      "Ġmein": 6476,
      "è¿Ľ": 6477,
      "Ġmenj": 6478,
      "Ġesse": 6479,
      "ìĦ¸": 6480,
      "mant": 6481,
      "Six": 6482,
      "Ġgospel": 6483,
      "izaciÃ³n": 6484,
      "Ġpunto": 6485,
      "Ġpend": 6486,
      "ãĥŃ": 6487,
      "Ġdatum": 6488,
      "Ġquand": 6489,
      "à¸¹": 6490,
      "Øµ": 6491,
      "Ġsiempre": 6492,
      "Ġinmates": 6493,
      "uell": 6494,
      "ĠpaÃŃs": 6495,
      "ë³´": 6496,
      "Ġtravail": 6497,
      "iona": 6498,
      "aan": 6499,
      "ÃŃo": 6500,
      "Ġprince": 6501,
      "Ġpendant": 6502,
      "ĠPresidential": 6503,
      "Ġmilano": 6504,
      "ãģ£": 6505,
      "Ġese": 6506,
      "acz": 6507,
      "ĠestÃ¡n": 6508,
      "ĠktÃ³ry": 6509,
      "Ġprisoner": 6510,
      "rek": 6511,
      "amat": 6512,
      "quel": 6513,
      "Ġviele": 6514,
      "ĠtÃ©lÃ©": 6515,
      "ìľ¼ë¡ľ": 6516,
      "ë²Ī": 6517,
      "unta": 6518,
      "Ð°ÑĤÐ°": 6519,
      "ĠhÃ¡": 6520,
      "Ġsei": 6521,
      "å¤ļ": 6522,
      "Ġtelefon": 6523,
      "Ġreddit": 6524,
      "ÑĥÑī": 6525,
      "Ġindian": 6526,
      "Ġting": 6527,
      "Ġparked": 6528,
      "æĬ¥": 6529,
      "Ġdiz": 6530,
      "ĠquÃ©": 6531,
      "nde": 6532,
      "Ġnivel": 6533,
      "Ġnouveau": 6534,
      "Ġmicrophone": 6535,
      "Ġconfirms": 6536,
      "uci": 6537,
      "ueba": 6538,
      "ãģ¡": 6539,
      "Ġhips": 6540,
      "ĠDow": 6541,
      "Ġiphone": 6542,
      "ĠSudan": 6543,
      "nten": 6544,
      "fang": 6545,
      "Ġninth": 6546,
      "igung": 6547,
      "rÃ©": 6548,
      "Ġcans": 6549,
      "Ġbos": 6550,
      "anni": 6551,
      "Ġhatte": 6552,
      "tek": 6553,
      "Ġaby": 6554,
      "arin": 6555,
      "Ġdeclining": 6556,
      "ĠhÃ¶": 6557,
      "Ġchasing": 6558,
      "æ·»åĬł": 6559,
      "ĠÃ©tait": 6560,
      "ĠktÃ³re": 6561,
      "íķĺëĬĶ": 6562,
      "Ġairplane": 6563,
      "Ð½ÑĭÐµ": 6564,
      "ÑĢÐµÐ´": 6565,
      "Ġsunset": 6566,
      "Ġcliff": 6567,
      "ÑĥÑģ": 6568,
      "Ġê²½": 6569,
      "ĠÐºÐ¾Ð¼": 6570,
      "ĠnÃ¤": 6571,
      "Ġparliamentary": 6572,
      "French": 6573,
      "Ġjets": 6574,
      "Ġparl": 6575,
      "Ġaustralia": 6576,
      "inha": 6577,
      "Ġsubway": 6578,
      "çº¿": 6579,
      "Ġtutti": 6580,
      "è¿Ļ": 6581,
      "Ġbureau": 6582,
      "Ã¡vel": 6583,
      "åĪ¶": 6584,
      "ĠVisa": 6585,
      "jd": 6586,
      "Ġvas": 6587,
      "Ġcompromised": 6588,
      "Ġindie": 6589,
      "Ġfranc": 6590,
      "ÑĤÐ°": 6591,
      "éĵ": 6592,
      "Ġnar": 6593,
      "Ġaqui": 6594,
      "ìĨĮ": 6595,
      "Ġblues": 6596,
      "Ø·": 6597,
      "à¥Ģ": 6598,
      "Ġprimera": 6599,
      "Ð½ÑĭÑħ": 6600,
      "jam": 6601,
      "Ġinformations": 6602,
      "Ġpuis": 6603,
      "contro": 6604,
      "Ġire": 6605,
      "Ð½Ð°Ñı": 6606,
      "Ð¾Ðµ": 6607,
      "Ġdisposable": 6608,
      "ĠKilled": 6609,
      "Ġexploded": 6610,
      "Ġrecognise": 6611,
      "Ġsek": 6612,
      "Ð¸Ð¹": 6613,
      "ĠÐ·Ð°": 6614,
      "ãĥ¬": 6615,
      "è®¾ç½®": 6616,
      "alore": 6617,
      "abra": 6618,
      "ĠØ¹": 6619,
      "rar": 6620,
      "ĠÐ²ÑģÐµ": 6621,
      "Ġanda": 6622,
      "irma": 6623,
      "Ġzona": 6624,
      "æĻ": 6625,
      "Ñĳ": 6626,
      "atÃ³": 6627,
      "Ġnota": 6628,
      "å°Ĩ": 6629,
      "çĬ¶æĢģ": 6630,
      "Ġdra": 6631,
      "Ġdapat": 6632,
      "Ġamor": 6633,
      "åĪĹè¡¨": 6634,
      "à¤°": 6635,
      "ugal": 6636,
      "Ġpok": 6637,
      "Ġeleven": 6638,
      "conom": 6639,
      "-vous": 6640,
      "piel": 6641,
      "Ġpasser": 6642,
      "Ġkat": 6643,
      "Ġpouvez": 6644,
      "Ġcours": 6645,
      "Ġafrica": 6646,
      "encial": 6647,
      "noÅĽci": 6648,
      "ĠØ¯": 6649,
      "Obama": 6650,
      "Ġsoit": 6651,
      "Rom": 6652,
      "Ġmeine": 6653,
      "ÅĤÄħ": 6654,
      "Ġclimbed": 6655,
      "Ġevento": 6656,
      "ĠPakistani": 6657,
      "Ġunauthorized": 6658,
      "Ġmigli": 6659,
      "ĠÐ¼Ð¾Ð¶": 6660,
      "Russia": 6661,
      "Ġìĭľ": 6662,
      "ĠÑħ": 6663,
      "Ġberlin": 6664,
      "Ġonions": 6665,
      "Ġtir": 6666,
      "Ġburger": 6667,
      "é«ĺ": 6668,
      "Ġporch": 6669,
      "ĠPoor": 6670,
      "¤í": 6671,
      "warz": 6672,
      "åŃĲ": 6673,
      "Ġmend": 6674,
      "Ġmarvel": 6675,
      "Ġquelques": 6676,
      "éģĵ": 6677,
      "ĠÑģÐ²": 6678,
      "èª": 6679,
      "ãĥī": 6680,
      "Ġwszyst": 6681,
      "éĤ": 6682,
      "Ġsog": 6683,
      "ĠArmstrong": 6684,
      "liga": 6685,
      "ÅĤad": 6686,
      "Chinese": 6687,
      "æīĭ": 6688,
      "Ġlumin": 6689,
      "Ġsemana": 6690,
      "uchen": 6691,
      "izio": 6692,
      "ä¸ī": 6693,
      "Ġpetit": 6694,
      "Ġvoir": 6695,
      "rale": 6696,
      "gesch": 6697,
      "JI": 6698,
      "Ġnama": 6699,
      "Ġchin": 6700,
      "ĠÐ¸Ð»Ð¸": 6701,
      "ĠdÃŃas": 6702,
      "ovi": 6703,
      "Ġchez": 6704,
      "Ġê³": 6705,
      "gio": 6706,
      "Ġcows": 6707,
      "ä»İ": 6708,
      "Ġstan": 6709,
      "orean": 6710,
      "Ġgor": 6711,
      "umat": 6712,
      "ĠÐ¾Ð¿": 6713,
      "enci": 6714,
      "Ã§as": 6715,
      "gli": 6716,
      "ĠÑı": 6717,
      "Ġmois": 6718,
      "inte": 6719,
      "conte": 6720,
      "Ġdebit": 6721,
      "Ġalta": 6722,
      "teenth": 6723,
      "accion": 6724,
      "Ġtrouver": 6725,
      "Ġembassy": 6726,
      "ÃŃf": 6727,
      "ĠÙģ": 6728,
      "Ġencontrar": 6729,
      "å®¶": 6730,
      "Ġpint": 6731,
      "ssi": 6732,
      "Ġchaque": 6733,
      "Ġmelhor": 6734,
      "vu": 6735,
      "Ġnour": 6736,
      "achen": 6737,
      "cek": 6738,
      "wie": 6739,
      "anmar": 6740,
      "ĠMonte": 6741,
      "æĹ¥æľŁ": 6742,
      "zej": 6743,
      "Ġhap": 6744,
      "Ġnaz": 6745,
      "Ġsuiv": 6746,
      "vir": 6747,
      "éķ¿": 6748,
      "Ġdob": 6749,
      "Ġberg": 6750,
      "ä»ĺ": 6751,
      "owych": 6752,
      "Ġtema": 6753,
      "ç§Ĵ": 6754,
      "Ġcorreo": 6755,
      "ÐµÑĪ": 6756,
      "è·¯": 6757,
      "Ġmarca": 6758,
      "Ġrelacion": 6759,
      "ĠATM": 6760,
      "Ġhai": 6761,
      "ĠÅ¼": 6762,
      "Ġlied": 6763,
      "ãĤ³": 6764,
      "Ð¸Ð¸": 6765,
      "Ġmaison": 6766,
      "ÐµÐ³Ð¾": 6767,
      "ftar": 6768,
      "ãĤ¿": 6769,
      "į°ìĿ´": 6770,
      "gni": 6771,
      "ĠÐµÑģÐ»Ð¸": 6772,
      "acie": 6773,
      "Ġdrums": 6774,
      "qui": 6775,
      "Ġahora": 6776,
      "hora": 6777,
      "ixa": 6778,
      "give": 6779,
      "uso": 6780,
      "Ġcerc": 6781,
      "ä¿ĿåŃĺ": 6782,
      "Ġdenies": 6783,
      "Ġavez": 6784,
      "Ġusar": 6785,
      "äº¬": 6786,
      "ĠWeapons": 6787,
      "Ġdegli": 6788,
      "Ø³Øª": 6789,
      "Ġapenas": 6790,
      "Ġdieses": 6791,
      "è½¬": 6792,
      "stag": 6793,
      "Ð½Ð¾Ð²": 6794,
      "agu": 6795,
      "ensch": 6796,
      "ãģı": 6797,
      "Ġsavoir": 6798,
      "iÄħ": 6799,
      "Ġmettre": 6800,
      "Ġcara": 6801,
      "è¾ĳ": 6802,
      "ä¸Ģä¸ª": 6803,
      "orgia": 6804,
      "Ġjue": 6805,
      "ilih": 6806,
      "Ġconfigur": 6807,
      "Ð²ÐµÑĤ": 6808,
      "Ġbach": 6809,
      "Ġkillings": 6810,
      "uner": 6811,
      "Ð½Ð¾Ðµ": 6812,
      "ãģĶ": 6813,
      "ÐºÐ¾": 6814,
      "Ġkol": 6815,
      "Ġzm": 6816,
      "Ð¸Ð´": 6817,
      "à¸µà¹Ī": 6818,
      "lis": 6819,
      "Ġzwischen": 6820,
      "Ð°Ð»Ð¸": 6821,
      "Ġdimin": 6822,
      "íĺ¸": 6823,
      "Ġmitt": 6824,
      "Ð¸Ð¿": 6825,
      "ĠÐºÐ»": 6826,
      "Ġmars": 6827,
      "izaÃ§Ã£o": 6828,
      "ĠÑĩÑĤÐ¾": 6829,
      "Ã³ÅĤ": 6830,
      "Ġexchanged": 6831,
      "Ġczas": 6832,
      "ãĥĥãĤ¯": 6833,
      "stin": 6834,
      "Ġestas": 6835,
      "Ġbans": 6836,
      "Ġcosa": 6837,
      "åĬĽ": 6838,
      "Ġmolto": 6839,
      "Ġnouvelle": 6840,
      "Ġconsulta": 6841,
      "Indian": 6842,
      "primer": 6843,
      "Ã¡nd": 6844,
      "Strong": 6845,
      "Ġfrance": 6846,
      "Ġdidnt": 6847,
      "Ġrainbow": 6848,
      "Ø§Øª": 6849,
      "à¸¸": 6850,
      "Ġkas": 6851,
      "Ġneuen": 6852,
      "jal": 6853,
      "Russian": 6854,
      "ĠvÃł": 6855,
      "czy": 6856,
      "Ġaller": 6857,
      "Ġà¤ķ": 6858,
      "å¤ĸ": 6859,
      "ĠìĥĿ": 6860,
      "ĠcÃ¢": 6861,
      "rias": 6862,
      "íķł": 6863,
      "à¸Ĥ": 6864,
      "è°ĥ": 6865,
      "é¡¹": 6866,
      "Ġumbrella": 6867,
      "Ġì§": 6868,
      "isia": 6869,
      "ëıĦ": 6870,
      "Australia": 6871,
      "Ġwarns": 6872,
      "wis": 6873,
      "'av": 6874,
      "ujÄħ": 6875,
      "Ġpaar": 6876,
      "lies": 6877,
      "Ġë©": 6878,
      "à¸Ĭ": 6879,
      "nym": 6880,
      "Ġstato": 6881,
      "Ġersten": 6882,
      "clair": 6883,
      "Ð²ÐµÑĢ": 6884,
      "Ġmart": 6885,
      "Ġjours": 6886,
      "Ġdalla": 6887,
      "Ġkel": 6888,
      "Ġmeilleur": 6889,
      "Ġmassacre": 6890,
      "arl": 6891,
      "anye": 6892,
      "åĮĹ": 6893,
      "Ġdost": 6894,
      "Ġeing": 6895,
      "ĠìķĦ": 6896,
      "ìĿĮ": 6897,
      "registr": 6898,
      "Ġtha": 6899,
      "vre": 6900,
      "utan": 6901,
      "ê·¸": 6902,
      "Ġheute": 6903,
      "Ġici": 6904,
      "Ġordin": 6905,
      "ĠrÃ¡": 6906,
      "ifik": 6907,
      "Ġhurricane": 6908,
      "å·¥": 6909,
      "tanggal": 6910,
      "Ġaugment": 6911,
      "orrent": 6912,
      "ç¬ĳ": 6913,
      "Ġhoy": 6914,
      "Japan": 6915,
      "Ð¾Ð·Ð²": 6916,
      "-te": 6917,
      "ÑĥÐ¿": 6918,
      "bil": 6919,
      "Ġmercado": 6920,
      "Ġdecir": 6921,
      "çĽ¸": 6922,
      "å¾®": 6923,
      "ĠÐ½Ð¾Ð²": 6924,
      "Ġsteak": 6925,
      "Ã¼ber": 6926,
      "France": 6927,
      "staw": 6928,
      "jest": 6929,
      "Ġdun": 6930,
      "å¹³": 6931,
      "Ð°Ñĩ": 6932,
      "owaÄĩ": 6933,
      "Ġprzed": 6934,
      "åĲ¬": 6935,
      "Ð¸Ðµ": 6936,
      "ĠBrotherhood": 6937,
      "è§£": 6938,
      "uale": 6939,
      "ÐµÐ¶": 6940,
      "Ġrapper": 6941,
      "imas": 6942,
      "Ġëĭ¤": 6943,
      "Ø§Ùħ": 6944,
      "ÐµÐµ": 6945,
      "Ġtego": 6946,
      "ĠdespuÃ©s": 6947,
      "Ġyork": 6948,
      "Ġwithdrawn": 6949,
      "Ġorang": 6950,
      "ë¡Ŀ": 6951,
      "Ġdzie": 6952,
      "Ġeats": 6953,
      "icias": 6954,
      "Ð°Ð¼Ð¸": 6955,
      "wor": 6956,
      "ÐµÑĤÑģÑı": 6957,
      "Ġjako": 6958,
      "ãģį": 6959,
      "atif": 6960,
      "à¹Ħ": 6961,
      "Ġletz": 6962,
      "Ġdeclares": 6963,
      "Ġsudah": 6964,
      "Ã¶l": 6965,
      "iesz": 6966,
      "å¾Ĺ": 6967,
      "ĠÑĤÐ°Ðº": 6968,
      "Ġesa": 6969,
      "áº¡n": 6970,
      "Ġsia": 6971,
      "Ġras": 6972,
      "Ġlebih": 6973,
      "Ġtransferring": 6974,
      "Ġcalend": 6975,
      "aty": 6976,
      "Ã³m": 6977,
      "Ġseize": 6978,
      "akukan": 6979,
      "æĽ´æĸ°": 6980,
      "æĶ¶": 6981,
      "otte": 6982,
      "Ġsailing": 6983,
      "Ġallen": 6984,
      "ropical": 6985,
      "iras": 6986,
      "Ġllam": 6987,
      "itung": 6988,
      "ĠMarathon": 6989,
      "Ġmang": 6990,
      "Clinton": 6991,
      "ãģĵãģ®": 6992,
      "ĠÙĨ": 6993,
      "å®ī": 6994,
      "ìĦ¸ìļĶ": 6995,
      "ÐµÐ½Ð°": 6996,
      "Ġzak": 6997,
      "ëĿ¼": 6998,
      "Ġdois": 6999,
      "åıĸæ¶Ī": 7000,
      "Ã³t": 7001,
      "six": 7002,
      "Ġlain": 7003,
      "åĪĽå»º": 7004,
      "éĢīæĭ©": 7005,
      "è®¢åįķ": 7006,
      "Ġpouring": 7007,
      "Ġdiesen": 7008,
      "ĠÐ±ÑĥÐ´": 7009,
      "Ġexercising": 7010,
      "otle": 7011,
      "ÑĤÐµ": 7012,
      "auf": 7013,
      "Ġbonne": 7014,
      "Ġlett": 7015,
      "ÑĭÐµ": 7016,
      "ÑģÑĤÑĢ": 7017,
      "Ġsworn": 7018,
      "aktu": 7019,
      "Ð°ÑĪ": 7020,
      "ĠìķĬ": 7021,
      "ĠÃ©v": 7022,
      "Ġgraz": 7023,
      "eti": 7024,
      "ajar": 7025,
      "Ġmak": 7026,
      "Ġsollte": 7027,
      "çľĭ": 7028,
      "Ġkes": 7029,
      "Äĳ": 7030,
      "Ġdzi": 7031,
      "Ġkissing": 7032,
      "'in": 7033,
      "á»ĩn": 7034,
      "Ġmejores": 7035,
      "Ã³b": 7036,
      "uali": 7037,
      "Ã¶ff": 7038,
      "Ġtutto": 7039,
      "ungan": 7040,
      "eker": 7041,
      "Ġmilitant": 7042,
      "ãĥ³ãĥĪ": 7043,
      "Ġoleh": 7044,
      "ÐµÐ½ÑĮ": 7045,
      "ĠÐ¿Ð¾Ð»ÑĥÑĩ": 7046,
      "áº¥t": 7047,
      "ixo": 7048,
      "Ġsaat": 7049,
      "Ġpresidente": 7050,
      "Ġë©Ķ": 7051,
      "ÐºÐ»ÑİÑĩ": 7052,
      "ienia": 7053,
      "è¡¨ç¤º": 7054,
      "Ġraids": 7055,
      "ãĥķ": 7056,
      "éľ": 7057,
      "Ġclashes": 7058,
      "Ġmenc": 7059,
      "Ãłng": 7060,
      "avez": 7061,
      "ë¬¸": 7062,
      "Ġquesta": 7063,
      "ÐµÑģÑĤÐ²Ð¾": 7064,
      "à¹īà¸Ń": 7065,
      "ifique": 7066,
      "Ġminutos": 7067,
      "iges": 7068,
      "ĠÐºÐ°Ðº": 7069,
      "spr": 7070,
      "acja": 7071,
      "keiten": 7072,
      "Ġhin": 7073,
      "Ġcracking": 7074,
      "Ġtiger": 7075,
      "ãĥĸ": 7076,
      "Ġpedido": 7077,
      "å¸ĥ": 7078,
      "British": 7079,
      "Ġtreffen": 7080,
      "Ġposing": 7081,
      "ĠìĥĿìĦ±": 7082,
      "ĠcafÃ©": 7083,
      "rz": 7084,
      "sez": 7085,
      "amu": 7086,
      "Ġrockets": 7087,
      "Ġtylko": 7088,
      "'app": 7089,
      "Ġfim": 7090,
      "anj": 7091,
      "nego": 7092,
      "ĠØ´": 7093,
      "ĠÐ·Ð°Ð´": 7094,
      "çŁ¥": 7095,
      "mute": 7096,
      "icz": 7097,
      "Ġnorthwest": 7098,
      "onte": 7099,
      "Ġlange": 7100,
      "Ġlocales": 7101,
      "ëĲľ": 7102,
      "asz": 7103,
      "yna": 7104,
      "ificaciÃ³n": 7105,
      "æ°´": 7106,
      "ĠÃłs": 7107,
      "ĠCairo": 7108,
      "Ãłi": 7109,
      "Ġbrighter": 7110,
      "ÐºÐµ": 7111,
      "ĠÐ¸ÑģÐ¿": 7112,
      "Ġsic": 7113,
      "Ġnast": 7114,
      "ieux": 7115,
      "Ġrepro": 7116,
      "Ġbesten": 7117,
      "å¥½": 7118,
      "ambia": 7119,
      "çī©": 7120,
      "Tok": 7121,
      "áºŃt": 7122,
      "venta": 7123,
      "Ġott": 7124,
      "ìķĦ": 7125,
      "Ġrz": 7126,
      "Ãły": 7127,
      "ĠkhÃ´ng": 7128,
      "Ġgio": 7129,
      "ĠaquÃŃ": 7130,
      "Ġjeden": 7131,
      "Ġtg": 7132,
      "ìĬ¤íĬ¸": 7133,
      "Ġchristmas": 7134,
      "-ce": 7135,
      "Ġmute": 7136,
      "æĶ¾": 7137,
      "regist": 7138,
      "ologÃŃa": 7139,
      "iphone": 7140,
      "ç»ı": 7141,
      "quina": 7142,
      "ëŀĺ": 7143,
      "Ġdeposited": 7144,
      "Ð¾Ð»ÑĮÐºÐ¾": 7145,
      "Ġpraw": 7146,
      "ĠØ§ÙĦÙħ": 7147,
      "ì¶": 7148,
      "cura": 7149,
      "bis": 7150,
      "ĠëķĮ": 7151,
      "ĠlÃ¡": 7152,
      "ê³¼": 7153,
      "vac": 7154,
      "ĠØ±": 7155,
      "Ġbuen": 7156,
      "icionar": 7157,
      "atk": 7158,
      "cem": 7159,
      "ãģĻãĤĭ": 7160,
      "Ġfiat": 7161,
      "Ìģ": 7162,
      "Ġdisco": 7163,
      "Ġfraudulent": 7164,
      "Ġdomic": 7165,
      "Ġíķĺ": 7166,
      "ĠjuÅ¼": 7167,
      "Ġdisputed": 7168,
      "ä¹ĭ": 7169,
      "ãģĭãĤī": 7170,
      "Ġsaya": 7171,
      "åı°": 7172,
      "Ġdavid": 7173,
      "ìĹ´": 7174,
      "Ġswinging": 7175,
      "Ġvolta": 7176,
      "Ġì¤": 7177,
      "Ġtunes": 7178,
      "æĺ¾ç¤º": 7179,
      "ĠpremiÃ¨re": 7180,
      "å·ŀ": 7181,
      "Ġmidi": 7182,
      "Ġvou": 7183,
      "Ġgerne": 7184,
      "Ġëª¨": 7185,
      "rze": 7186,
      "Ġcurry": 7187,
      "endet": 7188,
      "Ġê¸°": 7189,
      "Ġjapan": 7190,
      "Ð¾Ð±Ñī": 7191,
      "ĠÃ¡rea": 7192,
      "uat": 7193,
      "Ġpem": 7194,
      "Ġkita": 7195,
      "ubi": 7196,
      "mach": 7197,
      "Ġjusqu": 7198,
      "ìĽĲ": 7199,
      "ì£¼": 7200,
      "Af": 7201,
      "Ġmenjadi": 7202,
      "Ġogni": 7203,
      "ucha": 7204,
      "éħį": 7205,
      "oran": 7206,
      "nez": 7207,
      "Ġmeny": 7208,
      "Ġwann": 7209,
      "Someone": 7210,
      "ĠÑĪ": 7211,
      "pour": 7212,
      "'int": 7213,
      "ochen": 7214,
      "Ġwys": 7215,
      "à¥ĭ": 7216,
      "tere": 7217,
      "çĶ»": 7218,
      "Ġessa": 7219,
      "Ġtrabalho": 7220,
      "à¸Ľ": 7221,
      "iran": 7222,
      "cciones": 7223,
      "toc": 7224,
      "à¥ĩà¤": 7225,
      "gia": 7226,
      "Ġê·¸": 7227,
      "Ġtoc": 7228,
      "ĠcÃ³mo": 7229,
      "Ġsiguiente": 7230,
      "Ġduplicated": 7231,
      "Ġzwe": 7232,
      "ãģĹãģŁ": 7233,
      "ĠíĮĮ": 7234,
      "Ġsegunda": 7235,
      "Ġgaz": 7236,
      "ìĤ¬": 7237,
      "Ùī": 7238,
      "Ġcidade": 7239,
      "æµ·": 7240,
      "Ġmeu": 7241,
      "ĠBaghdad": 7242,
      "Ġtrois": 7243,
      "å¼Ģå§ĭ": 7244,
      "Ġroku": 7245,
      "rei": 7246,
      "Ø°": 7247,
      "æīĢæľī": 7248,
      "Ġcommence": 7249,
      "Ġviene": 7250,
      "Ġdisturbed": 7251,
      "ÑĥÑĢ": 7252,
      "oger": 7253,
      "ÅĽli": 7254,
      "chs": 7255,
      "Ġprogramm": 7256,
      "ensi": 7257,
      "èĬĤ": 7258,
      "ĠÐ·Ð°Ð¿Ð¸Ñģ": 7259,
      "Ġcosas": 7260,
      "Ġshrimp": 7261,
      "assa": 7262,
      "Ġbluetooth": 7263,
      "ĠIsraelis": 7264,
      "Ġì£¼": 7265,
      "Ġtudo": 7266,
      "opo": 7267,
      "ieÅ¼": 7268,
      "ÐµÑĩ": 7269,
      "à¹Į": 7270,
      "Ġkim": 7271,
      "Ð»ÐµÐ½Ð¸Ðµ": 7272,
      "Ġonze": 7273,
      "éĸĵ": 7274,
      "bens": 7275,
      "bac": 7276,
      "Ġlivre": 7277,
      "ĠÙĩ": 7278,
      "undi": 7279,
      "ÑĥÐ¶": 7280,
      "ìĥģ": 7281,
      "Ð°Ð·Ð²": 7282,
      "tin": 7283,
      "Ġnei": 7284,
      "æ¯Ķ": 7285,
      "éĹ®": 7286,
      "ë¯¸": 7287,
      "Ġprimeiro": 7288,
      "ÑĨÐ¸Ð¸": 7289,
      "ãĤ·": 7290,
      "ĠPhilippine": 7291,
      "ĠÐ´Ð¾": 7292,
      "ipzig": 7293,
      "ãĥĹ": 7294,
      "Ã´le": 7295,
      "Ġmia": 7296,
      "-il": 7297,
      "íĻĶ": 7298,
      "nÄħ": 7299,
      "Ġmise": 7300,
      "ĠgroÃŁe": 7301,
      "Ġchinese": 7302,
      "ĠìłĦ": 7303,
      "ĠestÃ£o": 7304,
      "ìĹĲìĦľ": 7305,
      "Ġalex": 7306,
      "Ġdow": 7307,
      "xima": 7308,
      "lover": 7309,
      "Ġgeben": 7310,
      "ifie": 7311,
      "piar": 7312,
      "iej": 7313,
      "Ġamigos": 7314,
      "Ã©rieur": 7315,
      "ä½ł": 7316,
      "Ġgw": 7317,
      "é»ĳ": 7318,
      "bies": 7319,
      "alarm": 7320,
      "ĠÙĦ": 7321,
      "mor": 7322,
      "ãģĤãĤĬ": 7323,
      "ĠÐ¿ÑĢÐµÐ´": 7324,
      "ãĥĨ": 7325,
      "Ġhamburg": 7326,
      "Ġbardzo": 7327,
      "ãĤĪ": 7328,
      "Ġsoir": 7329,
      "ietet": 7330,
      "ÅĽcie": 7331,
      "Ġsulla": 7332,
      "ibu": 7333,
      "Ġë¦¬": 7334,
      "roma": 7335,
      "-par": 7336,
      "ìĹ¬": 7337,
      "gend": 7338,
      "orda": 7339,
      "ëıĻ": 7340,
      "Ġvier": 7341,
      "zin": 7342,
      "ìŀ¬": 7343,
      "uestas": 7344,
      "łí": 7345,
      "Ã³Å¼": 7346,
      "ĠÐ¶": 7347,
      "ä¸İ": 7348,
      "ìĺ¤": 7349,
      "-quarter": 7350,
      "ãģĿãģ®": 7351,
      "Ġyen": 7352,
      "è¯Ŀ": 7353,
      "Ġseguir": 7354,
      "Ġdisposit": 7355,
      "Ġroma": 7356,
      "Ġdang": 7357,
      "Ġdrei": 7358,
      "Ġtahun": 7359,
      "Ġbomber": 7360,
      "zych": 7361,
      "ĠìłĢìŀ¥": 7362,
      "è¯»": 7363,
      "åĳĬ": 7364,
      "ç¾İ": 7365,
      "ĠAUD": 7366,
      "fund": 7367,
      "Ġquem": 7368,
      "äºĭä»¶": 7369,
      "Ġtelah": 7370,
      "ocese": 7371,
      "owo": 7372,
      "Ġqualquer": 7373,
      "ê²Į": 7374,
      "å±±": 7375,
      "Ġì¶Ķ": 7376,
      "ãģĪ": 7377,
      "Ø¶": 7378,
      "kim": 7379,
      "Ð´ÐµÐ»": 7380,
      "Ġsala": 7381,
      "Ã¡ria": 7382,
      "à¹īà¸²": 7383,
      "Ġìĥģ": 7384,
      "Ð¶Ðµ": 7385,
      "Whats": 7386,
      "aysia": 7387,
      "ĠÐ»Ð¸": 7388,
      "ATO": 7389,
      "Ġcrackdown": 7390,
      "stellen": 7391,
      "ì¤": 7392,
      "von": 7393,
      "Ġdeber": 7394,
      "iÃ¨res": 7395,
      "ĠÐ·Ð°Ðº": 7396,
      "ĠbÄĻdzie": 7397,
      "Ġspielen": 7398,
      "ĠÑĤÐ¾": 7399,
      "unas": 7400,
      "ĠÐ´Ð¾Ð±Ð°Ð²": 7401,
      "ĠmÃ¼": 7402,
      "Ġprendre": 7403,
      "Ġairst": 7404,
      "Ġwelche": 7405,
      "chains": 7406,
      "å¤į": 7407,
      "æīĭæľº": 7408,
      "uger": 7409,
      "ioso": 7410,
      "åįĹ": 7411,
      "Ġharus": 7412,
      "å¿ħ": 7413,
      "Ġbers": 7414,
      "å¡": 7415,
      "Ġsatu": 7416,
      "Äĥng": 7417,
      "Ġsebagai": 7418,
      "ãģ¤": 7419,
      "ÙĪØ±": 7420,
      "ĠìĿ¸": 7421,
      "ä¸ŃåĽ½": 7422,
      "Looks": 7423,
      "xin": 7424,
      "gende": 7425,
      "Ġêµ¬": 7426,
      "Ð¸ÑĢÐ¾Ð²": 7427,
      "Ġzar": 7428,
      "Ã³a": 7429,
      "prend": 7430,
      "ĠwÃ¼rde": 7431,
      "ÑĪÐµ": 7432,
      "Ġmau": 7433,
      "Ġvraiment": 7434,
      "Ġpuedes": 7435,
      "Ġgiorn": 7436,
      "Ġpian": 7437,
      "chin": 7438,
      "Ġdopo": 7439,
      "Ġtexas": 7440,
      "è¿ĳ": 7441,
      "Ġora": 7442,
      "ampoline": 7443,
      "Ã³r": 7444,
      "Ð°ÑĢÑĤ": 7445,
      "Ã¼nst": 7446,
      "Ġrejects": 7447,
      "owied": 7448,
      "Ġintellig": 7449,
      "alten": 7450,
      "ĠbyÄĩ": 7451,
      "Ġenvoy": 7452,
      "åĪ©": 7453,
      "ç§»": 7454,
      "zÄĻ": 7455,
      "ĠÐºÐ»Ð°ÑģÑģ": 7456,
      "ì¹ĺ": 7457,
      "Ġbic": 7458,
      "Ġcá»§a": 7459,
      "ĠsÃ¼": 7460,
      "æĢ»": 7461,
      "ãĤµ": 7462,
      "Ġmarc": 7463,
      "Ġerh": 7464,
      "Ġitaliano": 7465,
      "apr": 7466,
      "ĠØ³": 7467,
      "Ġjac": 7468,
      "ĠmÃºs": 7469,
      "à¸ŀ": 7470,
      "niej": 7471,
      "é¦ĸ": 7472,
      "Ġhoch": 7473,
      "Ġìłķë³´": 7474,
      "orea": 7475,
      "Ġrapp": 7476,
      "olÃ³g": 7477,
      "à¤¨": 7478,
      "Ġnoodles": 7479,
      "è¨ĺ": 7480,
      "ieber": 7481,
      "cke": 7482,
      "Ġtopping": 7483,
      "Ð½Ð¾ÑģÑĤÑĮ": 7484,
      "Ð¾Ñı": 7485,
      "ëŁ¬": 7486,
      "ãĥ¼ãĤ¹": 7487,
      "ëĤĺ": 7488,
      "owej": 7489,
      "Ġluego": 7490,
      "Ð»ÐµÐ½": 7491,
      "ikit": 7492,
      "à¸Ī": 7493,
      "Ġzam": 7494,
      "ÐµÐ»Ð¸": 7495,
      "ãģĦãģ¾ãģĻ": 7496,
      "Ġapa": 7497,
      "idue": 7498,
      "Ġtarde": 7499,
      "è¥¿": 7500,
      "ĠÐ¿Ð¾ÑģÐ»": 7501,
      "Ġíķ´": 7502,
      "åħĪ": 7503,
      "Ġdni": 7504,
      "hei": 7505,
      "ĠKills": 7506,
      "ãĤģ": 7507,
      "Ġwyn": 7508,
      "ĠëĮĢ": 7509,
      "atr": 7510,
      "olie": 7511,
      "á»±": 7512,
      "Äħd": 7513,
      "inya": 7514,
      "Ġtard": 7515,
      "parer": 7516,
      "arseille": 7517,
      "Ġmemes": 7518,
      "anst": 7519,
      "Ġhaut": 7520,
      "prech": 7521,
      "Ġprimo": 7522,
      "Ġrover": 7523,
      "Ġíķľ": 7524,
      "Ã³j": 7525,
      "Ġthi": 7526,
      "Ġchanger": 7527,
      "blocked": 7528,
      "irim": 7529,
      "ĠuÅ¼y": 7530,
      "Ã´n": 7531,
      "ĠÃºltimo": 7532,
      "Ġsamp": 7533,
      "ĠpolÃŃtica": 7534,
      "isti": 7535,
      "ĠÐ±ÑĭÑĤÑĮ": 7536,
      "Ġwithdrew": 7537,
      "Ã¤nger": 7538,
      "Ð»ÐµÐ½Ð¸Ñı": 7539,
      "Ġkata": 7540,
      "Iran": 7541,
      "íļĮ": 7542,
      "ĠhÃłng": 7543,
      "Ġdernier": 7544,
      "Ġlouder": 7545,
      "ãĤŃ": 7546,
      "altung": 7547,
      "Ġzosta": 7548,
      "arkan": 7549,
      "Ġbanyak": 7550,
      "ĠHezbollah": 7551,
      "quoi": 7552,
      "deaux": 7553,
      "Ġtej": 7554,
      "ĠcÃ´ng": 7555,
      "Ġviolin": 7556,
      "izia": 7557,
      "Ġlondon": 7558,
      "Ġìłľ": 7559,
      "jad": 7560,
      "Ġë§Į": 7561,
      "Ġminha": 7562,
      "ĠÐ²ÑĭÐ±": 7563,
      "ÑĭÑħ": 7564,
      "ÅĤu": 7565,
      "å¦Ĥæŀľ": 7566,
      "vrir": 7567,
      "ê°Ħ": 7568,
      "Snow": 7569,
      "iego": 7570,
      "Ġcanc": 7571,
      "Ġalarms": 7572,
      "-ci": 7573,
      "jak": 7574,
      "Ġbajo": 7575,
      "burger": 7576,
      "Ġgehen": 7577,
      "Ġbesoin": 7578,
      "ĠmoÅ¼na": 7579,
      "iÄĻ": 7580,
      "ĠnÃ¤ch": 7581,
      "Ġkami": 7582,
      "ĠÐ¿Ð°ÑĢ": 7583,
      "Ġresto": 7584,
      "Ġenviar": 7585,
      "Bang": 7586,
      "Ġvolum": 7587,
      "Ġbeneficiary": 7588,
      "Ġurges": 7589,
      "dre": 7590,
      "kas": 7591,
      "åĪ«": 7592,
      "å¹¶": 7593,
      "Ġíģ´": 7594,
      "Ġvog": 7595,
      "iad": 7596,
      "ãģ¿": 7597,
      "ÄĻp": 7598,
      "auss": 7599,
      "Ġtitre": 7600,
      "ãĥ¼ãĥ«": 7601,
      "ë¶Ģ": 7602,
      "Ġguardar": 7603,
      "å¿ĥ": 7604,
      "Ġrussian": 7605,
      "ë¦Ħ": 7606,
      "Ð¸Ð»": 7607,
      "ĠÙħÙĨ": 7608,
      "ë£Į": 7609,
      "ĠkaÅ¼": 7610,
      "fte": 7611,
      "Ġë³´": 7612,
      "villa": 7613,
      "ĠØ£": 7614,
      "æķ´": 7615,
      "ÑĥÐ±": 7616,
      "Ġdunk": 7617,
      "ĠÄĳÆ°á»£c": 7618,
      "amenti": 7619,
      "quÃ©": 7620,
      "Ġmereka": 7621,
      "arendra": 7622,
      "Ġort": 7623,
      "Ġpemb": 7624,
      "åĽĽ": 7625,
      "ãĤ»": 7626,
      "Ġtomar": 7627,
      "igeria": 7628,
      "Ġë°ĺ": 7629,
      "Ð¼Ð¸": 7630,
      "ĠcÃ©": 7631,
      "fait": 7632,
      "usu": 7633,
      "ogi": 7634,
      "Ġfatto": 7635,
      "Ġtua": 7636,
      "ĠMali": 7637,
      "ippines": 7638,
      "Gun": 7639,
      "-feira": 7640,
      "Ġquello": 7641,
      "Ġforte": 7642,
      "Ġwiel": 7643,
      "roz": 7644,
      "wiÄĻ": 7645,
      "ĠthÃłnh": 7646,
      "ëĲĺ": 7647,
      "ziel": 7648,
      "ãĤ¦": 7649,
      "æ¶Īæģ¯": 7650,
      "ãģķãģĦ": 7651,
      "Boston": 7652,
      "å¤´": 7653,
      "Ġluz": 7654,
      "æĺ¯åĲ¦": 7655,
      "éĤ®": 7656,
      "zimmer": 7657,
      "ãĥ¼ãĥī": 7658,
      "angs": 7659,
      "ĠÑĩÐ¸ÑģÐ»Ð¾": 7660,
      "ĠìŀĪëĬĶ": 7661,
      "ĠìŀĲ": 7662,
      "redi": 7663,
      "ĠTray": 7664,
      "åı¸": 7665,
      "Ġfuturo": 7666,
      "liste": 7667,
      "engo": 7668,
      "à¸·à¹Ī": 7669,
      "éĹ¨": 7670,
      "atÃ³rio": 7671,
      "à¤ķ": 7672,
      "uelles": 7673,
      "à¹Īà¸²": 7674,
      "å®¢": 7675,
      "Ġmadrid": 7676,
      "ëĭ¹": 7677,
      "Ġbuena": 7678,
      "Ġëı": 7679,
      "bao": 7680,
      "ëĵ¤": 7681,
      "akhir": 7682,
      "zeÅĦ": 7683,
      "Ã®tre": 7684,
      "Ġcen": 7685,
      "Ġcucumber": 7686,
      "ÑģÐº": 7687,
      "Ġperk": 7688,
      "íĻĺ": 7689,
      "çī¹": 7690,
      "ĠÑģÐµÑĢ": 7691,
      "ê²½": 7692,
      "ierz": 7693,
      "shuffle": 7694,
      "tur": 7695,
      "Ġlavoro": 7696,
      "Ġdepois": 7697,
      "Ø§Ø¯": 7698,
      "ingga": 7699,
      "Ġfais": 7700,
      "Ġespresso": 7701,
      "Ã¨te": 7702,
      "Ġì¡°": 7703,
      "Ġsá»ĳ": 7704,
      "Ġrendez": 7705,
      "Ġspre": 7706,
      "Ġreminders": 7707,
      "ĠZimmerman": 7708,
      "ĠgÅĤ": 7709,
      "Ġench": 7710,
      "chu": 7711,
      "çľģ": 7712,
      "Ġameric": 7713,
      "Ġagora": 7714,
      "Ġnell": 7715,
      "Ġkannst": 7716,
      "ãĥĲ": 7717,
      "ìłĦ": 7718,
      "ĠìĦ¤ìłķ": 7719,
      "Ġmeio": 7720,
      "Ġproprio": 7721,
      "ĠkÃ¼": 7722,
      "ãĥĥãĥĪ": 7723,
      "ĠÑģÐ¾Ð¾Ð±Ñī": 7724,
      "ÐµÐ¿": 7725,
      "ufe": 7726,
      "ÑĥÐº": 7727,
      "íĮ": 7728,
      "Ð»Ð¸ÑĨ": 7729,
      "ĠëĤ´": 7730,
      "Ġsushi": 7731,
      "à¸±à¸Ļ": 7732,
      "ĠmÃ¶chte": 7733,
      "íķĺê¸°": 7734,
      "Ġding": 7735,
      "ĠASAP": 7736,
      "rebbe": 7737,
      "Ð¸Ð»ÑĮ": 7738,
      "ãģ©": 7739,
      "iosa": 7740,
      "czas": 7741,
      "Ð¸Ñħ": 7742,
      "atoire": 7743,
      "prÃ¼": 7744,
      "Ġpours": 7745,
      "Ġì§Ģ": 7746,
      "ëĮĢ": 7747,
      "iete": 7748,
      "ĠÐºÐ¾ÑĢ": 7749,
      "Ġtengo": 7750,
      "ĠãĤ³": 7751,
      "Ġletzten": 7752,
      "Ġpaul": 7753,
      "Ġbeb": 7754,
      "Ġaconte": 7755,
      "Ġgerade": 7756,
      "Ġestamos": 7757,
      "çĶ±": 7758,
      "Ġbert": 7759,
      "ukkan": 7760,
      "Ġsings": 7761,
      "åĮħ": 7762,
      "ãĥĩ": 7763,
      "hay": 7764,
      "Ġstatt": 7765,
      "ÑģÑĤÐ°Ð½Ð¾Ð²": 7766,
      "ä¸ľ": 7767,
      "Ġbitte": 7768,
      "illez": 7769,
      "Ñį": 7770,
      "Ġkem": 7771,
      "Asian": 7772,
      "Ġpierws": 7773,
      "Ġromant": 7774,
      "ìŀĳ": 7775,
      "Æ¡n": 7776,
      "ãĥŀ": 7777,
      "Putin": 7778,
      "Ġznaj": 7779,
      "rego": 7780,
      "iap": 7781,
      "Ġprimeira": 7782,
      "Ġcommande": 7783,
      "Ã©rÃ©": 7784,
      "iÄĩ": 7785,
      "rai": 7786,
      "ĠÑįÑĤÐ¾": 7787,
      "kir": 7788,
      "Prince": 7789,
      "Ġgost": 7790,
      "å½ĵåīį": 7791,
      "hapus": 7792,
      "Ġcrist": 7793,
      "ppelin": 7794,
      "Ġstellen": 7795,
      "Ġexecutions": 7796,
      "Ġà¤¸": 7797,
      "lÃ©": 7798,
      "Ġìŀĳ": 7799,
      "ĠØŃ": 7800,
      "Ġentend": 7801,
      "Ġfunk": 7802,
      "kur": 7803,
      "Ġbaru": 7804,
      "Ð¼Ð°": 7805,
      "Ġaggi": 7806,
      "ĠÑģÐº": 7807,
      "åĲ¯": 7808,
      "Ġì¶Ķê°Ģ": 7809,
      "inem": 7810,
      "ĠÐ¿ÑĢÐ¾Ð²ÐµÑĢ": 7811,
      "jourd": 7812,
      "roit": 7813,
      "ëį": 7814,
      "Ð¸Ð½Ð°": 7815,
      "Ġbombers": 7816,
      "ĠÐ±ÑĥÐ´ÐµÑĤ": 7817,
      "Ġverifying": 7818,
      "unj": 7819,
      "nero": 7820,
      "ÑĢÐ¾Ð²ÐµÑĢ": 7821,
      "åĮĹäº¬": 7822,
      "Ġmio": 7823,
      "boa": 7824,
      "åĲĳ": 7825,
      "Ġtrong": 7826,
      "ç®Ĺ": 7827,
      "ziaÅĤ": 7828,
      "æ±Ł": 7829,
      "zioni": 7830,
      "Thai": 7831,
      "acje": 7832,
      "á»ĩu": 7833,
      "Ġhospitalized": 7834,
      "éĩĮ": 7835,
      "Ð¸Ð³": 7836,
      "Ġchaud": 7837,
      "Ġagar": 7838,
      "ìĥ": 7839,
      "ÙĪØ¯": 7840,
      "ä»½": 7841,
      "ãĥĶ": 7842,
      "ç§ĳ": 7843,
      "Ġllevar": 7844,
      "avr": 7845,
      "zyÄĩ": 7846,
      "áº§n": 7847,
      "Ġgusta": 7848,
      "Ġfuera": 7849,
      "Ø£": 7850,
      "Ġhari": 7851,
      "Ġmondo": 7852,
      "Ġcambiar": 7853,
      "æ°ĳ": 7854,
      "isz": 7855,
      "Ġatm": 7856,
      "è£": 7857,
      "Ġsujet": 7858,
      "Ġhanya": 7859,
      "buat": 7860,
      "Ð½Ð¸Ðº": 7861,
      "Ð°Ð¹Ð´": 7862,
      "uhan": 7863,
      "æ²»": 7864,
      "ì¶ľ": 7865,
      "Ġseventy": 7866,
      "Ġbele": 7867,
      "å£°": 7868,
      "ãĤĦ": 7869,
      "Ġsop": 7870,
      "Ġamigo": 7871,
      "Ġhaus": 7872,
      "Ġcinco": 7873,
      "ĠmÃºsica": 7874,
      "éĩįæĸ°": 7875,
      "ãĤ«": 7876,
      "Ġtorino": 7877,
      "Ġsangat": 7878,
      "achsen": 7879,
      "ĠÐ¸Ð³": 7880,
      "Ġsalle": 7881,
      "ãĤ¹ãĥĪ": 7882,
      "ë¹Ħ": 7883,
      "Ġë¡": 7884,
      "ä»¥ä¸Ĭ": 7885,
      "ngo": 7886,
      "Ġventil": 7887,
      "Ø§Ø¨": 7888,
      "Ġzad": 7889,
      "Ġdonner": 7890,
      "Ġmasa": 7891,
      "Ġdez": 7892,
      "Ġmadre": 7893,
      "kich": 7894,
      "ĠprÃ³ximo": 7895,
      "ĠÐ¿ÐµÑĢÐµÐ¼": 7896,
      "indre": 7897,
      "Ġjika": 7898,
      "æ²¡": 7899,
      "Ġì¤ĳ": 7900,
      "awaii": 7901,
      "ĠÐ²ÑĭÐ¿": 7902,
      "çľĮ": 7903,
      "Ġë¡ľ": 7904,
      "éĽħ": 7905,
      "ĠÃºltima": 7906,
      "Ġcrawling": 7907,
      "opi": 7908,
      "Ġactivating": 7909,
      "Ġtienes": 7910,
      "annya": 7911,
      "Ġê²ĥ": 7912,
      "Ġmeiner": 7913,
      "æį¢": 7914,
      "Ġmemiliki": 7915,
      "á»ī": 7916,
      "Ġbild": 7917,
      "ãģıãģłãģķãģĦ": 7918,
      "ãģĽ": 7919,
      "Ġduas": 7920,
      "éĥ½": 7921,
      "ãĥ¥": 7922,
      "à¹ģ": 7923,
      "ĠArrest": 7924,
      "owi": 7925,
      "Ġjorn": 7926,
      "åºĹ": 7927,
      "Ġschl": 7928,
      "Ã³mo": 7929,
      "ĠÐ·Ð°Ð³": 7930,
      "Ġgiov": 7931,
      "Ġincontro": 7932,
      "ãģ§ãĤĤ": 7933,
      "Ġsemaine": 7934,
      "èµ·": 7935,
      "noÅĽÄĩ": 7936,
      "ein": 7937,
      "bz": 7938,
      "rente": 7939,
      "aporan": 7940,
      "dio": 7941,
      "Ġnelle": 7942,
      "Ġxa": 7943,
      "Ġfilt": 7944,
      "wahl": 7945,
      "Ġhinter": 7946,
      "Ġalguna": 7947,
      "Ġkho": 7948,
      "bright": 7949,
      "ĠÐ¿ÑĢÐ°Ð²": 7950,
      "âĢļ": 7951,
      "Ġming": 7952,
      "ĠaÃ±": 7953,
      "æĭī": 7954,
      "ç±³": 7955,
      "à¸°": 7956,
      "Ġyuan": 7957,
      "ĠÐµÐ³Ð¾": 7958,
      "à¤Ĥ": 7959,
      "Ġsecara": 7960,
      "ĠëĲ": 7961,
      "ysz": 7962,
      "tell": 7963,
      "Ġeventos": 7964,
      "aniu": 7965,
      "iciar": 7966,
      "æ»": 7967,
      "ĠÐ½Ð°Ñĩ": 7968,
      "ë§Į": 7969,
      "à¥ģ": 7970,
      "Ð¾Ð»Ð¾Ð²": 7971,
      "tam": 7972,
      "Turkey": 7973,
      "vio": 7974,
      "Ġponer": 7975,
      "Ġnuovo": 7976,
      "Ġdong": 7977,
      "sei": 7978,
      "ÙĪÙĦ": 7979,
      "changer": 7980,
      "è¯Ń": 7981,
      "rellas": 7982,
      "åľŁ": 7983,
      "uais": 7984,
      "Shares": 7985,
      "cych": 7986,
      "Ġzab": 7987,
      "Ġmnie": 7988,
      "Ġìĺ¤": 7989,
      "orsi": 7990,
      "sono": 7991,
      "Ġajust": 7992,
      "çĽ´": 7993,
      "ĠÐ´Ð²": 7994,
      "æ¯ı": 7995,
      "Ġhoje": 7996,
      "Ġverde": 7997,
      "Ġconna": 7998,
      "daq": 7999,
      "Ð¾ÐºÐ°": 8000,
      "ĠÙĬ": 8001,
      "ç®±": 8002,
      "ĠÑģÐ¿Ð¸ÑģÐ¾Ðº": 8003,
      "owane": 8004,
      "Ġbombings": 8005,
      "å¾Į": 8006,
      "ÙĬØ©": 8007,
      "Ã«l": 8008,
      "ĠÅ¼yc": 8009,
      "ĠëĤĺ": 8010,
      "Ġê°ľ": 8011,
      "Ġqua": 8012,
      "Ġcloudy": 8013,
      "ĠgÃ©": 8014,
      "ĠÄĳi": 8015,
      "Ġmaintenant": 8016,
      "aktiv": 8017,
      "kish": 8018,
      "ernes": 8019,
      "ĠÑĤÐ¾Ð»ÑĮÐºÐ¾": 8020,
      "Ġë°°": 8021,
      "åı¯ä»¥": 8022,
      "ulaire": 8023,
      "Ġsagen": 8024,
      "Ġapril": 8025,
      "Ġgrub": 8026,
      "Ġmatrimon": 8027,
      "Ġalgunas": 8028,
      "Ġquelle": 8029,
      "Ġdime": 8030,
      "ĠíĻķìĿ¸": 8031,
      "arme": 8032,
      "Ġlagi": 8033,
      "Ġë¹Ħ": 8034,
      "Ġkab": 8035,
      "Ã¨tres": 8036,
      "chÃ©": 8037,
      "esz": 8038,
      "åıĺ": 8039,
      "Ġblasts": 8040,
      "åŁº": 8041,
      "rello": 8042,
      "Ġquoi": 8043,
      "Ġtutte": 8044,
      "Ġponto": 8045,
      "å¾ħ": 8046,
      "Ġcarrot": 8047,
      "ĽĦ": 8048,
      "Australian": 8049,
      "ĠsÅĤ": 8050,
      "ahkan": 8051,
      "Ġcuc": 8052,
      "ĠØ®": 8053,
      "Ġimportantes": 8054,
      "ienie": 8055,
      "ĠaplicaciÃ³n": 8056,
      "ÅĤem": 8057,
      "istes": 8058,
      "Ġíĥ": 8059,
      "berapa": 8060,
      "Ġnoche": 8061,
      "ĠÅĤ": 8062,
      "anian": 8063,
      "Ġpus": 8064,
      "Ġbailout": 8065,
      "Ġbekommen": 8066,
      "Ġaujourd": 8067,
      "Ġbulletin": 8068,
      "Ġmigliori": 8069,
      "ä¹Ł": 8070,
      "ĠschÃ¶n": 8071,
      "heure": 8072,
      "Ġë°©": 8073,
      "dzi": 8074,
      "kerja": 8075,
      "ingt": 8076,
      "elah": 8077,
      "åħ³éĹŃ": 8078,
      "ĠannÃ©e": 8079,
      "Ġheures": 8080,
      "éĴŁ": 8081,
      "à¸³": 8082,
      "ãĤ¤ãĥ³": 8083,
      "ghi": 8084,
      "ankan": 8085,
      "äºĶ": 8086,
      "Ġwissen": 8087,
      "ëĦ": 8088,
      "Ġclaro": 8089,
      "Ġnied": 8090,
      "ĠÐ¿Ð¾Ð¼": 8091,
      "odzi": 8092,
      "ãĤ¸": 8093,
      "uestra": 8094,
      "æľ¨": 8095,
      "ozy": 8096,
      "æīĵ": 8097,
      "zik": 8098,
      "ãģĳ": 8099,
      "Ġcouleur": 8100,
      "Ġszcz": 8101,
      "æ´»": 8102,
      "ĠmÃ¡ximo": 8103,
      "ãĤ¨": 8104,
      "æĴŃ": 8105,
      "Ġflorida": 8106,
      "Ġç§": 8107,
      "eci": 8108,
      "à¸²à¸£": 8109,
      "aroo": 8110,
      "ãģ£ãģ¦": 8111,
      "urar": 8112,
      "Ġhut": 8113,
      "è¯¥": 8114,
      "hari": 8115,
      "ĠÐ½ÑĥÐ¶": 8116,
      "Ġbamb": 8117,
      "Ġcuatro": 8118,
      "ãģ§ãģ¯": 8119,
      "è¨ĺäºĭ": 8120,
      "Ġfino": 8121,
      "Ġdeste": 8122,
      "igli": 8123,
      "Ġmembuat": 8124,
      "Ġaplik": 8125,
      "icie": 8126,
      "á»Ŀ": 8127,
      "Ġdifficile": 8128,
      "å±ķ": 8129,
      "Ã®t": 8130,
      "ĠmÃŃ": 8131,
      "ìĭĿ": 8132,
      "pert": 8133,
      "Ð½ÑĥÑİ": 8134,
      "Ġclimbs": 8135,
      "akah": 8136,
      "ìĥĿ": 8137,
      "Ġvows": 8138,
      "raison": 8139,
      "leurs": 8140,
      "ĠvÃ©r": 8141,
      "Ġmusica": 8142,
      "ĠìĤŃìłľ": 8143,
      "ãģĿãĤĮ": 8144,
      "Ġcambi": 8145,
      "Ġurgently": 8146,
      "ĠÐ½ÐµÑĤ": 8147,
      "Ġkitten": 8148,
      "uellement": 8149,
      "zÄħd": 8150,
      "Ġheure": 8151,
      "Ġpob": 8152,
      "ĠÐ¿ÐµÑĢÐ²": 8153,
      "jej": 8154,
      "ÑģÑĤÑĢÐ¾Ð¹": 8155,
      "Ġpaw": 8156,
      "Ġmiejs": 8157,
      "omba": 8158,
      "attro": 8159,
      "Ġcheque": 8160,
      "phoon": 8161,
      "ambil": 8162,
      "ãĤı": 8163,
      "icho": 8164,
      "Ġzeit": 8165,
      "è´Ń": 8166,
      "Ġdiferente": 8167,
      "ìĥī": 8168,
      "ĠÙģÙĬ": 8169,
      "Ġcade": 8170,
      "Ġgib": 8171,
      "ãģĹãģ¾ãģĻ": 8172,
      "ĠìĹ°": 8173,
      "Äĥm": 8174,
      "ãĥģ": 8175,
      "Ġthu": 8176,
      "æĺŁ": 8177,
      "Sus": 8178,
      "ãĤº": 8179,
      "Ġtys": 8180,
      "Ġneste": 8181,
      "Ġsemua": 8182,
      "Ġbist": 8183,
      "ä¸¤": 8184,
      "Pale": 8185,
      "ãĥĭ": 8186,
      "Ġfreund": 8187,
      "Ð¸ÑĢ": 8188,
      "ãĥ¼ãĤ¸": 8189,
      "Ã¡o": 8190,
      "ĠÙĤ": 8191,
      "kraine": 8192,
      "Ġwelt": 8193,
      "ĠÑĢÐ°Ñģ": 8194,
      "åł±": 8195,
      "Ġninety": 8196,
      "ãĤ¤ãĥĪ": 8197,
      "erca": 8198,
      "Ġcena": 8199,
      "Ġpolitique": 8200,
      "çĲĥ": 8201,
      "Ġquelque": 8202,
      "Ð¼Ð¾Ð¶": 8203,
      "cis": 8204,
      "Ġchoses": 8205,
      "ê³µ": 8206,
      "Ġspiel": 8207,
      "Ġbroccoli": 8208,
      "ÐµÐºÑģ": 8209,
      "ĠcÃ¡c": 8210,
      "belum": 8211,
      "Ġquella": 8212,
      "imu": 8213,
      "angi": 8214,
      "YT": 8215,
      "ihanna": 8216,
      "à¤¸": 8217,
      "Ġê°Ļ": 8218,
      "Ġentrega": 8219,
      "ĠÃºltimos": 8220,
      "Ġexchanging": 8221,
      "kus": 8222,
      "increase": 8223,
      "ĠmÃ¼nchen": 8224,
      "enk": 8225,
      "Ġmies": 8226,
      "ãģ¾ãģĹãģŁ": 8227,
      "acak": 8228,
      "éŁ³": 8229,
      "Ð½Ðµ": 8230,
      "Ġsaja": 8231,
      "Ġcolore": 8232,
      "á»Ł": 8233,
      "ÅĽnie": 8234,
      "Ġcalifornia": 8235,
      "ĠSinai": 8236,
      "aÄĩ": 8237,
      "æĲľç´¢": 8238,
      "Ġnouvelles": 8239,
      "ë²Ħ": 8240,
      "Ġked": 8241,
      "ĠsarÃł": 8242,
      "ç«ĭ": 8243,
      "ĠÄĳÃ£": 8244,
      "Ġtofu": 8245,
      "Ġkond": 8246,
      "ĠÐµÑģÑĤÑĮ": 8247,
      "Ġbaik": 8248,
      "ĠìĬ": 8249,
      "Ġstata": 8250,
      "à¤¤": 8251,
      "Ġairstrikes": 8252,
      "Ġfriday": 8253,
      "Ġjapon": 8254,
      "Ġhaya": 8255,
      "ĠheiÃŁ": 8256,
      "Ġmalaysia": 8257,
      "çģ«": 8258,
      "Ġwol": 8259,
      "'elle": 8260,
      "ëªħ": 8261,
      "cip": 8262,
      "ĠÄĳá»ĥ": 8263,
      "onald": 8264,
      "ãĥĳ": 8265,
      "ë¶Ħ": 8266,
      "æ¸ħ": 8267,
      "voy": 8268,
      "Ġdici": 8269,
      "Ø¯ÙĬ": 8270,
      "á»įn": 8271,
      "Ħìŀ¬": 8272,
      "ÄĻk": 8273,
      "ĠrÃ³Å¼": 8274,
      "Ġtekn": 8275,
      "Ġsve": 8276,
      "Ġgiorno": 8277,
      "ãģ°": 8278,
      "china": 8279,
      "Thousands": 8280,
      "å°±": 8281,
      "Ð¸ÑĩÐµÑģ": 8282,
      "Ġjeszcze": 8283,
      "erais": 8284,
      "Ġpog": 8285,
      "Ġald": 8286,
      "æ²¡æľī": 8287,
      "ĠwiÄĻcej": 8288,
      "ĠTalks": 8289,
      "Æ°Æ¡": 8290,
      "ĠpassÃ©": 8291,
      "Ġvoiture": 8292,
      "ìĻĢ": 8293,
      "à¹īà¸Ńà¸¡": 8294,
      "Ġnehmen": 8295,
      "Ð»Ð°Ð²": 8296,
      "Ġswims": 8297,
      "æ¡Ī": 8298,
      "Ġpequ": 8299,
      "ÅĤe": 8300,
      "ĠÐ¿Ð¾ÑĤ": 8301,
      "Ġoutra": 8302,
      "ÐµÐ»Ðµ": 8303,
      "Ġpuedo": 8304,
      "ihat": 8305,
      "spiel": 8306,
      "'Ãł": 8307,
      "ìľĦ": 8308,
      "å¹¿": 8309,
      "ìłģ": 8310,
      "ÙĦØ§": 8311,
      "Ġfrat": 8312,
      "cil": 8313,
      "ceu": 8314,
      "íģ¬": 8315,
      "ĠcomeÃ§": 8316,
      "ĠÑĩÑĤÐ¾Ð±Ñĭ": 8317,
      "ç¡®è®¤": 8318,
      "Ġìµľ": 8319,
      "åİĨ": 8320,
      "Ġpracy": 8321,
      "Ġmeinen": 8322,
      "unya": 8323,
      "Ġestoy": 8324,
      "ubah": 8325,
      "Ġminut": 8326,
      "bring": 8327,
      "Ġseventeen": 8328,
      "Ġimpost": 8329,
      "Ġprincipales": 8330,
      "onio": 8331,
      "Ġbarcelona": 8332,
      "æŃ¢": 8333,
      "ificaÃ§Ã£o": 8334,
      "ungi": 8335,
      "Ġdap": 8336,
      "ĠtrÃªs": 8337,
      "iedy": 8338,
      "ĠbyÅĤ": 8339,
      "ëĵł": 8340,
      "Ġretir": 8341,
      "Ġë°Ķ": 8342,
      "Øº": 8343,
      "Ð»Ð¾Ð¶": 8344,
      "Ġpct": 8345,
      "Ġenam": 8346,
      "æĻĤéĸĵ": 8347,
      "usta": 8348,
      "ĠwÅĤa": 8349,
      "ĠÅĽw": 8350,
      "Ġisl": 8351,
      "Ġboa": 8352,
      "ĠÐ¸Ð½ÑĦÐ¾ÑĢÐ¼": 8353,
      "ellung": 8354,
      "æĸĩç«ł": 8355,
      "á»įc": 8356,
      "Ã¼gen": 8357,
      "éĺ³": 8358,
      "Ġsunscreen": 8359,
      "Ġsoutheastern": 8360,
      "ĠktÃ³ra": 8361,
      "éĺŁ": 8362,
      "ĠØ¬": 8363,
      "Ġentfer": 8364,
      "ouve": 8365,
      "Ġkolej": 8366,
      "ìĭł": 8367,
      "ÑĥÐ¹": 8368,
      "Ġlief": 8369,
      "ĠØ¨Ø§": 8370,
      "lus": 8371,
      "arÃŃa": 8372,
      "inesis": 8373,
      "Ġxe": 8374,
      "Ġgermany": 8375,
      "Ġavere": 8376,
      "Ġpouco": 8377,
      "fur": 8378,
      "Ġtemperatura": 8379,
      "Ġwithdrawing": 8380,
      "ë¥¸": 8381,
      "legg": 8382,
      "åĪĨéĴŁ": 8383,
      "ëĭĪ": 8384,
      "ÐµÐ½Ð¸Ð¸": 8385,
      "Ġlanz": 8386,
      "ê¹": 8387,
      "Ð°ÑģÑĤ": 8388,
      "Ġraining": 8389,
      "Ġanak": 8390,
      "ĠGBP": 8391,
      "ĠprÃ¨s": 8392,
      "à¹ĩ": 8393,
      "ê¸Ģ": 8394,
      "Ġì´Ī": 8395,
      "ãĥ¼ãĥĪ": 8396,
      "Ġgrazing": 8397,
      "Ġquale": 8398,
      "Ġcanoe": 8399,
      "kah": 8400,
      "Ġdziew": 8401,
      "rete": 8402,
      "ĠìĹ¬": 8403,
      "à¸±à¸ļ": 8404,
      "ĠìĿ¼": 8405,
      "ÙĦÙī": 8406,
      "à¸·à¸Ń": 8407,
      "Ġë°Ľ": 8408,
      "kop": 8409,
      "ĠÑģÐ¿": 8410,
      "Ġë¦¬ìĬ¤íĬ¸": 8411,
      "Ġà¤ª": 8412,
      "Ġsui": 8413,
      "Ø¨Ø±": 8414,
      "evento": 8415,
      "Ġrouge": 8416,
      "Ġlem": 8417,
      "Ġvoz": 8418,
      "Ġnovember": 8419,
      "Ġaktual": 8420,
      "ĠalgÃºn": 8421,
      "Ġà¤¹": 8422,
      "ultimo": 8423,
      "Ġprise": 8424,
      "Ġnuit": 8425,
      "Ġviet": 8426,
      "Ġindonesia": 8427,
      "Ġsean": 8428,
      "kÄĻ": 8429,
      "áº¥y": 8430,
      "riere": 8431,
      "Ø«": 8432,
      "Ġlokal": 8433,
      "ãģĵãĤĮ": 8434,
      "Ġë²Ī": 8435,
      "osci": 8436,
      "ë©Ķ": 8437,
      "Ġmeisten": 8438,
      "Ð¾ÑģÑĤÐ¸": 8439,
      "Ġdesta": 8440,
      "à¸ľ": 8441,
      "Ġcoz": 8442,
      "coles": 8443,
      "Ġbesar": 8444,
      "Ġslicing": 8445,
      "Ġbeberapa": 8446,
      "Ġfora": 8447,
      "Ø±ÙĪ": 8448,
      "ç§ģ": 8449,
      "à¥įà¤°": 8450,
      "à¸´à¸Ļ": 8451,
      "ìĤ°": 8452,
      "éľĢè¦ģ": 8453,
      "á»ı": 8454,
      "ĠÑĤÐµÐºÑĥÑī": 8455,
      "ĠØ¥": 8456,
      "Ġkamu": 8457,
      "Ġwithdrawals": 8458,
      "coni": 8459,
      "Ġcalor": 8460,
      "ĠjournÃ©e": 8461,
      "Ġwah": 8462,
      "Ã¤hlen": 8463,
      "Ġdalle": 8464,
      "åħ¨éĥ¨": 8465,
      "ì§Ħ": 8466,
      "åİ»": 8467,
      "odie": 8468,
      "åįİ": 8469,
      "Ġë¶Ģ": 8470,
      "Ã¡nt": 8471,
      "Ġtidal": 8472,
      "ÐµÑī": 8473,
      "Ġmarzo": 8474,
      "Æ°á»Ŀi": 8475,
      "Ġnuova": 8476,
      "ologi": 8477,
      "uste": 8478,
      "Egypt": 8479,
      "Ġaime": 8480,
      "Hong": 8481,
      "Ġgiorni": 8482,
      "Ġitalia": 8483,
      "èı": 8484,
      "Ġláº¡i": 8485,
      "Ġwaktu": 8486,
      "ĠÑĤÑĢ": 8487,
      "ÑĤÑĭ": 8488,
      "Ġeuropean": 8489,
      "isas": 8490,
      "orque": 8491,
      "ĠìļĶ": 8492,
      "Ġpakistan": 8493,
      "Senate": 8494,
      "angkan": 8495,
      "ÃŃd": 8496,
      "à¹Ħà¸¡": 8497,
      "ĠìĿ´ë¦Ħ": 8498,
      "ĠìĦłíĥĿ": 8499,
      "è©±": 8500,
      "ĠÐ¾ÑĤÐ¿ÑĢÐ°Ð²": 8501,
      "Ġfrying": 8502,
      "çķª": 8503,
      "ĠvÃło": 8504,
      "à¤ª": 8505,
      "Ġaku": 8506,
      "Ġseasoning": 8507,
      "æĬ¥éģĵ": 8508,
      "çİ¯": 8509,
      "å¼ł": 8510,
      "éĸĭ": 8511,
      "à¸ĵ": 8512,
      "Ã©rt": 8513,
      "íĥľ": 8514,
      "Ġseis": 8515,
      "ĠbyÅĤo": 8516,
      "Ġpasa": 8517,
      "Ã¢m": 8518,
      "æĺĵ": 8519,
      "ĠÐ½Ð°Ð¹Ð´": 8520,
      "Ð¾Ð´Ð°": 8521,
      "Ġë²Ħ": 8522,
      "Ġchambre": 8523,
      "ÑĨÐ°": 8524,
      "Ġsieht": 8525,
      "ĠÐ·Ð°ÐºÐ°Ð·": 8526,
      "Ġspaghetti": 8527,
      "Ġwerde": 8528,
      "Ġnovamente": 8529,
      "ĠÙĥ": 8530,
      "ÃĦ": 8531,
      "Ġfern": 8532,
      "Ġpoj": 8533,
      "Ġcita": 8534,
      "kiem": 8535,
      "'hui": 8536,
      "ilihan": 8537,
      "quelle": 8538,
      "Ġporter": 8539,
      "Saudi": 8540,
      "à¤®": 8541,
      "åĨį": 8542,
      "Ġirgend": 8543,
      "åı¯èĥ½": 8544,
      "Ġabril": 8545,
      "æļ": 8546,
      "ĠMandela": 8547,
      "stinian": 8548,
      "Ġquake": 8549,
      "Ġdever": 8550,
      "spotify": 8551,
      "ĠÐºÐ¾": 8552,
      "Ġatas": 8553,
      "íķĺì§Ģ": 8554,
      "Ð½Ð¸ÐºÐ°": 8555,
      "æĿ¿": 8556,
      "Ġust": 8557,
      "Ġposto": 8558,
      "ëª©": 8559,
      "Ġbaja": 8560,
      "Ġmoc": 8561,
      "ĠderniÃ¨re": 8562,
      "Ġë³Ģê²½": 8563,
      "Ġvedere": 8564,
      "Ġpizzas": 8565,
      "Ġspotify": 8566,
      "ĠspÃ¤ter": 8567,
      "çĶµè¯Ŀ": 8568,
      "chine": 8569,
      "Ġmichael": 8570,
      "Ġingin": 8571,
      "éĢ£": 8572,
      "ÑĮÑİ": 8573,
      "ulares": 8574,
      "çľŁ": 8575,
      "ãĥĿ": 8576,
      "antor": 8577,
      "Ġpanda": 8578,
      "Pakistan": 8579,
      "ÐµÑģÑĤÐ¸": 8580,
      "eliminar": 8581,
      "êµ¬": 8582,
      "Ã¶ren": 8583,
      "ä»Ĭå¹´": 8584,
      "áº¡o": 8585,
      "Ġpotrze": 8586,
      "Ġtakeaway": 8587,
      "Ġparler": 8588,
      "Ġlyon": 8589,
      "ÑĢÐ°Ð·": 8590,
      "Ã©o": 8591,
      "á»ĥm": 8592,
      "cznie": 8593,
      "ì°": 8594,
      "Ġmusique": 8595,
      "ichern": 8596,
      "Ġoggi": 8597,
      "æµģ": 8598,
      "ĠprÃ©sident": 8599,
      "ĠduÅ¼": 8600,
      "Ġhamburger": 8601,
      "Ġeins": 8602,
      "Ã¹ng": 8603,
      "Ġmeinem": 8604,
      "Ġê°Ģìł¸": 8605,
      "Ġartikel": 8606,
      "Ġtechno": 8607,
      "Ġmeno": 8608,
      "antar": 8609,
      "è§ģ": 8610,
      "ikut": 8611,
      "ç»Ļ": 8612,
      "ãģĵãĤĵãģ«ãģ¡ãģ¯": 8613,
      "Ġqualche": 8614,
      "nika": 8615,
      "Ġì»": 8616,
      "ĠÑģÐ»ÑĥÑĩ": 8617,
      "uft": 8618,
      "Ġmaks": 8619,
      "zego": 8620,
      "ÑıÑĤ": 8621,
      "porter": 8622,
      "ëĶĶ": 8623,
      "Ġmamma": 8624,
      "baru": 8625,
      "Ġbáº¡n": 8626,
      "Ġdomingo": 8627,
      "wel": 8628,
      "ãģŁãģł": 8629,
      "chia": 8630,
      "Ġblanco": 8631,
      "Ġcocina": 8632,
      "Ġsegundos": 8633,
      "Ġintelig": 8634,
      "ìķ¼": 8635,
      "ÃŃcia": 8636,
      "Ġpronto": 8637,
      "Ġphoenix": 8638,
      "à¸ģà¸£": 8639,
      "Ġsnowy": 8640,
      "ÐºÐ¾Ð²": 8641,
      "ĠìĦľ": 8642,
      "ãĤª": 8643,
      "impan": 8644,
      "wake": 8645,
      "ìľ¼ë©´": 8646,
      "ãĥł": 8647,
      "ĠÐ½Ð°Ð¿": 8648,
      "ĠcaÅĤ": 8649,
      "Ġvener": 8650,
      "ĠprÃ³xima": 8651,
      "ĠÃ©c": 8652,
      "ĠÐ¼Ð¾Ð¶Ð½Ð¾": 8653,
      "Ġcomer": 8654,
      "ãĥĵ": 8655,
      "Ġvais": 8656,
      "Ġgore": 8657,
      "ĠìĹĲ": 8658,
      "ĠLeast": 8659,
      "polit": 8660,
      "apatkan": 8661,
      "ihn": 8662,
      "ĠÐ¿Ð¾ÑģÐ»ÐµÐ´": 8663,
      "æĢĿ": 8664,
      "è¦ĭ": 8665,
      "Ġì¹": 8666,
      "Britain": 8667,
      "åĭķ": 8668,
      "ÐµÑĢÐ°": 8669,
      "Ã¤hl": 8670,
      "Ġtaco": 8671,
      "æł·": 8672,
      "Ġtanggal": 8673,
      "ĠnÃ¤chsten": 8674,
      "Ġnigeria": 8675,
      "ĠÐ²ÑģÐµÑħ": 8676,
      "Ġbj": 8677,
      "à¸¹à¸¥": 8678,
      "Ġà¤®": 8679,
      "Ġtrumpet": 8680,
      "niejs": 8681,
      "antu": 8682,
      "Ø¯Ùĩ": 8683,
      "Ø§Ø³": 8684,
      "ĠÐ±ÐµÐ·": 8685,
      "Ġraj": 8686,
      "Ġgrac": 8687,
      "ì£¼ìĦ¸ìļĶ": 8688,
      "åį³": 8689,
      "åıª": 8690,
      "Ġquiero": 8691,
      "ĠmÃº": 8692,
      "Bomb": 8693,
      "èĢģ": 8694,
      "ĠÐ²ÑĢÐµÐ¼Ñı": 8695,
      "à¤²": 8696,
      "Singapore": 8697,
      "Ġspiele": 8698,
      "amedi": 8699,
      "Ø¥": 8700,
      "Ã³nica": 8701,
      "Ġbalk": 8702,
      "Ġalgumas": 8703,
      "ìħĺ": 8704,
      "jadi": 8705,
      "Ġtentang": 8706,
      "ĠØµ": 8707,
      "Ġmá»Ľi": 8708,
      "æī¾": 8709,
      "ê±°": 8710,
      "Ġchicago": 8711,
      "ĠÐ·Ð°Ð²": 8712,
      "isci": 8713,
      "alte": 8714,
      "Æ°a": 8715,
      "Ġsunday": 8716,
      "zap": 8717,
      "Ø¸": 8718,
      "ãĥ©ãĥ³": 8719,
      "ĠthÃ´ng": 8720,
      "pizza": 8721,
      "ĠbÄĻdÄħ": 8722,
      "Ġdeutschland": 8723,
      "ethoven": 8724,
      "å°ıæĹ¶": 8725,
      "ĠkÃ¶ln": 8726,
      "porto": 8727,
      "áº¿u": 8728,
      "nio": 8729,
      "Ġxu": 8730,
      "Ġê´Ģ": 8731,
      "ì¡°": 8732,
      "Ġpeny": 8733,
      "Ġnesta": 8734,
      "Ġnajle": 8735,
      "ndern": 8736,
      "ĠgehÃ¶rt": 8737,
      "Ġnga": 8738,
      "ĠØ§Ø³Øª": 8739,
      "Ġpeux": 8740,
      "Ġmonday": 8741,
      "Ġjenis": 8742,
      "Ġentreg": 8743,
      "izzer": 8744,
      "ãĥ³ãĤ°": 8745,
      "Ġrefunded": 8746,
      "è¾¾": 8747,
      "bic": 8748,
      "Ġestados": 8749,
      "Ġlaut": 8750,
      "ÙĬØ±": 8751,
      "Ġreverted": 8752,
      "ansa": 8753,
      "Ġguten": 8754,
      "Ġmeilleure": 8755,
      "Ð¿Ð¸ÑģÐ°Ð½Ð¸Ðµ": 8756,
      "Ġwashington": 8757,
      "ìļ´": 8758,
      "Ġìĭľìŀĳ": 8759,
      "importe": 8760,
      "Ġapproves": 8761,
      "Ð½Ð¾Ð¼": 8762,
      "à¸ģà¸²à¸£": 8763,
      "ÑıÑĤÑĮ": 8764,
      "ä¾¡": 8765,
      "altet": 8766,
      "à¤¹": 8767,
      "anja": 8768,
      "Ġpeter": 8769,
      "æ°Ĺ": 8770,
      "íĦ´": 8771,
      "ĠpÅĤ": 8772,
      "çº¦": 8773,
      "ĠãĤĴ": 8774,
      "éĢŁ": 8775,
      "ĠíĽĦ": 8776,
      "Ġmelhores": 8777,
      "Ã´m": 8778,
      "åģľ": 8779,
      "Ġdiferencia": 8780,
      "ÑĥÐ³": 8781,
      "Ġà¹Ģ": 8782,
      "Ġfeliz": 8783,
      "åįģ": 8784,
      "Ġbevor": 8785,
      "Ġquali": 8786,
      "itag": 8787,
      "Ġtá»«": 8788,
      "Ġessen": 8789,
      "lamp": 8790,
      "owany": 8791,
      "Ã³st": 8792,
      "ĠÑĢÐ°Ð±Ð¾ÑĤÑĭ": 8793,
      "ntag": 8794,
      "ĠØ§ÙĦØª": 8795,
      "Ġkhi": 8796,
      "Ġgia": 8797,
      "Ġdispositivo": 8798,
      "Ġíķł": 8799,
      "ĠhÃ¤tte": 8800,
      "Woman": 8801,
      "ĠsÃ¡ch": 8802,
      "ĠìķĪ": 8803,
      "iare": 8804,
      "'Ã©tait": 8805,
      "ÙĬÙĦ": 8806,
      "æ¶": 8807,
      "ëĤ´": 8808,
      "quisar": 8809,
      "Ġsotto": 8810,
      "Ġrosa": 8811,
      "Ġê°ĢëĬ¥": 8812,
      "ãĥĬ": 8813,
      "Ġostat": 8814,
      "Ð¾Ð»Ñı": 8815,
      "ä¸ĵ": 8816,
      "Ġstanza": 8817,
      "Ġjim": 8818,
      "Ġdemasi": 8819,
      "uÃ©": 8820,
      "Ġsebuah": 8821,
      "à¸ĸ": 8822,
      "Ġvenir": 8823,
      "Ġdeducted": 8824,
      "ĠmaÃ±ana": 8825,
      "Ġë§Ī": 8826,
      "Ġnoticias": 8827,
      "ĠìĺĪ": 8828,
      "zac": 8829,
      "Ġflute": 8830,
      "awy": 8831,
      "Ġhablar": 8832,
      "Ġchu": 8833,
      "Ġstrengthens": 8834,
      "Ġstati": 8835,
      "Ð°Ð»Ð°": 8836,
      "ĠlanÃ§": 8837,
      "Ø§Ùģ": 8838,
      "itorio": 8839,
      "Ġë°ľ": 8840,
      "ĠÑģÐ°Ð¼": 8841,
      "Ġbanda": 8842,
      "ĠfÃ¼n": 8843,
      "íķ´ìĦľ": 8844,
      "Ġmata": 8845,
      "Ð¸ÑĤÑģÑı": 8846,
      "Ð¾Ð½ÑĤ": 8847,
      "Ġmelod": 8848,
      "pesan": 8849,
      "Ġchopping": 8850,
      "como": 8851,
      "ampilkan": 8852,
      "Ġkali": 8853,
      "éĸ¢": 8854,
      "Ġsemanas": 8855,
      "Ġbella": 8856,
      "éĽ·": 8857,
      "Ġbian": 8858,
      "eczy": 8859,
      "ĠnÃły": 8860,
      "ÌĢ": 8861,
      "æŃ£åľ¨": 8862,
      "Ġãģ®": 8863,
      "Ġalgum": 8864,
      "Ġcoisa": 8865,
      "Iraq": 8866,
      "contra": 8867,
      "Ð¾Ð±ÑĭÑĤÐ¸": 8868,
      "Ġzach": 8869,
      "Ġdua": 8870,
      "ĠÑĥÑģÐ»": 8871,
      "Ġbais": 8872,
      "ĠcittÃł": 8873,
      "Ġrendre": 8874,
      "Ġxo": 8875,
      "Ġdak": 8876,
      "äºĽ": 8877,
      "Ġtert": 8878,
      "Ġprogramma": 8879,
      "ĠëĲĺ": 8880,
      "Ġbola": 8881,
      "Ġaktuellen": 8882,
      "ãģķãĤĵ": 8883,
      "produce": 8884,
      "åĢį": 8885,
      "Ġguarda": 8886,
      "èªŃ": 8887,
      "cosa": 8888,
      "ĠsÃ¡bado": 8889,
      "blings": 8890,
      "á»ķi": 8891,
      "iasi": 8892,
      "æĪĳçļĦ": 8893,
      "æĪĳä»¬": 8894,
      "Ġmike": 8895,
      "Ð°ÑĤÑĮÑģÑı": 8896,
      "è¿ĺ": 8897,
      "ĠÐºÐ¾ÑĤÐ¾ÑĢÑĭÐ¹": 8898,
      "Ġcomida": 8899,
      "Ġbestellen": 8900,
      "åıĭ": 8901,
      "Ġsinh": 8902,
      "ë³µ": 8903,
      "Ġletto": 8904,
      "à¸µà¸¢": 8905,
      "ungkin": 8906,
      "Ġskateboard": 8907,
      "ynet": 8908,
      "ĠíļĮ": 8909,
      "Ġconseg": 8910,
      "sar": 8911,
      "Israeli": 8912,
      "Ġchá»ī": 8913,
      "Ġwykon": 8914,
      "ĠlÃ²ng": 8915,
      "Ġquatre": 8916,
      "Ġkang": 8917,
      "imitÃ©": 8918,
      "ĠserÃ£o": 8919,
      "Ġquotid": 8920,
      "ãĥļ": 8921,
      "æĦŁ": 8922,
      "åĵĪ": 8923,
      "Ġcosta": 8924,
      "Ø§Ø¡": 8925,
      "Ð¾ÑģÑĮ": 8926,
      "ĠÐ¾Ð½": 8927,
      "ä½ķ": 8928,
      "crear": 8929,
      "é¢Ħ": 8930,
      "ãĥĢ": 8931,
      "Ġíı¬": 8932,
      "Ġdanh": 8933,
      "Ġê²Į": 8934,
      "Ð´Ðµ": 8935,
      "vais": 8936,
      "å°Ķ": 8937,
      "Ġjouer": 8938,
      "ãģĺ": 8939,
      "à¸²à¸": 8940,
      "à¥Ī": 8941,
      "à¥ĩà¤Ĥ": 8942,
      "à¤¾à¤°": 8943,
      "ÙĨØ¯": 8944,
      "Ġà¤¬": 8945,
      "Ġà¤ľ": 8946,
      "à¤Ĺ": 8947,
      "ĠØ¢": 8948,
      "Ġà¤¨": 8949,
      "Ġà¤ħ": 8950,
      "ÑģÑĮ": 8951,
      "Ġà¤µ": 8952,
      "Ġà¤¦": 8953,
      "Ġà¤²": 8954,
      "à¥Ĥ": 8955,
      "à¤¦": 8956,
      "à¸Ńà¸ĩ": 8957,
      "ÙĪÙĨ": 8958,
      "à¤µ": 8959,
      "à¹Ĥ": 8960,
      "Ġà¤°": 8961,
      "à¥įà¤¯": 8962,
      "à¤¾à¤¨": 8963,
      "Ø§Ùĩ": 8964,
      "à¥ĭà¤Ĥ": 8965,
      "à¤¯": 8966,
      "ĠØ¨Ø±": 8967,
      "Ġà¤Ĩ": 8968,
      "à¤¿à¤¯": 8969,
      "Ø±Ø¯": 8970,
      "ÙĬÙĨ": 8971,
      "Ġà¤¤": 8972,
      "ÑĩÐ¸": 8973,
      "Ġà¤ķà¤°": 8974,
      "Ø§Ø²": 8975,
      "Ġà¤ī": 8976,
      "à¤¬": 8977,
      "ØªØ±": 8978,
      "ÙĩØ§": 8979,
      "Ġà¤Ĺ": 8980,
      "à¤ľ": 8981,
      "à¸²à¸Ļ": 8982,
      "Ġà¤Ń": 8983,
      "à¤¿à¤ķ": 8984,
      "à¸²à¸¢": 8985,
      "Ø§ÙĪ": 8986,
      "Ġà¤Ķà¤°": 8987,
      "à¤¡": 8988,
      "Ġà¤ĩ": 8989,
      "à¥įà¤¤": 8990,
      "à¤Ł": 8991,
      "ĠØ²": 8992,
      "à¸²à¸ĩ": 8993,
      "Ġà¹Ģà¸": 8994,
      "Ø§ÙĬ": 8995,
      "ÑĢÐµ": 8996,
      "åĴ": 8997,
      "Ø§Ø´": 8998,
      "à¤¾à¤²": 8999,
      "ëħĦ": 9000,
      "Ġà¤¯": 9001,
      "ĠØ±Ø§": 9002,
      "à¤¼": 9003,
      "ÑĥÐ²": 9004,
      "ÙĪÙħ": 9005,
      "à¥Īà¤Ĥ": 9006,
      "à¸²à¸¡": 9007,
      "Ġmá»Ļt": 9008,
      "Ġà¤ı": 9009,
      "Ġà¤ªà¤°": 9010,
      "ĠØ§ÙĨ": 9011,
      "Ġvá»Ľi": 9012,
      "à¤ļ": 9013,
      "à¸²à¸ģ": 9014,
      "Ø§Ø¹": 9015,
      "à¹ģà¸¥": 9016,
      "ÑĩÐ°": 9017,
      "Ġngh": 9018,
      "à¹ĥà¸Ļ": 9019,
      "à¤¿à¤¤": 9020,
      "à¥įà¤Ł": 9021,
      "Ð»Ñĥ": 9022,
      "Ø±ÙĬ": 9023,
      "Ð½Ð¸Ñħ": 9024,
      "ÑĢÐ¾": 9025,
      "Ġà¤ļ": 9026,
      "à¤¾à¤¤": 9027,
      "Ø§ÙĤ": 9028,
      "Ġà¤¶": 9029,
      "ĠÄĳá»Ļ": 9030,
      "iá»ģu": 9031,
      "à¸¨": 9032,
      "ĠnÄĥ": 9033,
      "ÐºÐ¸Ð¹": 9034,
      "à¥įà¤µ": 9035,
      "ĠØ§ÙĦØ£": 9036,
      "Ø§Ø¦": 9037,
      "ĠØ·": 9038,
      "ÙħØ§ÙĨ": 9039,
      "Ð´Ð¸": 9040,
      "à¸¶": 9041,
      "à¤¿à¤ı": 9042,
      "ãģ£ãģŁ": 9043,
      "çĤ": 9044,
      "à¸Ńà¸Ļ": 9045,
      "ãģ¦ãģĦ": 9046,
      "à¤¿à¤²": 9047,
      "à¤§": 9048,
      "à¹ģà¸¥à¸°": 9049,
      "ÃŃch": 9050,
      "ØªÙĩ": 9051,
      "ĠÙħØ¹": 9052,
      "Ð½Ð¸Ð¹": 9053,
      "ĠØ§ÙĦØ¹": 9054,
      "Ø±Ø¨": 9055,
      "à¤¾à¤®": 9056,
      "Ġhá»į": 9057,
      "Ġà¤ĩà¤¸": 9058,
      "ĠÙĪØ§ÙĦ": 9059,
      "à¤¿à¤¸": 9060,
      "á»¯ng": 9061,
      "à¤¾à¤Ĥ": 9062,
      "à¹ĩà¸Ļ": 9063,
      "Ġà¤¥": 9064,
      "Ã¢y": 9065,
      "ĠÙħÙĪ": 9066,
      "ĠngÆ°á»Ŀi": 9067,
      "ÙĬØ¯": 9068,
      "Ø§ØŃ": 9069,
      "Ùĭ": 9070,
      "ĠÑĢÐ¾Ð·": 9071,
      "à¹Ģà¸Ľ": 9072,
      "à¸±à¸ĩ": 9073,
      "Ð»Ðµ": 9074,
      "à¤¾à¤¯": 9075,
      "ÙĪØ§ÙĨ": 9076,
      "Ġthá»ĥ": 9077,
      "à¸±à¸ģ": 9078,
      "Ġà¤ıà¤ķ": 9079,
      "ìĽĶ": 9080,
      "Ġà¸Ħ": 9081,
      "à¤¿à¤¨": 9082,
      "Ġnhá»¯ng": 9083,
      "ĠnhÆ°": 9084,
      "à¹Ģà¸£": 9085,
      "Ġà¸ª": 9086,
      "à¤£": 9087,
      "à¤¶": 9088,
      "ĠÙħØŃ": 9089,
      "ÙĦÙĬ": 9090,
      "à¥įà¤·": 9091,
      "Ø±Ø§ÙĨ": 9092,
      "à¸±à¹ī": 9093,
      "ĠÐ¿Ð¾Ñģ": 9094,
      "à¥įà¤®": 9095,
      "Ø±Ùģ": 9096,
      "à¤Ń": 9097,
      "à¹Ħà¸Ķ": 9098,
      "ãģªãģĦ": 9099,
      "ĠØ¹ÙĦÙī": 9100,
      "Ð´Ñĥ": 9101,
      "Ġdá»¥ng": 9102,
      "Ð°ÑĢÐ°": 9103,
      "à¤¾à¤¦": 9104,
      "ÙĦÙĩ": 9105,
      "ÙĦÙħ": 9106,
      "à¸Ĥà¸Ńà¸ĩ": 9107,
      "à¥Ģà¤Ĥ": 9108,
      "Ġà¤«": 9109,
      "à¸ĺ": 9110,
      "à¤¾à¤¸": 9111,
      "à¹ĥà¸«": 9112,
      "Ð¾Ð²Ð°": 9113,
      "à¸Ńà¸¢": 9114,
      "ĠnÄĥm": 9115,
      "à¤Ī": 9116,
      "Ġà¤ĸ": 9117,
      "Ø¦": 9118,
      "ĠØ§ÙĦØ³": 9119,
      "á»ĳc": 9120,
      "Ø§Ø¬": 9121,
      "ÙħØ§": 9122,
      "êµŃ": 9123,
      "Ð¾Ñİ": 9124,
      "Ø¯Ø±": 9125,
      "à¹Ģà¸ģ": 9126,
      "à¸ł": 9127,
      "Ã¡ng": 9128,
      "íķ©": 9129,
      "à¥ĩà¤¶": 9130,
      "à¸ĭ": 9131,
      "à¥ĭà¤Ĺ": 9132,
      "à¤¾à¤ľ": 9133,
      "Ð°Ñħ": 9134,
      "à¤¿à¤°": 9135,
      "à¸²à¸ª": 9136,
      "Ġtáº¡i": 9137,
      "ĠØº": 9138,
      "Ø§Ø®": 9139,
      "ĠØ§ÙĦØŃ": 9140,
      "ĠÐ±Ñĥ": 9141,
      "Ġvá»ģ": 9142,
      "ÙħÙĦ": 9143,
      "à¸Ľà¸£à¸°": 9144,
      "Ġà¤°à¤¹": 9145,
      "Ø¹Ø¯": 9146,
      "ĠØ¨Ø§ÙĦ": 9147,
      "Ø§Ø³Øª": 9148,
      "à¸²à¸§": 9149,
      "ÙĪØ¨": 9150,
      "ë§Ī": 9151,
      "à¥Į": 9152,
      "à¤ı": 9153,
      "Ð½ÑĭÐ¼": 9154,
      "ÙħÙĨ": 9155,
      "ÙĪØ³": 9156,
      "ĠlÃłm": 9157,
      "ĠÄĳáº¿n": 9158,
      "à¤ªà¤¨": 9159,
      "ĠÙĦÙĦ": 9160,
      "à¤¾à¤¹": 9161,
      "ĠÙħØ±": 9162,
      "à¸Ńà¸£": 9163,
      "à¸±à¸Ķ": 9164,
      "nou": 9165,
      "à¸¹à¹ī": 9166,
      "à¹Ģà¸¥": 9167,
      "ĠÄĳá»ĭnh": 9168,
      "ĠÄĳÃ³": 9169,
      "ĠÙģØ±": 9170,
      "Ø§Ø±Ø¯": 9171,
      "à¸Ħà¸£": 9172,
      "à¥įà¤¥": 9173,
      "ÙĩØ±": 9174,
      "à¥ī": 9175,
      "à¥ģà¤°": 9176,
      "Ġà¸ģ": 9177,
      "à¸²à¸Ħ": 9178,
      "Ġà¤¸à¤®": 9179,
      "Ġviá»ĩc": 9180,
      "Ġsáº½": 9181,
      "ÙĬÙħ": 9182,
      "£p": 9183,
      "ÙĪØ²": 9184,
      "ÙħØ¯": 9185,
      "à¤¾à¤µ": 9186,
      "à¥įà¤¸": 9187,
      "ç·": 9188,
      "Ġà¸ŀ": 9189,
      "Ã´i": 9190,
      "Ġá»Ł": 9191,
      "ĠtrÃªn": 9192,
      "Ð¼Ñĥ": 9193,
      "à¸Ł": 9194,
      "ĠÐ²Ð¾": 9195,
      "à¥Ĥà¤°": 9196,
      "ĠÄĳá»Ļng": 9197,
      "ÙĪØ¹": 9198,
      "Ġquan": 9199,
      "Ġà¤¨à¤¹": 9200,
      "çĿĢ": 9201,
      "ĠØ§Ø³": 9202,
      "à¸ķà¸£": 9203,
      "ĠØ£ÙĨ": 9204,
      "éĤ£": 9205,
      "Ġà¸¡": 9206,
      "ÐºÑĤ": 9207,
      "Ġhá»£p": 9208,
      "ØªÙħ": 9209,
      "ĠØ¨ÙĨ": 9210,
      "à¸«à¸Ļ": 9211,
      "Ð»Ð¸Ð²": 9212,
      "ĠÙħØ´": 9213,
      "Ø§Ø·": 9214,
      "Ø¨ÙĬ": 9215,
      "Ġà¸£": 9216,
      "ÙĦØ§Ùħ": 9217,
      "éħ": 9218,
      "Ð½Ð¾ÑģÑĤ": 9219,
      "Ġhiá»ĩn": 9220,
      "ç³": 9221,
      "Ġà¤ķà¤°à¤¨": 9222,
      "Ġà¸Ń": 9223,
      "ĠÙħØª": 9224,
      "à¸´à¸Ķ": 9225,
      "ĠØ§ÙĦÙĤ": 9226,
      "Ġà¤¯à¤¹": 9227,
      "Ġà¸Ĺ": 9228,
      "ÙĩÙħ": 9229,
      "à¹Ģà¸Ķ": 9230,
      "Ġà¹ģ": 9231,
      "Ġà¹Ĥ": 9232,
      "Å©ng": 9233,
      "ÙģØ±": 9234,
      "ĠÐ¿Ð¾Ðº": 9235,
      "ĠØ§ÙĦÙĨ": 9236,
      "ĠnhÃł": 9237,
      "à¹Ģà¸Ĺ": 9238,
      "Ø§Øµ": 9239,
      "ĠÄĳáº§u": 9240,
      "à¥ĩà¤ķ": 9241,
      "ÑĢÐ¾Ð¼": 9242,
      "ãģĵãģ¨": 9243,
      "ĠØ§Ø±": 9244,
      "ĠØªØŃ": 9245,
      "à¥įà¤²": 9246,
      "à¥įà¤ķ": 9247,
      "Ġà¤īà¤¨": 9248,
      "ĠmÃł": 9249,
      "Ġà¸Ī": 9250,
      "à¤«": 9251,
      "ĠØ¹ÙĨ": 9252,
      "æķĻ": 9253,
      "à¤¿à¤Ĥ": 9254,
      "Ġsá»±": 9255,
      "ëį°": 9256,
      "ãģ¦ãģĦãĤĭ": 9257,
      "à¹Īà¸ĩ": 9258,
      "ØªØ¨": 9259,
      "Ġnhiá»ģu": 9260,
      "ĥn": 9261,
      "Ġà¸«": 9262,
      "ĠchÃŃnh": 9263,
      "Ġbá»ĭ": 9264,
      "áº±ng": 9265,
      "Ã¡nh": 9266,
      "ĠÙħØ³": 9267,
      "á»ĭch": 9268,
      "à¹Īà¸²à¸ĩ": 9269,
      "Ġà¸Ľ": 9270,
      "ĠnÆ°á»Ľc": 9271,
      "Ð±Ð¾ÑĤ": 9272,
      "ÙĪÙĤ": 9273,
      "ë¥´": 9274,
      "Ġcáº£": 9275,
      "à¹īà¸Ńà¸ĩ": 9276,
      "à¹īà¸§": 9277,
      "à¸Ńà¸ģ": 9278,
      "à¤ĸ": 9279,
      "ë¬´": 9280,
      "Ã¡i": 9281,
      "Ãºng": 9282,
      "Ãło": 9283,
      "Ġà¤Ĩà¤ª": 9284,
      "Ġê³µ": 9285,
      "Ġà¤ħà¤ªà¤¨": 9286,
      "ĠØ§ÙĦØ¨": 9287,
      "à¥ĭà¤¨": 9288,
      "Ġà¤Ł": 9289,
      "Ġìľł": 9290,
      "Ġà¤īà¤¸": 9291,
      "Ġà¤¡": 9292,
      "à¸µà¹ī": 9293,
      "áº·t": 9294,
      "æĸ¯": 9295,
      "Ġëį": 9296,
      "ĠÐ¿Ð»": 9297,
      "ê³Ħ": 9298,
      "Ø³Ùħ": 9299,
      "áº¯c": 9300,
      "Ġà¤¸à¤ķ": 9301,
      "Ġà¸Ļ": 9302,
      "à¤¾à¤¥": 9303,
      "ĠÙħÙĤ": 9304,
      "Ġtheo": 9305,
      "ĠØ§ÙĦØ´": 9306,
      "à¹Ģà¸ŀ": 9307,
      "à¹Ģà¸Ĥ": 9308,
      "à¤¿à¤¶": 9309,
      "à¤¾à¤ĩ": 9310,
      "Ø§Ùĥ": 9311,
      "ĠÑĢÐ¾Ðº": 9312,
      "æ©": 9313,
      "Ġpháº£i": 9314,
      "à¸Ħà¸§à¸²à¸¡": 9315,
      "æĥ³": 9316,
      "Ġnháº¥t": 9317,
      "à¸Ńà¸¡": 9318,
      "ÙĪØ´": 9319,
      "ÙģØª": 9320,
      "ĠØ§ÙĦØ¬": 9321,
      "ìĺģ": 9322,
      "ĠhÃłnh": 9323,
      "ĠØ¥ÙĦÙī": 9324,
      "ìĹħ": 9325,
      "ĠØªØ±": 9326,
      "ÐºÐ¾Ð¼": 9327,
      "ĠØ§ÙĦÙĥ": 9328,
      "à¥įà¤¦": 9329,
      "ëł¤": 9330,
      "ĠthÃ¬": 9331,
      "ê´Ģ": 9332,
      "Ø³Ø¨": 9333,
      "íĥĢ": 9334,
      "Ġà¹ģà¸¥à¸°": 9335,
      "ÙĦÙĥ": 9336,
      "ĠngÃły": 9337,
      "ĠnhÃ¢n": 9338,
      "à¥ĥ": 9339,
      "ĠcÆ¡": 9340,
      "Ġà¸ķ": 9341,
      "çĶ°": 9342,
      "à¸±à¸§": 9343,
      "Ð¸Ð»Ð¸": 9344,
      "ê¸Ī": 9345,
      "Ġìĸ´": 9346,
      "à¹Ģà¸¡": 9347,
      "à¸²à¸Ĺ": 9348,
      "à¸£à¸¡": 9349,
      "Ġà¸ļ": 9350,
      "ìĦł": 9351,
      "à¤¿à¤µ": 9352,
      "ê¹Į": 9353,
      "ĠÑģÐ»Ñĥ": 9354,
      "ĠhÃ¬nh": 9355,
      "Ġà¤Ĺà¤¯": 9356,
      "ÙĬØ§": 9357,
      "à¤Ĥà¤¤": 9358,
      "ëłĪ": 9359,
      "à¥ĩà¤¤": 9360,
      "ĠØ§ÙĦØ¥": 9361,
      "Ð¿Ð¾Ð²": 9362,
      "ĠnÃ³": 9363,
      "ÙĪØ¬": 9364,
      "ãģĤãĤĭ": 9365,
      "à¸Ńà¸ļ": 9366,
      "ÙĪÙĬ": 9367,
      "à¤ķà¤°": 9368,
      "ìķĪ": 9369,
      "ĠhÆ¡n": 9370,
      "Ġà¤ķà¤¹": 9371,
      "Ø§Ø¶": 9372,
      "ãĥŁ": 9373,
      "ãĤĪãģĨ": 9374,
      "ÐµÑĢÐ¸": 9375,
      "íĶĦ": 9376,
      "Ø®Ø±": 9377,
      "à¥ĭà¤¤": 9378,
      "Ã¢u": 9379,
      "ÐºÐ¾Ð¹": 9380,
      "à¸«à¸¥": 9381,
      "ĠÄĳá»ģ": 9382,
      "ÙĬÙģ": 9383,
      "Ġthá»Ŀi": 9384,
      "ĠìĨĮ": 9385,
      "ÑĤÑĢ": 9386,
      "à¸ĩà¸²à¸Ļ": 9387,
      "ĠÙħØ§": 9388,
      "à¤Ĥà¤Ĺ": 9389,
      "ĠÄĳá»ĵng": 9390,
      "Ã²n": 9391,
      "à¥ģà¤²": 9392,
      "à¥įà¤ª": 9393,
      "ÙħØ±": 9394,
      "Ð¿ÑĢÐ¸": 9395,
      "à¤¾à¤ª": 9396,
      "Ġà¤ħà¤¨": 9397,
      "ÙĦÙģ": 9398,
      "Ġê³ł": 9399,
      "ĠÐ½Ð°Ð´": 9400,
      "ĠØ§Ùģ": 9401,
      "à¥ĩà¤Ł": 9402,
      "Ġë§Ĳ": 9403,
      "ĠìĬ¤": 9404,
      "à¸´à¸ķ": 9405,
      "ìĭ¤": 9406,
      "à¥Ģà¤¨": 9407,
      "à¥ĩà¤¨": 9408,
      "ĠØ°": 9409,
      "Ġloáº¡i": 9410,
      "à¹Ħà¸Ľ": 9411,
      "ĠÐºÑĢÐ°": 9412,
      "à¥ĭà¤°": 9413,
      "à¸¸à¸Ķ": 9414,
      "ĠØ§ÙĦØ±": 9415,
      "ĠÑģÐ¾Ð±": 9416,
      "à¸²à¸Ĭ": 9417,
      "Ġà¤¸à¤ķà¤¤": 9418,
      "à¹īà¸²à¸Ļ": 9419,
      "ĠtrÃ¬nh": 9420,
      "ĠØ§ÙĦÙģ": 9421,
      "ĠØ§ÙĦØ¯": 9422,
      "Ð¾Ð³Ð´Ð°": 9423,
      "à¸Ĺà¸¢": 9424,
      "ØŃØ¯": 9425,
      "à¸ģà¸¥": 9426,
      "Ø¨Ùĩ": 9427,
      "è¢«": 9428,
      "ĠÄĳiá»ģu": 9429,
      "ìľł": 9430,
      "à¤¾à¤ķ": 9431,
      "ĠtrÆ°á»Ŀng": 9432,
      "Ð½Ð¾Ð¼Ñĥ": 9433,
      "à¹Īà¸Ļ": 9434,
      "à¸¹à¹Ī": 9435,
      "Ġkáº¿t": 9436,
      "Ġìĭł": 9437,
      "ĠnÄĥng": 9438,
      "ÙĭØ§": 9439,
      "ãĥİ": 9440,
      "Ġpháº§n": 9441,
      "à¸Īà¸°": 9442,
      "áº¯t": 9443,
      "Ø±Ø©": 9444,
      "à¸´à¸ĩ": 9445,
      "à¸´à¹Ī": 9446,
      "à¤¾à¤Ī": 9447,
      "ìĹ°": 9448,
      "ĠØ§ÙĦØµ": 9449,
      "ëĭ¨": 9450,
      "Ø¨Ø¯": 9451,
      "à¥įà¤¹": 9452,
      "íķĺê³ł": 9453,
      "ĠØªØ¹": 9454,
      "ç¥ŀ": 9455,
      "Ġdá»±": 9456,
      "à¹Ģà¸«": 9457,
      "Ð°Ð½Ð°": 9458,
      "Ġà¤ªà¤¹": 9459,
      "Ġcao": 9460,
      "ÙĨØ¬": 9461,
      "à¤¾à¤ı": 9462,
      "ĠgiÃ¡": 9463,
[...]
