{"!":0,"\"":1,"#":2,"$":3,"%":4,"&":5,"'":6,"(":7,")":8,"*":9,"+":10,",":11,"-":12,".":13,"/":14,"0":15,"1":16,"2":17,"3":18,"4":19,"5":20,"6":21,"7":22,"8":23,"9":24,":":25,";":26,"<":27,"=":28,">":29,"?":30,"@":31,"A":32,"B":33,"C":34,"D":35,"E":36,"F":37,"G":38,"H":39,"I":40,"J":41,"K":42,"L":43,"M":44,"N":45,"O":46,"P":47,"Q":48,"R":49,"S":50,"T":51,"U":52,"V":53,"W":54,"X":55,"Y":56,"Z":57,"[":58,"\\":59,"]":60,"^":61,"_":62,"`":63,"a":64,"b":65,"c":66,"d":67,"e":68,"f":69,"g":70,"h":71,"i":72,"j":73,"k":74,"l":75,"m":76,"n":77,"o":78,"p":79,"q":80,"r":81,"s":82,"t":83,"u":84,"v":85,"w":86,"x":87,"y":88,"z":89,"{":90,"|":91,"}":92,"~":93,"¡":94,"¢":95,"£":96,"¤":97,"¥":98,"¦":99,"§":100,"¨":101,"©":102,"ª":103,"«":104,"¬":105,"®":106,"¯":107,"°":108,"±":109,"²":110,"³":111,"´":112,"µ":113,"¶":114,"·":115,"¸":116,"¹":117,"º":118,"»":119,"¼":120,"½":121,"¾":122,"¿":123,"À":124,"Á":125,"Â":126,"Ã":127,"Ä":128,"Å":129,"Æ":130,"Ç":131,"È":132,"É":133,"Ê":134,"Ë":135,"Ì":136,"Í":137,"Î":138,"Ï":139,"Ð":140,"Ñ":141,"Ò":142,"Ó":143,"Ô":144,"Õ":145,"Ö":146,"×":147,"Ø":148,"Ù":149,"Ú":150,"Û":151,"Ü":152,"Ý":153,"Þ":154,"ß":155,"à":156,"á":157,"â":158,"ã":159,"ä":160,"å":161,"æ":162,"ç":163,"è":164,"é":165,"ê":166,"ë":167,"ì":168,"í":169,"î":170,"ï":171,"ð":172,"ñ":173,"ò":174,"ó":175,"ô":176,"õ":177,"ö":178,"÷":179,"ø":180,"ù":181,"ú":182,"û":183,"ü":184,"ý":185,"þ":186,"ÿ":187,"Ā":188,"ā":189,"Ă":190,"ă":191,"Ą":192,"ą":193,"Ć":194,"ć":195,"Ĉ":196,"ĉ":197,"Ċ":198,"ċ":199,"Č":200,"č":201,"Ď":202,"ď":203,"Đ":204,"đ":205,"Ē":206,"ē":207,"Ĕ":208,"ĕ":209,"Ė":210,"ė":211,"Ę":212,"ę":213,"Ě":214,"ě":215,"Ĝ":216,"ĝ":217,"Ğ":218,"ğ":219,"Ġ":220,"ġ":221,"Ģ":222,"ģ":223,"Ĥ":224,"ĥ":225,"Ħ":226,"ħ":227,"Ĩ":228,"ĩ":229,"Ī":230,"ī":231,"Ĭ":232,"ĭ":233,"Į":234,"į":235,"İ":236,"ı":237,"Ĳ":238,"ĳ":239,"Ĵ":240,"ĵ":241,"Ķ":242,"ķ":243,"ĸ":244,"Ĺ":245,"ĺ":246,"Ļ":247,"ļ":248,"Ľ":249,"ľ":250,"Ŀ":251,"ŀ":252,"Ł":253,"ł":254,"Ń":255,"in":256,"Ġt":257,"er":258,"on":259,"Ġa":260,"re":261,"at":262,"st":263,"en":264,"or":265,"Ġth":266,"Ġc":267,"le":268,"Ġs":269,"it":270,"an":271,"ar":272,"al":273,"Ġthe":274,"Ġp":275,"Ġf":276,"ou":277,"is":278,"ing":279,"es":280,"Ġw":281,"ion":282,"ed":283,"ic":284,"Ġb":285,"Ġd":286,"et":287,"Ġm":288,"Ġo":289,"ro":290,"as":291,"el":292,"nd":293,"Ġin":294,"Ġh":295,"ent":296,"id":297,"Ġn":298,"am":299,"Ġto":300,"Ġre":301,"--":302,"Ġof":303,"om":304,"im":305,"Ġ(":306,"il":307,"Ġand":308,"ur":309,"se":310,"Ġl":311,"ex":312,"ĠS":313,"ad":314,"Ġ\"":315,"ch":316,"ut":317,"if":318,"em":319,"ol":320,"th":321,"Ġg":322,"ig":323,"iv":324,"ce":325,"od":326,"Ġv":327,"ate":328,"ĠT":329,"ag":330,"ay":331,"ot":332,"us":333,"ĠC":334,"Ġst":335,"ĠI":336,"un":337,"ul":338,"ue":339,"ĠA":340,"ow":341,"Ġ'":342,"ew":343,"Ġ<":344,"ation":345,"Ġfor":346,"ab":347,"ort":348,"um":349,"ame":350,"Ġis":351,"pe":352,"tr":353,"ck":354,"Ġy":355,"ist":356,"he":357,"Ġe":358,"lo":359,"ĠM":360,"Ġbe":361,"ers":362,"Ġon":363,"Ġcon":364,"ap":365,"ub":366,"ĠP":367,"ass":368,"int":369,"ly":370,"Ġ$":371,"av":372,"ir":373,"nt":374,"end":375,"Ġde":376,"ith":377,"out":378,"turn":379,"lic":380,"res":381,"pt":382,"Ġthis":383,"Ġif":384,"ĠD":385,"ver":386,"age":387,"ĠB":388,"ht":389,"Ġthat":390,"ĠR":391,"Ġit":392,"ĠF":393,"Ġr":394,"os":395,"and":396,"Ġas":397,"ke":398,"rom":399,"con":400,"ĠL":401,"qu":402,"lass":403,"Ġwith":404,"iz":405,"de":406,"ĠN":407,"Ġal":408,"op":409,"up":410,"get":411,"ile":412,"Ġan":413,"ata":414,"ore":415,"ri":416,"Ġpro":417,"ter":418,"ain":419,"ĠW":420,"ĠE":421,"Ġcom":422,"Ġreturn":423,"art":424,"ĠH":425,"ack":426,"Ġor":427,"est":428,"ment":429,"ĠG":430,"able":431,"Ġ-":432,"ine":433,"ill":434,"ind":435,"ere":436,"ity":437,"Ġtr":438,"ult":439,"str":440,"Ġyou":441,"pl":442,"Ġnew":443,"Ġj":444,"Ġfrom":445,"Ġex":446,"ĠO":447,"oc":448,"Ġse":449,"Ġle":450,".s":451,"ant":452,"Ġat":453,"ase":454,"Ġch":455,"ang":456,"Ġare":457,"Ġint":458,"âĢĻ":459,"ert":460,"ial":461,"act":462,"ive":463,"ode":464,"ost":465,"Ġclass":466,"Ġnot":467,"og":468,"ord":469,"all":470,"ff":471,"ont":472,"ime":473,"are":474,"ĠU":475,"Ġpr":476,"ies":477,"ize":478,"ure":479,"Ġby":480,"ire":481,"Ġsh":482,"ice":483,"ast":484,"ok":485,"cl":486,"Ġhe":487,"ard":488,"iew":489,"Ġwas":490,"ip":491,"this":492,"Ġu":493,"ĠThe":494,"ide":495,"ace":496,"ib":497,"ac":498,"Ġwe":499,"Ġpublic":500,"ak":501,"ve":502,"ust":503,"que":504,"Ġres":505,"'s":506,"Ġk":507,"ans":508,"yst":509,"Ġi":510,"Ġus":511,"one":512,"Ġstr":513,"Ġ&":514,"ach":515,"div":516,"ell":517,"Ġhave":518,"ull":519,"pon":520,"ĠJ":521,"ign":522,"Ġpl":523,"put":524,"dd":525,"ite":526,"Ġget":527,"In":528,"les":529,"ong":530,"ie":531,"Ġcan":532,"pr":533,"Ġun":534,"row":535,"ber":536,"Ġdo":537,"ll":538,"Ġel":539,"ated":540,"ary":541,"Ġ.":542,"ud":543,"Ġen":544,"te":545,"Ġab":546,"ork":547,"aw":548,"ob":549,"app":550,"Ġall":551,"ory":552,"ance":553,"Ġcont":554,"ia":555,"Ġwill":556,"data":557,"ple":558,"Ġyour":559,"Ġout":560,"Ġhas":561,"so":562,"Ġup":563,"Ġdef":564,"Ġbo":565,"ge":566,"per":567,"ich":568,"Ġbut":569,"add":570,"quest":571,"ery":572,"ft":573,"ens":574,"ake":575,"Ġgo":576,"ivate":577,"Ġim":578,"Ġset":579,"cri":580,"li":581,".m":582,"ally":583,"set":584,"ep":585,"âĢĻs":586,"bo":587,"def":588,"Ġme":589,"ec":590,"ĠIn":591,"ph":592,"Ġvar":593,"ence":594,"ink":595,"ug":596,"Ġelse":597,"cont":598,"Ġso":599,"Ġlo":600,"pro":601,"ton":602,"ss":603,"own":604,"abel":605,"ous":606,"eld":607,"The":608,"olor":609,"eg":610,"ude":611,"Ġar":612,"ener":613,"ser":614,"fer":615,"Ġmore":616,"Ġhis":617,"Ġthey":618,".S":619,"ĠY":620,"use":621,"ne":622,"io":623,"Ġper":624,"ings":625,"Ġdata":626,"Ġsa":627,"ef":628,"Ġone":629,"eng":630,"Ġdis":631,"Ġname":632,"val":633,"led":634,"Ġne":635,"Ġend":636,"cre":637,"ark":638,"Ex":639,"urre":640,"ange":641,"Ġmy":642,"pan":643,"ator":644,"Ġpre":645,"Ġx":646,"ov":647,"Ġtheir":648,"tem":649,"com":650,"Ġid":651,"Ġwho":652,"Ġtime":653,"Ġman":654,"ry":655,"rop":656,"vel":657,"Ġwhich":658,"Ġany":659,"we":660,"Ġli":661,"gr":662,"Ġno":663,"Ġapp":664,"ions":665,"Ġabout":666,"Ġadd":667,"Ġsu":668,"Ġover":669,"Ġqu":670,"ca":671,"Ġro":672,"sh":673,"ual":674,"son":675,"new":676,"ern":677,"Ġag":678,"Ġ?":679,"ical":680,"Ġdes":681,"ix":682,"ays":683,"Ġtype":684,"'t":685,"Ġinter":686,"var":687,"Ġpart":688,"enc":689,"ra":690,"cho":691,"ose":692,"ater":693,"Ã©":694,"oll":695,"pos":696,"yle":697,"ng":698,"ates":699,"Ġwork":700,"Ġem":701,"Ġsp":702,"Ġwhen":703,"to":704,"ash":705,"Ġuse":706,"Ġad":707,"ove":708,"ader":709,"rit":710,"Ġoff":711,"Ġother":712,"ms":713,"Ġbeen":714,"Ġte":715,"ml":716,"co":717,"nc":718,"Ġ%":719,"ann":720,"ade":721,"Ġsup":722,"date":723,"Ġacc":724,"Ġhad":725,"Ġbu":726,"ĠRe":727,"Ġwere":728,"Ġfile":729,"Ġwould":730,"ven":731,"iss":732,"Ġour":733,"Ġyear":734,"Ġval":735,"Ġsome":736,"ys":737,"Ġpe":738,"Ġthere":739,"Ġsaid":740,"du":741,"of":742,"line":743,"Ġher":744,"Ġco":745,"ise":746,"min":747,"ute":748,"ask":749,"Ġlike":750,"ody":751,"Ġlet":752,"Ġam":753,"Ġgr":754,"yp":755,"Ġalso":756,"ĠIt":757,"url":758,"ific":759,"ors":760,"Ġthan":761,"ating":762,"ĠThis":763,"ref":764,"roll":765,"Ġjust":766,"Ġresult":767,"ian":768,"Ġthem":769,"der":770,"ule":771,"...":772,"ement":773,"arr":774,"Ġinto":775,"ied":776,"ument":777,"wo":778,"als":779,"Ġwhat":780,"anc":781,"Ġpos":782,"ages":783,"Ġsc":784,"ues":785,"Ġlist":786,"Ġcase":787,"Ġz":788,"let":789,"red":790,"Ġfe":791,"Ġ,":792,"Ġfirst":793,"word":794,"Ġact":795,"ient":796,"cent":797,"Ġonly":798,"mer":799,"Ġ--":800,"Ġop":801,"ank":802,"Ġits":803,"Ġback":804,"Ġneed":805,"Ġcl":806,"Ġsub":807,"Ġla":808,".\"":809,"Ġstart":810,"ner":811,"ey":812,"Ġent":813,"its":814,"ĠWe":815,"ics":816,"Ġunder":817,"Ġreg":818,"Ġthen":819,"ek":820,"ning":821,"Ġmay":822,"und":823,"Ġhow":824,"Ġpeople":825,".n":826,"Ġind":827,"ĠHe":828,"ful":829,"ole":830,"Ġshould":831,"ier":832,"ote":833,"Ġtest":834,"Ġbet":835,"ting":836,"Ġmake":837,"Ġafter":838,"define":839,"Ġright":840,"day":841,"Ġlong":842,"ĠPro":843,"Ġmin":844,"air":845,"ait":846,"IC":847,"Ġph":848,"Ġfl":849,"br":850,"Ġloc":851,"ins":852,",\"":853,"Pro":854,"Ġshe":855,"Ġpar":856,"Ġread":857,"Ġform":858,"Ġdr":859,"order":860,"play":861,"Ġwant":862,"az":863,"be":864,"Ġnumber":865,"Ġcol":866,"Ġkey":867,"ember":868,"Ġtwo":869,"Ġwhere":870,"uch":871,"ger":872,"Ġwhile":873,"Ġrec":874,"Ġlook":875,"eter":876,"ager":877,"Ġcould":878,"Ġbr":879,"ends":880,"ures":881,"Ġknow":882,"ets":883,"Ġser":884,"Ġfr":885,"Ġhand":886,"Ġmost":887,"Ġtry":888,"Ġnow":889,"Ġhim":890,"ify":891,"ren":892,"itt":893,"Ġap":894,"ĠYou":895,"-m":896,"Ġevery":897,"Ð¾":898,"Ġpoint":899,"Ġfil":900,"Ġmod":901,"Ġerror":902,"ah":903,"Ġpol":904,"Ġshow":905,"Ġfind":906,"Ð°":907,"Ġcurrent":908,"Ġused":909,"Ġplay":910,"Ġsee":911,"Ġhelp":912,"Ġthese":913,"Ġpass":914,"Ġdown":915,"Ġeven":916,"ason":917,"Ġbl":918,"Ðµ":919,"Ġob":920,"Ġitem":921,"orn":922,"Ġdon":923,"man":924,"tn":925,"He":926,"Ġdid":927,"iver":928,"Ġsm":929,"Ġthrough":930,"che":931,"Ġinv":932,"Ġes":933,"ĠNew":934,"uto":935,"ler":936,"Ġlast":937,"Ġevent":938,"ines":939,"sole":940,"Ġagain":941,"Ġhigh":942,"Ġline":943,"Ġdoes":944,"Ġcr":945,"ars":946,"Ġtem":947,"ature":948,"ister":949,"Ġbefore":950,"ale":951,"Ġbecause":952,"roid":953,"Ġed":954,"ik":955,"reg":956,"Ġstate":957,"Ġcons":958,"att":959,"Ġhere":960,"Ġfinal":961,"Ġdel":962,"Ġrun":963,"ĠX":964,"ym":965,"Ġvery":966,"ces":967,"list":968,"olog":969,"Ġac":970,"Ġmon":971,"Ġway":972,"Ġcall":973,"Ġatt":974,"Ġcal":975,"vert":976,"fr":977,"Ġnum":978,"aj":979,"Ġwell":980,"ĠAs":981,"Ġyears":982,"Ġsim":983,"mon":984,"Ġview":985,"Ġpres":986,"We":987,"At":988,"Ġbel":989,"Ġmany":990,"Man":991,"ender":992,"Ġbeing":993,"Ġgood":994,"Ġusing":995,"ists":996,"ĠAl":997,"Ġgu":998,"time":999,"Ġrequest":1000,"Ġchild":1001,"ps":1002,"alk":1003,"by":1004,"Ġperson":1005,"uf":1006,"Ġque":1007,"ident":1008,"ott":1009,"less":1010,"Ġexpect":1011,"urs":1012,"pre":1013,"ma":1014,"Ġsur":1015,"Ġfound":1016,"par":1017,"ains":1018,"Ġpost":1019,"-d":1020,"Ġsl":1021,"Ġsuch":1022,"Ġthink":1023,"qual":1024,"Ġmuch":1025,"uc":1026,"Ġsom":1027,"Ġinst":1028,"ãĢĤ":1029,"Ġmed":1030,"org":1031,"ider":1032,"ache":1033,"Ġcheck":1034,"the":1035,"ants":1036,"Ġopen":1037,"Ġest":1038,"Ġnext":1039,"ÑĤ":1040,"Ã³":1041,"Ð¸":1042,"Ġcar":1043,"Ġgame":1044,"ision":1045,"Ġeach":1046,"Ġav":1047,"Ġsupport":1048,"rem":1049,"Ġown":1050,"Ġcor":1051,"Ġmem":1052,"ience":1053,"Ġsex":1054,"Ġsign":1055,"Ġet":1056,"ĠApp":1057,"Ġthose":1058,"off":1059,"Ġsystem":1060,"Ġbest":1061,"code":1062,"Ġsame":1063,"Ġdi":1064,"uss":1065,"Ġcreate":1066,"fe":1067,"UN":1068,"ats":1069,"Ġmade":1070,"Ġmark":1071,"yn":1072,"Ġgroup":1073,"Ġfin":1074,"Ġworld":1075,"ty":1076,"Ġprocess":1077,"Ġcre":1078,"arn":1079,"ives":1080,"Ġmain":1081,"Ġcolor":1082,"Ġreport":1083,"Ġtake":1084,"Ġday":1085,"Ġsk":1086,"bers":1087,"Ġcomple":1088,"Ġtop":1089,"Ġfree":1090,"eta":1091,"Ġaction":1092,"not":1093,"Ġindex":1094,"her":1095,"On":1096,"Ġreal":1097,"land":1098,"leg":1099,"Ġmessage":1100,"ivers":1101,"Ġart":1102,"Ġbetween":1103,"ene":1104,"Ã¡":1105,"ten":1106,"Ġke":1107,"ui":1108,"Ġtable":1109,"sub":1110,"Ġhead":1111,"Ġmust":1112,"Ġorder":1113,"over":1114,"Ġsay":1115,"Ġter":1116,"rg":1117,"Ġproduct":1118,"This":1119,"Ġdouble":1120,"Ġplace":1121,"Ġinformation":1122,"Ġweek":1123,"els":1124,"Sh":1125,"come":1126,"Ġsw":1127,"bl":1128,"Ġprogram":1129,"check":1130,"Ġund":1131,"ags":1132,"Ġresponse":1133,"US":1134,"Ġcode":1135,"Ġwithout":1136,"Ġsol":1137,"Ġstill":1138,"med":1139,"Ġcap":1140,"Ġrep":1141,"ved":1142,".N":1143,"Ġfield":1144,"col":1145,"Ġcour":1146,"An":1147,"Ġteam":1148,"Ġsecond":1149,"Ġgoing":1150,"Ġfam":1151,"atab":1152,"Al":1153,"Ð½":1154,"ond":1155,"Ġhome":1156,"Ġleft":1157,"Ġdirect":1158,"As":1159,"ret":1160,"ado":1161,"ee":1162,"It":1163,"oute":1164,"Ġallow":1165,"ai":1166,"ane":1167,"Ġbeg":1168,"no":1169,"sp":1170,"Ġdifferent":1171,"ĠIs":1172,"Ġca":1173,"Ġaround":1174,"Ġreally":1175,"tra":1176,"Ġboth":1177,"arm":1178,"Ġput":1179,"ÑĢ":1180,"ung":1181,"Ġlevel":1182,"ux":1183,"post":1184,"Ġlocal":1185,"ina":1186,"ric":1187,"Ġfa":1188,"Ġquest":1189,"Ġtoo":1190,"Ġgreat":1191,"Ñģ":1192,"ron":1193,"oy":1194,"Ġmonth":1195,"Ġsuper":1196,"bar":1197,"Ġmet":1198,"Ġlife":1199,"ĠUS":1200,"md":1201,"Ġpay":1202,"Ġchange":1203,"'re":1204,"los":1205,"Ã¤":1206,"ĠNo":1207,"Ġold":1208,"Ġbook":1209,"bug":1210,"Ġversion":1211,"Ġthree":1212,"ero":1213,"Ġlaw":1214,"Ġbase":1215,"Ġduring":1216,"tes":1217,"Ġspe":1218,"ves":1219,"Ġagainst":1220,"Ġpower":1221,"ium":1222,"ese":1223,"ique":1224,"erg":1225,"ons":1226,"-t":1227,"sc":1228,"Ã¼":1229,"Ġsuccess":1230,"ram":1231,"ched":1232,"Ġdate":1233,"Ġtot":1234,"chem":1235,"my":1236,"Ġbig":1237,"era":1238,"Ġpop":1239,"Ġfew":1240,"uid":1241,"ÃŃ":1242,"Ġdem":1243,"Ġmatch":1244,"Ġanother":1245,"Ġsit":1246,"Ġcare":1247,"Ġeffect":1248,"ending":1249,"For":1250,"Ġfun":1251,"start":1252,"Ġleg":1253,"Ġservice":1254,"Ġsince":1255,"Ġnon":1256,"Ġlos":1257,"Ġfull":1258,"Ġturn":1259,"Ġbody":1260,"pi":1261,"Ġsomething":1262,"Ġstand":1263,"Ġavailable":1264,"mt":1265,"Ġblock":1266,"Ġkeep":1267,"open":1268,"Ġthings":1269,"Ġred":1270,"js":1271,"Ġcontrol":1272,"Ġcome":1273,"Ġsource":1274,"odes":1275,"Ġask":1276,"Ġemail":1277,"Ġbusiness":1278,"ta":1279,"Ġrequired":1280,".,":1281,"ts":1282,"af":1283,"Ġmight":1284,"Ġnever":1285,"ada":1286,"ĠHow":1287,"Ġhard":1288,"Ġintern":1289,"Ġcalled":1290,"Ġcho":1291,"ird":1292,"Ġoptions":1293,"You":1294,"ety":1295,"Ġsmall":1296,"Ġaccess":1297,"Ġjob":1298,"ĠThere":1299,"Ġaddress":1300,"oo":1301,"atur":1302,"Ġlittle":1303,"Ġfri":1304,"Ġport":1305,"eh":1306,"Ġstatus":1307,"aim":1308,"Ġos":1309,"Ġupdate":1310,"aff":1311,"Ġlink":1312,"me":1313,"Ġgiven":1314,"Ġfeel":1315,"enn":1316,"Ġalready":1317,"Ġincluding":1318,"outer":1319,"Ġalways":1320,"If":1321,"vis":1322,"Ġgot":1323,"Ġless":1324,"Ġaccount":1325,"Ġder":1326,"Ġlot":1327,"Ġbit":1328,"Ġfollowing":1329,"Ġsure":1330,"Ġprom":1331,"Ġsearch":1332,"ken":1333,"Ġer":1334,"aut":1335,"bed":1336,"Ġsays":1337,"Ġtemp":1338,"Ġrest":1339,"Ġver":1340,"Ġdie":1341,"Ġsite":1342,"pen":1343,"No":1344,"rec":1345,"Ġwon":1346,"Ġvideo":1347,"adi":1348,"'m":1349,"Ġcell":1350,"ari":1351,"Ġplayer":1352,"ais":1353,"Ġcost":1354,"ks":1355,"Ġtotal":1356,"Ġstat":1357,"Ġclear":1358,"uro":1359,"Ġtechn":1360,"Ġrow":1361,"Ġseem":1362,"Ġshort":1363,"ĠNot":1364,"Ġcompany":1365,"Ġdone":1366,"Ġhealth":1367,"status":1368,"inc":1369,"Ġchildren":1370,"Ġdays":1371,"-l":1372,"irm":1373,"omb":1374,"Ġonline":1375,"au":1376,"where":1377,"Ġreason":1378,"Ġwithin":1379,"une":1380,"Ġcent":1381,"Ġarr":1382,"len":1383,"Ġbro":1384,"Ġschool":1385,"ava":1386,"Ġeng":1387,"Ġinclude":1388,"!!":1389,"Ġann":1390,"Ġstop":1391,"Ġlater":1392,"Ġlove":1393,"oud":1394,"Ġable":1395,"Ġmen":1396,"Ã¶":1397,"Ġgive":1398,"amb":1399,"Ġcondition":1400,"ĠCan":1401,"do":1402,"ze":1403,"Ġimportant":1404,"Ġda":1405,"Ġfamily":1406,"Ġoption":1407,"Ġexist":1408,"ica":1409,"'ve":1410,"vers":1411,"Ġoffer":1412,"Ġwater":1413,"Ġche":1414,"ĠMy":1415,"Ġstep":1416,"ances":1417,"active":1418,"ama":1419,"Ġgovernment":1420,"ĠID":1421,"And":1422,"Ð»":1423,"Ġtimes":1424,"Ġfour":1425,"Ġfar":1426,"Ġpresent":1427,"uest":1428,"Ġbas":1429,"ifier":1430,"Ġlib":1431,"Ġroom":1432,"Ġonce":1433,"Ġresults":1434,"Ġcontinue":1435,"Ġtalk":1436,"eb":1437,"Ġmass":1438,"Ġmean":1439,"ips":1440,"Ġuntil":1441,"Ġmarket":1442,"Ġarea":1443,"uit":1444,"event":1445,"Ġmus":1446,"Ġkind":1447,"mb":1448,"Ġlight":1449,"uk":1450,"ohn":1451,"alf":1452,"Ġside":1453,"Ġbased":1454,"Ġplan":1455,"unk":1456,"Ġaway":1457,"iod":1458,"Ã§":1459,"izer":1460,"Ġnear":1461,"alt":1462,"Ġcountry":1463,"Ġspecific":1464,"ones":1465,"ĠDo":1466,"Ġalong":1467,"Ġexpress":1468,".'":1469,"env":1470,"Ġbegin":1471,"Ġwin":1472,"Ã³n":1473,"Ġthing":1474,"Ġwhy":1475,"Ġdoesn":1476,"ij":1477,"Ġsingle":1478,"ley":1479,"create":1480,"Ġrights":1481,"Ġpo":1482,"Ġant":1483,"ĠWhen":1484,"Ġwomen":1485,"Ã£":1486,"Ġpossible":1487,"Ġdidn":1488,"Ġsent":1489,"Ġenc":1490,"Ġcommand":1491,"Ġrecent":1492,"ĠMay":1493,"Ġmoney":1494,"sl":1495,"Ġtold":1496,"current":1497,"Ġauto":1498,"ĠState":1499,"da":1500,"Ġworking":1501,"Ġwindow":1502,"Ġleast":1503,"Ġrecord":1504,"Ġdat":1505,"Ġmaking":1506,"ued":1507,"emp":1508,"\".":1509,"Ġclose":1510,"Ġpercent":1511,"Ġpast":1512,"Ġmove":1513,"Ġpat":1514,"Ġvi":1515,"'ll":1516,"Ġcity":1517,"ario":1518,"Ġtell":1519,"ĠAm":1520,"Ġcourse":1521,"Ġlate":1522,"Ġamount":1523,"ino":1524,"Ġì":1525,"Ġben":1526,"Ġenough":1527,"now":1528,"Ġlooking":1529,"Ġhold":1530,"vo":1531,"yc":1532,"Ġpot":1533,"go":1534,"Ġlow":1535,"Ġpara":1536,"Ġprice":1537,"Ġtoday":1538,"Ġpolit":1539,"Ġattack":1540,"ana":1541,"Ġstory":1542,"aken":1543,"Ġmeet":1544,"Ġden":1545,"change":1546,"ici":1547,"na":1548,"Ġsort":1549,"Ġthought":1550,"umer":1551,"Ġdet":1552,"Ġabove":1553,"Ġquestion":1554,"Ġword":1555,"Ġprovide":1556,"Ġresearch":1557,"Ã£o":1558,"Ġcover":1559,"Ġwhether":1560,"Ġhaving":1561,"lem":1562,"ney":1563,"ao":1564,"show":1565,"ades":1566,"ause":1567,"Ġfre":1568,"Ġlarge":1569,"ral":1570,"ias":1571,"top":1572,"Ġweb":1573,"Ġdev":1574,"Ġdeal":1575,"Ġproblem":1576,"Ġthough":1577,"Ġpoints":1578,"Ġever":1579,"Ġservices":1580,"Ġactually":1581,"Ġmillion":1582,"ios":1583,"Ġunderstand":1584,"Ġhappen":1585,"Ġles":1586,"Ġinfo":1587,"ony":1588,"Ġspace":1589,"Ġpassword":1590,"Ġstore":1591,"ĠWhat":1592,"sm":1593,"New":1594,"Ġdetails":1595,"Ġface":1596,"Ġsave":1597,"dev":1598,"Ġitems":1599,"ien":1600,"Ġmar":1601,"Ġmajor":1602,"Ġexpected":1603,"Ġyet":1604,"Ġfood":1605,"ites":1606,"Ġmembers":1607,"Ġbar":1608,"comm":1609,"Ġsend":1610,"ros":1611,"fa":1612,"Ġbecome":1613,"Ġev":1614,"ĠUnited":1615,"Ġmakes":1616,"Ġglobal":1617,"Ġcontact":1618,"Ġcertain":1619,"iÃ³n":1620,"iles":1621,"oss":1622,"ster":1623,"Ġnews":1624,"cel":1625,"Ġmedia":1626,"Ġfail":1627,"Ġblack":1628,"ĠAmerican":1629,"Ġadded":1630,"Ġbuy":1631,"Ġcame":1632,"Ġdelete":1633,"Ġcard":1634,"Ġgetting":1635,"Ġclaim":1636,"Ġair":1637,"ements":1638,"Ġenter":1639,"Ġlocation":1640,"Ġnight":1641,"Ġdoing":1642,"lin":1643,"Ġpick":1644,"Ġwatch":1645,"Ġhuman":1646,"Ġtax":1647,"Ġgirl":1648,"Ġbox":1649,"rel":1650,"Ġhouse":1651,"Ġtrack":1652,"je":1653,"ĠJohn":1654,"Ġce":1655,"Ġapplication":1656,"any":1657,"Ä±":1658,"Ñĥ":1659,"Ġwait":1660,"ĠÃł":1661,"Ġtogether":1662,"Ġothers":1663,"Ġfund":1664,"Ġseveral":1665,"ii":1666,"Ġil":1667,"main":1668,"elt":1669,"ĠUniversity":1670,"cer":1671,"ales":1672,"ny":1673,"Ġesc":1674,"What":1675,"Ġhistory":1676,"Ġdu":1677,"unt":1678,"Ġfuture":1679,"Ġmode":1680,"There":1681,"Ġtook":1682,"Ġgames":1683,"Is":1684,"Ġbad":1685,"Ġneeds":1686,"Ġknown":1687,"Ġseen":1688,"ume":1689,"Ġborder":1690,"Ġlive":1691,"temp":1692,"iet":1693,"Ġge":1694,"eme":1695,"Ġhope":1696,"find":1697,"Ġyoung":1698,"Ġstudy":1699,"ili":1700,"Ġnetwork":1701,"yl":1702,"rest":1703,"Ġlimit":1704,"Ġcut":1705,"Ġcou":1706,"Ġwent":1707,"Ġfire":1708,"Ġacross":1709,"Ġofficial":1710,"Ġvisit":1711,"Ġreceived":1712,"Ġmonths":1713,"ico":1714,"ĠÃ©":1715,"ball":1716,"One":1717,"pha":1718,"Ġmind":1719,"Ġcomment":1720,"But":1721,"uel":1722,"anger":1723,"Ġbackground":1724,"Ġhot":1725,"Ġbill":1726,"Ġcomes":1727,"Ġremove":1728,"met":1729,"Ġfront":1730,"Ġvo":1731,"uy":1732,"Ġdig":1733,"hr":1734,"Ġgen":1735,"Ġste":1736,"Ġaccording":1737,"rag":1738,"Ġactiv":1739,"Ġvirtual":1740,"aur":1741,"Ġanything":1742,"Ġhours":1743,"Ġwar":1744,"Ġearly":1745,"Ġcenter":1746,"Ġago":1747,"Ġdue":1748,"Ġpor":1749,"Ġcannot":1750,"Ġwhite":1751,"Ġperiod":1752,"Ġscreen":1753,"'d":1754,"Ġnet":1755,"ĠStates":1756,"Ġneg":1757,"Ġcommon":1758,"ges":1759,"Ġaccept":1760,"Ġrandom":1761,"Ġhit":1762,"ria":1763,"atal":1764,"Ġamong":1765,"Ġdeb":1766,"ha":1767,"Ġanswer":1768,"Ġage":1769,"Ñı":1770,"Ġfive":1771,"Ġfriend":1772,"dis":1773,"zy":1774,"Ġtre":1775,"la":1776,"ĠYork":1777,"Ġdiscuss":1778,"Ġissue":1779,"Ġland":1780,"Ġsal":1781,"Ġworks":1782,"Ġhalf":1783,"Ġpolice":1784,"ua":1785,"Ġempty":1786,"Ġeverything":1787,"Ġnothing":1788,"Ġrunning":1789,"por":1790,"ĠWest":1791,"Ġna":1792,"Ġsomeone":1793,"ato":1794,"Ġshare":1795,"ĠWorld":1796,"How":1797,"Ġchanges":1798,"Ġpersonal":1799,"Ġevents":1800,"za":1801,"Ġneeded":1802,"Ġfight":1803,"Ġein":1804,"gen":1805,"Ġrate":1806,"inner":1807,"Ġtw":1808,"cd":1809,"ĠMr":1810,"Ġcorrect":1811,"Ġfall":1812,"Ġvol":1813,"Ġdevelopment":1814,"Ġsi":1815,"ving":1816,"Ġbelieve":1817,"ns":1818,"So":1819,"Ġminutes":1820,"Ġtaken":1821,"aced":1822,"Ġisn":1823,"Ġson":1824,"Ġum":1825,"Ġmoment":1826,"Ġbring":1827,"Ã¨":1828,"Ġtrying":1829,"Ġmember":1830,"acc":1831,"Ġboard":1832,"Ġplease":1833,"bit":1834,"Ġtypes":1835,"When":1836,"Ġedit":1837,"ĠEurope":1838,"ille":1839,"Ġinstead":1840,"Ġfilm":1841,"Ġphone":1842,"Ġactive":1843,"delete":1844,"Ġmo":1845,"Ġdeath":1846,"rodu":1847,"Ñĭ":1848,"ka":1849,"rip":1850,"Ġvia":1851,"Ġlim":1852,"block":1853,"Ġcomplete":1854,"Ġgeneral":1855,"Ġasked":1856,"ores":1857,"SP":1858,"ÅĤ":1859,"rap":1860,"Ġparty":1861,"Ġnormal":1862,"Ġfurther":1863,"attle":1864,"Ġmusic":1865,"Ġtaking":1866,"ĠAfter":1867,"Ġfailed":1868,"oe":1869,"ba":1870,"Ġterm":1871,"has":1872,"lim":1873,"ague":1874,"-year":1875,"pat":1876,"ĠHouse":1877,"Ġconditions":1878,"-to":1879,"Ġfavor":1880,"ĠNow":1881,"Ġmer":1882,"Ġloss":1883,"net":1884,"Ġissues":1885,"Ġstay":1886,"Ġdom":1887,"Ġlower":1888,"ls":1889,"Ġexact":1890,"ief":1891,"Ġformer":1892,"Ġsix":1893,"ida":1894,"ald":1895,"Ġbuilding":1896,"Ġquestions":1897,"Ġje":1898,"Ġcas":1899,"utf":1900,"Ġsecurity":1901,"Ġhowever":1902,"Ġinside":1903,"Ġpresident":1904,"Ġtag":1905,"Ġattempt":1906,"Ġfriends":1907,"ĠNorth":1908,"ello":1909,"That":1910,"Ðº":1911,"ĠPresident":1912,"Ġcampaign":1913,"Ġalt":1914,"Ġenergy":1915,"Ġseg":1916,"Ġhor":1917,"iers":1918,"can":1919,"Ġbehind":1920,"ÑĮ":1921,"long":1922,"Ġwanted":1923,"lt":1924,"eline":1925,"ĠWill":1926,"Ġpolicy":1927,"Ġthird":1928,"Ġbed":1929,"ĠInc":1930,"Ġserv":1931,"Ġhar":1932,"Ġtraining":1933,"icht":1934,"Ġmag":1935,"Ġrelease":1936,"ĠSouth":1937,"ando":1938,"sk":1939,"Ġoutside":1940,"gn":1941,"ises":1942,"Ġground":1943,"Ġpour":1944,"Ġtree":1945,"iam":1946,"Ġshows":1947,"Ġball":1948,"Ġfast":1949,"ante":1950,"Ġfit":1951,"Ġpolitical":1952,"card":1953,"och":1954,"Ġextra":1955,"Ġreported":1956,"Ġwrong":1957,"Ġseems":1958,"Ġunit":1959,"Ġtakes":1960,"Ġappear":1961,"Ġdifficult":1962,"Ġcoming":1963,"Ġsettings":1964,"iqu":1965,"Ġpretty":1966,"Ġlonger":1967,"Ġmenu":1968,"Ġcurrently":1969,"Ġactual":1970,"Ġfix":1971,"Ġcases":1972,"My":1973,"ĠSE":1974,"alle":1975,"ĠNational":1976,"ara":1977,"ĠÐ¿":1978,"Ġhigher":1979,"cr":1980,"ĠGoogle":1981,"Ġuna":1982,"Ġprogress":1983,"Ġmid":1984,"ĠMicrosoft":1985,"Ġdim":1986,"Ġadditional":1987,"Ġnumbers":1988,"Ġsound":1989,"Ġstatement":1990,"Ġalert":1991,"ev":1992,"Ġsoon":1993,"Ġë":1994,"Ġlas":1995,"endar":1996,"ÄĻ":1997,"Ġchoose":1998,"how":1999,"ĠAmerica":2000,"Ġoffice":2001,"den":2002,"Ġnote":2003,"Ã¼r":2004,"ester":2005,"uz":2006,"Ġvert":2007,"Ġgroups":2008,"Ġve":2009,"ĠPlease":2010,"Ġwoman":2011,"Ġgets":2012,"igr":2013,"Ġsem":2014,"-up":2015,"Ġcause":2016,"Ġvan":2017,"Ġmultiple":2018,"ido":2019,"Ġreceive":2020,"ÐµÐ½":2021,"Ġincrease":2022,"Ġleave":2023,"-n":2024,"Ġbre":2025,"Ġnotice":2026,"Ġstandard":2027,"Ġstates":2028,"aa":2029,"Ġnational":2030,"Ġproblems":2031,"istor":2032,"ste":2033,"Ġforce":2034,"ds":2035,"Ġprevent":2036,"apan":2037,"ador":2038,"Top":2039,"po":2040,"ãĢģ":2041,"ians":2042,"Ġliving":2043,"Ġok":2044,"IX":2045,"Ã©s":2046,"ĠNews":2047,"remove":2048,"erry":2049,"ares":2050,"Do":2051,"ustral":2052,"ĠÑģ":2053,"Ġpopular":2054,"cal":2055,"Ġdir":2056,"Ġallowed":2057,"Ġtrain":2058,"Ġsil":2059,"Ġtechnology":2060,"should":2061,"Ġmit":2062,"Ġaverage":2063,"ĠMarch":2064,"fin":2065,"Ġcourt":2066,"Ð²":2067,"Ġdecision":2068,"Ġsaw":2069,"Ġsaying":2070,"Ġanyone":2071,"Ġsong":2072,"Ġchanged":2073,"Ãª":2074,"Please":2075,"à¤":2076,"Ġkill":2077,"Ġdrug":2078,"Ġconvert":2079,"Ġmat":2080,"Ġplus":2081,"lat":2082,"aste":2083,"Ġready":2084,"Ġsense":2085,"ĠJune":2086,"Ġlatest":2087,"Ġregion":2088,"Ġreach":2089,"ados":2090,"Ġweeks":2091,"Ġlost":2092,"ani":2093,"Ġhimself":2094,"Ġdog":2095,"pir":2096,"Ġpaper":2097,"Ġstaff":2098,"ja":2099,"pu":2100,"Ġoil":2101,"Ġstock":2102,"Ġdead":2103,"dom":2104,"Ġrules":2105,"ula":2106,"mar":2107,"ĠChina":2108,"Ġplaying":2109,"Ġcouple":2110,"command":2111,"Ġroad":2112,"urt":2113,"ych":2114,"Ġheld":2115,"Ġtab":2116,"ano":2117,"Ã±":2118,"Ġmachine":2119,"Ġoperation":2120,"Ġren":2121,"men":2122,"zen":2123,"Ġtor":2124,"ura":2125,"Ġsch":2126,"Ġmovie":2127,"Ġsec":2128,"Ø§":2129,"Ġwasn":2130,"aciÃ³n":2131,"Ġjud":2132,"inder":2133,"Ġrot":2134,"Ġpen":2135,"ĠJuly":2136,"iler":2137,"Card":2138,"aly":2139,"Ġlegal":2140,"role":2141,"Ġten":2142,"Ġgoes":2143,"Ġmis":2144,"des":2145,"ĠÐ²":2146,"acion":2147,"ĠApril":2148,"Ġpassed":2149,"Ġbus":2150,"ĠCenter":2151,"Ġprec":2152,"ĠSan":2153,"Ġcountries":2154,"kt":2155,"Ġqual":2156,"idad":2157,"ĠPM":2158,"ci":2159,"Äħ":2160,"Ġlooks":2161,"Ġreleased":2162,"ĠTV":2163,"inq":2164,"Ġfinancial":2165,"Ġthreat":2166,"Ã§Ã£o":2167,"Ġou":2168,"Ġrecently":2169,"Ġreturned":2170,"Ġseek":2171,"Ġsystems":2172,"Å¼":2173,"bon":2174,"pite":2175,"-based":2176,"ordin":2177,"Ġgrad":2178,"Ġusually":2179,"Ġist":2180,"Ġcustomer":2181,"odo":2182,"Ġdoor":2183,"Ġplant":2184,"Ġchance":2185,"Ġord":2186,"Ñĩ":2187,"Ġroute":2188,"hi":2189,"After":2190,"Ġprimary":2191,"Ġbi":2192,"Red":2193,"Ġleaders":2194,"Ġgun":2195,"Ġupdated":2196,"Ġinform":2197,"ala":2198,"Ġhab":2199,"ĠDay":2200,"ĠOver":2201,"Ġled":2202,"uri":2203,"gl":2204,"Ġbank":2205,"Ġhands":2206,"ota":2207,"Am":2208,"Ġsens":2209,"Ġremember":2210,"cout":2211,"Ġenv":2212,"Ġpark":2213,"Ġsen":2214,"uts":2215,"inn":2216,"aling":2217,"Ġmiddle":2218,"ĠAugust":2219,"Ġquickly":2220,"ho":2221,"Ġcop":2222,"Ġgreen":2223,"comment":2224,"Ġune":2225,"avi":2226,"ĠKing":2227,"ora":2228,"Ġir":2229,"Ġelection":2230,"illa":2231,"Ġsetting":2232,"Ġhappy":2233,"Ġcamera":2234,"cons":2235,"ita":2236,"ĠCounty":2237,"Ġmilitary":2238,"Ġsale":2239,"non":2240,"rim":2241,"-old":2242,"contact":2243,"Ġtown":2244,"elling":2245,"omen":2246,"Ġslow":2247,"Ġblue":2248,"ago":2249,"Ġdark":2250,"si":2251,"ĠEast":2252,"Ġpackage":2253,"ione":2254,"Ġplayed":2255,"mo":2256,"ito":2257,"Ġdeliver":2258,"Ãł":2259,"Ġcomputer":2260,"Ġpas":2261,"Ġmobile":2262,"pass":2263,"Ġha":2264,"Ġleading":2265,"Ġzu":2266,"Ġeyes":2267,"iforn":2268,"Ġnice":2269,"Ġfloor":2270,"ĠUK":2271,"Ġstage":2272,"igen":2273,"Ġmeeting":2274,"Ġworked":2275,"iny":2276,"Ð¼":2277,"Ġang":2278,"Ġhour":2279,"Ġspeak":2280,"Ġseconds":2281,"Ġinternational":2282,"iate":2283,"rd":2284,"ĠWashington":2285,"Ġsituation":2286,"ette":2287,"Ġvon":2288,"Ġblood":2289,"Ġphoto":2290,"Ġgave":2291,"Ġshot":2292,"ĠAir":2293,"Ġmorning":2294,"Ġtrade":2295,"wer":2296,"Ġsy":2297,"Ġpiece":2298,"ran":2299,"va":2300,"ini":2301,"Ġcam":2302,"pa":2303,"ÑģÑĤ":2304,"ĠFriday":2305,"Ġbuf":2306,"Ġnov":2307,"Ġdas":2308,"Ġheard":2309,"Ġfair":2310,"Ġsales":2311,"save":2312,"ki":2313,"ĠUN":2314,"Ġplans":2315,"lay":2316,"Ãº":2317,"Ġcredit":2318,"orge":2319,"Ġdifference":2320,"Ġtried":2321,"send":2322,"Ġreports":2323,"ĠStreet":2324,"ellig":2325,"ĠÐ½":2326,"elle":2327,"Can":2328,"Ð¾Ð²":2329,"arty":2330,"ona":2331,"Ġcapital":2332,"Ġhear":2333,"emo":2334,"oi":2335,"Ġcalls":2336,"ga":2337,"ĠIndia":2338,"Ġing":2339,"Ġpet":2340,"Ġcharge":2341,"lich":2342,"Ġarm":2343,"Ġstar":2344,"Ġfederal":2345,"Ġcarry":2346,"ĠIsrael":2347,"Ġearlier":2348,"Ġtim":2349,"Ġtemper":2350,"ĠDavid":2351,"Ġwants":2352,"Ġpicture":2353,"-de":2354,"ente":2355,"Ġgas":2356,"Ġkids":2357,"Ġshown":2358,"ella":2359,"Ġlat":2360,"pet":2361,"ĠCanada":2362,"They":2363,"Ġdans":2364,"Ġhair":2365,"Ġcu":2366,"ped":2367,"Ġpow":2368,"ĠPaul":2369,"ĠTop":2370,"Ġvote":2371,"Ġfine":2372,"car":2373,"Ġaltern":2374,"make":2375,"Ġfavorite":2376,"Ġhappened":2377,"oms":2378,"Ġnamed":2379,"Ġrock":2380,"Ð´":2381,"Ġeconomic":2382,"Ġrace":2383,"Ġphysical":2384,"Ġremoved":2385,"aturday":2386,"Ġdro":2387,"Ġtowards":2388,"Ġuns":2389,"ih":2390,"Ġwall":2391,"Ġnearly":2392,"ĠMonday":2393,"Ġsun":2394,"Ġbul":2395,"Ġmyself":2396,"Ġpopulation":2397,"ĠCalifornia":2398,"\"I":2399,"uesday":2400,"Ġcosts":2401,"ker":2402,"Ġband":2403,"Ã¡s":2404,"ett":2405,"Ġimmediately":2406,"zer":2407,"Ġfigure":2408,"eller":2409,"Ġpoll":2410,"Ġgiving":2411,"Ġbillion":2412,"Ġple":2413,"ĠObama":2414,"Ġpa":2415,"Ġanti":2416,"ĠLondon":2417,"ĠCourt":2418,"ena":2419,"Ġzero":2420,"Ġpaid":2421,"Ġincreased":2422,"ĠfÃ¼r":2423,"ursday":2424,"Ġmaximum":2425,"Ġforeign":2426,"Ġpan":2427,"Ġauf":2428,"ÅŁ":2429,"Ġannounced":2430,"rie":2431,"Ġsupported":2432,"rier":2433,"ige":2434,"Ġpressure":2435,"begin":2436,"rian":2437,"ĠSunday":2438,"iger":2439,"Ġthinking":2440,"eder":2441,"jo":2442,"Ġpool":2443,"nesday":2444,"Ġrap":2445,"Ð°Ð½":2446,"Ġworkers":2447,"Ġmaster":2448,"Ġstories":2449,"inese":2450,"Ġsteps":2451,"Ġofficials":2452,"vc":2453,"Ġgar":2454,"ĠAT":2455,"Ġspent":2456,"ÅĽ":2457,"Ġprincip":2458,"Ġmissing":2459,"Ġwife":2460,"Ġtalking":2461,"Ġlocated":2462,"Ġcards":2463,"Ġpers":2464,"Ġkilled":2465,"ÃŃa":2466,"Ġsin":2467,"ĠdÃ©":2468,"Ġhop":2469,"Ġmil":2470,"Ġdemand":2471,"Ġplaces":2472,"Ġma":2473,"Ġagree":2474,"Ġpod":2475,"ĠEuropean":2476,"?\"":2477,"chen":2478,"ima":2479,"Ġdirector":2480,"Ġyield":2481,"Ġrestaur":2482,"duc":2483,"iki":2484,"Ġgirls":2485,"Ġsocket":2486,"Ġprices":2487,"dk":2488,"Ġreset":2489,"ĠÐ¸":2490,"ĠTuesday":2491,"Ġguys":2492,"ÐµÑĢ":2493,"Ġinternet":2494,"ady":2495,"Ġpurchase":2496,"lik":2497,"Ġfish":2498,"??":2499,"Ġjo":2500,"Ġleader":2501,"More":2502,"ĠÐº":2503,"alm":2504,"Ġconfirm":2505,"Ġcouldn":2506,"Ġaudio":2507,"Ġspot":2508,"lig":2509,"ete":2510,"Ġfresh":2511,"Ġmoved":2512,"ĠSaturday":2513,"Äĩ":2514,"Ġpul":2515,"Ġhundred":2516,"Ġtransaction":2517,"ĠIndian":2518,"ni":2519,"ji":2520,"ya":2521,"Your":2522,"Ġlargest":2523,"Ġqui":2524,"Ġng":2525,"Ġsing":2526,"Ġsuit":2527,"Ġjump":2528,"Ġsmart":2529,"Ġassist":2530,"ĠThursday":2531,"Ġbur":2532,"ĠÐ´":2533,"ĠJames":2534,"-se":2535,"Ġrates":2536,"Ġbon":2537,"Ð¾Ð»":2538,"igo":2539,"Ġadding":2540,"Ġmach":2541,"ĠBritish":2542,"Ġom":2543,"eler":2544,"Ġprev":2545,"Ġclosed":2546,"Ã©e":2547,"ky":2548,"Ġau":2549,"ĠWednesday":2550,"olver":2551,"ola":2552,"alar":2553,"She":2554,"å¹´":2555,"Ġappears":2556,"Ġcomo":2557,"ali":2558,"Ġtele":2559,"ben":2560,"Ġreasons":2561,"Ð°ÑĤ":2562,"Ġaf":2563,"Ġcolors":2564,"kin":2565,"ĠCongress":2566,"Ġarrest":2567,"Ð¿":2568,"ĠIndex":2569,"Ġinterested":2570,"Ġrent":2571,"Ġalbum":2572,"Ġbudget":2573,"PA":2574,"dt":2575,"Ġgone":2576,"Ġbattle":2577,"uda":2578,"Ġstation":2579,"Ġshop":2580,"Ġeight":2581,"Ġmail":2582,"but":2583,"Ġseven":2584,"Ġvolume":2585,"Ġtit":2586,"Ġcompleted":2587,"Ġspr":2588,"mi":2589,"à¹":2590,"Ġpayment":2591,"ĠApple":2592,"Ġboy":2593,"Ġbalance":2594,"ÐµÑĤ":2595,"Ġeat":2596,"Ġtro":2597,"Ġclaims":2598,"arc":2599,"ander":2600,"Ġwarm":2601,"which":2602,"gi":2603,"ĠÐ¾":2604,"bi":2605,"Ġsett":2606,"abe":2607,"Ġcat":2608,"ĠTexas":2609,"anta":2610,"Ġwouldn":2611,"Ġship":2612,"ela":2613,"iques":2614,"Ġahead":2615,"Ġpun":2616,"fc":2617,"Ġtransfer":2618,"Ġgay":2619,"Ġol":2620,"Ġquarter":2621,"yan":2622,"zi":2623,"aine":2624,"Ġcash":2625,"Ġeen":2626,"ĠRussia":2627,"Ġsan":2628,"Some":2629,"pop":2630,"Ġtend":2631,"elen":2632,"Ġsoft":2633,"Ġhighest":2634,"ĠWhy":2635,"Ġforces":2636,"hol":2637,"Ġposted":2638,"Ġcin":2639,"mat":2640,"Ġruns":2641,"uler":2642,"Ġdefinitely":2643,"Ġsigned":2644,"Ġult":2645,"Ġdress":2646,"ĠRussian":2647,"ches":2648,"unes":2649,"ÙĦ":2650,"agen":2651,"Ġshowed":2652,"ĠBank":2653,"produ":2654,"Ġul":2655,"una":2656,"Ġopening":2657,"Ġhappens":2658,"di":2659,"Ġwaiting":2660,"Ġeconomy":2661,"ĠFrench":2662,"Ġstreet":2663,"Ġkept":2664,"ju":2665,"olly":2666,"Ġê":2667,"Ġut":2668,"Ġcentral":2669,"Ġonto":2670,"Ġfactory":2671,"Ġmal":2672,"Ġreached":2673,"Ġmir":2674,"kan":2675,"Ġfat":2676,"Ġprotest":2677,"ils":2678,"Ġserve":2679,"zone":2680,"Ġlang":2681,"endo":2682,"iro":2683,"Ġpros":2684,"gu":2685,"rm":2686,"Ġdies":2687,"Ġdos":2688,"izz":2689,"Ġton":2690,"Ġbaby":2691,"Ġattacks":2692,"Ġhospital":2693,"encia":2694,"Ġnicht":2695,"uer":2696,"ĠØ":2697,"Ġspeech":2698,"Ġwarn":2699,"Ġdespite":2700,"chain":2701,"mes":2702,"Ġresolve":2703,"ira":2704,"Ã¢":2705,"Ġupdates":2706,"Ġtoward":2707,"Ġlisten":2708,"Car":2709,"activ":2710,"æķ°":2711,"Ġvir":2712,"Ġbranch":2713,"ĠAmericans":2714,"Ġradio":2715,"Ġhat":2716,"Ġoffered":2717,"æĹ¥":2718,"ws":2719,"Ġpeace":2720,"tf":2721,"Ġpi":2722,"Ġban":2723,"istan":2724,"Ð·":2725,"Ġfootball":2726,"Ġbag":2727,"Ġmac":2728,"amente":2729,"Ġpin":2730,"Ġti":2731,"Ġhaven":2732,"Ġweekend":2733,"oon":2734,"ye":2735,"Ġvous":2736,"Ġhet":2737,"Ġshowing":2738,"cher":2739,"Ġdefense":2740,"Ġbes":2741,"Ð¾ÑĢ":2742,"Where":2743,"ĠCouncil":2744,"idade":2745,"Ġrich":2746,"sa":2747,"ista":2748,"Ġagency":2749,"Ġtrial":2750,"Ġdan":2751,"Ġweather":2752,"Ġprovider":2753,"Ġseeing":2754,"Ġcancel":2755,"Ġagreement":2756,"Ġfi":2757,"aren":2758,"ĠBay":2759,"ania":2760,"Ġviolence":2761,"ema":2762,"hat":2763,"Ġstick":2764,"Ġmas":2765,"Ġfav":2766,"eras":2767,"Ġapplied":2768,"Ġcold":2769,"ses":2770,"Ġsand":2771,"Ġentre":2772,"Ġexchange":2773,"Ġdocuments":2774,"-P":2775,"rend":2776,"ati":2777,"when":2778,"Ġtemperature":2779,"Ġmetal":2780,"Ġll":2781,"ko":2782,"you":2783,"ĠrÃ©":2784,"Ġprison":2785,"ĠRepublican":2786,"Ð¸ÑĤ":2787,"bor":2788,"çļĦ":2789,"Ġbeat":2790,"Ġcancer":2791,"Ġsea":2792,"Ã¶r":2793,"Ġaus":2794,"oston":2795,"bes":2796,"Ġmess":2797,"ĠEngland":2798,"Ġta":2799,"Ġofficer":2800,"Ġopinion":2801,"Ġautomatically":2802,"ilm":2803,"ĠMinister":2804,"stop":2805,"Ġmi":2806,"Ġhotel":2807,"sel":2808,"oz":2809,"Ð¾Ð´":2810,"Ġputs":2811,"Ġdeck":2812,"Ġbin":2813,"Ġidentity":2814,"Ã´":2815,"acer":2816,"Ġtra":2817,"ĠFlorida":2818,"xa":2819,"Ġofficers":2820,"Ġaccounts":2821,"ĠFrance":2822,"uj":2823,"Ġnom":2824,"Ġpieces":2825,"Ġbusinesses":2826,"Ġjour":2827,"ÐµÐ½Ð¸":2828,"Ġdelivery":2829,"yes":2830,"enda":2831,"Ġschedule":2832,"Hello":2833,"Ġarticles":2834,"Ġwest":2835,"Ġwid":2836,"Ġavec":2837,"æľĪ":2838,"Ġtu":2839,"Ġmigr":2840,"bel":2841,"Ġkitchen":2842,"-out":2843,"azz":2844,"Ġdaughter":2845,"Ġsouth":2846,"aks":2847,"ĠEU":2848,"anda":2849,"Ġeine":2850,"esso":2851,"Ġris":2852,"Ġsports":2853,"lu":2854,"Ġdriving":2855,"Ġpropos":2856,"Ġwear":2857,"Ġice":2858,"kr":2859,"ĠGermany":2860,"Ġanimal":2861,"Ġmais":2862,"Ġprepar":2863,"Ġbug":2864,"Ġrom":2865,"Ġgod":2866,"ĠSenate":2867,"Ġweapons":2868,"Ġmurder":2869,"Ġbright":2870,"Ġsie":2871,"akt":2872,"Ġcrash":2873,"Ð±":2874,"iva":2875,"onto":2876,"Will":2877,"Ġwind":2878,"Ġsam":2879,"Ġholding":2880,"Ġsupposed":2881,"vi":2882,"Ġholds":2883,"fi":2884,"news":2885,"wa":2886,"Ġrise":2887,"Ġlisted":2888,"olo":2889,"Ġsz":2890,"Ġaux":2891,"Ġartist":2892,"Ġflat":2893,"Ġchecked":2894,"ele":2895,"ÐµÐ¼":2896,"Ġwatching":2897,"Ġblank":2898,"ez":2899,"World":2900,"Ġzone":2901,"Ġverify":2902,"ono":2903,"Ġcer":2904,"tre":2905,"Ġorders":2906,"ĠAfrica":2907,"Ùħ":2908,"Ġchief":2909,"Ġtom":2910,"Ġcharges":2911,"ĠBoston":2912,"Ġfilled":2913,"Ġnorth":2914,"Ġtermin":2915,"Ġber":2916,"asi":2917,"Why":2918,"ĠMuslim":2919,"Ġlie":2920,"Ġprime":2921,"ti":2922,"ĠIran":2923,"Ġju":2924,"Ã©t":2925,"Ġkick":2926,"Ġprocedure":2927,"Ġends":2928,"bus":2929,"Ġexplain":2930,"Ġeste":2931,"Ġkid":2932,"Ġyang":2933,"ÑĨ":2934,"Ġvent":2935,"Ġrand":2936,"uan":2937,"plan":2938,"Ã©n":2939,"zz":2940,"amento":2941,"aria":2942,"Ġshooting":2943,"iner":2944,"Ġlocations":2945,"Ñħ":2946,"Ġped":2947,"Ġmine":2948,"ĠÃ¼":2949,"Ġchair":2950,"Ġele":2951,"Ġfunds":2952,"uce":2953,"ila":2954,"Ġcup":2955,"mem":2956,"Ġrob":2957,"Ġsport":2958,"ische":2959,"kl":2960,"king":2961,"hab":2962,"Ġmel":2963,"amos":2964,"ami":2965,"Ġuma":2966,"Ġran":2967,"Ġentered":2968,"Ġich":2969,"prec":2970,"Ġdur":2971,"Ġdoctor":2972,"ĠCentral":2973,"Ġputting":2974,"oor":2975,"Ġprefer":2976,"Ġals":2977,"\"We":2978,"lan":2979,"Ġrestaurant":2980,"isa":2981,"Ġí":2982,"Ġconfirmed":2983,"Ġhearing":2984,"Ġmouth":2985,"oria":2986,"Ġod":2987,"Ġbought":2988,"Ġmoves":2989,"Ġcoffee":2990,"Ġfighting":2991,"nie":2992,"ĠÑĤ":2993,"ĠMaster":2994,"ateur":2995,"Ġwed":2996,"Ġmes":2997,"Ġpal":2998,"Ġtruck":2999,"Ġbroken":3000,"Ġmarriage":3001,"iento":3002,"ĠÐ·":3003,"Ġkom":3004,"Ġissued":3005,"Ġleaves":3006,"Ġexecutive":3007,"Ġnu":3008,"Ġtwice":3009,"ĠmÃ¡s":3010,"Ġdrag":3011,"Ġsed":3012,"Ġbot":3013,"ende":3014,"Ġlay":3015,"ĠWhere":3016,"Ġflight":3017,"tor":3018,"Ġstated":3019,"Ġeast":3020,"lf":3021,"ÄŁ":3022,"Ġplane":3023,"uard":3024,"itz":3025,"Ġfell":3026,"Ġfee":3027,"reh":3028,"Ø±":3029,"Ð»Ð¸":3030,"Ġtv":3031,"Ġplays":3032,"Ġdiscount":3033,"ĠIraq":3034,"adas":3035,"Ġdomin":3036,"orno":3037,"Ġru":3038,"Ġtrading":3039,"Ãµ":3040,"Ġva":3041,"Ġrain":3042,"Ġdollars":3043,"Ġrequested":3044,"Ġintelligence":3045,"bur":3046,"Ġrat":3047,"Ġnuclear":3048,"Ġcrisis":3049,"Ġstanding":3050,"Ġauthorities":3051,"Ġunion":3052,"aret":3053,"ĠÐ¼":3054,"Ġnie":3055,"Ġbeach":3056,"imo":3057,"Ġprofit":3058,"Ġera":3059,"Ġho":3060,"Ã¡n":3061,"Ġcurrency":3062,"Ġclassic":3063,"ĠÃ¨":3064,"Ġaccident":3065,"Ġcharged":3066,"iones":3067,"Ġwalking":3068,"Ġordered":3069,"Ġevening":3070,"Ġarrived":3071,"-mail":3072,"ĠPay":3073,"Ġking":3074,"ĠHelp":3075,"Ġabuse":3076,"Ġchemical":3077,"Ġorient":3078,"Ġsob":3079,"ika":3080,"Are":3081,"Ġnotification":3082,"Ġgoogle":3083,"lie":3084,"Ġmand":3085,"-ch":3086,"ungen":3087,"Two":3088,"eting":3089,"çĶ¨":3090,"Ġdin":3091,"Ġnine":3092,"Ġsending":3093,"Ġdebt":3094,"Ġaccepted":3095,"Ġsongs":3096,"uent":3097,"zt":3098,"Ġsitting":3099,"ãĥ¼":3100,"Ġarms":3101,"Ġmarkets":3102,"Ġvictim":3103,"Ġfourth":3104,"sen":3105,"ĠStandard":3106,"Ġapproved":3107,"Ġsnow":3108,"ÙĨ":3109,"Ġtodo":3110,"Ġsel":3111,"Ġillegal":3112,"Ġci":3113,"Ġbuying":3114,"Ġmu":3115,"Ġfort":3116,"Ġnue":3117,"aus":3118,"ĠKorea":3119,"hal":3120,"Ġride":3121,"Ġunable":3122,"Ġnos":3123,"elly":3124,"Ñİ":3125,"pio":3126,"Ġshopping":3127,"ĠJones":3128,"Ġja":3129,"actual":3130,"Ġoch":3131,"Ġbird":3132,"osa":3133,"aire":3134,"aba":3135,"hen":3136,"uv":3137,"iser":3138,"iche":3139,"anz":3140,"alendar":3141,"Ġprove":3142,"ÐµÐ»":3143,"ku":3144,"Ð¹":3145,"ÑĪ":3146,"gar":3147,"Ġcum":3148,"Ã«":3149,"Ġeating":3150,"Ġplastic":3151,"Ġpand":3152,"Ġmarried":3153,"Ð¾Ð¼":3154,"Ġwearing":3155,"Ġstatements":3156,"Ã³w":3157,"Ġtrouble":3158,"ĠMexico":3159,"Mr":3160,"idi":3161,"ĠÐ¿ÑĢ":3162,"eli":3163,"Ġaid":3164,"Ġfaces":3165,"iti":3166,"Ġalle":3167,"Ġrobot":3168,"Ġreceiving":3169,"ered":3170,"Ġchecks":3171,"itar":3172,"Ġaz":3173,"Ġanywhere":3174,"Ġoder":3175,"ĠnÃ£o":3176,"nam":3177,"Ġtrees":3178,"Ġhier":3179,"Ġvictims":3180,"iana":3181,"Ġble":3182,"Ġtelevision":3183,"aciones":3184,"Ġfees":3185,"Ġwel":3186,"aga":3187,"Ġhappening":3188,"iden":3189,"Ġhasn":3190,"nen":3191,"Ġpaying":3192,"Ġarrested":3193,"abb":3194,"alo":3195,"vol":3196,"uh":3197,"mente":3198,"imm":3199,"what":3200,"eur":3201,"Ġsind":3202,"aya":3203,"Ġdogs":3204,"Ġdelivered":3205,"à¥":3206,"ĠSyria":3207,"ring":3208,"Ġwerden":3209,"Ġmachines":3210,"ĠStock":3211,"Ãµes":3212,"ÙĪ":3213,"agra":3214,"ova":3215,"ĠsiÄĻ":3216,"Ġvotes":3217,"Help":3218,"aza":3219,"ĠÃ¤":3220,"Ġlights":3221,"aman":3222,"Ġminister":3223,"Ġnombre":3224,"zo":3225,"Ġgest":3226,"Ġbomb":3227,"sup":3228,"Ġindustrial":3229,"Ġni":3230,"Ġba":3231,"Ġmad":3232,"ìĿ´":3233,"itÃ©":3234,"iente":3235,"Ġemergency":3236,"æĪĲ":3237,"Ġbodies":3238,"Ġsky":3239,"Could":3240,"Ġhurt":3241,"Ġplanned":3242,"oment":3243,"dim":3244,"Ġvoor":3245,"Ġsolar":3246,"ĠØ§":3247,"Ġbike":3248,"aÃ§Ã£o":3249,"har":3250,"Ġhits":3251,"ĠâĤ¬":3252,"ĠVirginia":3253,"Ġassistance":3254,"Ġboys":3255,"Ġtech":3256,"iel":3257,"Ð¾ÑĤ":3258,"Ġmeat":3259,"Hi":3260,"åĲį":3261,"ĠÐ½Ð°":3262,"iano":3263,"ÐµÐ´":3264,"Ġtid":3265,"ÐºÐ°":3266,"Ġshouldn":3267,"ëĭ¤":3268,"Ġrepeat":3269,"uten":3270,"Ġcalendar":3271,"Ġstrike":3272,"orem":3273,"Ġgang":3274,"Ġaccused":3275,"Ġdire":3276,"isi":3277,"Ġtur":3278,"Ġpulled":3279,"ego":3280,"Ġshares":3281,"Ġrig":3282,"asse":3283,"Ġholiday":3284,"Ġbei":3285,"Ġchecking":3286,"Ġjest":3287,"Ġsole":3288,"bal":3289,"Ġpresidential":3290,"Ø¯":3291,"aka":3292,"stra":3293,"æĹ¶":3294,"idos":3295,"Ġstands":3296,"Ġafternoon":3297,"Ġik":3298,"lag":3299,"Ġwie":3300,"ĠAustralian":3301,"ĠSW":3302,"Ġlimits":3303,"Ġarmy":3304,"uma":3305,"Ġkan":3306,"Ġpowers":3307,"Ġtalks":3308,"iest":3309,"Ġstorm":3310,"onna":3311,"fall":3312,"owa":3313,"brand":3314,"agues":3315,"Ð¸Ñģ":3316,"Ġga":3317,"Ġcha":3318,"aten":3319,"Ġya":3320,"Ġsolo":3321,"Ġgi":3322,"zie":3323,"Ġscheduled":3324,"aha":3325,"Ġgarden":3326,"anto":3327,"iar":3328,"Ġty":3329,"idades":3330,"Ġkeeps":3331,"ori":3332,"Ġkeyboard":3333,"Ġyesterday":3334,"Ð½Ð¾":3335,"Ġnoticed":3336,"Ð»Ñı":3337,"Ã©es":3338,"Ġglo":3339,"Ġze":3340,"bat":3341,"apis":3342,"Ġmg":3343,"Ġyellow":3344,"Ġopposition":3345,"Ã©r":3346,"Ð¾Ð±":3347,"Ġreact":3348,"cz":3349,"ĠÃ¼ber":3350,"lar":3351,"het":3352,"erte":3353,"Ġbedroom":3354,"Ġdw":3355,"ĠFBI":3356,"dm":3357,"Ġdinner":3358,"Ġbrown":3359,"erto":3360,"icion":3361,"Ġvor":3362,"Ġtracks":3363,"cht":3364,"ĠÑĥ":3365,"aller":3366,"Ġreceiver":3367,"ques":3368,"Ã¤r":3369,"oda":3370,"Ġrum":3371,"Ð°Ð½Ð¸":3372,"aylor":3373,"Ã¤t":3374,"Ġnach":3375,"ashes":3376,"ĠÐ±":3377,"awa":3378,"ĠBush":3379,"Ġbid":3380,"Ġlista":3381,"Ġtransactions":3382,"Ġhabit":3383,"eden":3384,"Ġaircraft":3385,"Ġinstrument":3386,"Ġot":3387,"ijn":3388,"Ġpayments":3389,"Ð½Ð°":3390,"Ġtan":3391,"ä»¶":3392,"oli":3393,"Ġcrazy":3394,"IFT":3395,"Øª":3396,"ĠChief":3397,"Ġelectronic":3398,"erd":3399,"Ġbien":3400,"Ġcutting":3401,"bra":3402,"will":3403,"Ġwet":3404,"Ġges":3405,"Black":3406,"erring":3407,"Google":3408,"Ġgear":3409,"las":3410,"Ð¾Ð³":3411,"icide":3412,"Ġreprodu":3413,"Ġont":3414,"Ġly":3415,"Ġtwe":3416,"Ġchose":3417,"ÙĬ":3418,"ucc":3419,"Ġanymore":3420,"chi":3421,"seg":3422,"who":3423,"aki":3424,"mal":3425,"iten":3426,"Ġhang":3427,"ãģĹ":3428,"Ġza":3429,"Ġbreaking":3430,"Ġpurchased":3431,"Ð¾Ðº":3432,"Ġhal":3433,"atin":3434,"lower":3435,"Ġpag":3436,"ä¸Ģ":3437,"Ġhell":3438,"sim":3439,"Ġsont":3440,"para":3441,"Ġriver":3442,"Ġwithdraw":3443,"Ġwins":3444,"Ġdenied":3445,"Ġwird":3446,"ouver":3447,"Ġbis":3448,"Ġsuddenly":3449,"Ġao":3450,"Ġtracking":3451,"Ġbathroom":3452,"ĠÄĳ":3453,"Ġsoldiers":3454,"ĠEgypt":3455,"è¯·":3456,"Ġstrange":3457,"program":3458,"een":3459,"Ġà¤":3460,"Ã¹":3461,"Ġdass":3462,"ÐµÐº":3463,"Ġhouses":3464,"don":3465,"azione":3466,"Ġkil":3467,"ĠHospital":3468,"Ġwallet":3469,"Ġactivation":3470,"Ġcuts":3471,"ahr":3472,"Ġincorrect":3473,"Ġliv":3474,"Ġra":3475,"mu":3476,"Ġsobre":3477,"Ġesta":3478,"Ġwake":3479,"cker":3480,"Ġfunny":3481,"icas":3482,"Who":3483,"Ġbirthday":3484,"weather":3485,"Ġsuspect":3486,"Ġmarch":3487,"Ġhorse":3488,"Ġdella":3489,"amer":3490,"Ġprocessed":3491,"Ġko":3492,"Ġrein":3493,"Ġbir":3494,"Ã§Ãµes":3495,"iller":3496,"Ġdance":3497,"iami":3498,"Ġdar":3499,"Ġbow":3500,"ĠPosted":3501,"Ġpending":3502,"Ġrecognize":3503,"lica":3504,"ãģ¯":3505,"ede":3506,"Ġboat":3507,"Ġcarrying":3508,"anti":3509,"Ġgal":3510,"Ð³":3511,"dam":3512,"tele":3513,"Ġlawyer":3514,"iso":3515,"asa":3516,"Ġeinen":3517,"ĠestÃ¡":3518,"antes":3519,"Ġshirt":3520,"Ġsupporters":3521,"Ġtodos":3522,"Ġdont":3523,"Ġinjured":3524,"Ġses":3525,"amar":3526,"Ġeu":3527,"Ġrestaurants":3528,"tw":3529,"nl":3530,"Å¼e":3531,"ellen":3532,"ãĥ³":3533,"Ġstuck":3534,"uni":3535,"ghan":3536,"Ġkann":3537,"Ġgran":3538,"Ġbat":3539,"ãģ®":3540,"Ġlunch":3541,"sten":3542,"Ġcleaning":3543,"best":3544,"Ð°Ðº":3545,"Ġjoy":3546,"omo":3547,"zed":3548,"ĠIsraeli":3549,"People":3550,"acht":3551,"ä¸Ń":3552,"Ð°Ð»":3553,"Ġelections":3554,"Ġbread":3555,"Ġnod":3556,"Ġguilty":3557,"Ġrose":3558,"ieren":3559,"yo":3560,"Ġzum":3561,"Ġrefused":3562,"isch":3563,"Ã¼n":3564,"urd":3565,"Ð¸Ð¼":3566,"Ġsalary":3567,"bul":3568,"Ġwir":3569,"Ä±n":3570,"was":3571,"Ġfraud":3572,"ĠKorean":3573,"Ġore":3574,"Ùĩ":3575,"Ġchicken":3576,"ãģ§":3577,"Ġthousand":3578,"íķĺ":3579,"union":3580,"iy":3581,"atan":3582,"Ġìŀ":3583,"Ġmeetings":3584,"Ġmountain":3585,"Ġpounds":3586,"Ġflying":3587,"uno":3588,"emen":3589,"Ð¾Ð¹":3590,"Ġgit":3591,"Ġpenalty":3592,"Ġgrass":3593,"Ġai":3594,"Ġchip":3595,"aco":3596,"Ġnam":3597,"yal":3598,"Ġcant":3599,"Ġka":3600,"ĠCould":3601,"Ġmistake":3602,"ä¸į":3603,"Ġdeposit":3604,"Ġkon":3605,"iga":3606,"wan":3607,"ëĬĶ":3608,"orte":3609,"enta":3610,"Ġtomorrow":3611,"ãģĦ":3612,"Ġwy":3613,"Ġjet":3614,"enz":3615,"Ġalarm":3616,"æĸ°":3617,"wi":3618,"Ã©m":3619,"ĠPakistan":3620,"inois":3621,"Ġnations":3622,"inen":3623,"Ã¡t":3624,"ãģ¾":3625,"nh":3626,"ahl":3627,"Ġairport":3628,"Ġmai":3629,"hu":3630,"æĸĩ":3631,"ÐºÐ¸":3632,"ĠìĿ":3633,"erk":3634,"Ġvice":3635,"iste":3636,"Ġê°":3637,"ĠAfghan":3638,"Ġini":3639,"Ġlady":3640,"Ġquit":3641,"oca":3642,"activate":3643,"Ġrestrictions":3644,"ä¸ĭ":3645,"Ġtroops":3646,"Ġokay":3647,"ĠÃ¶":3648,"Ġautomatic":3649,"Ð¶":3650,"Ġguitar":3651,"Ġgotten":3652,"Ð¾Ð»ÑĮ":3653,"iert":3654,"Ġeiner":3655,"Ġtwenty":3656,"Ġsettlement":3657,"iza":3658,"aca":3659,"Ġade":3660,"Ġnome":3661,"Ġnas":3662,"Ġcheese":3663,"ĠØ§ÙĦ":3664,"ÐµÐ½Ð¸Ðµ":3665,"åĪĨ":3666,"Ġattempted":3667,"ãģĻ":3668,"onde":3669,"Ġger":3670,"åħ¥":3671,"Ð°ÑĢ":3672,"aires":3673,"ĠÑĩ":3674,"Ġzur":3675,"Ð¾Ð½":3676,"'est":3677,"Ġak":3678,"Ġgenre":3679,"Ġarrive":3680,"switch":3681,"äºº":3682,"Ġalg":3683,"Ġloud":3684,"ë¡ľ":3685,"eren":3686,"ĠExpress":3687,"Ġeinem":3688,"ä¸Ĭ":3689,"Ã§a":3690,"google":3691,"Ġgray":3692,"Ġrejected":3693,"ĠÑĦ":3694,"Ġbrill":3695,"ĠãĤ":3696,"Ġforecast":3697,"tery":3698,"Ġws":3699,"Ġhaben":3700,"Ġappointment":3701,"kel":3702,"Ġhay":3703,"Ġeuro":3704,"ĠÐ¿Ð¾":3705,"ĠSpain":3706,"Ġdollar":3707,"Ġfifth":3708,"Ġdecline":3709,"ä¸º":3710,"Ġdia":3711,"ischen":3712,"este":3713,"dit":3714,"Ð°Ð²":3715,"Ð¸ÑĤÑĮ":3716,"Ġnoch":3717,"Ġmusical":3718,"Ġoc":3719,"Ġworried":3720,"Ġgel":3721,"Ġgut":3722,"ĠGreek":3723,"ìĿĦ":3724,"Ġspokesman":3725,"Ġub":3726,"Ġtonight":3727,"Ġdining":3728,"arga":3729,"Ġocean":3730,"Ð°Ñģ":3731,"Ġcz":3732,"åı·":3733,"Ð°ÑĤÑĮ":3734,"Ġdesk":3735,"Ġfel":3736,"Ġpes":3737,"Ġtut":3738,"Ġsouthern":3739,"ĠÃ§":3740,"ĠÑĢ":3741,"Ġtak":3742,"Ġprogramme":3743,"ĠSyrian":3744,"Ġhip":3745,"Ġsuicide":3746,"Ġdent":3747,"Ġgained":3748,"Ġbom":3749,"Ġnorthern":3750,"Ġcollapse":3751,"ĠKong":3752,"Ġpert":3753,"Ġpink":3754,"Ã±os":3755,"Ġfer":3756,"robot":3757,"Ġpu":3758,"Ġjed":3759,"apa":3760,"Ã±a":3761,"ĠÑģÑĤ":3762,"Ġagenda":3763,"ë¥¼":3764,"Ġfu":3765,"Ġaan":3766,"Ġcancell":3767,"ÅĽci":3768,"Ġzijn":3769,"ÐµÐ½Ð¸Ñı":3770,"åľ¨":3771,"Ġwestern":3772,"Ã©l":3773,"cancel":3774,"Ġmehr":3775,"Ð°Ð¹":3776,"there":3777,"zens":3778,"Ġorange":3779,"Ġìł":3780,"Ġspeaker":3781,"Ġpron":3782,"à¹Ī":3783,"angan":3784,"Ġegg":3785,"ĠÐ½Ðµ":3786,"Hey":3787,"Ð°Ð·":3788,"Ġvend":3789,"ÐµÐ½ÑĤ":3790,"Ġwarned":3791,"ĠÃ¡":3792,"ĠExchange":3793,"uar":3794,"iu":3795,"ijk":3796,"ĠUkraine":3797,"Ġdeclined":3798,"Ġgym":3799,"æľī":3800,"Ġdil":3801,"iere":3802,"Ġfest":3803,"Ã©g":3804,"Ġay":3805,"cow":3806,"Ð¸Ð½":3807,"ä¸ª":3808,"eye":3809,"immer":3810,"Ã¡l":3811,"Ġny":3812,"Ġcrypto":3813,"aja":3814,"edi":3815,"Ġfloating":3816,"walk":3817,"vez":3818,"Ð°Ð¿":3819,"Ġrecall":3820,"pot":3821,"Ġgolf":3822,"ÅĦ":3823,"anie":3824,"aug":3825,"ãģ¨":3826,"kk":3827,"Ġbowl":3828,"Ġrally":3829,"sal":3830,"Ġreleases":3831,"akan":3832,"Ġgarage":3833,"det":3834,"vere":3835,"Ġblocked":3836,"atas":3837,"Ġsein":3838,"ÑĦ":3839,"Ġcow":3840,"Stock":3841,"Ġig":3842,"ackson":3843,"ìĹĲ":3844,"Ġjak":3845,"Ġsab":3846,"ulus":3847,"uesta":3848,"Ġfaire":3849,"Ġye":3850,"hor":3851,"Ġnin":3852,"ĠUSD":3853,"Ġuntuk":3854,"Ġplug":3855,"Three":3856,"bu":3857,"Ð¾Ð·":3858,"Ġrice":3859,"ãģ«":3860,"ãĥĪ":3861,"Ġfrozen":3862,"Ġfait":3863,"arma":3864,"Ġmeng":3865,"ÑĢÑĥ":3866,"Ã¡rio":3867,"Ġgrey":3868,"Ġties":3869,"Ġriding":3870,"arte":3871,"à¹ī":3872,"ĠÐ´Ð»Ñı":3873,"enden":3874,"mir":3875,"rac":3876,"ê°Ģ":3877,"ei":3878,"egen":3879,"Ġmont":3880,"Ġmeets":3881,"Ġsucc":3882,"eling":3883,"Ġcette":3884,"Ø³":3885,"Ġjam":3886,"via":3887,"iÃ¨re":3888,"Ġbra":3889,"eu":3890,"Ġrib":3891,"Ġhaz":3892,"Ġvacation":3893,"elo":3894,"à¸Ļ":3895,"cu":3896,"Ã§o":3897,"igg":3898,"åĩº":3899,"Ġprecis":3900,"xit":3901,"ĠÐ¾ÑĤ":3902,"Ġactivate":3903,"rij":3904,"Ġwondering":3905,"mad":3906,"Ġnh":3907,"zn":3908,"Ġbil":3909,"ibt":3910,"pes":3911,"ĠÐ°":3912,"ìĿĺ":3913,"æĺ¯":3914,"Ġdengan":3915,"mont":3916,"Ġfare":3917,"Ġlying":3918,"æĹ¶éĹ´":3919,"ê¸°":3920,"sta":3921,"Ġpremier":3922,"ĠAfghanistan":3923,"Ġneu":3924,"elli":3925,"Ã³d":3926,"bre":3927,"rock":3928,"udi":3929,"enez":3930,"ÑģÑı":3931,"Ġvez":3932,"tol":3933,"Ġlaptop":3934,"jes":3935,"hang":3936,"Ġblast":3937,"iri":3938,"Ġconventional":3939,"Ġãĥ":3940,"è¡¨":3941,"éĻ¤":3942,"Ġsne":3943,"plain":3944,"zym":3945,"à¸²":3946,"oni":3947,"Ġniet":3948,"such":3949,"ĠÐ²Ñĭ":3950,"Ġsono":3951,"Ġconcert":3952,"inh":3953,"nia":3954,"uir":3955,"åĬł":3956,"Ùģ":3957,"facebook":3958,"Ġrefund":3959,"Ġtraveling":3960,"Ġsep":3961,"ÐµÐ¹":3962,"sch":3963,"Ġcondem":3964,"ĠPutin":3965,"Ġsleeping":3966,"Ġparliament":3967,"uren":3968,"itas":3969,"ĠÐ¾Ð±":3970,"bag":3971,"Ġprz":3972,"Ð¾Ð¶":3973,"Ġtrop":3974,"Ġdit":3975,"aran":3976,"Ġspeakers":3977,"ì§Ģ":3978,"Ġtoy":3979,"Ø¨":3980,"Ġfailing":3981,"etter":3982,"Ġhij":3983,"Ġknife":3984,"omi":3985,"Ġlag":3986,"Ġale":3987,"Does":3988,"nik":3989,"Ã¤h":3990,"ÅĤa":3991,"Ã¤nd":3992,"anno":3993,"Ġanniversary":3994,"Ms":3995,"Ġjoke":3996,"Â£":3997,"ãĤ¹":3998,"lichen":3999,"Ġfoi":4000,"Ġrecipient":4001,"áº£":4002,"pow":4003,"emi":4004,"illo":4005,"Ġlake":4006,"Ġdei":4007,"Ġster":4008,"ĠPalestinian":4009,"ĠStorm":4010,"ĠCorp":4011,"comb":4012,"Ġsess":4013,"Ġidentification":4014,"Ġprotests":4015,"Ġcabinet":4016,"notify":4017,"Ġvom":4018,"Ġactivated":4019,"cciÃ³n":4020,"Ġfue":4021,"Ġë°":4022,"ahan":4023,"'un":4024,"ĠÅŁ":4025,"Ġwenn":4026,"kom":4027,"Ð¾Ð³Ð¾":4028,"Ġdub":4029,"empo":4030,"ÑĢÐ°":4031,"Ġabroad":4032,"ĠÐµ":4033,"Ġiz":4034,"unden":4035,"ãģĵ":4036,"Ġceiling":4037,"Ġpassengers":4038,"Ġsoccer":4039,"ieder":4040,"strar":4041,"Ã²":4042,"Police":4043,"ikan":4044,"cou":4045,"Ġtwitter":4046,"China":4047,"à¸£":4048,"-month":4049,"Ġakt":4050,"Ġah":4051,"Ġstolen":4052,"Ġwooden":4053,"Ġstrikes":4054,"å®ļ":4055,"enti":4056,"Ġtransferred":4057,"Ġbij":4058,"Ġwalks":4059,"ÐµÑģ":4060,"Ġstocks":4061,"ÑĤÐ¸":4062,"Ġpizza":4063,"Ġmuy":4064,"Ġduplicate":4065,"iao":4066,"Ġgew":4067,"wy":4068,"Ġsoll":4069,"cion":4070,"Ġamid":4071,"Ð½Ð¸":4072,"alloween":4073,"Ġmos":4074,"Ġalla":4075,"Ġbay":4076,"Ġsinger":4077,"ĠpiÃ¹":4078,"mers":4079,"Ð¾Ñģ":4080,"Ð°Ð´":4081,"ilen":4082,"azer":4083,"Ġseller":4084,"Ġcoat":4085,"nya":4086,"Ġpac":4087,"Ġverification":4088,"ĠÃªtre":4089,"ÅĤo":4090,"did":4091,"ande":4092,"à¸Ń":4093,"Ġfacebook":4094,"lij":4095,"Ġbez":4096,"Ġsits":4097,"Ġfecha":4098,"Ġrocks":4099,"ĠÐ¸Ð·":4100,"ĠìĿ´":4101,"Which":4102,"Ġconvicted":4103,"kle":4104,"Ġkr":4105,"Ġtex":4106,"Ġterrorism":4107,"Ġpassenger":4108,"Ġeastern":4109,"Ø¹":4110,"Ġtempo":4111,"ificar":4112,"Ġwi":4113,"ìĪĺ":4114,"Ġapple":4115,"à¸±":4116,"Ġmich":4117,"Ġrip":4118,"Ġalto":4119,"åħĥ":4120,"Ġkun":4121,"ĠÅ¼e":4122,"Ã¶n":4123,"enza":4124,"ĠÙħ":4125,"Ġswimming":4126,"ÃŃs":4127,"Ġkar":4128,"nte":4129,"Ġpurchases":4130,"rod":4131,"Ã¬":4132,"iÃ©n":4133,"aku":4134,"far":4135,"íķľ":4136,"Ġresign":4137,"uli":4138,"Ġdip":4139,"ĠÃ©tÃ©":4140,"oren":4141,"Ġearnings":4142,"mitt":4143,"Ãªncia":4144,"owe":4145,"Ġwo":4146,"Ġsanctions":4147,"Ð°Ð¼":4148,"lam":4149,"Ġsuspected":4150,"åĮº":4151,"ÑĢÐ¾Ð²":4152,"à¤¾":4153,"Ġìķ":4154,"alg":4155,"Ġuno":4156,"Ġverified":4157,"itÃł":4158,"Ġhill":4159,"ĠIndonesia":4160,"Ġremind":4161,"åįķ":4162,"Ã´ng":4163,"icia":4164,"ãĥ¼ãĥ":4165,"Ġestado":4166,"è¦":4167,"anya":4168,"imos":4169,"cia":4170,"Ġauss":4171,"Ã®":4172,"Ġcamb":4173,"mul":4174,"cie":4175,"Ġri":4176,"Ġdari":4177,"ÃŃn":4178,"ãĤ¤":4179,"Ġneces":4180,"Ġdell":4181,"Ġintens":4182,"Ġcasa":4183,"Ã¨me":4184,"Ð¾ÑģÑĤ":4185,"Ġkle":4186,"atura":4187,"Ġuit":4188,"ÃŃas":4189,"umi":4190,"Ġnel":4191,"Ġpepper":4192,"Ġzw":4193,"ĠìĹ":4194,"Ġreaches":4195,"tu":4196,"Ġatomic":4197,"Ġsor":4198,"Ġcontacted":4199,"åīį":4200,"Ġdou":4201,"Ġgrande":4202,"eo":4203,"iele":4204,"ÑĤÐ¾":4205,"Ġfence":4206,"Ġaspir":4207,"ÐµÐ³":4208,"ĠÐ³":4209,"Ġdal":4210,"Ġlu":4211,"Ġtin":4212,"ãĤĵ":4213,"Ġraid":4214,"imi":4215,"Ġministry":4216,"ÅĽÄĩ":4217,"ìĬ¤":4218,"Ġpurple":4219,"Ġwars":4220,"arta":4221,"South":4222,"Ġquel":4223,"Ġsixth":4224,"Ġdispute":4225,"volume":4226,"Ġjack":4227,"æ³¨":4228,"Ġsinging":4229,"hop":4230,"lio":4231,"'a":4232,"uka":4233,"à¸ģ":4234,"ãĥĥ":4235,"hai":4236,"North":4237,"Ġmissile":4238,"Ġworkout":4239,"Ġdere":4240,"Ġpant":4241,"Ġdirt":4242,"ĠPhilippines":4243,"Ġhacer":4244,"omer":4245,"Ġdressed":4246,"ÐµÐ»ÑĮ":4247,"Ġaj":4248,"Ġbang":4249,"ĠÐ»":4250,"Ġtam":4251,"Ġsehr":4252,"Ġdeux":4253,"itos":4254,"Ġscandal":4255,"lÄ±":4256,"Ġtous":4257,"Ġpeaceful":4258,"zu":4259,"Ġcancelled":4260,"Ġkeras":4261,"ìŀĲ":4262,"Ġdz":4263,"adt":4264,"Ġprotesters":4265,"ĠElection":4266,"apat":4267,"ãģª":4268,"Ġsul":4269,"Ġfrank":4270,"Ġchi":4271,"Ġtoll":4272,"atie":4273,"Ø©":4274,"Ġmant":4275,"Ġluc":4276,"Ġmejor":4277,"Ġshuffle":4278,"umm":4279,"Ð¸ÑĤÐµ":4280,"Ġyoga":4281,"Ġtemps":4282,"guard":4283,"Ġsoldier":4284,"Ġthirty":4285,"Ġcouch":4286,"yer":4287,"kers":4288,"Ġmud":4289,"Ġros":4290,"Ġwings":4291,"Ġjacket":4292,"èĥ½":4293,"ientes":4294,"Ġwieder":4295,"reduce":4296,"Ġpiano":4297,"à¸¡":4298,"å¤§":4299,"ĠprÃ©":4300,"Ġrepet":4301,"Ġcuando":4302,"onn":4303,"åº¦":4304,"wal":4305,"Ġmatt":4306,"die":4307,"etta":4308,"Ġreminder":4309,"Ġfavorites":4310,"keit":4311,"Ð°Ð½Ð¸Ðµ":4312,"hub":4313,"ahu":4314,"ìĦľ":4315,"ìļ©":4316,"Ġdrone":4317,"Ġamer":4318,"Ġholy":4319,"tar":4320,"-ups":4321,"Ġautor":4322,"Ġdiese":4323,"Ġplaylist":4324,"ÃŁen":4325,"Ġbroader":4326,"Ġek":4327,"iem":4328,"unda":4329,"Ġmim":4330,"Ð°ÐµÑĤ":4331,"åĪ°":4332,"Ġbew":4333,"Ġjou":4334,"Four":4335,"Ġdelle":4336,"inde":4337,"ÑĢÐ°Ð²":4338,"Ð¸Ð²":4339,"ĠÐ¿ÐµÑĢ":4340,"Ãªn":4341,"su":4342,"does":4343,"éĿ¢":4344,"mel":4345,"ĠPIN":4346,"Ġprisoners":4347,"Ð°Ð½Ð½Ñĭ":4348,"oso":4349,"bang":4350,"Ġyoutube":4351,"oko":4352,"Ġkur":4353,"Ġtidak":4354,"zÄħ":4355,"nych":4356,"Ġgibt":4357,"Ġlub":4358,"zel":4359,"ĠIranian":4360,"dem":4361,"Ġreversed":4362,"çĤ¹":4363,"Ġcerca":4364,"Ġook":4365,"ÙĤ":4366,"Ġwounded":4367,"ropa":4368,"Ġbacks":4369,"Ġgra":4370,"ãģŁ":4371,"erek":4372,"Ġpeu":4373,"Ġindia":4374,"Ġcomposite":4375,"ukan":4376,"Ġhabe":4377,"ĠìĦ":4378,"ĠØ¨":4379,"arak":4380,"à¹Ģ":4381,"Ġexpires":4382,"ingen":4383,"anh":4384,"Ġalgo":4385,"Ġgli":4386,"Ġfolk":4387,"uter":4388,"Ġlamp":4389,"Ġdancing":4390,"Would":4391,"Ġcommander":4392,"anche":4393,"ë¦¬":4394,"Ð»ÑĮ":4395,"Ġsar":4396,"icher":4397,"Ġdag":4398,"could":4399,"amas":4400,"ãĤ¯":4401,"kar":4402,"Ð¾Ð¿":4403,"ĠNigeria":4404,"Ġunited":4405,"ãģĮ":4406,"Ġvacuum":4407,"Ġsang":4408,"ativo":4409,"Ġnuevo":4410,"Ġlig":4411,"à¸µ":4412,"å¼ı":4413,"Ġmundo":4414,"Ġdisappeared":4415,"Ð°ÑģÑģ":4416,"Ġbell":4417,"ufen":4418,"Ġcivilians":4419,"ussia":4420,"Ġsta":4421,"ĠÐ¿Ð¾Ð»":4422,"gd":4423,"Ġforgot":4424,"åĪłéĻ¤":4425,"anan":4426,"íĬ¸":4427,"ĠGaza":4428,"ichten":4429,"ĠìĪĺ":4430,"Ġtiempo":4431,"ëł¥":4432,"ĠcÃ³":4433,"ÑĤÑĮ":4434,"Ġkills":4435,"Ġbeste":4436,"Ġclassical":4437,"ibo":4438,"gel":4439,"Ġdich":4440,"unde":4441,"Ġìĭ":4442,"onne":4443,"Ġfich":4444,"Ġdla":4445,"Ġexchanges":4446,"Ġjumping":4447,"Ġwat":4448,"Ġmie":4449,"Ġabb":4450,"Ġcaf":4451,"Ġdorm":4452,"Ġsentenced":4453,"Ġgeb":4454,"Ġnaj":4455,"esta":4456,"ĠÅĽ":4457,"ãģĨ":4458,"orie":4459,"Ġdurante":4460,"Ä±r":4461,"ĠNATO":4462,"Ġmerchant":4463,"åħ³":4464,"éĩį":4465,"ãĤĭ":4466,"Ġprog":4467,"uchar":4468,"ìłķ":4469,"ĠprÃ³":4470,"ìĭľ":4471,"Ã¡c":4472,"ëĵľ":4473,"Ġslim":4474,"Ġswift":4475,"ÑĪÐ¸":4476,"ãĤĴ":4477,"zeit":4478,"ÃŃc":4479,"Ġpom":4480,"ifica":4481,"åľ°":4482,"ãģĤ":4483,"Ġyo":4484,"ÅĤy":4485,"Mal":4486,"à¥į":4487,"ĠsÃ£o":4488,"hir":4489,"è®¾":4490,"zione":4491,"æĮ":4492,"Ġgeh":4493,"Ġquando":4494,"ãģķ":4495,"çĽ®":4496,"Ġwithdrawal":4497,"å¼Ģ":4498,"ĠÐ·Ð°Ð¿":4499,"Ġdalam":4500,"adora":4501,"Ġgust":4502,"ØŃ":4503,"äºĭ":4504,"Ġnaar":4505,"Ġamended":4506,"Ġfreeze":4507,"uelle":4508,"Ġric":4509,"æ¯":4510,"Ġvessels":4511,"Ġhav":4512,"ÑħÐ¾Ð´":4513,"'une":4514,"please":4515,"Ġpound":4516,"bol":4517,"Ġheadlines":4518,"Ġtodas":4519,"ÑĢÐ¸":4520,"today":4521,"Ġmomento":4522,"Ġrim":4523,"fÃ¼":4524,"Ġworden":4525,"Ð½Ð°Ñĩ":4526,"Ġcents":4527,"Ġtoe":4528,"Ġwil":4529,"kie":4530,"ãĤĬ":4531,"Ð»Ð°":4532,"hole":4533,"à¸ĩ":4534,"Ã¨res":4535,"quant":4536,"à¥įà¤":4537,"Ġë³":4538,"Ġpartir":4539,"è¦ģ":4540,"Ġrab":4541,"Ġlecture":4542,"Ġtransfers":4543,"Ġtres":4544,"repeat":4545,"Ġgarlic":4546,"kh":4547,"'Ã©":4548,"eri":4549,"å°ı":4550,"arÃ¡":4551,"oka":4552,"zw":4553,"à¸´":4554,"Ġile":4555,"Ġprzy":4556,"æĺİ":4557,"Ġdieser":4558,"ãĥ©":4559,"ãģĭ":4560,"Ġsofa":4561,"Ùĥ":4562,"ìĸ´":4563,"Ġdod":4564,"Ġverw":4565,"ç½ĳ":4566,"music":4567,"Ġrides":4568,"æľĢ":4569,"anic":4570,"Ġket":4571,"ìĿ¸":4572,"Ø§ÙĦ":4573,"à¤¾à¤":4574,"ĠÃºlt":4575,"Ġvic":4576,"zm":4577,"Ġsous":4578,"åĻ¨":4579,"Ġlam":4580,"aggi":4581,"Ġbor":4582,"azioni":4583,"Ġfuse":4584,"chied":4585,"Ġpopul":4586,"Ġcanada":4587,"à¸¥":4588,"zes":4589,"Ġmenos":4590,"Ġpada":4591,"æīĢ":4592,"uti":4593,"Ġcleaner":4594,"ÐµÐ·":4595,"Ġsla":4596,"Ġsheep":4597,"gra":4598,"Ġlun":4599,"ucht":4600,"ìĿ¼":4601,"Ġdre":4602,"Ġolive":4603,"ĠìĤ¬":4604,"Ġsau":4605,"Ġange":4606,"Ġbrightness":4607,"ijd":4608,"ãģĬ":4609,"elijk":4610,"alan":4611,"ë©´":4612,"Ġparas":4613,"æ¶Ī":4614,"prime":4615,"aÃ±":4616,"ãĤī":4617,"Ġfifty":4618,"ãģ¾ãģĻ":4619,"tro":4620,"Ã¶s":4621,"quier":4622,"Ä±ÅŁ":4623,"Ġchina":4624,"Ġexpire":4625,"Ġavant":4626,"æ¬¡":4627,"ãĥ«":4628,"ÐµÐ²":4629,"æľº":4630,"å¯¹":4631,"Ġakan":4632,"ĠYemen":4633,"ischer":4634,"Ġmam":4635,"Ġups":4636,"éĩı":4637,"usk":4638,"Ø´":4639,"ìĦ±":4640,"Ġjan":4641,"ellt":4642,"æŁ¥":4643,"ĠserÃ¡":4644,"Ġliste":4645,"éĥ¨":4646,"Ġzap":4647,"Ð¸Ñĩ":4648,"Ġë§":4649,"orum":4650,"Ġhast":4651,"azar":4652,"ÑĥÑİ":4653,"'ai":4654,"emu":4655,"esi":4656,"Ø¬":4657,"åĴĮ":4658,"æĽ´":4659,"eni":4660,"ĠPalestinians":4661,"ĠiÃ§in":4662,"izi":4663,"Ġmall":4664,"Ġnog":4665,"ilio":4666,"Ġantes":4667,"Ġmodo":4668,"Ġmissiles":4669,"enen":4670,"spe":4671,"acji":4672,"Ð°Ð³":4673,"Ġrope":4674,"Ġcanceled":4675,"åĲİ":4676,"á»ĥ":4677,"Ġquesto":4678,"Ġtrafficking":4679,"inta":4680,"Ġmetro":4681,"Ð½ÑĭÐ¹":4682,"Israel":4683,"Ġnad":4684,"India":4685,"Ġkam":4686,"Ġurgent":4687,"Ġker":4688,"ìĿĢ":4689,"Ġmuito":4690,"kat":4691,"Ãºs":4692,"uche":4693,"ĠÑģÐ¾":4694,"íĦ°":4695,"íķ´":4696,"Ġjazz":4697,"Ġpon":4698,"ĠmÃ©d":4699,"-me":4700,"Ð¸ÑģÑĤ":4701,"Ġhora":4702,"ladesh":4703,"dar":4704,"Ġëĭ":4705,"emas":4706,"äºĨ":4707,"Ġjumps":4708,"iamo":4709,"Ġdeze":4710,"'il":4711,"éĩĳ":4712,"Ġada":4713,"Ġestar":4714,"Ġessere":4715,"Ġstatue":4716,"Ð¾Ð·Ð´":4717,"Ġmotorcycle":4718,"åįĪ":4719,"Ġsept":4720,"Ġprend":4721,"à¥ĩ":4722,"ê³ł":4723,"Ġbog":4724,"voir":4725,"à¸¢":4726,"Ġsempre":4727,"ÑĢÐ°Ð½":4728,"ÑĭÐ¹":4729,"why":4730,"Ġsap":4731,"Ġsera":4732,"Ġreun":4733,"Ġlaying":4734,"Sy":4735,"tron":4736,"agnitude":4737,"íĺ":4738,"Several":4739,"ĠÑģÐ»":4740,"sil":4741,"Ġhace":4742,"Ġspraw":4743,"ĠdÃŃa":4744,"das":4745,"leur":4746,"Ġbicycle":4747,"ìĺ":4748,"Ġcuisine":4749,"iek":4750,"Ġhelicopter":4751,"Ø§Ø±":4752,"zenia":4753,"Ġdefin":4754,"Ġdentro":4755,"Ġmuss":4756,"ĠmÃ©t":4757,"dan":4758,"Ġbob":4759,"Ã¡m":4760,"Ø®":4761,"ÐºÑĥ":4762,"ellij":4763,"Ġsore":4764,"atu":4765,"jÄĻ":4766,"Ġprima":4767,"Ġrebel":4768,"atro":4769,"ĠìŀĪ":4770,"Ġkal":4771,"zig":4772,"Ð°Ñı":4773,"Ð¾ÑĤÐ¾ÑĢ":4774,"Ġê°Ģ":4775,"kal":4776,"hey":4777,"Ġcurrencies":4778,"wart":4779,"Ġespa":4780,"Ġrebels":4781,"otto":4782,"Ġsuis":4783,"èģ":4784,"à¸ª":4785,"Ð²ÐµÐ´":4786,"ãģł":4787,"Ġitu":4788,"ìļĶ":4789,"å¤©":4790,"Ġdern":4791,"osto":4792,"nej":4793,"ĠaÃ±o":4794,"à¸Ĺ":4795,"Ġmismo":4796,"ÑĥÐ´":4797,"Ġnella":4798,"arto":4799,"æĪĳ":4800,"Ġczy":4801,"Ġalles":4802,"Ãªte":4803,"Ġdivert":4804,"Ġcricket":4805,"Ġìłķ":4806,"Ġsmiling":4807,"Ġviel":4808,"Ġcollar":4809,"vor":4810,"Ġcrashes":4811,"à¸ļ":4812,"ä»Ĭ":4813,"ÐµÑģÑĤ":4814,"Ġfois":4815,"Ġbak":4816,"ĠÐ¿ÑĢÐ¸":4817,"Ġì¶":4818,"Ġbombing":4819,"ardi":4820,"æĿ¥":4821,"mini":4822,"Su":4823,"Ġnag":4824,"anson":4825,"è¯´":4826,"atorio":4827,"éĢģ":4828,"ĠKenya":4829,"ÑĤÐ¾ÑĢ":4830,"Ġpeng":4831,"richt":4832,"Ġbud":4833,"ãĥª":4834,"Ġdiesem":4835,"Ð»Ñİ":4836,"elles":4837,"Ġauthorize":4838,"Ãªs":4839,"jÄħ":4840,"Ġkay":4841,"owy":4842,"iÃŁ":4843,"charged":4844,"Ġëª":4845,"alu":4846,"ä¼ļ":4847,"Ġsext":4848,"Ġnueva":4849,"Five":4850,"à¸Ķ":4851,"ãģ¦":4852,"nehmen":4853,"Ġìľ":4854,"Ġfaz":4855,"Ġlaunches":4856,"ìłľ":4857,"ĠEUR":4858,"ĠsÄħ":4859,"zent":4860,"ãĥ¼ãĤ":4861,"Ġrises":4862,"ĠëĤ":4863,"à¸§":4864,"rir":4865,"Originally":4866,"Ġwaar":4867,"Ä±m":4868,"Ġearthquake":4869,"Ġonion":4870,"Ġbrit":4871,"Ð¾Ñĩ":4872,"ichte":4873,"Ġwit":4874,"ologie":4875,"Ġheeft":4876,"Ä±nÄ±":4877,"ÑĥÑĤ":4878,"ĠÙĪ":4879,"Ġeurope":4880,"ãģ§ãģĻ":4881,"Ð°Ð¶":4882,"ĠrÃ©g":4883,"obre":4884,"Ð°Ð±":4885,"Ġprzez":4886,"licht":4887,"ĠÐ±Ñĭ":4888,"á»Ļ":4889,"Ġjetzt":4890,"ÑĢÐ°Ð¼":4891,"agar":4892,"Ð¸Ðº":4893,"mus":4894,"Ġonder":4895,"affe":4896,"Ġmonde":4897,"Ġverg":4898,"Ġvind":4899,"Ð¼ÐµÐ½":4900,"dz":4901,"Ġmachen":4902,"Ġtreaty":4903,"ĠlÃł":4904,"ĠÃ§a":4905,"Ġklass":4906,"Ġmeer":4907,"ologia":4908,"æºĲ":4909,"Ġpak":4910,"Ġano":4911,"Ð°Ð»ÑĮ":4912,"èī²":4913,"Ġblanket":4914,"Ġtrump":4915,"yi":4916,"æĻĤ":4917,"iÃ§Ã£o":4918,"ĠÑĨ":4919,"ycz":4920,"Ġìŀħ":4921,"Ð°Ð½Ð¸Ñı":4922,"ambah":4923,"Ġtrabajo":4924,"ĠNas":4925,"Ġmemb":4926,"Ġlamb":4927,"Ġnovo":4928,"Ġmilitants":4929,"Ġatau":4930,"Ġtym":4931,"ĠÑĢÐ°Ð·":4932,"Ġneue":4933,"zenie":4934,"ĠatÃ©":4935,"ĠBangladesh":4936,"ç¨ĭ":4937,"Ġìĺ":4938,"posta":4939,"Ä±nda":4940,"Ġmonkey":4941,"Ġpotato":4942,"ãĥ¡":4943,"ãĤ¢":4944,"Ã©tÃ©":4945,"Ġpoco":4946,"Ð½Ð¾Ð³Ð¾":4947,"Ġpasse":4948,"EU":4949,"essen":4950,"ãģĹãģ¦":4951,"Ġavoir":4952,"Ãªm":4953,"Ġfox":4954,"à¤¿":4955,"emente":4956,"Ġville":4957,"Ð½Ð¾Ð¹":4958,"Ġhoras":4959,"Ġdesp":4960,"Ġhue":4961,"sess":4962,"Ġwonders":4963,"pod":4964,"ÑĥÐ¼":4965,"chet":4966,"Ð¸Ñı":4967,"Ð½Ñı":4968,"spi":4969,"å½ĵ":4970,"à¸«":4971,"nement":4972,"iman":4973,"Death":4974,"Ġgeht":4975,"ĠLebanon":4976,"istani":4977,"Ġciudad":4978,"Ġwont":4979,"Ø§ÙĨ":4980,"Ġyap":4981,"ĠØª":4982,"ppo":4983,"Ġvai":4984,"Ð´Ð°":4985,"Ġstole":4986,"Åº":4987,"orgen":4988,"Ġjohn":4989,"Ġtoutes":4990,"Ø²":4991,"Ġsunny":4992,"god":4993,"kont":4994,"Ġsalon":4995,"ĠÐ¿Ð¾Ð´":4996,"Ġpla":4997,"Ġetwas":4998,"bucks":4999,"elim":5000,"Ġtopped":5001,"Ġfazer":5002,"à¸ķ":5003,"Ġclash":5004,"rina":5005,"Ġbisa":5006,"Ġmoi":5007,"rais":5008,"visions":5009,"endi":5010,"Ġlust":5011,"Ġlandlord":5012,"Ġlum":5013,"Ġtoda":5014,"ĠÐ¿ÑĢÐ¾":5015,"utar":5016,"Ġmesmo":5017,"Ġwordt":5018,"Ġlis":5019,"ìļ°":5020,"Ġlok":5021,"Ġusu":5022,"Ġana":5023,"à¸Ħ":5024,"Ġdias":5025,"inform":5026,"Tell":5027,"Ġzwei":5028,"Ġwt":5029,"inz":5030,"Ġnova":5031,"Ġjul":5032,"åĳ¨":5033,"Ġinterim":5034,"ĠComposite":5035,"ãĤ°":5036,"ĠTaliban":5037,"Ġelf":5038,"uales":5039,"Ġê¸":5040,"Ð¸Ð·":5041,"Ġaument":5042,"lez":5043,"äºĮ":5044,"xo":5045,"Ġtecn":5046,"ìŀ¥":5047,"Ġparis":5048,"ĠÃ³":5049,"Ġatual":5050,"awi":5051,"Ġcentro":5052,"Ä±k":5053,"Ġcafe":5054,"Ġcet":5055,"ĠÐ¸Ð½":5056,"Ġsaber":5057,"Ġtomato":5058,"ĠaprÃ¨s":5059,"Ġdok":5060,"Ġdib":5061,"Ġfilme":5062,"Ġsidewalk":5063,"à¸·":5064,"pas":5065,"Ġrevert":5066,"stell":5067,"Ġteng":5068,"Ġgez":5069,"adir":5070,"vim":5071,"Ġmein":5072,"ìĦ¸":5073,"Ġgospel":5074,"izaciÃ³n":5075,"Ġpunto":5076,"Ġpend":5077,"ãĥŃ":5078,"Ġdatum":5079,"Ġquand":5080,"à¸¹":5081,"Øµ":5082,"ĠpaÃŃs":5083,"ë³´":5084,"Ġtravail":5085,"iona":5086,"aan":5087,"ÃŃo":5088,"Ġpendant":5089,"Ġmilano":5090,"Ġese":5091,"acz":5092,"ĠestÃ¡n":5093,"ĠktÃ³ry":5094,"rek":5095,"amba":5096,"amat":5097,"quel":5098,"Ġgeld":5099,"Ġbah":5100,"Ġviele":5101,"ìľ¼ë¡ľ":5102,"ë²Ī":5103,"Ð°ÑĤÐ°":5104,"uw":5105,"ĠhÃ¡":5106,"Ġsei":5107,"å¤ļ":5108,"Ġtelefon":5109,"Ġreddit":5110,"ÑĥÑī":5111,"Ġparked":5112,"Ġdiz":5113,"ĠquÃ©":5114,"à¤¿à¤":5115,"nde":5116,"Ġnouveau":5117,"Ġconfirms":5118,"uci":5119,"ĠDow":5120,"Ġiphone":5121,"rÃ©":5122,"anni":5123,"tek":5124,"Ġaby":5125,"Ġdeclining":5126,"ĠhÃ¶":5127,"æ·»åĬł":5128,"ĠÃ©tait":5129,"íķĺëĬĶ":5130,"Ð½ÑĭÐµ":5131,"ÑĢÐµÐ´":5132,"Ġcliff":5133,"ÑĥÑģ":5134,"Ġê²½":5135,"ĠnÃ¤":5136,"French":5137,"Ġparl":5138,"Ġaustralia":5139,"inha":5140,"Ġsubway":5141,"Ġtutti":5142,"ÄŁÄ±":5143,"è¿Ļ":5144,"Ã¡vel":5145,"ĠVisa":5146,"Ġfranc":5147,"ÑĤÐ°":5148,"Ġaqui":5149,"ìĨĮ":5150,"Ġblues":5151,"Ø·":5152,"à¥Ģ":5153,"Ð½ÑĭÑħ":5154,"jam":5155,"Ġpuis":5156,"Ġire":5157,"Ð½Ð°Ñı":5158,"Ð¾Ðµ":5159,"Ġdisposable":5160,"ĠKilled":5161,"ÄŁi":5162,"Ġrecognise":5163,"Ġsek":5164,"Ð¸Ð¹":5165,"ĠÐ·Ð°":5166,"bir":5167,"ãĥ¬":5168,"è®¾ç½®":5169,"ĠØ¹":5170,"rar":5171,"ĠÐ²ÑģÐµ":5172,"Ġanda":5173,"Ġzona":5174,"Ñĳ":5175,"å°Ĩ":5176,"Ġdra":5177,"Ġdapat":5178,"åĪĹè¡¨":5179,"à¤°":5180,"ugal":5181,"-vous":5182,"Ġkat":5183,"Ġpouvez":5184,"Ġcours":5185,"noÅĽci":5186,"ĠØ¯":5187,"Obama":5188,"Rom":5189,"Ġmeine":5190,"ÅĤÄħ":5191,"Ġevento":5192,"ĠPakistani":5193,"ĠÐ¼Ð¾Ð¶":5194,"Russia":5195,"Ġìĭľ":5196,"ĠÑħ":5197,"Ġberlin":5198,"Ġburger":5199,"é«ĺ":5200,"ĠPoor":5201,"¤í":5202,"warz":5203,"åŃĲ":5204,"Ġmend":5205,"heid":5206,"ĠÑģÐ²":5207,"Ġbun":5208,"ãĥī":5209,"Ġwszyst":5210,"Ġsog":5211,"Ġkap":5212,"ĠArmstrong":5213,"liga":5214,"Chinese":5215,"æīĭ":5216,"Ġlumin":5217,"Ġsemana":5218,"ä¸ī":5219,"rale":5220,"ĠÐ¸Ð»Ð¸":5221,"ĠdÃŃas":5222,"ovi":5223,"ĠíĮ":5224,"Ġchez":5225,"Ġê³":5226,"Ġcows":5227,"ä»İ":5228,"Ġstan":5229,"Ġgor":5230,"umat":5231,"enci":5232,"gli":5233,"ĠÑı":5234,"Ġmois":5235,"inte":5236,"conte":5237,"Ġdebit":5238,"Ġalta":5239,"ĠÙģ":5240,"Ġencontrar":5241,"å®¶":5242,"Ġpint":5243,"Ġchaque":5244,"Ġmelhor":5245,"Ġnour":5246,"achen":5247,"cek":5248,"wie":5249,"anmar":5250,"æĹ¥æľŁ":5251,"zej":5252,"Ġhap":5253,"Ġnaz":5254,"larÄ±":5255,"vir":5256,"Ġhoe":5257,"Ġdob":5258,"Ŀ¼":5259,"ä»ĺ":5260,"Ġhog":5261,"ÐµÑĪ":5262,"Ġmarca":5263,"ĠATM":5264,"Ġhai":5265,"ĠÅ¼":5266,"Ġlied":5267,"ãĤ³":5268,"Ð¸Ð¸":5269,"Ġmaison":5270,"ÐµÐ³Ð¾":5271,"ftar":5272,"ãĤ¿":5273,"gni":5274,"qui":5275,"Ġahora":5276,"hora":5277,"ixa":5278,"yet":5279,"Ġgoed":5280,"give":5281,"uso":5282,"Ġcerc":5283,"ä¿ĿåŃĺ":5284,"Ġusar":5285,"äº¬":5286,"ĠbaÅŁ":5287,"Ġdegli":5288,"Ð¾Ð»Ð½":5289,"Ø³Øª":5290,"Ġsip":5291,"Ġdieses":5292,"stag":5293,"ĠìĹĨ":5294,"Ð½Ð¾Ð²":5295,"agu":5296,"ensch":5297,"leri":5298,"ãģı":5299,"Ġsavoir":5300,"ĠíĻ":5301,"iÄħ":5302,"Ġmettre":5303,"ä¸Ģä¸ª":5304,"orgia":5305,"Ġjue":5306,"Ġbach":5307,"uner":5308,"Ð½Ð¾Ðµ":5309,"ÐºÐ¾":5310,"Ġkol":5311,"Ġzm":5312,"Ð¸Ð´":5313,"à¸µà¹Ī":5314,"lis":5315,"yor":5316,"Ġzwischen":5317,"Ð°Ð»Ð¸":5318,"íĺ¸":5319,"Ġmitt":5320,"ĠÐºÐ»":5321,"Ġmars":5322,"izaÃ§Ã£o":5323,"ĠÑĩÑĤÐ¾":5324,"Ã³ÅĤ":5325,"Ġczas":5326,"ãĥĥãĤ¯":5327,"Ġcosa":5328,"Ġnouvelle":5329,"Ġconsulta":5330,"Indian":5331,"primer":5332,"Ã¡nd":5333,"Ġfrance":5334,"Ġdidnt":5335,"Ø§Øª":5336,"à¸¸":5337,"Ġkas":5338,"Ġë²":5339,"Russian":5340,"ĠvÃł":5341,"czy":5342,"Ġà¤ķ":5343,"å¤ĸ":5344,"ĠìĥĿ":5345,"íķł":5346,"à¸Ĥ":5347,"è°ĥ":5348,"Ä±z":5349,"Ġumbrella":5350,"Ġì§":5351,"isia":5352,"ëıĦ":5353,"Ġbeet":5354,"Ġwarns":5355,"wis":5356,"'av":5357,"Ġpaar":5358,"Ġë©":5359,"à¸Ĭ":5360,"Ġstato":5361,"clair":5362,"Ð²ÐµÑĢ":5363,"Ġmart":5364,"Ġjours":5365,"Ġdalla":5366,"Ġkel":5367,"Ġmassacre":5368,"arl":5369,"Ġdost":5370,"Ġì²":5371,"Ġeing":5372,"ĠìķĦ":5373,"ìĿĮ":5374,"registr":5375,"vre":5376,"Ã¼m":5377,"mak":5378,"ê·¸":5379,"Ġheute":5380,"Ġici":5381,"Ġordin":5382,"ifik":5383,"tanggal":5384,"orrent":5385,"ç¬ĳ":5386,"Ġhoy":5387,"Ð¾Ð·Ð²":5388,"-te":5389,"ÑĥÐ¿":5390,"bil":5391,"Ġeve":5392,"Ġdecir":5393,"ĠÐ½Ð¾Ð²":5394,"Ġsteak":5395,"France":5396,"staw":5397,"jest":5398,"Ġdun":5399,"Ð°Ñĩ":5400,"owaÄĩ":5401,"Ġprzed":5402,"åĲ¬":5403,"Ð¸Ðµ":5404,"ĠBrotherhood":5405,"uale":5406,"ÐµÐ¶":5407,"imas":5408,"Ġëĭ¤":5409,"Ø§Ùħ":5410,"ÐµÐµ":5411,"ĠæĪ":5412,"Ġtego":5413,"ĠdespuÃ©s":5414,"Ġyork":5415,"ÑĢÐµÐ¼":5416,"Ġwithdrawn":5417,"ë¡Ŀ":5418,"Ġdzie":5419,"icias":5420,"Ð°Ð¼Ð¸":5421,"wor":5422,"ãģį":5423,"à¹Ħ":5424,"Ġletz":5425,"Ġsudah":5426,"Ã¶l":5427,"iesz":5428,"ĠÑĤÐ°Ðº":5429,"Ġesa":5430,"áº¡n":5431,"Ġsia":5432,"Ġolarak":5433,"Ġlebih":5434,"Ġtransferring":5435,"Ġcalend":5436,"æĽ´æĸ°":5437,"Ġallen":5438,"Ġmang":5439,"Ġtes":5440,"ãģĵãģ®":5441,"ĠÙĨ":5442,"ĠsÃ¶":5443,"ìĦ¸ìļĶ":5444,"ëĿ¼":5445,"Ġdois":5446,"Ġjaar":5447,"åıĸæ¶Ī":5448,"åĪĽå»º":5449,"uur":5450,"è®¢åįķ":5451,"Ġpouring":5452,"Ġdiesen":5453,"ĠÐ±ÑĥÐ´":5454,"otle":5455,"Ġbonne":5456,"ÑĭÐµ":5457,"dag":5458,"aktu":5459,"Ð°ÑĪ":5460,"ĠìķĬ":5461,"ĠÃ©v":5462,"eti":5463,"ajar":5464,"Ġmak":5465,"çľĭ":5466,"Ġkes":5467,"Äĳ":5468,"'in":5469,"á»ĩn":5470,"Ã¶ff":5471,"eker":5472,"Ġarab":5473,"ãĥ³ãĥĪ":5474,"Ġoleh":5475,"ÐµÐ½ÑĮ":5476,"Ġsaat":5477,"ÐºÐ»ÑİÑĩ":5478,"ienia":5479,"è¡¨ç¤º":5480,"ãĥķ":5481,"Ġclashes":5482,"ë¬¸":5483,"Ġquesta":5484,"sla":5485,"à¹īà¸Ń":5486,"Ġminutos":5487,"iges":5488,"ĠÐºÐ°Ðº":5489,"spr":5490,"acja":5491,"keiten":5492,"Ġhin":5493,"ãĥĸ":5494,"Ġpedido":5495,"Ã¶rt":5496,"British":5497,"Ġtreffen":5498,"Ġposing":5499,"ĠcafÃ©":5500,"Ġniveau":5501,"rz":5502,"anj":5503,"ĠØ´":5504,"çŁ¥":5505,"mute":5506,"Ġlocales":5507,"ëĲľ":5508,"asz":5509,"ificaciÃ³n":5510,"æ°´":5511,"ĠÃłs":5512,"Ãłi":5513,"Ġbrighter":5514,"ÐºÐµ":5515,"ĠÐ¸ÑģÐ¿":5516,"kker":5517,"Ġsic":5518,"Ġtijd":5519,"Ġnast":5520,"ieux":5521,"Ġrepro":5522,"yar":5523,"å¥½":5524,"ambia":5525,"çī©":5526,"Tok":5527,"áºŃt":5528,"venta":5529,"Ġott":5530,"ìķĦ":5531,"Ġmijn":5532,"Ãły":5533,"ĠkhÃ´ng":5534,"Ġgio":5535,"ĠaquÃŃ":5536,"Ġjeden":5537,"Ġtg":5538,"ìĬ¤íĬ¸":5539,"Ġchristmas":5540,"-ce":5541,"Ġmute":5542,"æĶ¾":5543,"iphone":5544,"ëŀĺ":5545,"Ġdeposited":5546,"Ð¾Ð»ÑĮÐºÐ¾":5547,"ĠØ§ÙĦÙħ":5548,"cura":5549,"bis":5550,"ĠëķĮ":5551,"ĠlÃ¡":5552,"ê³¼":5553,"Ġned":5554,"ĠØ±":5555,"icionar":5556,"Ġnieu":5557,"cem":5558,"ãģĻãĤĭ":5559,"Ġfiat":5560,"Ġdisco":5561,"Ġdomic":5562,"Ġíķĺ":5563,"Ġdoen":5564,"ãģĭãĤī":5565,"Ġsaya":5566,"åı°":5567,"Ġdavid":5568,"ìĹ´":5569,"Ġswinging":5570,"Ġì¤":5571,"æĺ¾ç¤º":5572,"Ġmidi":5573,"Ġmaken":5574,"Ġgerne":5575,"Ġëª¨":5576,"rze":5577,"Ġê¸°":5578,"Ġjapan":5579,"Ġpem":5580,"Ġyer":5581,"Ġkita":5582,"ubi":5583,"mach":5584,"Ġthuis":5585,"ìĽĲ":5586,"ì£¼":5587,"Ġmenjadi":5588,"Ġogni":5589,"ucha":5590,"éħį":5591,"oran":5592,"ÑģÑĤÐ¸":5593,"Ġmeny":5594,"Someone":5595,"ĠÑĪ":5596,"pour":5597,"ochen":5598,"Ġwys":5599,"à¥ĭ":5600,"tere":5601,"çĶ»":5602,"Ġtrabalho":5603,"à¸Ľ":5604,"iran":5605,"ĠiÅŁ":5606,"toc":5607,"à¥ĩà¤":5608,"Ä±l":5609,"Ġmoet":5610,"Ġê·¸":5611,"Ġtoc":5612,"Ġsiguiente":5613,"Ġzwe":5614,"ãģĹãģŁ":5615,"ĠíĮĮ":5616,"Ġsegunda":5617,"Ġgaz":5618,"ìĤ¬":5619,"Ùī":5620,"Ġcidade":5621,"edu":5622,"æµ·":5623,"Ġmeu":5624,"Ġtrois":5625,"å¼Ģå§ĭ":5626,"Ġroku":5627,"rei":5628,"Ø°":5629,"æīĢæľī":5630,"Ġviene":5631,"ÑĥÑĢ":5632,"ÅĽli":5633,"chs":5634,"Ġprogramm":5635,"èĬĤ":5636,"ĠÐ·Ð°Ð¿Ð¸Ñģ":5637,"assa":5638,"Ġì£¼":5639,"ÐµÑĩ":5640,"à¹Į":5641,"Ġkim":5642,"Ð»ÐµÐ½Ð¸Ðµ":5643,"Ġonze":5644,"Ġëĵ":5645,"éĸĵ":5646,"Ġlivre":5647,"ĠÙĩ":5648,"undi":5649,"ÑĥÐ¶":5650,"ìĥģ":5651,"Ġamsterdam":5652,"tin":5653,"æ¯Ķ":5654,"ë¯¸":5655,"ãĤ£":5656,"ãĤ·":5657,"ĠÐ´Ð¾":5658,"ãĥĹ":5659,"Ã´le":5660,"Ġmia":5661,"-il":5662,"Ġleuk":5663,"íĻĶ":5664,"Ġolan":5665,"nÄħ":5666,"Ġchinese":5667,"ĠìłĦ":5668,"ĠestÃ£o":5669,"ìĹĲìĦľ":5670,"Ġalex":5671,"Ġdow":5672,"lover":5673,"Ġgeben":5674,"ifie":5675,"pla":5676,"Ä±s":5677,"iej":5678,"ä½ł":5679,"bies":5680,"alarm":5681,"ĠÙĦ":5682,"ĠÐ¿ÑĢÐµÐ´":5683,"ãĥĨ":5684,"Ġhamburg":5685,"Ġbardzo":5686,"ãĤĪ":5687,"Ġsoir":5688,"ÅĽcie":5689,"Ġsulla":5690,"Ġë¦¬":5691,"roma":5692,"-par":5693,"Ġoldu":5694,"ĠÃ§ok":5695,"ìĹ¬":5696,"orda":5697,"ëıĻ":5698,"Ġvier":5699,"zin":5700,"ìŀ¬":5701,"uestas":5702,"çµ":5703,"łí":5704,"ĠÐ¶":5705,"ä¸İ":5706,"ìĺ¤":5707,"ãģĿãģ®":5708,"Ġyen":5709,"Ġseguir":5710,"Ġroma":5711,"Ġdang":5712,"Ġdrei":5713,"Ġtahun":5714,"Ġbomber":5715,"zych":5716,"ĠìłĢìŀ¥":5717,"è¯»":5718,"ç¾İ":5719,"ĠAUD":5720,"äºĭä»¶":5721,"owo":5722,"ê²Į":5723,"å±±":5724,"Ġì¶Ķ":5725,"ãģĪ":5726,"Ø¶":5727,"kim":5728,"Ð´ÐµÐ»":5729,"Ġsala":5730,"à¹īà¸²":5731,"Ġìĥģ":5732,"Ð¶Ðµ":5733,"wat":5734,"ĠÐ»Ð¸":5735,"ATO":5736,"Ġheb":5737,"stellen":5738,"von":5739,"iÃ¨res":5740,"ĠÐ·Ð°Ðº":5741,"inden":5742,"ĠbÄĻdzie":5743,"Ġspielen":5744,"ĠÑĤÐ¾":5745,"unas":5746,"ĠÐ´Ð¾Ð±Ð°Ð²":5747,"Ġhaber":5748,"ĠmÃ¼":5749,"Ġwelche":5750,"chains":5751,"uger":5752,"ioso":5753,"Ġharus":5754,"å¿ħ":5755,"Ġbers":5756,"Ġsatu":5757,"Äĥng":5758,"Ġwerk":5759,"ãģ¤":5760,"ÙĪØ±":5761,"ĠìĿ¸":5762,"ä¸ŃåĽ½":5763,"xin":5764,"gende":5765,"Ġêµ¬":5766,"Ã³a":5767,"ĠwÃ¼rde":5768,"ÑĪÐµ":5769,"Ġmau":5770,"Ġpuedes":5771,"Ġgiorn":5772,"Ġpian":5773,"Ġdopo":5774,"Ġora":5775,"Ã³r":5776,"Ã¼nst":5777,"stub":5778,"owied":5779,"Ġintellig":5780,"alten":5781,"åĪ©":5782,"ç§»":5783,"zÄĻ":5784,"ĠÐºÐ»Ð°ÑģÑģ":5785,"ì¹ĺ":5786,"Ġcá»§a":5787,"ĠsÃ¼":5788,"ãĤµ":5789,"Ġerh":5790,"ĠØ³":5791,"Ġjac":5792,"ĠmÃºs":5793,"à¸ŀ":5794,"niej":5795,"é¦ĸ":5796,"Ġhoch":5797,"Ġìłķë³´":5798,"orea":5799,"Ġrapp":5800,"à¤¨":5801,"imin":5802,"ieber":5803,"Ġtopping":5804,"Ð½Ð¾ÑģÑĤÑĮ":5805,"Ð¾Ñı":5806,"ëŁ¬":5807,"ãĥ¼ãĤ¹":5808,"ëĤĺ":5809,"owej":5810,"Ð»ÐµÐ½":5811,"ikit":5812,"à¸Ī":5813,"Ġzam":5814,"ÐµÐ»Ð¸":5815,"Ġapa":5816,"Ġtarde":5817,"ĠÐ¿Ð¾ÑģÐ»":5818,"Ġíķ´":5819,"zet":5820,"Ġdni":5821,"Ġnieuwe":5822,"hei":5823,"ãĤģ":5824,"Ġspor":5825,"Ġwyn":5826,"olie":5827,"á»±":5828,"Ġtard":5829,"arseille":5830,"Ġmemes":5831,"anst":5832,"Ġhaut":5833,"prech":5834,"Ġprimo":5835,"bij":5836,"Ġíķľ":5837,"Ã³j":5838,"Ġchanger":5839,"irim":5840,"ĠÃºltimo":5841,"Ġsamp":5842,"ĠpolÃŃtica":5843,"Ġdaha":5844,"Ġgaan":5845,"Ġwithdrew":5846,"Ð»ÐµÐ½Ð¸Ñı":5847,"Iran":5848,"íļĮ":5849,"ĠhÃłng":5850,"Ġdernier":5851,"Ġlouder":5852,"ãĤŃ":5853,"altung":5854,"arkan":5855,"Ġbanyak":5856,"quoi":5857,"Ġtej":5858,"ĠcÃ´ng":5859,"izia":5860,"Ġlondon":5861,"Ġìłľ":5862,"jad":5863,"Ġë§Į":5864,"Ġminha":5865,"ÑĭÑħ":5866,"å¦Ĥæŀľ":5867,"unu":5868,"ê°Ħ":5869,"iego":5870,"Ġcanc":5871,"Ġalarms":5872,"jak":5873,"burger":5874,"Ġgehen":5875,"Ġbesoin":5876,"iÄĻ":5877,"ĠnÃ¤ch":5878,"Ġelek":5879,"Bang":5880,"Ġvolum":5881,"Ġbeneficiary":5882,"Ġurges":5883,"dre":5884,"kas":5885,"ĠaÃ§":5886,"å¹¶":5887,"Ġvog":5888,"iad":5889,"ãģ¿":5890,"auss":5891,"ãĥ¼ãĥ«":5892,"ë¶Ģ":5893,"Ġguardar":5894,"Ġrussian":5895,"Ð¸Ð»":5896,"ĠÙħÙĨ":5897,"ĠÐ²ÐµÑĢ":5898,"Ġë³´":5899,"ĠØ£":5900,"Ä±na":5901,"ÑĥÐ±":5902,"Ġdunk":5903,"ĠÄĳÆ°á»£c":5904,"amenti":5905,"quÃ©":5906,"Ġort":5907,"Ġpemb":5908,"åĽĽ":5909,"ãĤ»":5910,"Ġë°ĺ":5911,"Ð¼Ð¸":5912,"ĠcÃ©":5913,"fait":5914,"usu":5915,"Ġfatto":5916,"Ġtua":5917,"ĠMali":5918,"Gun":5919,"-feira":5920,"Ġquello":5921,"Ġforte":5922,"roz":5923,"wiÄĻ":5924,"ĠthÃłnh":5925,"ziel":5926,"ãĤ¦":5927,"æ¶Īæģ¯":5928,"å¤´":5929,"Ġluz":5930,"zimmer":5931,"ãĥ¼ãĥī":5932,"ĠÑĩÐ¸ÑģÐ»Ð¾":5933,"ĠìŀĪëĬĶ":5934,"ĠìŀĲ":5935,"redi":5936,"Ġmidd":5937,"liste":5938,"engo":5939,"à¸·à¹Ī":5940,"atÃ³rio":5941,"à¤ķ":5942,"à¹Īà¸²":5943,"å®¢":5944,"Ġmadrid":5945,"ëĭ¹":5946,"Ġbuena":5947,"Ġëı":5948,"ëĵ¤":5949,"akhir":5950,"ÑģÐº":5951,"elijke":5952,"Ġperk":5953,"mur":5954,"Ġweer":5955,"½Ķ":5956,"ê²½":5957,"shuffle":5958,"tur":5959,"Ġlavoro":5960,"Ġdepois":5961,"Ø§Ø¯":5962,"Ġfais":5963,"Ġespresso":5964,"Ã¨te":5965,"Ġì¡°":5966,"Ġsá»ĳ":5967,"Ġrendez":5968,"ĠëĦ":5969,"Ġzal":5970,"Ġreminders":5971,"Ġench":5972,"áº·":5973,"Ġagora":5974,"Ġkannst":5975,"ãĥĲ":5976,"ìłĦ":5977,"ĠìĦ¤ìłķ":5978,"ĠkÃ¼":5979,"ãĥĥãĥĪ":5980,"ÐµÐ¿":5981,"Ġipt":5982,"ufe":5983,"ÑĥÐº":5984,"Ð»Ð¸ÑĨ":5985,"ĠëĤ´":5986,"Ġsushi":5987,"à¸±à¸Ļ":5988,"Ġgere":5989,"ĠmÃ¶chte":5990,"ĠÐ´Ð¾ÑģÑĤ":5991,"íķĺê¸°":5992,"Ġding":5993,"Ð¸Ð»ÑĮ":5994,"czas":5995,"Ð¸Ñħ":5996,"prÃ¼":5997,"Ġafs":5998,"Ġì§Ģ":5999,"ëĮĢ":6000,"iete":6001,"ĠÐºÐ¾ÑĢ":6002,"Ġtengo":6003,"ĠãĤ³":6004,"Ġletzten":6005,"Ġpaul":6006,"Ġaconte":6007,"Ġgerade":6008,"arÄ±":6009,"ukkan":6010,"ÑģÑĤÐ°Ð²":6011,"ãĥĩ":6012,"hay":6013,"ÑģÑĤÐ°Ð½Ð¾Ð²":6014,"Ġbitte":6015,"illez":6016,"Ñį":6017,"Ġkem":6018,"Ġpierws":6019,"Ġromant":6020,"Ġeerste":6021,"Ġhuis":6022,"Æ¡n":6023,"ãĥŀ":6024,"Putin":6025,"iap":6026,"Ġcommande":6027,"iÄĩ":6028,"ĠÑįÑĤÐ¾":6029,"kir":6030,"å½ĵåīį":6031,"hapus":6032,"Ġgrap":6033,"ppelin":6034,"Ġgaat":6035,"Ġstellen":6036,"Ġà¤¸":6037,"Ġìŀĳ":6038,"ĠØŃ":6039,"Ġentend":6040,"kur":6041,"Ġbaru":6042,"Ġaggi":6043,"ĠÑģÐº":6044,"Ġmij":6045,"Ġì¶Ķê°Ģ":6046,"inem":6047,"jourd":6048,"atak":6049,"ĠÐ±ÑĥÐ´ÐµÑĤ":6050,"Ġverifying":6051,"unj":6052,"ÑĢÐ¾Ð²ÐµÑĢ":6053,"åĮĹäº¬":6054,"Ġmio":6055,"boa":6056,"Ġtrong":6057,"ziaÅĤ":6058,"æ±Ł":6059,"zioni":6060,"Thai":6061,"acje":6062,"éĩĮ":6063,"Ð¸Ð³":6064,"Ġchaud":6065,"ÙĪØ¯":6066,"ãĥĶ":6067,"Ġllevar":6068,"zyÄĩ":6069,"Ġvrij":6070,"Ġgusta":6071,"Ġfuera":6072,"Ø£":6073,"Ġhari":6074,"Ġmondo":6075,"isz":6076,"Ġatm":6077,"buat":6078,"Ð½Ð¸Ðº":6079,"Ð°Ð¹Ð´":6080,"æ²»":6081,"Ġbele":6082,"å£°":6083,"ãĤĦ":6084,"Ġhaus":6085,"Ġcinco":6086,"ĠmÃºsica":6087,"ãĤ«":6088,"Ġmeld":6089,"Ġsangat":6090,"Ġank":6091,"ĠÐ¸Ð³":6092,"Ġsalle":6093,"ãĤ¹ãĥĪ":6094,"ë¹Ħ":6095,"Ġë¡":6096,"ngo":6097,"Ø§Ø¨":6098,"Ġdonner":6099,"Ġdez":6100,"ĠprÃ³ximo":6101,"indre":6102,"Ġì¤ĳ":6103,"Ġë¡ľ":6104,"ÑĥÑİÑī":6105,"ĠÃºltima":6106,"opi":6107,"Ġactivating":6108,"annya":6109,"Ġê²ĥ":6110,"Ġmeiner":6111,"Ġmemiliki":6112,"á»ī":6113,"Ġbild":6114,"ãģıãģłãģķãģĦ":6115,"Ġduas":6116,"ãĥ¥":6117,"à¹ģ":6118,"Ġjorn":6119,"åºĹ":6120,"Ġschl":6121,"Ã³mo":6122,"ĠÐ·Ð°Ð³":6123,"Ġincontro":6124,"arda":6125,"Ġsemaine":6126,"èµ·":6127,"noÅĽÄĩ":6128,"bz":6129,"Ġalguna":6130,"Ġkho":6131,"bright":6132,"Ġzou":6133,"ĠÐ¿ÑĢÐ°Ð²":6134,"âĢļ":6135,"Ġming":6136,"onden":6137,"æĭī":6138,"ç±³":6139,"à¸°":6140,"Ġyuan":6141,"ĠÐµÐ³Ð¾":6142,"à¤Ĥ":6143,"Ġsecara":6144,"ysz":6145,"tell":6146,"Ġeventos":6147,"Ġlaat":6148,"aniu":6149,"iciar":6150,"ħĮ":6151,"ĠÐ½Ð°Ñĩ":6152,"ë§Į":6153,"Ġtwee":6154,"à¥ģ":6155,"Ð¾Ð»Ð¾Ð²":6156,"Ġlij":6157,"Ġponer":6158,"Ġnuovo":6159,"ÙĪÙĦ":6160,"changer":6161,"åľŁ":6162,"uais":6163,"Shares":6164,"Ġzab":6165,"Ġmnie":6166,"Ġìĺ¤":6167,"orsi":6168,"Ġajust":6169,"ĠÐ´Ð²":6170,"Ġhoje":6171,"Ġverde":6172,"daq":6173,"ĠÙĬ":6174,"Ä±c":6175,"ĠÑģÐ¿Ð¸ÑģÐ¾Ðº":6176,"Ġbombings":6177,"å¾Į":6178,"ÙĬØ©":6179,"ĠëĤĺ":6180,"Ġê°ľ":6181,"Ġqua":6182,"ĠÄĳi":6183,"Ġmaintenant":6184,"aktiv":6185,"aar":6186,"kish":6187,"ernes":6188,"ĠÑĤÐ¾Ð»ÑĮÐºÐ¾":6189,"Ġë°°":6190,"åı¯ä»¥":6191,"Ġsagen":6192,"Ġapril":6193,"Ġgrub":6194,"mek":6195,"Ġstaat":6196,"Ġquelle":6197,"Ġdime":6198,"Ġplaats":6199,"ĠíĻķìĿ¸":6200,"arme":6201,"Ġkadar":6202,"Ġlagi":6203,"Ġë¹Ħ":6204,"Ġkab":6205,"esz":6206,"rello":6207,"Ġtutte":6208,"åł´":6209,"ĽĦ":6210,"ĠsÅĤ":6211,"ahkan":6212,"Ġcuc":6213,"ĠØ®":6214,"Ġimportantes":6215,"ienie":6216,"ÅĤem":6217,"Ä±ÄŁÄ±":6218,"Ġíĥ":6219,"berapa":6220,"Ġnoche":6221,"ĠÅĤ":6222,"Ġaujourd":6223,"heure":6224,"Ġë°©":6225,"ĠìĻ":6226,"ingt":6227,"elah":6228,"åħ³éĹŃ":6229,"ĠannÃ©e":6230,"Ġheures":6231,"éĴŁ":6232,"à¸³":6233,"ãĤ¤ãĥ³":6234,"ghi":6235,"ankan":6236,"äºĶ":6237,"Ġwissen":6238,"Ġnied":6239,"ĠÐ¿Ð¾Ð¼":6240,"ãĤ¸":6241,"æľ¨":6242,"zik":6243,"ãģĳ":6244,"Ġcouleur":6245,"ãĤ¨":6246,"æĴŃ":6247,"Ġflorida":6248,"à¸²à¸£":6249,"ãģ£ãģ¦":6250,"Ġhut":6251,"è¯¥":6252,"hari":6253,"hoe":6254,"ĠÐ½ÑĥÐ¶":6255,"Ġcuatro":6256,"ãģ§ãģ¯":6257,"ĠgeÃ§":6258,"è¨ĺäºĭ":6259,"Ġaplik":6260,"á»Ŀ":6261,"Ã®t":6262,"ĠmÃŃ":6263,"ìĭĿ":6264,"Ð½ÑĥÑİ":6265,"akah":6266,"ìĥĿ":6267,"raison":6268,"leurs":6269,"ĠvÃ©r":6270,"Ġmusica":6271,"ĠìĤŃìłľ":6272,"Ġurgently":6273,"uellement":6274,"Ġheure":6275,"ĠÐ¿ÐµÑĢÐ²":6276,"jej":6277,"ÑģÑĤÑĢÐ¾Ð¹":6278,"ĠØ¯Ø±":6279,"omba":6280,"attro":6281,"Ġcheque":6282,"Ġscho":6283,"phoon":6284,"Ġzeit":6285,"ìĥī":6286,"ĠÙģÙĬ":6287,"ãģĹãģ¾ãģĻ":6288,"Äĥm":6289,"ãĥģ":6290,"æĺŁ":6291,"ãĤº":6292,"Ġtys":6293,"Ġneste":6294,"ĠÃ§alÄ±ÅŁ":6295,"Ġsemua":6296,"ä¸¤":6297,"Pale":6298,"ãĥĭ":6299,"ĠìĨ":6300,"ãĥ¼ãĤ¸":6301,"Ã¡o":6302,"ĠÙĤ":6303,"kraine":6304,"Ġwelt":6305,"ĠÑĢÐ°Ñģ":6306,"åł±":6307,"ãĤ¤ãĥĪ":6308,"Ġcena":6309,"Ġquelque":6310,"Ð¼Ð¾Ð¶":6311,"cis":6312,"ê³µ":6313,"Ġspiel":6314,"ÐµÐºÑģ":6315,"ĠcÃ¡c":6316,"belum":6317,"Ġquella":6318,"imu":6319,"angi":6320,"à¤¸":6321,"Ġê°Ļ":6322,"Ġentrega":6323,"Ġexchanging":6324,"kus":6325,"increase":6326,"ĠmÃ¼nchen":6327,"enk":6328,"acak":6329,"éŁ³":6330,"Ð½Ðµ":6331,"Ġsaja":6332,"Ġcolore":6333,"á»Ł":6334,"Ġcalifornia":6335,"ÅŁi":6336,"aÄĩ":6337,"Ġnouvelles":6338,"ë²Ħ":6339,"Ġked":6340,"ĠsarÃł":6341,"praak":6342,"ĠÄĳÃ£":6343,"ĠÐµÑģÑĤÑĮ":6344,"Ġbaik":6345,"ĠìĬ":6346,"à¤¤":6347,"Ġfriday":6348,"Ġzien":6349,"Ġpaz":6350,"ĠheiÃŁ":6351,"çģ«":6352,"Ä±nÄ±n":6353,"ëªħ":6354,"cip":6355,"ĠÄĳá»ĥ":6356,"onald":6357,"ãĥĳ":6358,"ë¶Ħ":6359,"Ġvriend":6360,"voy":6361,"Ġdici":6362,"Ø¯ÙĬ":6363,"á»įn":6364,"Ħìŀ¬":6365,"ĠrÃ³Å¼":6366,"Ġtekn":6367,"Ġsve":6368,"Ġgiorno":6369,"china":6370,"Thousands":6371,"erais":6372,"Ġpog":6373,"ĠÐ¾Ñģ":6374,"Ġald":6375,"ĠpassÃ©":6376,"ìĻĢ":6377,"à¹īà¸Ńà¸¡":6378,"ÐµÐ»Ðµ":6379,"Ġpuedo":6380,"spiel":6381,"ìľĦ":6382,"ÙĦØ§":6383,"Ġfrat":6384,"cil":6385,"ceu":6386,"íģ¬":6387,"ĠÑĩÑĤÐ¾Ð±Ñĭ":6388,"Ġìµľ":6389,"åİĨ":6390,"Ġpracy":6391,"Ġmeinen":6392,"unya":6393,"Ġestoy":6394,"ubah":6395,"Ġminut":6396,"Ġseventeen":6397,"Ġimpost":6398,"Ġbarcelona":6399,"ificaÃ§Ã£o":6400,"ungi":6401,"Ġdap":6402,"ĠtrÃªs":6403,"Ġalb":6404,"zoek":6405,"iedy":6406,"ĠbyÅĤ":6407,"ëĵł":6408,"Ġë°Ķ":6409,"abilir":6410,"haft":6411,"Øº":6412,"Ġkop":6413,"Ġenam":6414,"æĻĤéĸĵ":6415,"usta":6416,"Ġuy":6417,"ĠÅĽw":6418,"Ġboa":6419,"bew":6420,"ellung":6421,"á»įc":6422,"Ã¼gen":6423,"ĠktÃ³ra":6424,"ĠØ¬":6425,"ouve":6426,"Ġkolej":6427,"ìĭł":6428,"ÑĥÐ¹":6429,"lus":6430,"arÃŃa":6431,"Ġpouco":6432,"Ġtemperatura":6433,"Ġwithdrawing":6434,"ëĭĪ":6435,"Ġzaman":6436,"umu":6437,"Ġraining":6438,"ĠGBP":6439,"à¹ĩ":6440,"ê¸Ģ":6441,"Ġì´Ī":6442,"iyor":6443,"ãĥ¼ãĥĪ":6444,"Ġgrazing":6445,"kah":6446,"Ġdziew":6447,"rete":6448,"ĠìĹ¬":6449,"à¸±à¸ļ":6450,"ĠìĿ¼":6451,"à¸·à¸Ń":6452,"kop":6453,"ĠÑģÐ¿":6454,"Ġà¤ª":6455,"Ġsui":6456,"Ġsok":6457,"Ø¨Ø±":6458,"Ġrouge":6459,"Ġlem":6460,"Ġsonra":6461,"Ġaktual":6462,"Ġà¤¹":6463,"Ġprise":6464,"Ġviet":6465,"Ġindonesia":6466,"kÄĻ":6467,"áº¥y":6468,"Ø«":6469,"Ġlokal":6470,"Ġë²Ī":6471,"midd":6472,"ë©Ķ":6473,"Ð¾ÑģÑĤÐ¸":6474,"Ġdesta":6475,"à¸ľ":6476,"Ġcoz":6477,"coles":6478,"Ġslicing":6479,"Ġbeberapa":6480,"Ġfora":6481,"Ø±ÙĪ":6482,"ç§ģ":6483,"à¥įà¤°":6484,"à¸´à¸Ļ":6485,"ìĤ°":6486,"éľĢè¦ģ":6487,"á»ı":6488,"ĠÑĤÐµÐºÑĥÑī":6489,"ĠØ¥":6490,"Ġkamu":6491,"Ġwithdrawals":6492,"coni":6493,"Ġcalor":6494,"ĠjournÃ©e":6495,"åħ¨éĥ¨":6496,"ì§Ħ":6497,"åİ»":6498,"Ġë¶Ģ":6499,"ĠìĽ":6500,"Ã¡nt":6501,"Ġmarzo":6502,"Ġnuova":6503,"Ä±cÄ±":6504,"uste":6505,"Egypt":6506,"Ġgiorni":6507,"Ġitalia":6508,"Ġláº¡i":6509,"Ġwaktu":6510,"ĠÑĤÑĢ":6511,"ÑĤÑĭ":6512,"Ġeuropean":6513,"orque":6514,"ĠìļĶ":6515,"Ġpakistan":6516,"angkan":6517,"à¹Ħà¸¡":6518,"è©±":6519,"wij":6520,"ĠÐ¾ÑĤÐ¿ÑĢÐ°Ð²":6521,"Ġfrying":6522,"Ġstad":6523,"ĠvÃło":6524,"à¤ª":6525,"Ġaku":6526,"à¸ĵ":6527,"Ã©rt":6528,"Ġseis":6529,"urma":6530,"Ð¾Ð´Ð°":6531,"Ġchambre":6532,"ÑĨÐ°":6533,"ĠÐ·Ð°ÐºÐ°Ð·":6534,"Ġspaghetti":6535,"ĠÙĥ":6536,"ÃĦ":6537,"Ġcita":6538,"'hui":6539,"ilihan":6540,"quelle":6541,"Ġporter":6542,"à¤®":6543,"åĨį":6544,"Ġirgend":6545,"ĠMandela":6546,"stinian":6547,"Ġquake":6548,"spotify":6549,"ĠÐºÐ¾":6550,"Ð½Ð¸ÐºÐ°":6551,"Ġust":6552,"ëª©":6553,"Ġbaja":6554,"ĠgÃ¼n":6555,"ĠderniÃ¨re":6556,"Ġë³Ģê²½":6557,"Ġvedere":6558,"Ġpizzas":6559,"Ġspotify":6560,"Ġwereld":6561,"Ġmichael":6562,"Ġingin":6563,"ulares":6564,"ãĥĿ":6565,"Ġmop":6566,"Ġdiner":6567,"Ġpanda":6568,"Pakistan":6569,"ÐµÑģÑĤÐ¸":6570,"eliminar":6571,"êµ¬":6572,"Ġingest":6573,"ä»Ĭå¹´":6574,"áº¡o":6575,"Ġiets":6576,"Ġpotrze":6577,"Ġtakeaway":6578,"Ġlyon":6579,"ÑĢÐ°Ð·":6580,"Ã©o":6581,"á»ĥm":6582,"cznie":6583,"Ġmusique":6584,"Ġoggi":6585,"æµģ":6586,"Ġtussen":6587,"Ġhamburger":6588,"Ġeins":6589,"Ġuur":6590,"Ã¹ng":6591,"Ġmeinem":6592,"Ġê°Ģìł¸":6593,"Ġartikel":6594,"antar":6595,"ikut":6596,"ç»Ļ":6597,"Ġqualche":6598,"Ġì»":6599,"zego":6600,"ÑıÑĤ":6601,"porter":6602,"ëĶĶ":6603,"baru":6604,"Ä±sÄ±":6605,"Ġbáº¡n":6606,"Ġdomingo":6607,"wel":6608,"Ġalm":6609,"Ġcocina":6610,"Ġintelig":6611,"ìķ¼":6612,"Ġyok":6613,"Ġpronto":6614,"Ġphoenix":6615,"à¸ģà¸£":6616,"ÐºÐ¾Ð²":6617,"ãĤª":6618,"wake":6619,"ìľ¼ë©´":6620,"Ġdagen":6621,"ãĥł":6622,"ĠÐ½Ð°Ð¿":6623,"Ä±kl":6624,"Ġtah":6625,"Ġvener":6626,"ĠprÃ³xima":6627,"ĠÃ©c":6628,"ĠÐ¼Ð¾Ð¶Ð½Ð¾":6629,"ãĥĵ":6630,"anneer":6631,"ĠìĹĲ":6632,"polit":6633,"apatkan":6634,"ĠÐ¿Ð¾ÑģÐ»ÐµÐ´":6635,"è¦ĭ":6636,"éĮ":6637,"Ġì¹":6638,"Ġstil":6639,"åĭķ":6640,"ÐµÑĢÐ°":6641,"Ġtaco":6642,"æł·":6643,"Ġtanggal":6644,"ĠnÃ¤chsten":6645,"à¸¹à¸¥":6646,"uids":6647,"Ġà¤®":6648,"niejs":6649,"Ø¯Ùĩ":6650,"Ø§Ø³":6651,"ĠÐ±ÐµÐ·":6652,"ì£¼ìĦ¸ìļĶ":6653,"åıª":6654,"Ġquiero":6655,"ĠmÃº":6656,"lÄ±k":6657,"ĠÐ²ÑĢÐµÐ¼Ñı":6658,"à¤²":6659,"Singapore":6660,"Ġspiele":6661,"amedi":6662,"Ġkeer":6663,"Ø¥":6664,"Ġalgumas":6665,"ĠÑģÐ»ÐµÐ´":6666,"ìħĺ":6667,"jadi":6668,"Ġtentang":6669,"ĠØµ":6670,"Ġmá»Ľi":6671,"Ĥ¤":6672,"æī¾":6673,"ê±°":6674,"Ġchicago":6675,"ĠÐ·Ð°Ð²":6676,"asÄ±":6677,"isci":6678,"alte":6679,"Æ°a":6680,"Ġsunday":6681,"zap":6682,"Ø¸":6683,"ãĥ©ãĥ³":6684,"ĠthÃ´ng":6685,"pizza":6686,"å°ıæĹ¶":6687,"ĠkÃ¶ln":6688,"porto":6689,"Ä±ÄŁ":6690,"nio":6691,"Ġê´Ģ":6692,"ì¡°":6693,"Ġpeny":6694,"Ġnajle":6695,"ndern":6696,"Ġpeux":6697,"Ġmonday":6698,"Ġentreg":6699,"ĠdoÄŁ":6700,"izzer":6701,"ãĥ³ãĤ°":6702,"Ġrefunded":6703,"Ġlaut":6704,"ÙĬØ±":6705,"Ġreverted":6706,"Ġwashington":6707,"ìļ´":6708,"Ġìĭľìŀĳ":6709,"arih":6710,"apk":6711,"Ð½Ð¾Ð¼":6712,"à¸ģà¸²à¸£":6713,"ÑıÑĤÑĮ":6714,"ä¾¡":6715,"à¤¹":6716,"Ġpeter":6717,"etten":6718,"æ°Ĺ":6719,"ĠãĤĴ":6720,"ĠíĽĦ":6721,"Ã´m":6722,"ÑĥÐ³":6723,"Ġà¹Ģ":6724,"Ġfeliz":6725,"åįģ":6726,"Ġquali":6727,"itag":6728,"Ġtá»«":6729,"Ġessen":6730,"Ã³st":6731,"ntag":6732,"ĠØ§ÙĦØª":6733,"Ġkhi":6734,"Ġgia":6735,"Ġdispositivo":6736,"Ġíķł":6737,"ĠhÃ¤tte":6738,"ĠsÃ¡ch":6739,"ĠìķĪ":6740,"ÙĬÙĦ":6741,"ëĤ´":6742,"Ġrosa":6743,"ãĥĬ":6744,"Ġostat":6745,"Ġstanza":6746,"Ġdemasi":6747,"uÃ©":6748,"à¸ĸ":6749,"ĠmaÃ±ana":6750,"Ġë§Ī":6751,"Ġnoticias":6752,"ĠìĺĪ":6753,"zac":6754,"Ġflute":6755,"awy":6756,"Ġchu":6757,"Ð°Ð»Ð°":6758,"Ø§Ùģ":6759,"Ġë°ľ":6760,"Ġkontrol":6761,"ĠÑģÐ°Ð¼":6762,"ĠfÃ¼n":6763,"íķ´ìĦľ":6764,"Ð¸ÑĤÑģÑı":6765,"Ð¾Ð½ÑĤ":6766,"pesan":6767,"Ġchopping":6768,"como":6769,"ampilkan":6770,"éĸ¢":6771,"Ġbella":6772,"éĽ·":6773,"eczy":6774,"ĠnÃły":6775,"æŃ£åľ¨":6776,"Ġãģ®":6777,"Ð¾ÑģÑĤÑĮ":6778,"Ġalgum":6779,"Ġcoisa":6780,"Iraq":6781,"contra":6782,"Ġzach":6783,"Ġdua":6784,"Ġbais":6785,"ĠcittÃł":6786,"Ġdak":6787,"äºĽ":6788,"Ġtert":6789,"Ġprogramma":6790,"ĠëĲĺ":6791,"Ġaktuellen":6792,"produce":6793,"Ġguarda":6794,"èªŃ":6795,"cosa":6796,"ĠsÃ¡bado":6797,"blings":6798,"Ġgele":6799,"á»ķi":6800,"æĪĳçļĦ":6801,"æĪĳä»¬":6802,"Ġmike":6803,"Ð°ÑĤÑĮÑģÑı":6804,"ĠÐºÐ¾ÑĤÐ¾ÑĢÑĭÐ¹":6805,"Ġcomida":6806,"Ġbestellen":6807,"iÅŁ":6808,"Ġsinh":6809,"ë³µ":6810,"Ġletto":6811,"à¸µà¸¢":6812,"ungkin":6813,"Ġskateboard":6814,"ĠíļĮ":6815,"Ġconseg":6816,"Israeli":6817,"Ġhoog":6818,"Ġchá»ī":6819,"ĠlÃ²ng":6820,"Ġquatre":6821,"Ġbuiten":6822,"Ġgoede":6823,"Ġyeni":6824,"Ø§Ø¡":6825,"Ð¾ÑģÑĮ":6826,"ŃĲ":6827,"ä½ķ":6828,"ãĥĢ":6829,"Ġíı¬":6830,"Ġdanh":6831,"Ġê²Į":6832,"Ð´Ðµ":6833,"Ġjouer":6834,"Ġnaam":6835,"çĿĢ":6836,"å¾Ī":6837,"æĥ³":6838,"åģļ":6839,"åĩł":6840,"éĤ£":6841,"æĪ¿":6842,"å¤ª":6843,"åħī":6844,"ä»Ģä¹Ī":6845,"è®©":6846,"çĥŃ":6847,"åĤ":6848,"å¸¦":6849,"ä½İ":6850,"åĮ»":6851,"æĸ¯":6852,"ç¥ŀ":6853,"åįĥ":6854,"åĪĩ":6855,"ä¹Ĳ":6856,"æĬĬ":6857,"åįĬ":6858,"æĹ©":6859,"çŁ¥éģĵ":6860,"åĲĥ":6861,"æ¸©":6862,"å±ħ":6863,"åµ":6864,"çİĭ":6865,"é£Ł":6866,"éĻį":6867,"åĵª":6868,"å¾·":6869,"æŀĹ":6870,"éĿĴ":6871,"åı¤":6872,"åĨ·":6873,"ç¦ı":6874,"åĪ»":6875,"è¿Ļä¸ª":6876,"ä¸ĸçķĮ":6877,"é¤Ĳ":6878,"è®²":6879,"å¤ľ":6880,"äº®":6881,"éĿĻ":6882,"åĲ¸":6883,"ç¹":6884,"æĥħåĨµ":6885,"åħŃ":6886,"åħ«":6887,"å·®":6888,"æ´»åĬ¨":6889,"çİ°åľ¨":6890,"ä¹Ŀ":6891,"ä¸ĥ":6892,"ç©¿":6893,"è¿½":6894,"æĹ¶åĢĻ":6895,"å®ĥ":6896,"æŃĮ":6897,"ä¸½":6898,"å¥¥":6899,"å¥½çļĦ":6900,"åıĳçĶŁ":6901,"çĬ¶":6902,"çĶ°":6903,"èĥľ":6904,"æľĿ":6905,"è¿ĻéĩĮ":6906,"éĽ¶":6907,"æ¬§":6908,"æļĸ":6909,"æī«":6910,"éĽ»":6911,"åı«":6912,"ä»»ä½ķ":6913,"æ´¾":6914,"ä¼ļè®®":6915,"éĩİ":6916,"äºĪ":6917,"éĨĴ":6918,"ç·":6919,"å¦Ĥä½ķ":6920,"æĸ°éĹ»":6921,"éĽ¨":6922,"æĽ²":6923,"æľ«":6924,"åĶ±":6925,"æľĹ":6926,"æŁ¥çľĭ":6927,"æłĩåĩĨ":6928,"ä¸Ģä¸ĭ":6929,"è°ģ":6930,"éĽª":6931,"æĻºèĥ½":6932,"çģ¯":6933,"æĺł":6934,"å¿ħè¦ģ":6935,"æĿİ":6936,"æİī":6937,"çĶµå½±":6938,"ä¸ĢçĤ¹":6939,"æļĹ":6940,"å¤ļå°ĳ":6941,"å±ĭ":6942,"æ´¥":6943,"æ©Ł":6944,"å°ĺ":6945,"è¿Ķ":6946,"æ£ĭ":6947,"æıĲé«ĺ":6948,"ä¸Ĭæµ·":6949,"ä»Ĭå¤©":6950,"å¢ŀåĬł":6951,"æĸ°çļĦ":6952,"æ¢ħ":6953,"å¯Ĵ":6954,"ä¸Ģå¤©":6955,"æĿ¯":6956,"ä¼¦":6957,"èĲ¨":6958,"å¸«":6959,"åįģä¸ī":6960,"å¤ķ":6961,"åĲĹ":6962,"ä¸ŃçļĦ":6963,"æľīåħ³":6964,"æĶ¿æ²»":6965,"éĻįä½İ":6966,"éĢļçŁ¥":6967,"åĲ¯åĬ¨":6968,"ç´«":6969,"èĸĦ":6970,"åįģäºĮ":6971,"é¢¨":6972,"åķ¥":6973,"æĬ«":6974,"åįģäºĶ":6975,"æĪĳä¸į":6976,"æļĳ":6977,"åīĬ":6978,"èŃ°":6979,"åĺ¿":6980,"ä¸ĢäºĽ":6981,"åħ³äºİ":6982,"ä¸ĬçļĦ":6983,"åįģåĪĨ":6984,"æĶ¹åıĺ":6985,"éŁ³ä¹Ĳ":6986,"æī¾åĪ°":6987,"çļĦæĹ¶éĹ´":6988,"çľĭçľĭ":6989,"æĺ¯ä»Ģä¹Ī":6990,"æĿ°":6991,"éĩĮçļĦ":6992,"é£Łçī©":6993,"ä¸ĭåįĪ":6994,"äºĭé¡¹":6995,"éĹ¹":6996,"åĵªäºĽ":6997,"ä»ĬæĹ¥":6998,"å£°éŁ³":6999,"é¢ľèī²":7000,"å¼ĢåĲ¯":7001,"æĪ¿éĹ´":7002,"æĿ±":7003,"ä¸ĬåįĪ":7004,"éģ¸":7005,"åįģä¸Ģ":7006,"éĤĵ":7007,"æµģè¡Į":7008,"éģĶ":7009,"å¤ĸéĿ¢":7010,"æĺŁæľŁ":7011,"åįģä¸ĥ":7012,"åĨįçĶŁ":7013,"éĽ»è©±":7014,"å¤´æĿ¡":7015,"èģŀ":7016,"åķĬ":7017,"æĥ³è¦ģ":7018,"å®īæİĴ":7019,"æľĢé«ĺ":7020,"æľĢæĸ°":7021,"è®©æĪĳ":7022,"æĻļä¸Ĭ":7023,"æľĢè¿ĳ":7024,"æĺ¯ä¸įæĺ¯":7025,"æīĵå¼Ģ":7026,"æĪĳæĥ³":7027,"æľīä»Ģä¹Ī":7028,"æīĢæľīçļĦ":7029,"çº¢èī²":7030,"ç»ĻæĪĳ":7031,"ä¸Ģä»½":7032,"æıĲéĨĴ":7033,"æ¸©åº¦":7034,"äºĮåįģ":7035,"å¤©æ°Ķ":7036,"æİ¥ä¸ĭæĿ¥":7037,"æľºåĻ¨äºº":7038,"ä¿Ĭ":7039,"åį°åº¦":7040,"æĢİä¹Īæł·":7041,"èµ¤":7042,"åĴĸåķ¡":7043,"çİ°åľ¨çļĦ":7044,"çİĦ":7045,"çħ®":7046,"æĪĳåľ¨":7047,"æĺİå¤©":7048,"é¤Ĳåİħ":7049,"ç´Ħ":7050,"èı¯":7051,"åıĳçĶŁäºĨ":7052,"åİ¨æĪ¿":7053,"å°ıç±³":7054,"æĹ©ä¸Ĭ":7055,"æĸ°éĹ»ç½ĳ":7056,"çī¹æľĹæĻ®":7057,"éĸĭå§ĭ":7058,"æĻ´":7059,"çı¾åľ¨":7060,"ä¸Ģçķª":7061,"éĩįå¤į":7062,"çĶŁæĹ¥":7063,"ä»Ģä¹ĪæĹ¶åĢĻ":7064,"åĳ¨æľ«":7065,"äºĨåĲĹ":7066,"çļĦæīĢæľī":7067,"èĵĿèī²":7068,"çħ§æĺİ":7069,"é¢Ħçº¦":7070,"æĴŃæĶ¾":7071,"æŃĮæĽ²":7072,"é»Ħèī²":7073,"æīĵçĶµè¯Ŀ":7074,"å®¢åİħ":7075,"è§£éĻ¤":7076,"å®īéĿĻ":7077,"äºĶåįģ":7078,"çº½çº¦":7079,"æ°Ķæ¸©":7080,"æĬĬæĪĳ":7081,"åĳĬè¯īæĪĳ":7082,"ä»Ĭå¤©çļĦ":7083,"éĵĥ":7084,"ä¼ŀ":7085,"çģ¯åħī":7086,"æľ¬åĳ¨":7087,"ä¸ĢæĿ¯":7088,"ä¸ĢæĹ¥":7089,"æŃĮæīĭ":7090,"é¥ŃåºĹ":7091,"æľĢå¾Į":7092,"ä»ķ":7093,"ä¸ĭä¸Ģ":7094,"ä½łèĥ½":7095,"åį§å®¤":7096,"åı¤åħ¸":7097,"éļıæľº":7098,"è«ĩ":7099,"å¤ĸåįĸ":7100,"æľĢæĸ°çļĦ":7101,"ä½łå¥½":7102,"ä¸Ģé¦ĸ":7103,"ä¸ĭä¸Ģä¸ª":7104,"ä»ĬæĻļ":7105,"åĴĭ":7106,"ä¸Ńéĥ¨":7107,"çļĦé¢ľèī²":7108,"èª°":7109,"å¸®æĪĳ":7110,"å¤ªå¹³æ´ĭ":7111,"èµ·åºĬ":7112,"æĪĳåĸľæ¬¢":7113,"ä¸ĵè¾ĳ":7114,"ä¸ĥå¹´":7115,"è©ķ":7116,"ç¬ĳè¯Ŀ":7117,"åĳ¨äºĶ":7118,"æ¼Ķå¥ı":7119,"åľ¨æĪĳçļĦ":7120,"éĢ±":7121,"æĻļé¤Ĳ":7122,"æĪĳèĥ½":7123,"æĺ¯å¤ļå°ĳ":7124,"æĺİæĹ¥":7125,"æĸ°èģŀ":7126,"æĹ¶æĬ¥":7127,"å¤ĸå¥Ĺ":7128,"ä¸ĭéĽ¨":7129,"æĸĻçĲĨ":7130,"ä¸īçĤ¹":7131,"åĩłçĤ¹":7132,"åīįåįģ":7133,"åĳ¨ä¸Ģ":7134,"æ¨Ļæºĸ":7135,"åĹ¨":7136,"æľĢåĸľæ¬¢çļĦ":7137,"æµ´å®¤":7138,"äºĶæľĪ":7139,"é£²":7140,"è¨Ńå®ļ":7141,"ä¸ĭåĳ¨":7142,"ç¢ºèªį":7143,"é¢ĦæĬ¥":7144,"æıĴåº§":7145,"çĪµå£«":7146,"æĶ¹æĪĲ":7147,"æİĥ":7148,"æĳĩæ»ļ":7149,"å®īåĢį":7150,"éŁ³ç®±":7151,"äº®åº¦":7152,"è¿Ļé¦ĸ":7153,"è¿Ļé¦ĸæŃĮ":7154,"æĽľ":7155,"èªķ":7156,"åĨĹ":7157,"à¹Ĥ":7158,"à¸Ńà¸ĩ":7159,"Ø§Ø¦":7160,"Ø±ÙĬ":7161,"à¸£à¸°":7162,"à¸²à¸¢":7163,"à¸²à¸¡":7164,"ãģ£ãģŁ":7165,"ÙĬÙĨ":7166,"ãģªãģĦ":7167,"Ø§Ø¹":7168,"à¸¨":7169,"à¹Īà¸ĩ":7170,"à¸±à¸ĩ":7171,"ĠØ§ÙĦØ£":7172,"à¸²à¸ģ":7173,"à¹īà¸Ļ":7174,"à¹Ģà¸£":7175,"à¸¶":7176,"à¸ĭ":7177,"à¸Ħà¸£":7178,"à¸ĺ":7179,"à¸±à¸ģ":7180,"ÙĪÙĨ":7181,"à¸Ńà¸¢":7182,"ĠØ§ÙĦØ¹":7183,"à¸²à¸Ļ":7184,"ÙĦÙĬ":7185,"à¸Ľà¸£à¸°":7186,"à¹Ģà¸Ľ":7187,"à¸ł":7188,"ÙħÙĨ":7189,"à¹ĩà¸Ļ":7190,"à¸į":7191,"ĠØ§ÙĦØ³":7192,"à¸«à¸¥":7193,"ÙĪØ§":7194,"à¸Ńà¸Ļ":7195,"à¸©":7196,"à¹Īà¸§":7197,"à¸«à¸Ļ":7198,"Ø¨ÙĬ":7199,"Ø±Ø§":7200,"Ø´Ø±":7201,"à¹Ģà¸ģ":7202,"à¹Īà¸²à¸ĩ":7203,"à¸¹à¹ī":7204,"ĠØ§ÙĦØŃ":7205,"ÙĪÙħ":7206,"à¹Ģà¸¥":7207,"à¸Ħà¸§à¸²à¸¡":7208,"à¸Īà¸°":7209,"à¸Ł":7210,"à¹īà¸ĩ":7211,"à¸«à¸¡":7212,"ØªÙħ":7213,"ÙĬØ¯":7214,"à¹Īà¸Ļ":7215,"à¹Ģà¸Ĺ":7216,"Ø¹ÙĦ":7217,"à¸Ńà¸ģ":7218,"ÙĤÙĬ":7219,"ØªØŃ":7220,"ÙĩØ§":7221,"ÙħØ§":7222,"à¹īà¸Ńà¸ĩ":7223,"Ø±Ø¨":7224,"ĠØ§ÙĦØ¬":7225,"à¹Ģà¸Ķ":7226,"à¹ĥà¸«":7227,"à¸¡à¸²":7228,"à¸µà¹ī":7229,"ÙĨÙĬ":7230,"ãĤĪãģĨ":7231,"à¸´à¸Ķ":7232,"à¹Ģà¸ª":7233,"à¸ģà¸¥":7234,"ĠØ§ÙĦØ¥":7235,"ÙĤØ©":7236,"ÙĬØ§":7237,"Ø¹Ø¯":7238,"ĠØ§ÙĦÙĨ":7239,"Ø¦":7240,"ÙĪÙĤ":7241,"à¹Ģà¸ŀ":7242,"à¸±à¸Ķ":7243,"à¸Ńà¸²":7244,"à¸Ńà¸ļ":7245,"à¸ķà¸£":7246,"à¹Ģà¸Ĭ":7247,"à¹ģà¸¥":7248,"ÙĨØ§":7249,"à¹Ħà¸Ľ":7250,"à¸±à¸§":7251,"ĠØ§ÙĦÙģ":7252,"à¹Ģà¸Ĥ":7253,"ÑĢÐ¾":7254,"ÙħØ±":7255,"ÙĥØ±":7256,"Ø³Ø¨":7257,"ÙĨØª":7258,"Ø§Ø¬":7259,"ÙĥÙĦ":7260,"Ø³Ùħ":7261,"ãģĦãģ¦":7262,"Ø³ÙĬ":7263,"ÙĪØ¬":7264,"ĠØ§ÙĦØ®":7265,"ØµØ±":7266,"à¹īà¸²à¸ĩ":7267,"à¸¸à¸Ķ":7268,"à¸Ĭà¸²":7269,"Ø°Ø§":7270,"à¸Ĺà¸³":7271,"ĠØ§ÙĦÙĤ":7272,"ÙĦÙĥ":7273,"à¸¹à¹Ī":7274,"ÙĬÙħ":7275,"ÙĪØ¹":7276,"Ø§ÙĤ":7277,"à¹Ģà¸¡":7278,"ÙĩØ±":7279,"à¹Ģà¸Ļ":7280,"ì»":7281,"à¹ĥà¸Ļ":7282,"à¹Ĩ":7283,"à¸Īà¸²à¸ģ":7284,"à¸§à¸¢":7285,"à¹ĥà¸Ĭ":7286,"à¸ĩà¸²à¸Ļ":7287,"ĠØ§ÙĦØ´":7288,"Ø§ØŃ":7289,"à¹īà¸²à¸Ļ":7290,"ÙĥÙĨ":7291,"ĠØ§ÙĦØ¯":7292,"ÙħØ³":7293,"ØµÙĦ":7294,"Ø§Ø±Ø©":7295,"ÙĦÙħ":7296,"à¸ªà¸¡":7297,"à¸¶à¸ģ":7298,"à¸Ħà¸Ļ":7299,"à¹ĥà¸Ī":7300,"ãģĦãģŁ":7301,"ÙģØ±":7302,"ĠØ§ÙĦØµ":7303,"ãģ¾ãģĽãĤĵ":7304,"Ø¯Ø©":7305,"ĠØ§ÙĦØ±":7306,"à¸ªà¸³":7307,"à¹Ģà¸«":7308,"à¸ģà¸£à¸°":7309,"à¹Ģà¸Ī":7310,"ÙĨØ©":7311,"à¸Ĳ":7312,"ØŃØ©":7313,"Ø§Øµ":7314,"à¸Ħà¸¡":7315,"à¸Ľà¸¥":7316,"Ã´i":7317,"á»Ŀi":7318,"Ã¢y":7319,"à¸Ļà¸²":7320,"à¸«à¸²":7321,"Ø¬ÙĦ":7322,"à¹Ģà¸§":7323,"ÙħØ©":7324,"ĠØ§ÙĦÙĥ":7325,"Ø¬Ø±":7326,"Ø§Ø·":7327,"à¸ªà¸£":7328,"à¹Īà¸¡":7329,"Ø®Ø±":7330,"à¹Ģà¸ķ":7331,"à¸Īà¸³":7332,"à¸Ŀ":7333,"à¹Īà¸²à¸¢":7334,"à¸Ħà¸¥":7335,"ÙĤÙĪ":7336,"ÙħØ¹":7337,"à¸Ĥà¸Ńà¸ĩ":7338,"Ùĭ":7339,"ãģ®ãģ§":7340,"à¹īà¸§":7341,"ãģŃ":7342,"á»ĩt":7343,"ÙĪÙģ":7344,"ÙĤÙĦ":7345,"à¸łà¸²à¸ŀ":7346,"à¸¥à¸²":7347,"ÙĬÙģ":7348,"Ã¡ng":7349,"à¸¹à¸ģ":7350,"Ø§ÙĨÙĬ":7351,"Ø¯Ø§":7352,"Ã¡nh":7353,"ëį°":7354,"Ø§Ø¶":7355,"Ø§ÙĦÙĬ":7356,"Ø¨Ø§Ø±":7357,"à¸ŀà¸£":7358,"Ø®ÙĦ":7359,"à¸ī":7360,"áº¯c":7361,"Ð¿ÑĢ":7362,"ĠØ§ÙĦØ«":7363,"à¸Ńà¸Ķ":7364,"Ø¨ØŃ":7365,"à¸ªà¸Ļ":7366,"à¸®":7367,"ÙħÙĪ":7368,"à¸©à¸²":7369,"à¸Ńà¸¡":7370,"à¸Ľà¸£":7371,"ĠØ¨Ø§ÙĦ":7372,"á»ģu":7373,"ĠØ§ÙĦÙĦ":7374,"à¸¶à¸ĩ":7375,"à¸¡à¸²à¸ģ":7376,"ãĥŁ":7377,"à¸Ĺà¸¢":7378,"à¹Ĥà¸Ķ":7379,"à¸ªà¸²à¸¡":7380,"ÙĪØ¨":7381,"á»ĳc":7382,"á»ĭch":7383,"Ø¹Ø©":7384,"à¹Ģà¸Ń":7385,"ÙĥØª":7386,"ìĹħ":7387,"à¸Ńà¸Ńà¸ģ":7388,"à¹Ħà¸£":7389,"Ø·Ø±":7390,"Ø·ÙĦ":7391,"ãģĤãĤĬãģ¾ãģĻ":7392,"ãĥĻ":7393,"ãĤ±":7394,"ØŃØª":7395,"à¸±à¸į":7396,"ãĥ¼ãĥł":7397,"ÙĥØ©":7398,"à¹īà¸²à¸¢":7399,"ãģ¨ãģĦãģĨ":7400,"à¸Ĺà¸²à¸ĩ":7401,"à¹īà¸³":7402,"ÙĥÙħ":7403,"à¸¥à¸ĩ":7404,"à¸«à¸£":7405,"ÙĤØ±":7406,"ÙĪÙĬ":7407,"à¸ªà¸²à¸¡à¸²à¸£à¸ĸ":7408,"Ãªu":7409,"áº¹":7410,"ÙģÙĬ":7411,"Ø§Ø²":7412,"Ø§Ùĩ":7413,"áº¥n":7414,"à¹Ģà¸Ħà¸£":7415,"áº¯t":7416,"ãĥı":7417,"ÙĥÙĪÙĨ":7418,"Ġìļ°":7419,"à¸ģà¸³":7420,"ĠØ§ÙĦØ·":7421,"ĠØ·":7422,"ê¹Į":7423,"à¹Ģà¸ĭ":7424,"Ø¨Ø§":7425,"à¸·à¸Ńà¸Ļ":7426,"ÙĤØ§ÙĦ":7427,"Ġìĸ´":7428,"à¸§à¸Ļ":7429,"à¸ģà¸£à¸£à¸¡":7430,"á»«ng":7431,"ãģĭãĤĬ":7432,"à¹Ģà¸¢":7433,"ãĥ¼ãĥ³":7434,"à¸´à¸ķ":7435,"ãģĦãģı":7436,"à¹Ģà¸«à¸¥":7437,"à¸´à¸ĩ":7438,"à¹īà¸¡":7439,"à¸¸à¸ĩ":7440,"à¹ģà¸¥à¸°":7441,"Ø°ÙĬ":7442,"Ð»Ðµ":7443,"ãģ¾ãģ§":7444,"à¹ģà¸ļà¸ļ":7445,"ãģŁãģĦ":7446,"à¹Ģà¸¥à¸¢":7447,"ãģ£ãģ¦ãģĦãĤĭ":7448,"ê³Ħ":7449,"êµŃ":7450,"ØªÙĬ":7451,"ĠØ£ÙĬ":7452,"Ð´Ñĥ":7453,"ãĤĪãģĨãģ«":7454,"ÙĥÙĬ":7455,"ÙģÙĦ":7456,"à¹Īà¸²à¸Ļ":7457,"Ð¿ÐµÑĢ":7458,"à¹Īà¸²à¸§":7459,"à¸Ļà¸³":7460,"ãģ©ãģĨ":7461,"à¹Ģà¸ļ":7462,"à¹ģà¸¡":7463,"Æ¡i":7464,"Ð¾Ð³Ð´Ð°":7465,"uyá»ĩn":7466,"à¸ªà¸²":7467,"à¸µà¸¢à¸ĩ":7468,"Ø§Ø¦ÙĬ":7469,"Ø§ÙĦØ©":7470,"ãĤ½":7471,"ãĥĥãĥĹ":7472,"ÙĬØ±Ø©":7473,"Ø¨Ø¹":7474,"à¸£à¸²à¸¢":7475,"à¸ķà¸ģ":7476,"ãĤĴè¦ĭ":7477,"ÙģØ¹":7478,"à¹ĩà¸ļ":7479,"áº¡c":7480,"ÐºÑĢ":7481,"à¹ģà¸ģ":7482,"ê²ł":7483,"à¸§à¸ģ":7484,"Ø³ÙĦØ§Ùħ":7485,"ãģĳãĤĭ":7486,"à¹Ĥà¸Ļ":7487,"Ø§Ø¹Ø©":7488,"à¸´à¸ģ":7489,"Ø³Ø©":7490,"ĠìĿĺ":7491,"ãģıãĤĮ":7492,"ìĺĢ":7493,"ÙĪÙĬÙĦ":7494,"å¤ī":7495,"ĠÙĦÙĦ":7496,"ĠØ£ÙĨ":7497,"ãģ«ãģ¯":7498,"ØªÙĩ":7499,"Ãło":7500,"à¸ķà¸²à¸¡":7501,"ãģ®ãģ¯":7502,"áº·t":7503,"ãģ¦ãģĦãĤĭ":7504,"ĠØ³ÙĬ":7505,"Ä±yor":7506,"ÑĭÐ¼":7507,"à¹Ģà¸§à¸¥à¸²":7508,"ĠØº":7509,"á»ĳn":7510,"ãĥ¢":7511,"à¸£à¸ĸ":7512,"ê¸Ī":7513,"ë¬´":7514,"ãĤĵãģ§":7515,"ãĥľ":7516,"ëĭ¨":7517,"ĠØ«":7518,"Ø¹Ø§":7519,"ãģĪãĤĭ":7520,"Ø«ÙĦ":7521,"ìĭ¤":7522,"ĠØ§ÙĦÙħÙĨ":7523,"Ø¹ÙĬ":7524,"à¹Ĥà¸¥":7525,"à¹īà¸Ńà¸¢":7526,"Ø¨Ø·":7527,"ĠØ¢":7528,"ĠØ§ÙĦØº":7529,"ØµØŃ":7530,"ÙĦÙĪ":7531,"à¸ªà¸Ķ":7532,"ìĺģ":7533,"ÙĪØµ":7534,"à¸µà¸¢à¸§":7535,"Ø¬Ø©":7536,"ÙĪÙĤØ¹":7537,"ØºÙĬØ±":7538,"à¸«à¸¡à¸²à¸¢":7539,"æ¥½":7540,"ìĹĪ":7541,"à¹Ĥà¸¡":7542,"à¹Ģà¸Ľà¸¥":7543,"à¸Ńà¸¥":7544,"ĠìķĮ":7545,"Ø¹Ø±Ùģ":7546,"à¹Ħà¸Ł":7547,"Ø£Ø®":7548,"ãģ£ãģ¦ãģĦãģ¾ãģĻ":7549,"ÑĨÐµ":7550,"ÙħØ§Ùħ":7551,"é£Łãģ¹":7552,"à¸·à¸Ļ":7553,"áº¯m":7554,"Ø¶Ø±":7555,"ĠØ§ÙĦØ´Ø±":7556,"à¹Ĥà¸ķ":7557,"ĠÑģÑĢÐµÐ´":7558,"ĠÐ¼ÐµÑģÑĤ":7559,"ÐµÑĤÑĮ":7560,"à¸ªà¸ĸà¸²à¸Ļ":7561,"ĠÃ¶ÄŁ":7562,"ØºÙĬ":7563,"ãĤ¯ãĥª":7564,"Ø±ÙĬØ¯":7565,"ĠÑĢÐ°ÑģÑģ":7566,"à¸ļà¸£":7567,"ÐµÑĢÐ¸":7568,"Ø·Ùģ":7569,"à¹Īà¸Ńà¸¢":7570,"ãģĳãģ¦":7571,"à¸¸à¸¡":7572,"ãģ«åħ¥":7573,"ĠÐ»ÑİÐ±":7574,"ÑĥÑĪ":7575,"á»¯ng":7576,"Å©ng":7577,"Ã²n":7578,"Ð½ÑĭÐ¼":7579,"Ġcáº£":7580,"Ã³i":7581,"ĠØ°":7582,"ĠØ¨ÙĨ":7583,"à¹Ħà¸Ĺà¸¢":7584,"ĠØ§ÙĦÙĬ":7585,"lÃ¼":7586,"ãģłãģ£ãģŁ":7587,"à¹Ģà¸ĩ":7588,"Ð½Ð¸Ðµ":7589,"ĠÙĪØ§":7590,"ëł¤":7591,"ãģ§ãģĹãģŁ":7592,"ÑģÐºÐ¾Ð¹":7593,"ØªÙĥ":7594,"ÙħÙĥÙĨ":7595,"ë¯¼":7596,"à¹Ħà¸§":7597,"tÄ±r":7598,"ĠÙĦÙĬ":7599,"à¸Ħà¸³":7600,"lÄ±ÄŁÄ±":7601,"à¸·à¸Ńà¸ĩ":7602,"Ø¬Ø¯":7603,"íŀĪ":7604,"ÑĩÐ¸":7605,"Ø±Ø¶":7606,"ìĦł":7607,"ÙĪØ±Ø©":7608,"ìľł":7609,"á»įi":7610,"ÃŃch":7611,"ÑģÐ¾":7612,"ìķ½":7613,"ãĥİ":7614,"ĠÐ´Ðµ":7615,"ë§Ī":7616,"ĠØ§ÙĦØ¹Ø§ÙĦÙħ":7617,"ë¥´":7618,"uyá»ĥn":7619,"ĠØ²":7620,"ãģ¦ãģĦãģ¾ãģĻ":7621,"ÙħØ§ÙĨ":7622,"ìĹ°":7623,"ĠìłĢ":7624,"ÙĦÙĩ":7625,"á»Łi":7626,"íĸĪ":7627,"à¸Ķà¸²":7628,"ĠØ¹Ø¨Ø¯":7629,"à¹ģà¸£":7630,"à¹Ģà¸Ħ":7631,"ëįĺ":7632,"ĠØ§ÙĦØ°":7633,"ì°¨":7634,"à¸Ńà¸¢à¸²à¸ģ":7635,"à¸ķà¸Ńà¸Ļ":7636,"ØªØ¯":7637,"ÙĪØ§Ø±":7638,"ĠÐ¼Ð¾Ð³":7639,"ĠÃ§Ä±k":7640,"Ð·Ñĭ":7641,"Æ°u":7642,"ĠìĦ¸":7643,"à¹Ĥà¸£":7644,"ĠëĶ°":7645,"ãģĵãģĵ":7646,"ĠØ§ÙĦØ§ÙĨ":7647,"ÙĬØ²":7648,"ĠíķĺëĤĺ":7649,"ĠÙħØ´":7650,"Ġë¯¸":7651,"ëĭĪê¹Į":7652,"ĠÐ¿Ð»":7653,"ØºÙĦ":7654,"ê·¼":7655,"ĠyÃ¼z":7656,"ì²ĺ":7657,"ÙĩÙĦ":7658,"Ø§ÙĦÙĬØ©":7659,"Ø±Ùĩ":7660,"ãĤ¶":7661,"ØªØ¨":7662,"ãĥĹãĥª":7663,"ëĭ´":7664,"ØŃØ¯Ø«":7665,"ÑĢÐ¾Ð¼":7666,"Ø§Ø¬ØªÙħØ§Ø¹":7667,"à¹īà¸Ńà¸Ļ":7668,"à¹ģà¸Ī":7669,"à¸¢à¸Ńà¸Ķ":7670,"ÙĪÙĤÙģ":7671,"ĠØªØŃ":7672,"ãģ¿ãģŁãģĦ":7673,"ĠØ§ÙĦÙħÙĪ":7674,"ĠÑģÐ´ÐµÐ»":7675,"ÑĢÐ°Ð´":7676,"ãĥ¼ãĤº":7677,"ãĤ¸ãĥ£":7678,"Ø·ÙĬ":7679,"Ø¹ÙĦÙī":7680,"ëįĶ":7681,"ÑĥÑħ":7682,"Ġì¢ĭ":7683,"Ø«ÙĨ":7684,"Ġgeli":7685,"à¸Ļà¸Ńà¸ģ":7686,"á»§y":7687,"ìķĺ":7688,"ãĤ¯ãĥ©":7689,"à¸«à¸¢":7690,"uyáº¿t":7691,"à¸¢à¸°":7692,"ãģ©ãģ®":7693,"ĠkonuÅŁ":7694,"Ø£ÙĦ":7695,"Ø§Ø³Ø¨":7696,"ãģ¹ãģį":7697,"ÅĦsk":7698,"à¸Ħà¸²à¸£":7699,"à¸ĵà¸²":7700,"à¹Ģà¸Ĺà¸ŀ":7701,"waÅ¼":7702,"ØŃØªØ§Ø¬":7703,"à¸Ĺà¸ĺ":7704,"à¹Īà¸§à¸¢":7705,"ÙĥØ±Ø©":7706,"ĠØ¹ÙĨ":7707,"ĠÙħØ¹":7708,"ĠÙħØ§":7709,"ĠmÃł":7710,"á»ĩc":7711,"Ð°Ñħ":7712,"íķĺê³ł":7713,"ĠÙĦÙħ":7714,"ãģĹãģ¦ãģĦãĤĭ":7715,"ĠØ¨ÙĬÙĨ":7716,"ĠÙĥØ§ÙĨ":7717,"ëħĦ":7718,"Ð´Ð¸":7719,"ãģĮãģĤãĤĭ":7720,"ãģĦãģĦ":7721,"ÙĬØª":7722,"ĠÐ²Ð¾":7723,"à¹ĥà¸«à¸¡":7724,"Ġà¹Ĥà¸Ķà¸¢":7725,"ìķĪ":7726,"ĠØ§ÙĦØ¨":7727,"Ġë§Ĳ":7728,"Ġdá»±":7729,"Ġthá»ĭ":7730,"à¸¢à¸²":7731,"ãĥªãĥ¼":7732,"à¸ľà¸¡":7733,"ãģ«ãģ¤ãģĦãģ¦":7734,"ĠìĨĮ":7735,"ĠÙĬÙħÙĥÙĨ":7736,"ìĨį":7737,"ÙĬÙĥ":7738,"ÑģÐºÐ¸Ð¹":7739,"Ã¬m":7740,"à¸Ńà¸²à¸«à¸²à¸£":7741,"Ġà¹Ģà¸ŀ":7742,"ÑģÑĤÐ°":7743,"ÙĤÙĪÙĦ":7744,"ë°©":7745,"ĠëıĻ":7746,"Ġà¹Ģà¸Ľ":7747,"liÄŁi":7748,"ìĹĲê²Į":7749,"à¸Ĥà¸Ń":7750,"ìłĲ":7751,"Ø°ÙĥØ±":7752,"ìĸĳ":7753,"ĠØ¹ÙĨØ¯":7754,"Ġê±°":7755,"Ð²Ðµ":7756,"à¹Ģà¸Ńà¸²":7757,"à¸Īà¸Ļ":7758,"Ġëį":7759,"ĠëįĶ":7760,"à¸ļà¸²à¸ĩ":7761,"ãģĮãģĤãĤĬãģ¾ãģĻ":7762,"ayÄ±":7763,"ØŃØ¨":7764,"ÙĪÙĬØ©":7765,"à¹Ĥà¸¥à¸ģ":7766,"à¹Ĥà¸Ń":7767,"ì¤ĳ":7768,"Ð²Ñĭ":7769,"ÙħØª":7770,"íĺĦ":7771,"Ø§Ø´":7772,"à¸¥à¸Ķ":7773,"ÙģØ©":7774,"Ø±Ø¬":7775,"ĠÅŁey":7776,"ĠØ£Ùħ":7777,"Ġà¹Ģà¸¡":7778,"ãģ¨ãģ®":7779,"áº¥m":7780,"ÙģØ¶ÙĦ":7781,"Ã§Ä±":7782,"ĠÙĩÙĨØ§":7783,"íĶĦ":7784,"à¹ģà¸£à¸ģ":7785,"Ø³Ø§":7786,"Ø±Øª":7787,"Ð¿ÑĢÐ¸":7788,"ÙĬØ´":7789,"Ä±mÄ±":7790,"Ġà¸ŀ":7791,"à¹ģà¸ªà¸Ķà¸ĩ":7792,"Ø§ÙĬ":7793,"Ġë¶Ī":7794,"ĠÐ½Ð¸":7795,"à¸Ħà¸§à¸£":7796,"Ø§Ø¦ÙĬØ©":7797,"áº·p":7798,"íķŃ":7799,"Ġìĸ´ëĸ":7800,"Ð½ÐµÐµ":7801,"gÃ¼":7802,"ÙĪØ©":7803,"à¹ĥà¸ª":7804,"ĠÐ´ÐµÐ½ÑĮ":7805,"ëĤľ":7806,"Ø§Ø®":7807,"ãģĪãģ¦":7808,"Ø§Ø¹Ø¯":7809,"ÙħÙĬÙĨ":7810,"Ġì§Ħ":7811,"à¸Ĭà¸Ńà¸ļ":7812,"Ð´ÐµÑĤ":7813,"à¸ļà¸Ńà¸ģ":7814,"Ø¹ÙĬØ¯":7815,"Ø¨Ø§Øª":7816,"ãĥĥãĥģ":7817,"ë°ĺ":7818,"ãĤģãģ¦":7819,"Ġà¸Īà¸²à¸ģ":7820,"à¸ªà¸Ńà¸ĩ":7821,"Ø§ÙĨÙĬØ©":7822,"ãĤ·ãĥ£":7823,"ëłĪ":7824,"Ġà¸ģ":7825,"à¸Ĺà¸³à¸ĩà¸²à¸Ļ":7826,"ÑĦÐµ":7827,"à¸«à¸¡à¸Ķ":7828,"ÙĨÙĬØ©":7829,"ĠÐ´Ð¾Ð¼":7830,"à¸Ĭà¸²à¸¢":7831,"ÙĨØµ":7832,"Æ°á»¡":7833,"ëĦ¤":7834,"å¥½ãģį":7835,"æĮģãģ¡":7836,"ë£¨":7837,"Ø¨Ùĩ":7838,"ĠÙĪØ§ØŃØ¯":7839,"ĠÑģÐ¼":7840,"Ä±ld":7841,"Ġhakk":7842,"ìłĢ":7843,"ÙĩÙĪ":7844,"Ø§Øº":7845,"à¹ģà¸ķ":7846,"íĮĮ":7847,"à¹ĩà¸ģ":7848,"ĠØ¶":7849,"ÙĬÙħØ©":7850,"ĠÑħÐ¾ÑĢÐ¾ÑĪ":7851,"ë°ľ":7852,"ãĥĲãĤ¤":7853,"Ġëĭ¤ìĿĮ":7854,"à¹Īà¸Ń":7855,"ĠíķĦìļĶ":7856,"ì§ĳ":7857,"ĠÐ»ÑĥÑĩ":7858,"ìļ¸":7859,"ãĤ¼":7860,"à¸¢à¸ģ":7861,"ĠØŃÙĤ":7862,"ĠhiÃ§":7863,"ëĳĲ":7864,"ÙĪØ§Ø¡":7865,"ĠÐ½Ð°Ð´":7866,"à¸Ľà¸£à¸°à¸Īà¸³":7867,"ãģĦãģ¤":7868,"ãĥ³ãĥī":7869,"à¸µà¸¢à¸¡":7870,"Ä±y":7871,"Ġëħ":7872,"Ġëħ¸":7873,"ĠÙĥÙĬÙģ":7874,"ĠØ´ÙĬ":7875,"à¸Ķà¸²à¸§":7876,"ĠoluÅŁtur":7877,"ãĤµãĤ¤":7878,"ëĦĪ":7879,"Ø·ÙĨÙĬ":7880,"ĠkÄ±":7881,"à¸Ľà¸ı":7882,"Ø±ÙĬÙĨ":7883,"ëħ¸":7884,"ÑĳÑĤ":7885,"ĠìĤ":7886,"à¸²à¸¨":7887,"ãĥªãĤ¢":7888,"iÃ«":7889,"à¹Ħà¸Ķ":7890,"áº£y":7891,"Ø¹ÙĨ":7892,"à¸¡à¸°":7893,"Ġara":7894,"malÄ±":7895,"ÐµÐ³Ð¾Ð´Ð½Ñı":7896,"ĠÑģÐµÐ¼":7897,"Ð¿Ð¾Ð´":7898,"Ø¶Ø§Ø¡":7899,"à¹Ĥà¸ŀ":7900,"Ø²Ø±":7901,"ĠÐ¼ÐµÑģÑı":7902,"Ð±ÑĥÐ´":7903,"ĠìŀĪìĸ´":7904,"à¸¬":7905,"ÑĪÐ¸Ðµ":7906,"ìĭŃ":7907,"ĠÑĤÑĭ":7908,"Æ°Æ¡i":7909,"ĠkÃª":7910,"à¹Ĥà¸Ĺà¸£":7911,"ë§Ĳ":7912,"ÅŁim":7913,"ëĬĺ":7914,"ĠaÄŁ":7915,"ãģĹãģ¦ãģıãĤĮ":7916,"Ð½Ñİ":7917,"ãĤªãĥ³":7918,"ãĥĹãĥ©":7919,"à¹Īà¸Ńà¸Ļ":7920,"ĠØ§ÙĦÙĦÙĬ":7921,"ĠgÃ¶nder":7922,"doÄŁan":7923,"Ã¼nkÃ¼":7924,"ÐµÑĩÐ½Ð¾":7925,"ĠÐ½Ð°Ð·":7926,"Ä±ndaki":7927,"ìĦ¼":7928,"Ø¨Ø§ØŃ":7929,"ÑĪÐ¸Ð¹":7930,"Ø§ÙĦØ£":7931,"ĠÐ°Ð½":7932,"ÑĢÐ°Ð¹":7933,"ÐµÐºÑĤÐ¾ÑĢ":7934,"ĠØ¨Øµ":7935,"ĠÐºÑĢÐ°Ñģ":7936,"ĠÑĩÐ°Ñģ":7937,"Ð±ÑĥÑĢ":7938,"ĠÐ½ÐµÐ´":7939,"Ã¼mÃ¼z":7940,"Ø´ÙĨ":7941,"ãĤŃãĥ£ãĥ³":7942,"ĠíĬ":7943,"ĠchÃ¡":7944,"à¹Ħà¸ķ":7945,"ÙĭØ§":7946,"á»īnh":7947,"Ø·ÙĤ":7948,"à¹ĭ":7949,"Ø§Ø¸":7950,"à¸±à¸ª":7951,"ĠÐ´ÐµÐ²":7952,"ãĤĴä½ľ":7953,"ãĤĴæİ¢":7954,"ÑĭÑĪ":7955,"ĠÙħØ³Ø§Ø¡":7956,"chod":7957,"ĠyÄ±":7958,"ĠØ§ÙĦØªÙĨ":7959,"powied":7960,"ÑıÑĤÐ¸":7961,"ĠÐ²ÐµÑģÑĮ":7962,"à¹ĩà¸Ķ":7963,"à¸ŀà¸¤":7964,"ëī´":7965,"ìµľ":7966,"ĠØ¹ÙĦÙī":7967,"Ġmá»Ļt":7968,"Ġvá»Ľi":7969,"ĠngÆ°á»Ŀi":7970,"ĠØ¥ÙĦÙī":7971,"Ġnhá»¯ng":7972,"Ġthá»ĥ":7973,"Ġà¹ģà¸¥à¸°":7974,"ĠÙĦØ§":7975,"ĠnhÆ°":7976,"ĠØ§ÙĦØªÙĬ":7977,"ĠÄĳáº¿n":7978,"Ġvá»ģ":7979,"ĠlÃłm":7980,"Ġsáº½":7981,"Ġá»Ł":7982,"ĠÄĳÃ³":7983,"Ġnhiá»ģu":7984,"Ġtáº¡i":7985,"ĠtrÃªn":7986,"ĠnhÃł":7987,"Ġsá»±":7988,"ĠÄĳáº§u":7989,"Ġbá»ĭ":7990,"ĠÙĩØ°Ø§":7991,"Ġnháº¥t":7992,"Ġpháº£i":7993,"Ġhiá»ĩn":7994,"Ġdá»¥ng":7995,"ĠÄĳá»Ļng":7996,"ĠÙĥÙĦ":7997,"Ġviá»ĩc":7998,"ĠnÄĥm":7999,"ĠthÃ¬":8000,"ĠØ§ÙĨ":8001,"ĠtÃ´i":8002,"ĠngÃły":8003,"ĠhÆ¡n":8004,"ĠÙĩØ°Ùĩ":8005,"ĠgiÃ¡":8006,"ĠchÃŃnh":8007,"ĠmÃ¬nh":8008,"Ġtháº¿":8009,"ĠnÃªn":8010,"ĠÙĩÙĪ":8011,"Ġráº¥t":8012,"ĠØ¨Ø¹Ø¯":8013,"Ġthá»Ŀi":8014,"ĠÄĳá»ĵng":8015,"ĠÄĳiá»ģu":8016,"ĠnÃ³i":8017,"Ġbiáº¿t":8018,"ĠchÃºng":8019,"ĠÄĳang":8020,"ĠlÃªn":8021,"ĠkhÃ¡ch":8022,"ĠnÃło":8023,"ĠkhÃ¡c":8024,"ĠÄĳÃ¢y":8025,"Ġcáº§n":8026,"ĠtrÃ¬nh":8027,"ĠphÃ¡t":8028,"Ġbá»Ļ":8029,"ĠÄĳá»Ļ":8030,"ÑĩÐµ":8031,"ĠnháºŃn":8032,"ĠtrÆ°á»Ľc":8033,"ĠhÃłnh":8034,"ĠlÆ°á»£ng":8035,"ĠtÆ°":8036,"ĠgÃ¬":8037,"Ġtháº¥y":8038,"ĠmÃ¡y":8039,"ĠtÃ¢m":8040,"Ð²Ð¾":8041,"ØªÙĩØ§":8042,"Ġtá»ĳt":8043,"ĠtÃ¬nh":8044,"ĠÙĩÙĬ":8045,"Ġtiáº¿p":8046,"Ġchá»§":8047,"ĠgiÃºp":8048,"ĠÃ½":8049,"Ġloáº¡i":8050,"ĠØ§ÙĦÙĬÙĪÙħ":8051,"ĠphÃ²ng":8052,"ĠÄĥn":8053,"larÄ±nÄ±":8054,"Ġtá»Ľi":8055,"Ġgiá»Ľi":8056,"Ġbáº£n":8057,"ĠÄĳá»ģ":8058,"ĠquÃ¡":8059,"Ġpháº§n":8060,"ĠÙĪÙĦØ§":8061,"Ġlá»Ľn":8062,"Ġtrá»ĭ":8063,"ĠÐ¼Ð¾":8064,"ÙĬÙĤ":8065,"ĠÙĤØ¨ÙĦ":8066,"Ġthá»©c":8067,"ĠÄĳiá»ĩn":8068,"ĠÃ¶nce":8069,"ĠváºŃy":8070,"Ġmuá»ĳn":8071,"ĠyÃªu":8072,"ãģ®ãģĭ":8073,"dÃ©":8074,"ĠØªÙħ":8075,"ãģķãĤĮãģŁ":8076,"ìĽĶ":8077,"ÙĦØ©":8078,"ĠnÃ³":8079,"ĠthÃ¡ng":8080,"ĠtÄĥng":8081,"ĠcÃ¡i":8082,"ĠØ¨Ø¹Ø¶":8083,"Ġà¸ģà¸²à¸£":8084,"ÙĪØª":8085,"ĠliÃªn":8086,"ĠÙħØª":8087,"ĠÐºÐ¾ÑĤÐ¾ÑĢÑĭÐµ":8088,"Ġtrá»įng":8089,"ĠtáºŃp":8090,"íķĺê²Į":8091,"Ġrá»ĵi":8092,"Ø§Ùĥ":8093,"Ġcuá»Ļc":8094,"Ġláº§n":8095,"ĠgÃ¶re":8096,"Ġthá»ĳng":8097,"ĠtiÃªu":8098,"Ġà¹ĥà¸Ļ":8099,"ĠÙĬÙĪÙħ":8100,"ĠbÃłi":8101,"ĠbÃ¡o":8102,"à¸ļà¸Ļ":8103,"Ġtiáº¿ng":8104,"ĠtÃ¬m":8105,"Ø¨Ø©":8106,"Ġë¶Ħ":8107,"ĠthÃªm":8108,"Ġgiá»Ŀ":8109,"ĠbÃ¡n":8110,"Ġbáº¥t":8111,"Ð½Ð¸Ð¹":8112,"tÃ³":8113,"ĠÑįÑĤÐ¾Ð¼":8114,"ĠchÆ°a":8115,"ĠÐ±ÑĭÐ»Ð¾":8116,"ÅĤam":8117,"Ġquá»ĳc":8118,"ĠÄĳÆ¡n":8119,"ĠÙĥØ§ÙĨØª":8120,"ĠphÆ°Æ¡ng":8121,"ĠÑĤÐµÐ¼":8122,"à¸Ńà¸°à¹Ħà¸£":8123,"ĠsÃ¡ng":8124,"ĠgÃ¶ster":8125,"ãģĵãģ¨ãĤĴ":8126,"ĠÐ¿Ð¾ÑģÐ»Ðµ":8127,"ĠngoÃłi":8128,"ĠÄĳá»ĭa":8129,"Ð¸ÑĤÑĮÑģÑı":8130,"Ġlá»ĭch":8131,"Ġthá»©":8132,"ĠdeÄŁil":8133,"ĠÙħØŃÙħØ¯":8134,"ĠÄĳá»ķi":8135,"ĠlÃºc":8136,"ĠÙĬÙĥÙĪÙĨ":8137,"Ø·ÙĦØ¨":8138,"ĠthÃŃch":8139,"Ġcháº¿":8140,"Ġìĭł":8141,"Ġgiáº£m":8142,"ÅĤÄħcz":8143,"ĠØ£ÙĥØ«Ø±":8144,"ĠolduÄŁunu":8145,"ãģĭãģª":8146,"ãĤĤãģĨ":8147,"Ġnghá»ĩ":8148,"ãģĹãģŁãģĦ":8149,"Ø±ÙĤ":8150,"Ġbáº¯t":8151,"íı¬":8152,"Ġná»Ļi":8153,"Ġlá»Ŀi":8154,"ĠtÃ¼m":8155,"Ġnhá»ı":8156,"ĠbÃ¬nh":8157,"à¸ŀà¸²":8158,"ĠÄĳÃ¡nh":8159,"Ġchuyá»ĥn":8160,"ãĤĮãĤĭ":8161,"Ø§Ø¯ÙĬ":8162,"ĠÄĳáº·t":8163,"Ġtiáº¿t":8164,"ĠmÃłu":8165,"ĠÑįÑĤÐ¾Ð³Ð¾":8166,"ĠtháºŃt":8167,"Ġná»¯a":8168,"ĠØ³Øª":8169,"ê¹Įì§Ģ":8170,"Ġká»³":8171,"à¹ĥà¸Ħà¸£":8172,"ØªÙĬÙĨ":8173,"owÄħ":8174,"ĠÐºÐ¾Ð³Ð´Ð°":8175,"ĠÐ±ÑĭÐ»":8176,"ĠÄĳá»ĵ":8177,"Ġgáº§n":8178,"ĠsÄ©":8179,"ĠtiÃªn":8180,"Ð½Ð¾Ñģ":8181,"Ð¾Ð²Ð¾Ð¹":8182,"Ġbá»Łi":8183,"ĠÙĩÙĨØ§Ùĥ":8184,"ÑĤÑĢÐ°":8185,"à¸£à¸Ńà¸ļ":8186,"Ġdiá»ħn":8187,"ĠØ£Ø³":8188,"Ġchuyá»ĩn":8189,"ĠØŃÙĪÙĦ":8190,"ĠchÆ¡i":8191,"ĠiÃ§inde":8192,"Ġphá»ĳ":8193,"ç§ģãģ¯":8194,"à¹ģà¸Ń":8195,"å°ĳãģĹ":8196,"ĠÙģÙĬÙĩ":8197,"ëĲĺìĸ´":8198,"ãģķãĤĮãģ¦ãģĦãĤĭ":8199,"ĠgÃ¼zel":8200,"ì²ľ":8201,"ì¤Ģ":8202,"ĠÐ¼ÐµÐ½Ñı":8203,"ÅŁe":8204,"Ġcá»ķ":8205,"ëĭ¬":8206,"ĠtÃªn":8207,"Ġkiá»ĩn":8208,"Ð»Ñĥ":8209,"ĠØ§ÙĦØ¹Ø±Ø¨ÙĬØ©":8210,"ĠÐ¼Ð½Ðµ":8211,"Ġì§Ģê¸Ī":8212,"ĠÐ½ÑĥÐ¶Ð½Ð¾":8213,"ãģıãĤīãģĦ":8214,"Ġhá»ĵ":8215,"à¹Ħà¸«à¸Ļ":8216,"cÃ³":8217,"Ġcá»Ńa":8218,"Ð»Ñĭ":8219,"ãģ®ãģĬ":8220,"à¸ģà¸¥à¸²à¸ĩ":8221,"ìĦĿ":8222,"åīįãģ«":8223,"Ð³Ðµ":8224,"Ġgiá»¯a":8225,"ĠØ¢Ø®Ø±":8226,"Ø¸ÙĩØ±":8227,"ãĥĴ":8228,"Ġtáº¥t":8229,"Ġmá»¥c":8230,"à¸ķà¸£à¸ĩ":8231,"Ð´Ñĭ":8232,"à¹Ģà¸ĺà¸Ń":8233,"ĠÙĦØ£":8234,"ä¸ĬãģĴ":8235,"Ġmá»©c":8236,"Ġìŀ¬":8237,"ÑıÑħ":8238,"ëĿ¼ê³ł":8239,"ĠÐ³Ð¾Ð´Ñĥ":8240,"ĠÐ±Ð¾Ð»ÑĮÑĪÐµ":8241,"ĠcÃ¢u":8242,"íĶ¼":8243,"Ġìĸ´ëĸ¤":8244,"ĠsÃ¶yle":8245,"ĠìĦł":8246,"Ġëª¨ëĵł":8247,"Ð½Ð¸ÐºÐ¸":8248,"ĠÄĳÃºng":8249,"Ð¿Ñĥ":8250,"Ġà¸ª":8251,"ĠÑĩÐµÑĢÐµÐ·":8252,"Ġgá»įi":8253,"Ġìŀ¥":8254,"Ġmá»Ł":8255,"wiÄĻksz":8256,"ëĤł":8257,"ÙĦØ¨":8258,"ĠnasÄ±l":8259,"ĠÐ¾Ð´Ð¸Ð½":8260,"ĠëıĦ":8261,"ĠØ§ÙĦØŃØ±":8262,"ĠcÃ¡o":8263,"ĠëĳĲ":8264,"ĠÐ²Ð¾Ñģ":8265,"ĠÙħÙĪ":8266,"ëª¨":8267,"ãĤĬãģ¾ãģĻ":8268,"ĠØ£ÙĪÙĦ":8269,"Ġchá»ĳng":8270,"ĠØªÙĨ":8271,"ĠdÃ¼nya":8272,"ĠØŃØ§ÙĦ":8273,"ĠlÆ°u":8274,"Ġà¸Īà¸°":8275,"ĠØ¨ÙĬ":8276,"Ġkiá»ĥm":8277,"ÙĬÙĦØ©":8278,"ĠÙĬØ¬Ø¨":8279,"Ġà¸Ń":8280,"ĠbÃ³ng":8281,"Ġtá»©c":8282,"ĠÑĨÐ²ÐµÑĤ":8283,"Ġtá»ĳi":8284,"ĠÅŁu":8285,"Ø®Ø§Ø±Ø¬":8286,"ĠÃ¢m":8287,"ì¹´":8288,"Ð»Ð¸Ð²":8289,"ĠÄĳÃ¢u":8290,"Ġxuá»ĳng":8291,"Ð¿ÑĢÐ¾Ð¸Ð·":8292,"ĠdÃ¹":8293,"ãĥ¬ãĥ³":8294,"ÙĪÙĦÙĬ":8295,"à¹Ģà¸ŀà¸¥à¸ĩ":8296,"à¸ķà¸¥":8297,"Ø´Øª":8298,"ãĤĮãģ¦":8299,"ãĤ¢ãĥĥãĥĹ":8300,"ãģ«ãģĤãĤĭ":8301,"Ġcuá»ĳi":8302,"ÑģÐºÐ¾Ð¼":8303,"ĠØ§ÙĦØ¶":8304,"ĠÙĦÙĪ":8305,"Ã¼nÃ¼":8306,"ëŀĢ":8307,"ĠhÃ£y":8308,"ë¦°":8309,"ĠØ§ÙĦÙĪÙĤØª":8310,"ãĥĢãĥ¼":8311,"ĠÐ¿Ð¸":8312,"ĠÙĩÙĦ":8313,"ĠÑįÑĤÐ¾ÑĤ":8314,"ë§¤":8315,"æĻĤãģ«":8316,"ĠyÃ¼ksek":8317,"ç§ģãģ®":8318,"ÙĤØ¯Ø±":8319,"Ġì°¨":8320,"ĠÑįÑĤÐ¾Ð¹":8321,"Ġëĵ¤":8322,"Ġtráº¡ng":8323,"ëĮĢë¡ľ":8324,"Ø£Ø®Ø¨Ø§Ø±":8325,"ĠØ§ÙĦØ¢ÙĨ":8326,"ĠÃ¡o":8327,"ÑĤÑĢÐ¾":8328,"Ġê´Ģëł¨":8329,"Ø³ÙĬØ±":8330,"ĠmÃ³n":8331,"ìĺ¨":8332,"ĠyakÄ±n":8333,"Ø²Ø§":8334,"ĠhakkÄ±nda":8335,"ãģ©ãģĵ":8336,"ĠìľĦíķ´":8337,"à¸Ļà¸Ńà¸Ļ":8338,"ĠØ§ÙĦØ³Ø¹ÙĪØ¯ÙĬØ©":8339,"ãĥĥãĥī":8340,"ÙĪØµÙĦ":8341,"Ø¶ØŃ":8342,"Ġìĸ´ëĸ»ê²Į":8343,"ìĽĮ":8344,"tÄħ":8345,"Ġíķĺê³ł":8346,"ãģ«ãģĹãģ¦":8347,"ĠÙĪÙĤØª":8348,"ÙĪØ´":8349,"ìĺ¬":8350,"ĠØ§ÙĦØ¬ÙĪ":8351,"ÅĤÃ³w":8352,"Ø·Ø¨":8353,"ĠÐ´Ð¾Ð¼Ð°":8354,"Ø®Ø¨Ø±":8355,"mÃ¼":8356,"Ġê´Ģíķľ":8357,"Ġìĭľê°Ħ":8358,"ãģ§ãģįãģ¾ãģĻ":8359,"íħĮ":8360,"ĠØªØ³":8361,"Ġà¹Ģà¸Ĭ":8362,"ê°ķ":8363,"Ġì§ĳ":8364,"ĠkaÃ§":8365,"ĠÃ©Ã©n":8366,"ë°Ķ":8367,"ÑĥÐ·":8368,"ĠØ¬Ø¯ÙĬØ¯Ø©":8369,"Ġká»ĥ":8370,"ØŃØµÙĦ":8371,"ãĤĴãģĬ":8372,"ÐµÐ½Ð´":8373,"Ð°Ð½Ð°":8374,"ÐºÐ¸Ð¹":8375,"Ġngá»§":8376,"ì¹¨":8377,"ĠmÄ±":8378,"ë³¼":8379,"ĠØ¬Ø¯ÙĬØ¯":8380,"ãĤĤãģ£ãģ¨":8381,"Ġgá»Ńi":8382,"Ġê¹":8383,"ĠØ¹Ø´Ø±":8384,"Ø±ÙģØ¹":8385,"ĠhÃ´m":8386,"Ġkhá»ıi":8387,"ĠcáºŃp":8388,"ĠØªØ§Ø±ÙĬØ®":8389,"Ġì¢Ģ":8390,"ĠchÃºt":8391,"Ġëª¨ëĳĲ":8392,"ĠÄĳá»įc":8393,"ë°°":8394,"ĠØªÙĪ":8395,"szÄĻ":8396,"ĠbÃ¼tÃ¼n":8397,"ĠÙħØ¯ÙĬÙĨØ©":8398,"æĹ¥ãģ®":8399,"ĠÐ³Ð¾ÑĤÐ¾Ð²":8400,"ĠØ¹ÙħØ±":8401,"à¹ģà¸Ħ":8402,"Ġtuáº§n":8403,"dÅº":8404,"ĠìŀĪìĿĦ":8405,"ĠcÆ°á»Ŀi":8406,"ieÅĦ":8407,"ĠÐ²ÑĭÐ±Ð¾ÑĢ":8408,"ĠÐ¼ÐµÐ¶Ð´Ñĥ":8409,"à¸¥à¸³":8410,"ë°±":8411,"ĠhÃł":8412,"ĠØŃØ¯":8413,"ĠcoÅĽ":8414,"ĠphÃºt":8415,"Ø´ÙĪ":8416,"ë²Ķ":8417,"ĠÑĤÐ°Ð¼":8418,"ĠÐ²ÑĢÐµÐ¼ÐµÐ½Ð¸":8419,"à¸£à¸²à¸¢à¸ģà¸²à¸£":8420,"íĻ©":8421,"ÑĩÑĮ":8422,"ujÄĻ":8423,"ĠØ§ÙĦÙħÙĦÙĥ":8424,"Ġláº¡nh":8425,"ĠìĹ´":8426,"ĠcÃł":8427,"ĠìĿ´ìķ¼":8428,"ĠhÃºt":8429,"ĠÅĽwiat":8430,"ĠÑģÐ²ÐµÑĤ":8431,"Ġtrá»Ŀi":8432,"ĠÐ´Ð²Ð°":8433,"æĹ¥ãģ«":8434,"Ġê°Ģìŀ¥":8435,"à¹Ģà¸ķà¸£":8436,"czyÄĩ":8437,"ĠØ§ÙĦØ±ÙĬØ§Ø¶":8438,"ãģ©ãĤĵãģª":8439,"niÄħ":8440,"ĠÑģÐ´ÐµÐ»Ð°ÑĤÑĮ":8441,"Ġë§İìĿ´":8442,"ä½ķãģĭ":8443,"à¹Ħà¸«à¸¡":8444,"à¹ģà¸Ķà¸ĩ":8445,"à¸ķà¸°":8446,"ĠyÃ¼zde":8447,"ĠÄĳÃ´ng":8448,"ĠØŃØ§ÙĦØ©":8449,"æĸ°ãģĹãģĦ":8450,"ìĥĪ":8451,"ĠÅ¼eby":8452,"ãģĮå¿ħè¦ģ":8453,"íĭ°":8454,"Ġchiá»ģu":8455,"ç§ģãģĮ":8456,"à¸Ľà¸£à¸²":8457,"Ġëĭ¤ìĭľ":8458,"Ð½Ð¸ÑĨ":8459,"ĠØ§Ø³Ùħ":8460,"ĠgÃ¼nÃ¼":8461,"ĠØ§ÙĦØ®Ø§Øµ":8462,"ë¶ģ":8463,"Ġnháº¡c":8464,"ĠktÃ³rej":8465,"ÐµÑĪÑĮ":8466,"ĠØ£ÙĦÙģ":8467,"ĠØ§ÙĦÙħÙĨØ·ÙĤØ©":8468,"à¸¥à¸¡":8469,"ĠëĤ´ê°Ģ":8470,"ë¦¼":8471,"ĠvÃłi":8472,"ì¤Ħ":8473,"ĠnháºŃt":8474,"ĠÐ·Ð´ÐµÑģÑĮ":8475,"à¹Ĥà¸ĭ":8476,"ìĸ´ìļĶ":8477,"Ø§Ø±Ø¯":8478,"ĠÑģÐµÐ¹ÑĩÐ°Ñģ":8479,"ĠØ³Ùħ":8480,"èµ·ãģĵ":8481,"Ġë§ŀ":8482,"Ø±ÙĪØŃ":8483,"ĠnÃ³ng":8484,"Ø¯ÙĪÙĦ":8485,"ãģķãĤĮãģ¦ãģĦãģ¾ãģĻ":8486,"à¹Ģà¸Ĥà¸ķ":8487,"Ġì·¨":8488,"ä¸Ńãģ®":8489,"ãģĻãģ¹ãģ¦":8490,"ĠÄĳÃªm":8491,"íĶĮ":8492,"Ø«ÙĦØ§Ø«":8493,"Ġmá»¹":8494,"ĠØ§ÙĦØ³Ø§Ø¹Ø©":8495,"ÑĳÐ¼":8496,"ĠÐ¼Ð¸Ð½ÑĥÑĤ":8497,"ĠÑĤÑĢÐ¸":8498,"à¸Ńà¸²à¸ģà¸²à¸¨":8499,"ĠØ§ÙĦØ£ÙĨ":8500,"Ð½Ð¸Ñħ":8501,"Ð±Ð¾ÑĤ":8502,"ÙĪØ¡":8503,"ëĤ¨":8504,"ĠbugÃ¼n":8505,"åĩºãģĹ":8506,"ĠthÃ¡i":8507,"ëķĮ":8508,"Ġxáº£y":8509,"Ø®ÙħØ³":8510,"ìķħ":8511,"ÑĤÐµÐº":8512,"ãĤ¸ãĥ¥":8513,"ãģĽãģ¦":8514,"ĠÄĳá»ı":8515,"Ġì§ĢìĹŃ":8516,"ãģ§ãģĻãģĭ":8517,"Ġmáº·c":8518,"Ð»Ð¸ÑģÑĤ":8519,"ĠØ³ÙĪÙģ":8520,"Ġê±¸":8521,"ì»¤":8522,"ĠëĮĢíķ´":8523,"ĠØ§ÙĦØ®Ø¨Ø±":8524,"ĠÐ¿ÑıÑĤ":8525,"ãĤ¤ãĥĻãĥ³ãĥĪ":8526,"ĠÑģÐµÐ³Ð¾Ð´Ð½Ñı":8527,"à¸Ħà¸Ń":8528,"ĠÙĬÙħÙĥÙĨÙĥ":8529,"ĠmiÄĻdzy":8530,"ĠÑģÐµÐ¼ÑĮ":8531,"à¸ķà¸£à¸§à¸Īà¸ªà¸Ńà¸ļ":8532,"Ġbuá»ķi":8533,"à¸Īà¸£":8534,"Ġmáº¥y":8535,"ĠìŀĪìĹĪ":8536,"ê²¨":8537,"ĠíĺĦìŀ¬":8538,"Ġchá»īnh":8539,"visÃ£o":8540,"ĠbáºŃt":8541,"lÃł":8542,"ĠÐ²ÑĭÑħÐ¾Ð´":8543,"ĠÐ¿ÐµÑģ":8544,"ãĥģãĤ§ãĥĥãĤ¯":8545,"ĠØ§ÙĦØ³Ùħ":8546,"ĠØ§ÙĦØªØ§Ø±ÙĬØ®":8547,"à¸ģà¸£à¸ĵ":8548,"à¹ĥà¸ģà¸¥":8549,"Ð¿Ð¾Ð²":8550,"Ã¼nÃ¼n":8551,"ãģ«ãģĻãĤĭ":8552,"ãĥĪãĥĥãĥĹ":8553,"ÙĥÙĬÙģ":8554,"ĠØ£ØŃ":8555,"ãĤ±ãĥĥãĥĪ":8556,"ãĤ»ãĥĥãĥĪ":8557,"ĠÐ´Ð²Ðµ":8558,"åħ¨ãģ¦":8559,"å¾Įãģ«":8560,"ĠyaÄŁ":8561,"ãģ«éĸ¢ãģĻãĤĭ":8562,"è¿ĳãģı":8563,"ĠÃ¼Ã§":8564,"à¸Ĺà¸£":8565,"rÃ³b":8566,"ĠØ£ÙĨØ§":8567,"å®¶ãģ®":8568,"Ø¶ÙĬÙģ":8569,"Ġì¢ĭìĿĢ":8570,"Ð¸Ð·Ð¼":8571,"æµģãĤĮ":8572,"ëŀĮ":8573,"ĠÐ¿Ð¾Ð¿":8574,"ĠÐ´Ð½Ñı":8575,"ĠÑģÐ¾Ð±Ð¾Ð¹":8576,"Ð°ÑĢÐ°":8577,"ĠÑĤÑĭÑģÑı":8578,"ä»ĬæĹ¥ãģ¯":8579,"ĠÆ¡n":8580,"ĠìĦ¸ê³Ħ":8581,"ĠdÄ±ÅŁ":8582,"ĠdzieÅĦ":8583,"Ø¹Ø´":8584,"ĠëĦĪë¬´":8585,"ÙģÙī":8586,"ĠÐ¼Ñĥ":8587,"ĠÙĦÙĩØ°Ø§":8588,"Ġmiá»ģn":8589,"ĠØ§ÙĦØ¬ÙħØ¹Ø©":8590,"ÑģÐºÐµ":8591,"Ð´Ð¾Ð±Ð°Ð²":8592,"gÃ¼n":8593,"íĥģ":8594,"ĠdeÄŁiÅŁtir":8595,"èªŃãģ¿":8596,"à¹ģà¸ªà¸ĩ":8597,"ÑģÐºÐ¾Ð»ÑĮÐºÐ¾":8598,"Ð±Ð°Ð²":8599,"ĠØ§ÙĦØ®ÙħÙĬØ³":8600,"æĻĤãģ®":8601,"ä»Ĭãģ®":8602,"è¨Ģãģ£ãģ¦":8603,"ãģĭãģĳãģ¦":8604,"ÙħØ§Ø°Ø§":8605,"à¸£à¸²à¸¢à¸ĩà¸²à¸Ļ":8606,"Ġbáº¿p":8607,"à¸«à¸¡à¸Ń":8608,"à¸ªà¸łà¸²à¸ŀ":8609,"ĠmiesiÄħ":8610,"Ġá»ķ":8611,"Ø¨Øº":8612,"ëŀĳ":8613,"èµ·ãģį":8614,"à¹ģà¸Ľ":8615,"ĠÑĥÑģÑĤÐ°Ð½Ð¾Ð²":8616,"ĠÑĥÑģÑĤÐ°Ð½Ð¾Ð²Ð»ÐµÐ½":8617,"à¹Ģà¸®":8618,"Ġìĺ¤ëĬĺ":8619,"ĠÅŁimdi":8620,"prÃ©":8621,"ĠhÃ¡t":8622,"ãģ«è¡Įãģı":8623,"ĠØ§ÙĦØ«ÙĦØ§Ø«Ø§Ø¡":8624,"ĠìķĦë¬´":8625,"ìĿ¸ì§Ģ":8626,"ãĤĴæĮģãģ£ãģ¦":8627,"ĠÐ¼Ð°Ð»Ð¾":8628,"ìĤ¼":8629,"ãģĹãģ¦ãģıãģłãģķãģĦ":8630,"Ġë§Įëĵ¤ìĸ´":8631,"ãĥĭãĥ¥":8632,"ãĥĭãĥ¥ãĥ¼ãĤ¹":8633,"zÃ¤hl":8634,"ì¦Ī":8635,"ĠyÃ¼ks":8636,"Ð°ÑĢÑĮ":8637,"Ø³ÙħØ¹":8638,"ĠÐºÐ°ÐºÐ¾Ð¹":8639,"æ¬¡ãģ®":8640,"ĠÐ¿Ð¾Ðº":8641,"ÑĨÑĥ":8642,"ĠfrÃ¼h":8643,"Ġbáº§u":8644,"Ð°Ð½Ð¸Ð¸":8645,"ĠÄĳÃ¨n":8646,"Ġsáº¯p":8647,"Ġì¡°ê¸Ī":8648,"ĠØ§ÙĦØ³Ø¨Øª":8649,"å¸Ĥãģ®":8650,"ãģ»ãģĹãģĦ":8651,"æĥħåł±":8652,"æĥħåł±ãĤĴ":8653,"ĠÐ¿Ð¾Ñı":8654,"ãģĭãģ©ãģĨãģĭ":8655,"ĠØ§ÙĦØ£Ø®":8656,"æĻĤéĸĵãĤĴ":8657,"ãĥªãĤ¹ãĥĪ":8658,"Ġìĥ":8659,"ĠìĥĪ":8660,"Ġcá»Ń":8661,"ĠphÃª":8662,"íģ´":8663,"ĠtÄĻ":8664,"Ð´ÐµÑģÑıÑĤ":8665,"ĠØµØ¨Ø§ØŃ":8666,"ãģ¯ãģ©ãģĨ":8667,"ìĭľê°Ħ":8668,"ÐºÐ»ÑİÑĩÐ¸":8669,"ëį°ìĿ´":8670,"ãĤĴåħ¥ãĤĮ":8671,"ë¶Ī":8672,"dÃ¬":8673,"ĠÑįÑĤÐ°":8674,"ĠØ§ÙĦØŃØ§ÙĦÙĬ":8675,"ĠkarÄ±ÅŁ":8676,"Ġëª©":8677,"ĠÐºÐ¾Ð¼Ð½Ð°ÑĤ":8678,"ĠÐ¿ÑĢÑıÐ¼Ð¾":8679,"ëłĪìĿ´":8680,"ĠtrochÄĻ":8681,"ãĥķãĥ«":8682,"ĠdÃ©fin":8683,"ĠvÅ©":8684,"íĥĦ":8685,"Ġtoplant":8686,"ĠtoplantÄ±":8687,"ĠØ«ÙĦØ§Ø«Ø©":8688,"ĠzrobiÄĩ":8689,"ĠÑįÑĤÑĥ":8690,"ĠìķĮê³ł":8691,"ĠdziÅĽ":8692,"ĠØ³Ø§Ø¹Ø©":8693,"acjÄĻ":8694,"ìĶ¨":8695,"à¸Ńà¸Ńà¸ģà¸Īà¸²à¸ģ":8696,"ĠnhiÃªu":8697,"ĠÑĩÐ°ÑģÐ¾Ð²":8698,"ĠdÆ°Æ¡ng":8699,"ãĥĹãĥ¬ãĤ¤":8700,"à¸¥à¸ļ":8701,"ĠmÃ¡quina":8702,"ĠÅĽwiecie":8703,"ë°ĸìĹĲ":8704,"Ð¾ÑģÑĤÐµÐ¹":8705,"Ġtruyá»ĩn":8706,"ØºÙĨÙĬ":8707,"ãĤ¾":8708,"ĠyapÄ±yor":8709,"ĠmoÅ¼esz":8710,"ĠsÄ±cak":8711,"ĠquÃªn":8712,"ĠØ§ÙĦØ´ÙĩØ±":8713,"èģŀãģį":8714,"ãģ¯ä½ķ":8715,"ĠÐºÐ°ÐºÐ¸Ðµ":8716,"ĠØ§ÙĦØªØ´":8717,"ì¼Ģ":8718,"ãĤ¹ãĥŀ":8719,"ĠìĿ¼ìĿ´":8720,"Ø¢Ø®Ø±":8721,"ĠestarÃ¡":8722,"ëľ»":8723,"ãĤ»ãĥ«":8724,"à¹Ĥà¸Ĭà¸Ħ":8725,"è¦ļ":8726,"à¸ģà¸§":8727,"à¸Ńà¸£":8728,"ĠØ§ÙĦØ³ÙĨØ©":8729,"à¸Ńà¸²à¸Ĺ":8730,"ĠÑĥÐ²ÐµÐ»Ð¸":8731,"Ø·Ø¹Ùħ":8732,"ì¼ľ":8733,"ĠÅĽwiata":8734,"Ø¶Ø¨Ø·":8735,"ì£¼ìĭľ":8736,"Ġnáº¯ng":8737,"Ġkurulu":8738,"ĠÑģÐºÐ°Ð·Ð°ÑĤÑĮ":8739,"Ġnháº¯c":8740,"ãĤ¸ãĥ§":8741,"ĠÑħÐ¾ÑĤÐµÐ»":8742,"ĠmÆ°a":8743,"ĠfÃ¼nf":8744,"ĠbÃ¢y":8745,"ĠÐ¿ÑĢÐ¾Ð¸ÑģÑħÐ¾Ð´Ð¸ÑĤ":8746,"Ġhá»įp":8747,"ĠìĦľìļ¸":8748,"Ġihtiy":8749,"ĠrÆ¡i":8750,"à¸Ŀà¸Ļ":8751,"ĠkaldÄ±r":8752,"ĠartÄ±r":8753,"ĠìĺģíĻĶ":8754,"ÐµÑģÑĤÑĮ":8755,"ĠØ³ÙĬÙĥÙĪÙĨ":8756,"ĠÐ¼Ð¸ÑĢÐµ":8757,"ĠbaÅŁlat":8758,"ĠÐ²ÐµÑĩ":8759,"ĠÐ²ÐµÑĩÐµÑĢ":8760,"ĠëĤĺìĺ¤":8761,"ãĤ¿ãĤ¤ãĥł":8762,"à¹Ĥà¸Ľà¸£à¸Ķ":8763,"ĠtrÄĥm":8764,"ãĥŃãĥĥãĤ¯":8765,"ĠÅĽrod":8766,"ìĸ´ìķ¼":8767,"Ġzes":8768,"éĿ¢çĻ½ãģĦ":8769,"ë´Ĳ":8770,"ĠgÃ¼ncel":8771,"lanmÄ±ÅŁ":8772,"ĠØ§Ø°Ø§":8773,"Ġë¨":8774,"ì§ľ":8775,"Ġbá»¯a":8776,"ÑĩÑĤÐ¾":8777,"ãĤ±ãĥ¼":8778,"ĠëıĮ":8779,"Ø®Ø°":8780,"ĠÐ²ÑģÑĤÑĢÐµÑĩ":8781,"ãģĴãĤĭ":8782,"ãĤĴéĸĭ":8783,"ĠÐ½ÐµÐ¼Ð½Ð¾Ð³Ð¾":8784,"ãģĭãģĳãĤĭ":8785,"ĠØ£Ø¹ÙĦÙī":8786,"ÙĤØ³":8787,"Ġì°¾ìķĦ":8788,"ĠÐ¼Ð¸ÑĢÐ¾Ð²":8789,"ìļķ":8790,"ĠÐ¿ÑĢÐ¾ÑĨÐµÐ½ÑĤ":8791,"ĠØ§ÙĦØ£Ø³Ø¨ÙĪØ¹":8792,"ĠÐ»ÑİÐ±Ð¸Ð¼":8793,"ÑģÑĤÐ°Ð²Ð¸Ð»":8794,"ĠØ£Øº":8795,"Ð¾Ð´Ðµ":8796,"ĠØ§ÙĦØ§Ø®Ø¨Ø§Ø±":8797,"ĠmarÃ§o":8798,"ĠÐ³Ð¾Ð»":8799,"ĠØªØŃØ¯ÙĬØ«":8800,"Ø´ØºÙĦ":8801,"ãĥĮ":8802,"ĠÐ³Ð¾ÑĢÐ¾Ð´Ðµ":8803,"iÄĻÄĩ":8804,"æķĻãģĪãģ¦":8805,"ĠÐ²ÑĤÐ¾ÑĢ":8806,"ĠìķĮëł¤":8807,"ĠëĪ":8808,"ĠëĪĦ":8809,"ĠëĪĦêµ¬":8810,"Ġìĸ¼ë§ĪëĤĺ":8811,"íĮħ":8812,"ĠÄĳiá»ĥn":8813,"Ġì¢ĭìķĦ":8814,"à¸ģà¸²à¹ģà¸Ł":8815,"ĠØ§ÙĦØ¨ÙĬØª":8816,"ĠhatÄ±rl":8817,"ĠÐ¼Ð°ÑĢÑĤÐ°":8818,"ãĥ©ãĤ¤ãĥĪ":8819,"ìĽĥ":8820,"ĠÐ½Ð°Ð·Ð²Ð°Ð½Ð¸Ðµ":8821,"ĠÙĬØŃØ¯Ø«":8822,"illÃ©":8823,"Ġíĳľ":8824,"ãĤ¢ãĤ¦ãĥĪ":8825,"ĠÑģÐ°Ð¼ÑĭÐµ":8826,"ĠrÃ©gl":8827,"ĠmanhÃ£":8828,"aprÃ¨s":8829,"ĠmogÄĻ":8830,"Ã¶ÄŁ":8831,"ĠØ§ÙĦØ§Ø«ÙĨÙĬÙĨ":8832,"ksz":8833,"Ġìµľê·¼":8834,"stÃ¤rke":8835,"ĠjakiÅĽ":8836,"pÃµe":8837,"ĠÑĤÐµÐ±Ñı":8838,"Ð½Ð¸Ð±ÑĥÐ´ÑĮ":8839,"å¸°ãĤĬ":8840,"ĠÐ¿Ð¾Ð²ÑĤÐ¾ÑĢ":8841,"ÑĥÐ²ÐµÐ»Ð¸":8842,"ãĥŁãĥ¥":8843,"ĠÐ¼Ð¾Ð¹":8844,"Ġìĸ´ëĶĶ":8845,"ê³¡":8846,"ĠÑĩÐµÑĤ":8847,"ĠÑĩÐµÑĤÑĭÑĢÐµ":8848,"ĠdáºŃy":8849,"ĠÅŁark":8850,"ĠÅŁarkÄ±":8851,"Ġìĸ¸ìłľ":8852,"Ġháº¹n":8853,"ĠakÅŁam":8854,"ĠÐ·Ð°Ð±":8855,"ĠÃ§evir":8856,"ØŃØ·":8857,"ĠlazÄ±m":8858,"ĠØ¹Ø¨Ø¯Ø§ÙĦÙĦÙĩ":8859,"ĠÐ²ÑģÑĤÑĢÐµÑĩÐ°":8860,"ĠÑħÐ¾Ð»Ð¾Ð´":8861,"ãģĦãģıãģ¤ãģĭ":8862,"ĠfÃªte":8863,"ĠÑĥÐ·Ð½Ð°ÑĤÑĮ":8864,"ĠÑģÐ»Ð¸ÑĪÐºÐ¾Ð¼":8865,"Ġê¸°ìĸµ":8866,"ĠmÃ¼zik":8867,"ĠÑĩÐ°ÑģÐ°":8868,"Ø¹Ø·":8869,"Ġtáº¯t":8870,"ĠÐ¿ÑĢÐ¾Ð³Ð½Ð¾Ð·":8871,"ĠlumiÃ¨re":8872,"ãĤ¤ãĥ³ãĥī":8873,"ÅĤoÅ¼yÄĩ":8874,"ĠnastÄĻp":8875,"Ġjakie":8876,"ĠjakieÅĽ":8877,"ĠnÃ¤chste":8878,"ĠÐ½Ð¾Ð²Ð¾ÑģÑĤÐ¸":8879,"à¸Ķà¸Ļ":8880,"ĠØ§ÙĦØ²ÙħÙĨ":8881,"Ġláº·ng":8882,"ĠwyÅĤÄħ":8883,"Ð½ÑİÑİ":8884,"ØªÙĪÙĤÙĬ":8885,"ĠíĺĦ":8886,"ĠÐ¿Ð¾Ð»Ð¾Ð²Ð¸Ð½":8887,"Ð»ÑĥÑĪ":8888,"à¸«à¸Ļà¸²à¸§":8889,"Ġchc":8890,"ĠarttÄ±r":8891,"ĠdoÄŁum":8892,"ĠÐ¿Ð¾Ð½":8893,"krÄĻ":8894,"à¹ģà¸Ķà¸Ķ":8895,"ĠìĬ¤":8896,"Ġë³´ëĤ´":8897,"lÃ¶s":8898,"ĠnotÃŃcia":8899,"ĠØ§ÙĦØ¬Ø²":8900,"Ð²ÐµÑī":8901,"ãĥ¬ãĤ¹ãĥĪãĥ©ãĥ³":8902,"ØªÙĥÙĦÙħ":8903,"ĠÐ¿ÐµÑĢÐ²Ð¾Ð³Ð¾":8904,"ãĤ¢ãĥ«ãĥĲãĥł":8905,"ëī´ìĬ¤":8906,"Ġìĺ¤í":8907,"Ø¬ØªÙħØ§Ø¹":8908,"ãĤ³ãĥ¼ãĥĴãĥ¼":8909,"ĠbÄĻdÄĻ":8910,"ĠzamÃ³w":8911,"ĠgÃ©nero":8912,"Ġë¬´ìĬ¨":8913,"ä¸ĭãģĴ":8914,"ĠÐ¿Ð¾ÑģÐ»ÐµÐ´Ð½Ð¸Ðµ":8915,"ĠgÃ¼neÅŁ":8916,"ĠÑĢÐ¾Ð¶Ð´ÐµÐ½Ð¸Ñı":8917,"ĠíĶ":8918,"ĠíĶ¼":8919,"ĠÐ¿Ð¾ÑĤÑĢÐµÐ±":8920,"Ġbá»¥i":8921,"ì¹ł":8922,"Ġà¸ĺ":8923,"ĠÑĢÐµÑģÑĤÐ¾ÑĢÐ°Ð½":8924,"ĠÙĤØ§Ø¦":8925,"å¿ħè¦ģãģĮãģĤãĤĬãģ¾ãģĻ":8926,"ĠkÃªnh":8927,"íĹ¤":8928,"Ð²ÑĢÐµÐ¼":8929,"ĠmÆ°á»Ŀi":8930,"ì¸ł":8931,"ĠÃ¡lbum":8932,"ãĤŃãĥĥãĥģãĥ³":8933,"ãĤ¹ãĥĶ":8934,"à¸ªà¸§":8935,"ĠÐ·Ð½Ð°ÑĤÑĮ":8936,"ĠÐ½ÐµÐ´ÐµÐ»Ñİ":8937,"Ġíģ¬ê²Į":8938,"ĠnastÄĻpn":8939,"ì²ŃìĨĮ":8940,"ĠÑħÐ¾ÑĩÑĥ":8941,"ĠØªØ´":8942,"Ġà¸¡":8943,"ÐºÐ°Ð¶":8944,"ĠëĬ":8945,"ãģ¡ãĤĩãģĨ":8946,"Ġà¸ģà¸£":8947,"à¸Ĺà¸³à¸Ħà¸§à¸²à¸¡à¸ªà¸°à¸Ńà¸²à¸Ķ":8948,"ĠÑģÐ¾Ð±ÑĭÑĤÐ¸":8949,"ĠÑģÐ¾Ð±ÑĭÑĤÐ¸Ñı":8950,"íĤ¨":8951,"ë°¤":8952,"ëłī":8953,"ì¤ĺ":8954,"ìķĮ":8955,"ë²¤":8956,"ì¶°":8957,"ìĦ¯":8958,"ëŀĻ":8959,"ì¼ĵ":8960,"ê³±":8961,"ëħģ":8962,"ëħķ":8963,"ê¿Ķ":8964,"ì¢ĭ":8965,"ë´ĩ":8966,"ë°Į":8967,"ë¥¨":8968,"íĻī":8969,"ëįŁ":8970,"ëĳ¡":8971,"à¤¦":8972,"à¤¯":8973,"à¤µ":8974,"à¤Ł":8975,"à¤¬":8976,"à¤Ĺ":8977,"à¤¶":8978,"à¤ı":8979,"à¤Ń":8980,"à¤ļ":8981,"à¤ľ":8982,"à¤¡":8983,"à¤·":8984,"à¤ħ":8985,"à¤Ĩ":8986,"à¤¥":8987,"à¤£":8988,"à¤ĩ":8989,"à¤ĸ":8990,"à¤§":8991,"à¤ł":8992,"à¤«":8993,"à¤Ī":8994,"à¤ī":8995,"à¤ĺ":8996,"à¤Ľ":8997,"à¤ĵ":8998,"à¤Ŀ":8999,"à¤¢":9000,"à¤Ĭ":9001}