{
  "version": "1.0",
  "truncation": {
    "direction": "Right",
    "max_length": 64,
    "strategy": "LongestFirst",
    "stride": 0
  },
  "padding": {
    "strategy": "BatchLongest",
    "direction": "Right",
    "pad_to_multiple_of": null,
    "pad_id": 20892,
    "pad_type_id": 0,
    "pad_token": "[PAD]"
  },
  "added_tokens": [
    {
      "id": 0,
      "content": "|||IP_ADDRESS|||",
      "single_word": false,
      "lstrip": false,
      "rstrip": false,
      "normalized": true,
      "special": false
    },
    {
      "id": 1,
      "content": "<|padding|>",
      "single_word": false,
      "lstrip": false,
      "rstrip": false,
      "normalized": false,
      "special": true
    },
    {
      "id": 20886,
      "content": "    ",
      "single_word": false,
      "lstrip": false,
      "rstrip": false,
      "normalized": true,
      "special": false
    },
    {
      "id": 20887,
      "content": "   ",
      "single_word": false,
      "lstrip": false,
      "rstrip": false,
      "normalized": true,
      "special": false
    },
    {
      "id": 20888,
      "content": "  ",
      "single_word": false,
      "lstrip": false,
      "rstrip": false,
      "normalized": true,
      "special": false
    },
    {
      "id": 20889,
      "content": "[UNK]",
      "single_word": false,
      "lstrip": false,
      "rstrip": false,
      "normalized": false,
      "special": true
    },
    {
      "id": 20890,
      "content": "[CLS]",
      "single_word": false,
      "lstrip": false,
      "rstrip": false,
      "normalized": false,
      "special": true
    },
    {
      "id": 20891,
      "content": "[SEP]",
      "single_word": false,
      "lstrip": false,
      "rstrip": false,
      "normalized": false,
      "special": true
    },
    {
      "id": 20892,
      "content": "[PAD]",
      "single_word": false,
      "lstrip": false,
      "rstrip": false,
      "normalized": false,
      "special": true
    },
    {
      "id": 20893,
      "content": "[MASK]",
      "single_word": false,
      "lstrip": true,
      "rstrip": false,
      "normalized": false,
      "special": true
    }
  ],
  "normalizer": {
    "type": "NFC"
  },
  "pre_tokenizer": {
    "type": "ByteLevel",
    "add_prefix_space": false,
    "trim_offsets": true,
    "use_regex": true
  },
  "post_processor": {
    "type": "TemplateProcessing",
    "single": [
      {
        "SpecialToken": {
          "id": "[CLS]",
          "type_id": 0
        }
      },
      {
        "Sequence": {
          "id": "A",
          "type_id": 0
        }
      },
      {
        "SpecialToken": {
          "id": "[SEP]",
          "type_id": 0
        }
      }
    ],
    "pair": [
      {
        "SpecialToken": {
          "id": "[CLS]",
          "type_id": 0
        }
      },
      {
        "Sequence": {
          "id": "A",
          "type_id": 0
        }
      },
      {
        "SpecialToken": {
          "id": "[SEP]",
          "type_id": 0
        }
      },
      {
        "Sequence": {
          "id": "B",
          "type_id": 0
        }
      },
      {
        "SpecialToken": {
          "id": "[SEP]",
          "type_id": 0
        }
      }
    ],
    "special_tokens": {
      "[CLS]": {
        "id": "[CLS]",
        "ids": [
          20890
        ],
        "tokens": [
          "[CLS]"
        ]
      },
      "[MASK]": {
        "id": "[MASK]",
        "ids": [
          20893
        ],
        "tokens": [
          "[MASK]"
        ]
      },
      "[PAD]": {
        "id": "[PAD]",
        "ids": [
          20892
        ],
        "tokens": [
          "[PAD]"
        ]
      },
      "[SEP]": {
        "id": "[SEP]",
        "ids": [
          20891
        ],
        "tokens": [
          "[SEP]"
        ]
      },
      "[UNK]": {
        "id": "[UNK]",
        "ids": [
          20889
        ],
        "tokens": [
          "[UNK]"
        ]
      }
    }
  },
  "decoder": {
    "type": "ByteLevel",
    "add_prefix_space": false,
    "trim_offsets": true,
    "use_regex": true
  },
  "model": {
    "type": "BPE",
    "dropout": null,
    "unk_token": null,
    "continuing_subword_prefix": null,
    "end_of_word_suffix": null,
    "fuse_unk": false,
    "byte_fallback": false,
    "ignore_merges": false,
    "vocab": {
      "|||IP_ADDRESS|||": 0,
      "<|padding|>": 1,
      "!": 2,
      "\"": 3,
      "#": 4,
      "$": 5,
      "%": 6,
      "&": 7,
      "'": 8,
      "(": 9,
      ")": 10,
      "*": 11,
      "+": 12,
      ",": 13,
      "-": 14,
      ".": 15,
      "/": 16,
      "0": 17,
      "1": 18,
      "2": 19,
      "3": 20,
      "4": 21,
      "5": 22,
      "6": 23,
      "7": 24,
      "8": 25,
      "9": 26,
      ":": 27,
      ";": 28,
      "<": 29,
      "=": 30,
      ">": 31,
      "?": 32,
      "@": 33,
      "A": 34,
      "B": 35,
      "C": 36,
      "D": 37,
      "E": 38,
      "F": 39,
      "G": 40,
      "H": 41,
      "I": 42,
      "J": 43,
      "K": 44,
      "L": 45,
      "M": 46,
      "N": 47,
      "O": 48,
      "P": 49,
      "Q": 50,
      "R": 51,
      "S": 52,
      "T": 53,
      "U": 54,
      "V": 55,
      "W": 56,
      "X": 57,
      "Y": 58,
      "Z": 59,
      "[": 60,
      "\\": 61,
      "]": 62,
      "^": 63,
      "_": 64,
      "`": 65,
      "a": 66,
      "b": 67,
      "c": 68,
      "d": 69,
      "e": 70,
      "f": 71,
      "g": 72,
      "h": 73,
      "i": 74,
      "j": 75,
      "k": 76,
      "l": 77,
      "m": 78,
      "n": 79,
      "o": 80,
      "p": 81,
      "q": 82,
      "r": 83,
      "s": 84,
      "t": 85,
      "u": 86,
      "v": 87,
      "w": 88,
      "x": 89,
      "y": 90,
      "z": 91,
      "{": 92,
      "|": 93,
      "}": 94,
      "~": 95,
      "¡": 96,
      "¢": 97,
      "£": 98,
      "¤": 99,
      "¥": 100,
      "¦": 101,
      "§": 102,
      "¨": 103,
      "©": 104,
      "ª": 105,
      "«": 106,
      "¬": 107,
      "®": 108,
      "¯": 109,
      "°": 110,
      "±": 111,
      "²": 112,
      "³": 113,
      "´": 114,
      "µ": 115,
      "¶": 116,
      "·": 117,
      "¸": 118,
      "¹": 119,
      "º": 120,
      "»": 121,
      "¼": 122,
      "½": 123,
      "¾": 124,
      "¿": 125,
      "Â": 126,
      "Ã": 127,
      "Ä": 128,
      "Å": 129,
      "Æ": 130,
      "Ç": 131,
      "È": 132,
      "É": 133,
      "Ê": 134,
      "Ë": 135,
      "Ì": 136,
      "Í": 137,
      "Î": 138,
      "Ï": 139,
      "Ð": 140,
      "Ñ": 141,
      "Ò": 142,
      "Ó": 143,
      "Ô": 144,
      "Õ": 145,
      "Ö": 146,
      "×": 147,
      "Ø": 148,
      "Ù": 149,
      "Ú": 150,
      "Û": 151,
      "Ü": 152,
      "Ý": 153,
      "Þ": 154,
      "ß": 155,
      "à": 156,
      "á": 157,
      "â": 158,
      "ã": 159,
      "ä": 160,
      "å": 161,
      "æ": 162,
      "ç": 163,
      "è": 164,
      "é": 165,
      "ê": 166,
      "ë": 167,
      "ì": 168,
      "í": 169,
      "î": 170,
      "ï": 171,
      "ð": 172,
      "ñ": 173,
      "ò": 174,
      "ó": 175,
      "ô": 176,
      "Ā": 177,
      "ā": 178,
      "Ă": 179,
      "ă": 180,
      "Ą": 181,
      "ą": 182,
      "Ć": 183,
      "ć": 184,
      "Ĉ": 185,
      "ĉ": 186,
      "Ċ": 187,
      "ċ": 188,
      "Č": 189,
      "č": 190,
      "Ď": 191,
      "ď": 192,
      "Đ": 193,
      "đ": 194,
      "Ē": 195,
      "ē": 196,
      "Ĕ": 197,
      "ĕ": 198,
      "Ė": 199,
      "ė": 200,
      "Ę": 201,
      "ę": 202,
      "Ě": 203,
      "ě": 204,
      "Ĝ": 205,
      "ĝ": 206,
      "Ğ": 207,
      "ğ": 208,
      "Ġ": 209,
      "ġ": 210,
      "Ģ": 211,
      "ģ": 212,
      "Ĥ": 213,
      "ĥ": 214,
      "Ħ": 215,
      "ħ": 216,
      "Ĩ": 217,
      "ĩ": 218,
      "Ī": 219,
      "ī": 220,
      "Ĭ": 221,
      "ĭ": 222,
      "Į": 223,
      "į": 224,
      "İ": 225,
      "ı": 226,
      "Ĳ": 227,
      "ĳ": 228,
      "Ĵ": 229,
      "ĵ": 230,
      "Ķ": 231,
      "ķ": 232,
      "ĸ": 233,
      "Ĺ": 234,
      "ĺ": 235,
      "Ļ": 236,
      "ļ": 237,
      "Ľ": 238,
      "ľ": 239,
      "Ŀ": 240,
      "ŀ": 241,
      "Ł": 242,
      "ł": 243,
      "Ń": 244,
      "ĠĠ": 245,
      "Ġt": 246,
      "Ġa": 247,
      "he": 248,
      "in": 249,
      "re": 250,
      "on": 251,
      "ĠĠĠĠ": 252,
      "Ġthe": 253,
      "er": 254,
      "at": 255,
      "Ġs": 256,
      "en": 257,
      "Ġo": 258,
      "Ġw": 259,
      "Ġc": 260,
      "is": 261,
      "it": 262,
      "or": 263,
      "ed": 264,
      "es": 265,
      "an": 266,
      "al": 267,
      "Ġp": 268,
      "Ġf": 269,
      "Ġb": 270,
      "Ġan": 271,
      "ing": 272,
      "Ġof": 273,
      "ar": 274,
      "Ġin": 275,
      "ou": 276,
      "Ġd": 277,
      "Ġm": 278,
      "ion": 279,
      "ic": 280,
      "Ġto": 281,
      "le": 282,
      "--": 283,
      "as": 284,
      "Ġand": 285,
      "ro": 286,
      "Ġh": 287,
      "Ġth": 288,
      "ent": 289,
      "ct": 290,
      "et": 291,
      "el": 292,
      "Ġre": 293,
      "Ġn": 294,
      "st": 295,
      "om": 296,
      "Ġl": 297,
      "Ġe": 298,
      "il": 299,
      "id": 300,
      "ot": 301,
      "im": 302,
      "ig": 303,
      "Ġg": 304,
      "ve": 305,
      "ut": 306,
      "ĠT": 307,
      "ĠI": 308,
      "Ġis": 309,
      "ol": 310,
      "am": 311,
      "Ġ(": 312,
      "ly": 313,
      "us": 314,
      "ac": 315,
      "ation": 316,
      "ow": 317,
      "Ġbe": 318,
      "ur": 319,
      "ĠS": 320,
      "Ġfor": 321,
      "ad": 322,
      "âĢ": 323,
      "Ġthat": 324,
      "Ġon": 325,
      "un": 326,
      "ĠA": 327,
      "ĠC": 328,
      "Ġst": 329,
      "ver": 330,
      "ay": 331,
      "ith": 332,
      "ul": 333,
      "ce": 334,
      "Ġ1": 335,
      "if": 336,
      "se": 337,
      "Ġy": 338,
      "Ġwith": 339,
      "ir": 340,
      "Ġhe": 341,
      "Ġcon": 342,
      "Ġ\"": 343,
      "Ġas": 344,
      "ch": 345,
      "ter": 346,
      "od": 347,
      "Ġit": 348,
      "ĠM": 349,
      "Ġpro": 350,
      "Ġal": 351,
      "ag": 352,
      "ab": 353,
      "em": 354,
      "Ġwe": 355,
      "um": 356,
      "00": 357,
      "Ġv": 358,
      "ri": 359,
      "Ġwh": 360,
      "pe": 361,
      "ate": 362,
      "ĠP": 363,
      "Ġyou": 364,
      "Ġwas": 365,
      "Ġ$": 366,
      "qu": 367,
      "Ġde": 368,
      "res": 369,
      "Ġ2": 370,
      "os": 371,
      "ra": 372,
      "pp": 373,
      "ĠB": 374,
      "her": 375,
      "ĠThe": 376,
      "ist": 377,
      "est": 378,
      "ht": 379,
      "Ġex": 380,
      "ant": 381,
      "Ġat": 382,
      "ĠH": 383,
      "Ġcom": 384,
      "Ġor": 385,
      "Ġr": 386,
      "ld": 387,
      "th": 388,
      "and": 389,
      "Ġse": 390,
      "ers": 391,
      "ĠD": 392,
      "iv": 393,
      "ĠF": 394,
      "Ġsu": 395,
      "Ġare": 396,
      "ain": 397,
      "ess": 398,
      "oc": 399,
      "Ġby": 400,
      "ill": 401,
      "rom": 402,
      "ore": 403,
      "ĠW": 404,
      "op": 405,
      "ke": 406,
      "ity": 407,
      "oun": 408,
      "ĠR": 409,
      "Ġnot": 410,
      "ĠL": 411,
      "Ġha": 412,
      "ment": 413,
      "ive": 414,
      "end": 415,
      "**": 416,
      "Ġne": 417,
      "ĠN": 418,
      "Ġ-": 419,
      "ight": 420,
      "ort": 421,
      "pt": 422,
      "Ġfrom": 423,
      "red": 424,
      "'s": 425,
      "art": 426,
      "Ġthis": 427,
      "ell": 428,
      "ud": 429,
      "Ġsh": 430,
      "Ġun": 431,
      "Ġus": 432,
      "te": 433,
      "ĠG": 434,
      "ĠE": 435,
      "ren": 436,
      "pl": 437,
      "ies": 438,
      "Ġch": 439,
      ".\"": 440,
      "ial": 441,
      "Ġhave": 442,
      "fe": 443,
      "our": 444,
      "all": 445,
      "ated": 446,
      "âĢĻ": 447,
      "Ġle": 448,
      "ure": 449,
      "ine": 450,
      "ust": 451,
      "og": 452,
      "ge": 453,
      "Ġk": 454,
      "ie": 455,
      "per": 456,
      "ich": 457,
      "Ġ0": 458,
      "ack": 459,
      "ard": 460,
      "ĠO": 461,
      "ical": 462,
      "Ġcan": 463,
      "iz": 464,
      "Ġme": 465,
      "Ġj": 466,
      ").": 467,
      "ame": 468,
      "out": 469,
      "up": 470,
      "ome": 471,
      "age": 472,
      "ib": 473,
      "ue": 474,
      "Ġab": 475,
      "der": 476,
      "Ġtr": 477,
      "ost": 478,
      "able": 479,
      "Ġ3": 480,
      "ĠIn": 481,
      "Ġwere": 482,
      "cl": 483,
      "Ġpl": 484,
      "ĠJ": 485,
      "Ġres": 486,
      "Ġcl": 487,
      "ult": 488,
      "ide": 489,
      "ast": 490,
      "ath": 491,
      "ans": 492,
      "Ġcomp": 493,
      "The": 494,
      "ase": 495,
      "Ġall": 496,
      "Ġdo": 497,
      "act": 498,
      "ass": 499,
      "Ġim": 500,
      "ound": 501,
      "ak": 502,
      "Ġad": 503,
      "01": 504,
      "Ġhis": 505,
      "ap": 506,
      "Ġcont": 507,
      "ign": 508,
      "orm": 509,
      "ind": 510,
      "ous": 511,
      "oug": 512,
      "ĠU": 513,
      "one": 514,
      "ip": 515,
      "Ġbut": 516,
      "Ġwhich": 517,
      "ok": 518,
      "..": 519,
      "ub": 520,
      "ition": 521,
      "Ġint": 522,
      "ĠâĢ": 523,
      "ong": 524,
      "Ġ[": 525,
      "ph": 526,
      "Ġen": 527,
      "ice": 528,
      "Ġwor": 529,
      "Ġar": 530,
      "cc": 531,
      "ary": 532,
      "ime": 533,
      "ep": 534,
      "ty": 535,
      "Ġhas": 536,
      "Ġdis": 537,
      "ress": 538,
      "ens": 539,
      "Ġout": 540,
      "du": 541,
      "Ġgo": 542,
      "int": 543,
      "ence": 544,
      "ff": 545,
      "ations": 546,
      "ne": 547,
      "ia": 548,
      "Ġqu": 549,
      "Ġhad": 550,
      "Âł": 551,
      "Ġ4": 552,
      "ru": 553,
      "av": 554,
      "Ġone": 555,
      "),": 556,
      "ose": 557,
      "ace": 558,
      "con": 559,
      "ile": 560,
      "Ġwill": 561,
      "ber": 562,
      "ory": 563,
      "Ġper": 564,
      "ents": 565,
      "ance": 566,
      "Ġso": 567,
      "ally": 568,
      "ĠTh": 569,
      "Ġthey": 570,
      "Ġup": 571,
      "ely": 572,
      "so": 573,
      "ough": 574,
      "ire": 575,
      "Ġif": 576,
      "ang": 577,
      "ach": 578,
      "Ġ5": 579,
      "are": 580,
      "ry": 581,
      "ĠK": 582,
      "Ġev": 583,
      "ear": 584,
      "ite": 585,
      "de": 586,
      "Ġtheir": 587,
      "Ġher": 588,
      "Ġsa": 589,
      "Ġmy": 590,
      "ll": 591,
      "ions": 592,
      "Ġapp": 593,
      "rent": 594,
      "Ġmore": 595,
      "'t": 596,
      "Ġthere": 597,
      "own": 598,
      "Ġpart": 599,
      "form": 600,
      "port": 601,
      "Ġli": 602,
      "xt": 603,
      "Ġyour": 604,
      "very": 605,
      "ord": 606,
      "Ġman": 607,
      "Ġpre": 608,
      "Ġag": 609,
      "ake": 610,
      "ors": 611,
      "Ġno": 612,
      "Ġother": 613,
      "Ġbeen": 614,
      "ook": 615,
      "ect": 616,
      "ail": 617,
      "ft": 618,
      "Ġgr": 619,
      "Ġwould": 620,
      "vel": 621,
      "Ġsp": 622,
      "Ġ<": 623,
      "Ġ19": 624,
      "ys": 625,
      "ĠV": 626,
      "ree": 627,
      "ĠSt": 628,
      "Ġsc": 629,
      "ks": 630,
      "urn": 631,
      "lic": 632,
      "we": 633,
      "Ġwho": 634,
      "aus": 635,
      "Ġany": 636,
      "âĢĿ": 637,
      "Ġabout": 638,
      "Ġalso": 639,
      "Ġwhen": 640,
      "Ġtime": 641,
      "reat": 642,
      "low": 643,
      "erv": 644,
      "eth": 645,
      "wo": 646,
      "com": 647,
      "ata": 648,
      "ates": 649,
      "Ġthan": 650,
      "Ġ'": 651,
      "Ġro": 652,
      "In": 653,
      "Ġover": 654,
      "Ġsome": 655,
      "Ġob": 656,
      "ific": 657,
      "erm": 658,
      "Ġkn": 659,
      "ric": 660,
      "Ġits": 661,
      "ays": 662,
      "fter": 663,
      "hat": 664,
      "Ġbet": 665,
      "ount": 666,
      "Ġshe": 667,
      "Ġfe": 668,
      "Ġspe": 669,
      "ob": 670,
      "ces": 671,
      "Ġ&": 672,
      "ref": 673,
      "ove": 674,
      "Ġdes": 675,
      "irst": 676,
      "ple": 677,
      "ĠY": 678,
      "Ġinto": 679,
      "Ġte": 680,
      "Ġam": 681,
      "Ġass": 682,
      "cre": 683,
      "Ġ6": 684,
      "Ġdif": 685,
      "ings": 686,
      "rib": 687,
      "Ġsy": 688,
      "ater": 689,
      "ied": 690,
      "ov": 691,
      "Ġgen": 692,
      "Ġthem": 693,
      "lect": 694,
      "ĠIt": 695,
      "Ġinter": 696,
      "vers": 697,
      "row": 698,
      "gr": 699,
      "fect": 700,
      "iss": 701,
      "10": 702,
      "hed": 703,
      "old": 704,
      "Ġoff": 705,
      "19": 706,
      "Ġnew": 707,
      "Ġsub": 708,
      "ink": 709,
      "Ġlike": 710,
      "Ġwhat": 711,
      "Ġsaid": 712,
      "ĠHe": 713,
      "Ġget": 714,
      "Ġacc": 715,
      "ian": 716,
      "ced": 717,
      "Ġpe": 718,
      "Ġonly": 719,
      "Ġrec": 720,
      "Ġunder": 721,
      "ish": 722,
      "Ġcomm": 723,
      "ãģ": 724,
      "ause": 725,
      "Ġtwo": 726,
      "Ġact": 727,
      "itt": 728,
      "Ġmod": 729,
      "Ġcons": 730,
      "ĠâĢľ": 731,
      "Ġrel": 732,
      "ĠCh": 733,
      "Ġour": 734,
      "ck": 735,
      "Ġmay": 736,
      "Ġhim": 737,
      "ual": 738,
      "ick": 739,
      "ark": 740,
      "the": 741,
      "ious": 742,
      "ma": 743,
      "ild": 744,
      "Ġbl": 745,
      "get": 746,
      "Ġwork": 747,
      "ons": 748,
      "ular": 749,
      "ps": 750,
      "Ġfun": 751,
      "ade": 752,
      "ert": 753,
      "igh": 754,
      "Ġstud": 755,
      "ative": 756,
      "Ġind": 757,
      "Ġem": 758,
      "Ġpos": 759,
      "ring": 760,
      "12": 761,
      "Ġfirst": 762,
      "Ġyear": 763,
      "pect": 764,
      "Ġdef": 765,
      "Ġreg": 766,
      "Ġtrans": 767,
      "Ġcould": 768,
      "elf": 769,
      "ug": 770,
      "Ġph": 771,
      "Ġjust": 772,
      "Ġ7": 773,
      "Ġpr": 774,
      "Ġco": 775,
      "Ġval": 776,
      "Ġadd": 777,
      "Ġsuch": 778,
      "ock": 779,
      "Ġla": 780,
      "iew": 781,
      "Ġinv": 782,
      "cess": 783,
      "Ġform": 784,
      "ĠThis": 785,
      "ef": 786,
      "ased": 787,
      "ont": 788,
      "Ġwhere": 789,
      "ood": 790,
      "oth": 791,
      "Ġpres": 792,
      "ating": 793,
      "Ġthen": 794,
      "Ġthese": 795,
      "Ġdet": 796,
      "ĠWe": 797,
      "Ġdiffe": 798,
      "Ġafter": 799,
      "Ġcol": 800,
      "Ġ201": 801,
      "Ġhow": 802,
      "ient": 803,
      "Ġret": 804,
      "stem": 805,
      "ode": 806,
      "Ġ8": 807,
      "ween": 808,
      "pro": 809,
      "ond": 810,
      "Ġdid": 811,
      "ss": 812,
      "Ã©": 813,
      "Ġsign": 814,
      "olog": 815,
      "Ġatt": 816,
      "hen": 817,
      "?\"": 818,
      "Ġexp": 819,
      "Ġrem": 820,
      "les": 821,
      "Ġpat": 822,
      "Ġknow": 823,
      "Ġprov": 824,
      "Ġset": 825,
      "ility": 826,
      "Ġbetween": 827,
      "Ġpol": 828,
      "Ġneed": 829,
      "ict": 830,
      "11": 831,
      "Ġ10": 832,
      "ise": 833,
      "ec": 834,
      "ident": 835,
      "ution": 836,
      "Ġi": 837,
      "Ġfl": 838,
      "ta": 839,
      "Ġcell": 840,
      "ix": 841,
      "Ġback": 842,
      "Ġuse": 843,
      "Ġ9": 844,
      "oy": 845,
      "io": 846,
      "rit": 847,
      ".,": 848,
      "Ġresult": 849,
      "ize": 850,
      "Ġused": 851,
      "eg": 852,
      "ex": 853,
      "ange": 854,
      "Ġac": 855,
      "ĠUn": 856,
      "Ġsupp": 857,
      "ible": 858,
      "right": 859,
      "Ġsur": 860,
      "ning": 861,
      "Ġshow": 862,
      "Ġsee": 863,
      "Ġsm": 864,
      "fr": 865,
      "fig": 866,
      "iel": 867,
      "ĠÐ": 868,
      "Ġnum": 869,
      "tern": 870,
      "als": 871,
      "000": 872,
      "ble": 873,
      "to": 874,
      ",\"": 875,
      "20": 876,
      "wn": 877,
      "Ġdist": 878,
      "Ġdata": 879,
      "ments": 880,
      "Ġshould": 881,
      "Ġcor": 882,
      "Ġvar": 883,
      "Ġspec": 884,
      "ER": 885,
      "Ġsim": 886,
      "Ġthrough": 887,
      "cy": 888,
      "Ġpeople": 889,
      "its": 890,
      "Ġmost": 891,
      "ues": 892,
      "Ġfollow": 893,
      "Ġfact": 894,
      "ited": 895,
      "ctions": 896,
      "mer": 897,
      "ull": 898,
      "Ġty": 899,
      "Ġ.": 900,
      "li": 901,
      "Ġclass": 902,
      "ined": 903,
      "ins": 904,
      "Ġagain": 905,
      "Ġusing": 906,
      "Ġwant": 907,
      "ever": 908,
      "Ġwell": 909,
      "ract": 910,
      "uch": 911,
      "other": 912,
      "Ġinst": 913,
      "ures": 914,
      "uring": 915,
      "ics": 916,
      "ms": 917,
      "Ġbecause": 918,
      "Ġsystem": 919,
      "Ġright": 920,
      "inal": 921,
      "Ġend": 922,
      "ax": 923,
      "ateg": 924,
      "pos": 925,
      "Ġent": 926,
      "\",": 927,
      "St": 928,
      "ew": 929,
      "err": 930,
      "ield": 931,
      "Ġprodu": 932,
      "ement": 933,
      "ox": 934,
      "ities": 935,
      "Ġgener": 936,
      "Ġlook": 937,
      "15": 938,
      "oup": 939,
      "13": 940,
      "Ġeven": 941,
      "Ġeach": 942,
      "ower": 943,
      "Ġchar": 944,
      "ful": 945,
      "Ġext": 946,
      "imes": 947,
      "ĠSe": 948,
      "Ġnow": 949,
      "ized": 950,
      "sc": 951,
      "Ġdifferent": 952,
      "uc": 953,
      "Ġhigh": 954,
      "ily": 955,
      "ars": 956,
      "sp": 957,
      "ward": 958,
      "16": 959,
      "ically": 960,
      "cond": 961,
      "Ġway": 962,
      "Ġ|": 963,
      "hes": 964,
      "IN": 965,
      "Th": 966,
      "Ġel": 967,
      "Ġevery": 968,
      "14": 969,
      "Ġlong": 970,
      "Ġap": 971,
      "ational": 972,
      "...": 973,
      "Ġ200": 974,
      "Ġdon": 975,
      "Ġmin": 976,
      "Ġeffect": 977,
      "Ġmake": 978,
      "Ġdoes": 979,
      "Ġke": 980,
      "let": 981,
      "Ġhere": 982,
      "Ġpar": 983,
      "ool": 984,
      "ger": 985,
      "ork": 986,
      "put": 987,
      "Ġdown": 988,
      "Ġcall": 989,
      "Ð¾": 990,
      "riv": 991,
      "led": 992,
      "Ġtest": 993,
      "Ġsame": 994,
      "Ġdi": 995,
      "ife": 996,
      "ention": 997,
      "ting": 998,
      "Ġvery": 999,
      "Ġbefore": 1000,
      "ale": 1001,
      "ator": 1002,
      "Ġbu": 1003,
      "Ġcase": 1004,
      "Ġdec": 1005,
      "pr": 1006,
      "read": 1007,
      "Ġfind": 1008,
      "ince": 1009,
      "Ġreturn": 1010,
      "18": 1011,
      "air": 1012,
      "Ġcur": 1013,
      "ared": 1014,
      "Ġboth": 1015,
      "Ġstat": 1016,
      "25": 1017,
      "ines": 1018,
      "Ġinte": 1019,
      "rol": 1020,
      "ants": 1021,
      "ym": 1022,
      "way": 1023,
      "Ġyears": 1024,
      "ĠâĢĵ": 1025,
      "rm": 1026,
      "Ġthose": 1027,
      "Ġmat": 1028,
      "Ġbel": 1029,
      "Ġcar": 1030,
      "Ġmon": 1031,
      "arch": 1032,
      "Ġpartic": 1033,
      "oci": 1034,
      "Ġfound": 1035,
      "rest": 1036,
      "Ġop": 1037,
      "ave": 1038,
      "Ġaut": 1039,
      "Ġpoint": 1040,
      "âĢĶ": 1041,
      "Ġmed": 1042,
      "ages": 1043,
      "Ġplay": 1044,
      "Ġhand": 1045,
      "upp": 1046,
      "ann": 1047,
      "ute": 1048,
      "ON": 1049,
      "Ġtra": 1050,
      "Ġincre": 1051,
      "Ġmany": 1052,
      "Ġest": 1053,
      "An": 1054,
      "Ġbeing": 1055,
      "It": 1056,
      "par": 1057,
      "Ġgu": 1058,
      "Ġloc": 1059,
      "Ġser": 1060,
      "Ð°": 1061,
      "Ġpers": 1062,
      "cent": 1063,
      "text": 1064,
      "Ġ,": 1065,
      "Ġthink": 1066,
      "Ġfunction": 1067,
      "Ġmade": 1068,
      "Ġche": 1069,
      "Ġet": 1070,
      "Ġ:": 1071,
      "ank": 1072,
      "ĠQ": 1073,
      "17": 1074,
      "Ġmem": 1075,
      "ases": 1076,
      "aking": 1077,
      "of": 1078,
      "ev": 1079,
      "Ġexam": 1080,
      "Ġgood": 1081,
      "ĠCom": 1082,
      "ature": 1083,
      "set": 1084,
      "cal": 1085,
      "Ġnumber": 1086,
      "Ġz": 1087,
      "Ġresp": 1088,
      "Ġdire": 1089,
      "ason": 1090,
      "over": 1091,
      "yl": 1092,
      "ĠÂ": 1093,
      "Ġappro": 1094,
      "Ġfil": 1095,
      "AT": 1096,
      "Ġtri": 1097,
      "rence": 1098,
      "ody": 1099,
      "ĠFor": 1100,
      "Ġmuch": 1101,
      "sh": 1102,
      "day": 1103,
      "Ġhel": 1104,
      "ism": 1105,
      "eng": 1106,
      "tr": 1107,
      "Ðµ": 1108,
      "val": 1109,
      "cer": 1110,
      "Ġins": 1111,
      "Ġown": 1112,
      "app": 1113,
      "Ġstr": 1114,
      "Ġ@": 1115,
      "ense": 1116,
      "ner": 1117,
      "Ġra": 1118,
      "ĠAl": 1119,
      "Ġsol": 1120,
      "ret": 1121,
      "min": 1122,
      "Ġwhile": 1123,
      "ought": 1124,
      "ash": 1125,
      "ather": 1126,
      "Ġ/": 1127,
      "30": 1128,
      "ually": 1129,
      "We": 1130,
      "Ġprocess": 1131,
      "Ġprote": 1132,
      "Ġrep": 1133,
      "50": 1134,
      "Ġlar": 1135,
      "32": 1136,
      "oid": 1137,
      "Ġread": 1138,
      "ah": 1139,
      "els": 1140,
      "ĠAnd": 1141,
      "ified": 1142,
      "Ġpresent": 1143,
      "gan": 1144,
      "Ġ12": 1145,
      "ired": 1146,
      "ng": 1147,
      "ness": 1148,
      "ression": 1149,
      "be": 1150,
      "fl": 1151,
      "Ġgiv": 1152,
      "Ġsom": 1153,
      "ven": 1154,
      "Ġdisc": 1155,
      "Ġstudy": 1156,
      "Ġthree": 1157,
      "Ġstart": 1158,
      "gg": 1159,
      "ST": 1160,
      "Ġlevel": 1161,
      "Ġx": 1162,
      "Ġgreat": 1163,
      "ices": 1164,
      "ved": 1165,
      "Ġsecond": 1166,
      "left": 1167,
      "Ġref": 1168,
      "What": 1169,
      "AR": 1170,
      "alk": 1171,
      "any": 1172,
      "ĠLet": 1173,
      "line": 1174,
      "Ġ18": 1175,
      "ĠAs": 1176,
      "arly": 1177,
      "self": 1178,
      "Ġdevelop": 1179,
      "br": 1180,
      "Ġgl": 1181,
      "Ġposs": 1182,
      "cul": 1183,
      "ĠBut": 1184,
      "Ġwithout": 1185,
      "ĠPro": 1186,
      "Ġserv": 1187,
      "ision": 1188,
      "Ġequ": 1189,
      "ton": 1190,
      "igned": 1191,
      "amp": 1192,
      "Ġcourt": 1193,
      "ument": 1194,
      "Ġreport": 1195,
      "Ġdep": 1196,
      "ole": 1197,
      "Ġterm": 1198,
      "Ġbr": 1199,
      "Ġduring": 1200,
      "ĠIf": 1201,
      "CR": 1202,
      "ouse": 1203,
      "Ġmet": 1204,
      "med": 1205,
      "Ġfr": 1206,
      "uss": 1207,
      "ams": 1208,
      "Ġvalue": 1209,
      "ality": 1210,
      "ization": 1211,
      "ier": 1212,
      "NA": 1213,
      "Ġav": 1214,
      "ĠÃ": 1215,
      "erg": 1216,
      "Ġnon": 1217,
      "He": 1218,
      "Ġsupport": 1219,
      "ffic": 1220,
      "Ġant": 1221,
      "Ġmethod": 1222,
      "Ġsay": 1223,
      "ider": 1224,
      "Ġstill": 1225,
      "ters": 1226,
      "lement": 1227,
      "Ġlet": 1228,
      "Ġorder": 1229,
      "Ġcells": 1230,
      "man": 1231,
      "til": 1232,
      "str": 1233,
      "Ġpublic": 1234,
      "ists": 1235,
      "Ġperform": 1236,
      "24": 1237,
      "Ġpa": 1238,
      "ross": 1239,
      "ane": 1240,
      "'m": 1241,
      "Ġsmall": 1242,
      "ided": 1243,
      "ãĤ": 1244,
      "://": 1245,
      "ĠHow": 1246,
      "Ġhelp": 1247,
      "yn": 1248,
      "Ġpatients": 1249,
      "Ġmust": 1250,
      "ially": 1251,
      "ÑĤ": 1252,
      "oh": 1253,
      "amb": 1254,
      "az": 1255,
      "ency": 1256,
      "OR": 1257,
      "land": 1258,
      "view": 1259,
      "Ġstate": 1260,
      "oad": 1261,
      "anc": 1262,
      "rt": 1263,
      "Ġtake": 1264,
      "\":": 1265,
      "ving": 1266,
      "Ġ20": 1267,
      "Ġcount": 1268,
      "Ġline": 1269,
      "Ġgroup": 1270,
      "Ġday": 1271,
      "Ð¸": 1272,
      "Ġlast": 1273,
      "Ġcle": 1274,
      "Ã¤": 1275,
      "You": 1276,
      "Ġimport": 1277,
      "Ġactiv": 1278,
      "ds": 1279,
      "Ġdesc": 1280,
      "Ġcent": 1281,
      "ray": 1282,
      "aw": 1283,
      "Ġprev": 1284,
      "me": 1285,
      "ron": 1286,
      "Ġed": 1287,
      "Ġrun": 1288,
      "Ġproble": 1289,
      "ES": 1290,
      "Ġagainst": 1291,
      "oot": 1292,
      "Ġexpl": 1293,
      "Ġsignific": 1294,
      "Ġname": 1295,
      "less": 1296,
      "ify": 1297,
      "atic": 1298,
      "Ġlead": 1299,
      "ĠYou": 1300,
      "22": 1301,
      "Ġcre": 1302,
      "irc": 1303,
      "ulation": 1304,
      "ished": 1305,
      "Ġchild": 1306,
      "ability": 1307,
      "Ġfam": 1308,
      "aj": 1309,
      "IT": 1310,
      "acter": 1311,
      "idence": 1312,
      "Ġperson": 1313,
      "Ġquest": 1314,
      "80": 1315,
      "not": 1316,
      "tt": 1317,
      "ek": 1318,
      "Ġfin": 1319,
      "ames": 1320,
      "Ġoper": 1321,
      "Ġart": 1322,
      "Ġdel": 1323,
      "40": 1324,
      "chn": 1325,
      "que": 1326,
      "Ġcontrol": 1327,
      "ead": 1328,
      "hip": 1329,
      "ĠNew": 1330,
      "Ġ15": 1331,
      "Ġvari": 1332,
      "Ġpur": 1333,
      "Ġconf": 1334,
      "Ġstand": 1335,
      "Ġproper": 1336,
      "eta": 1337,
      "Ġhy": 1338,
      "Let": 1339,
      "aim": 1340,
      "Ġgoing": 1341,
      "Ġdem": 1342,
      "'re": 1343,
      "da": 1344,
      "Ġdev": 1345,
      "Ġaround": 1346,
      "!\"": 1347,
      "Ġopt": 1348,
      "ik": 1349,
      "Ġdirect": 1350,
      "Ġhead": 1351,
      "ience": 1352,
      "itive": 1353,
      "Ġu": 1354,
      "Ġinc": 1355,
      "Ġerr": 1356,
      "ides": 1357,
      "Ġinformation": 1358,
      "abel": 1359,
      "pha": 1360,
      "Ġlife": 1361,
      "ology": 1362,
      "serv": 1363,
      "Ġsl": 1364,
      "ĠShe": 1365,
      "Ġpost": 1366,
      "ots": 1367,
      "ĠZ": 1368,
      "und": 1369,
      "ource": 1370,
      "atch": 1371,
      "ets": 1372,
      "23": 1373,
      "Ġpass": 1374,
      "Ġtype": 1375,
      "Ġtoo": 1376,
      "arm": 1377,
      "ium": 1378,
      "ination": 1379,
      "Ġelect": 1380,
      "Ġbre": 1381,
      "200": 1382,
      "ott": 1383,
      "ured": 1384,
      "ittle": 1385,
      "ately": 1386,
      "Ġreal": 1387,
      "99": 1388,
      "Ġopen": 1389,
      "ior": 1390,
      "Ġanother": 1391,
      "agn": 1392,
      "Ġcr": 1393,
      "Ġworld": 1394,
      "Ġsignificant": 1395,
      "ĠTr": 1396,
      "Ġmight": 1397,
      "AN": 1398,
      "64": 1399,
      "gen": 1400,
      "for": 1401,
      "Ġresults": 1402,
      "ral": 1403,
      "def": 1404,
      "ural": 1405,
      "Ġhum": 1406,
      "Ġident": 1407,
      "60": 1408,
      "ains": 1409,
      "Ġrest": 1410,
      "This": 1411,
      "pec": 1412,
      "Ġmult": 1413,
      "Ġtreat": 1414,
      "AL": 1415,
      "Ġcare": 1416,
      "Ġcontin": 1417,
      "bl": 1418,
      "eral": 1419,
      "Ġwithin": 1420,
      "ital": 1421,
      "Ġfollowing": 1422,
      "ivers": 1423,
      "Ġtem": 1424,
      "Ġmodel": 1425,
      "ived": 1426,
      "here": 1427,
      "Ġlaw": 1428,
      "ently": 1429,
      "orn": 1430,
      "ways": 1431,
      "Ġes": 1432,
      "Ġlim": 1433,
      "Ġsince": 1434,
      "Ġallow": 1435,
      "akes": 1436,
      "ĠThey": 1437,
      "ote": 1438,
      "duct": 1439,
      "name": 1440,
      "lex": 1441,
      "fer": 1442,
      "ional": 1443,
      "ĠX": 1444,
      "att": 1445,
      "arn": 1446,
      "ably": 1447,
      "Ġmean": 1448,
      "Ġinterest": 1449,
      "work": 1450,
      "Ġbeh": 1451,
      "Ġadv": 1452,
      "ĠDe": 1453,
      "Ġimp": 1454,
      "ĠSh": 1455,
      "Ġocc": 1456,
      "33": 1457,
      "Ġtry": 1458,
      "Ġpower": 1459,
      "Ġturn": 1460,
      "by": 1461,
      "Ġmark": 1462,
      "Ġcondition": 1463,
      "Ġlist": 1464,
      "28": 1465,
      "Ġnever": 1466,
      "ĠNo": 1467,
      "ither": 1468,
      "ĠOn": 1469,
      "ential": 1470,
      "Ġsing": 1471,
      "ury": 1472,
      "Ġsk": 1473,
      "27": 1474,
      "resent": 1475,
      "iness": 1476,
      "Ġsomething": 1477,
      "ves": 1478,
      "Ġaddition": 1479,
      "Ġ14": 1480,
      "ĠCl": 1481,
      "Ð½": 1482,
      "ts": 1483,
      "Ġask": 1484,
      "Ġfew": 1485,
      "ives": 1486,
      "Ġrece": 1487,
      "Ġseem": 1488,
      "CT": 1489,
      "iff": 1490,
      "Ġvis": 1491,
      "chool": 1492,
      "Ġlittle": 1493,
      "bers": 1494,
      "Ġhapp": 1495,
      "Ġcurrent": 1496,
      "ule": 1497,
      "rop": 1498,
      "Ġplace": 1499,
      "Ġredu": 1500,
      "rel": 1501,
      "arg": 1502,
      "Ġreally": 1503,
      "face": 1504,
      "son": 1505,
      "Ġbas": 1506,
      "ploy": 1507,
      "Ġ16": 1508,
      "Ġleft": 1509,
      "Ġve": 1510,
      "35": 1511,
      "Ex": 1512,
      "Ġfield": 1513,
      "Ñģ": 1514,
      "Ġrespect": 1515,
      "stand": 1516,
      "Ġgiven": 1517,
      "dd": 1518,
      "Ġless": 1519,
      "ĠIs": 1520,
      "Ġcommun": 1521,
      "Ġbest": 1522,
      "Ġchang": 1523,
      "Ġpop": 1524,
      "Ġbus": 1525,
      "ml": 1526,
      "cript": 1527,
      "hor": 1528,
      "ho": 1529,
      "Ġincluding": 1530,
      "Ġput": 1531,
      "ype": 1532,
      "Ġrele": 1533,
      "Ġgot": 1534,
      "ertain": 1535,
      "htt": 1536,
      "ÑĢ": 1537,
      "Ġlow": 1538,
      "ining": 1539,
      "ised": 1540,
      "ED": 1541,
      "sec": 1542,
      "Ġcome": 1543,
      "34": 1544,
      "ĠThere": 1545,
      "Ġlight": 1546,
      "gram": 1547,
      "Ġold": 1548,
      "ope": 1549,
      "eter": 1550,
      "ĠCon": 1551,
      "29": 1552,
      "Ġinvest": 1553,
      "AS": 1554,
      "ĠRe": 1555,
      "Ġpot": 1556,
      "Ġ17": 1557,
      "ĠHowever": 1558,
      "Ġcal": 1559,
      "ends": 1560,
      "Ġhome": 1561,
      "Ġcap": 1562,
      "oss": 1563,
      "26": 1564,
      "Ġtechn": 1565,
      "Ġmot": 1566,
      "ety": 1567,
      "Ġnext": 1568,
      "Ġarg": 1569,
      "ĠWhat": 1570,
      "apt": 1571,
      "Ġfour": 1572,
      "ivid": 1573,
      "Ġprob": 1574,
      "Ġtyp": 1575,
      "reg": 1576,
      "vert": 1577,
      "Ġclaim": 1578,
      "ene": 1579,
      "abl": 1580,
      "Ġque": 1581,
      "Ġbased": 1582,
      "Ġtop": 1583,
      "Ġgrow": 1584,
      "Ã¡": 1585,
      "ina": 1586,
      "Ġobserv": 1587,
      "rap": 1588,
      "05": 1589,
      "inc": 1590,
      "ump": 1591,
      "Ġbo": 1592,
      "yt": 1593,
      "bs": 1594,
      "ãĥ": 1595,
      "Ġmonth": 1596,
      "ery": 1597,
      "Con": 1598,
      "Ġimportant": 1599,
      "Ġsam": 1600,
      "aining": 1601,
      "ĠPh": 1602,
      "Ġindic": 1603,
      "Ch": 1604,
      "ĠAr": 1605,
      "Ġlarge": 1606,
      "Ġanalysis": 1607,
      "Ġder": 1608,
      "Re": 1609,
      "Ġhealth": 1610,
      "37": 1611,
      "lection": 1612,
      "Ġobject": 1613,
      "Ġsit": 1614,
      "Ġleg": 1615,
      "ari": 1616,
      "ference": 1617,
      "Ġbi": 1618,
      "Ġbro": 1619,
      "ee": 1620,
      "21": 1621,
      "Ġparticular": 1622,
      "Ġapplic": 1623,
      "Ġprof": 1624,
      "Ġbelie": 1625,
      "Ġsuggest": 1626,
      "Ġbetter": 1627,
      ",âĢĿ": 1628,
      "uck": 1629,
      "ern": 1630,
      "Ġgovern": 1631,
      "ĠSc": 1632,
      "roll": 1633,
      "36": 1634,
      "mb": 1635,
      "mun": 1636,
      "ird": 1637,
      "Ġchange": 1638,
      "reen": 1639,
      "Ġmen": 1640,
      "uro": 1641,
      "Ġobt": 1642,
      "Ġwater": 1643,
      "aps": 1644,
      "new": 1645,
      "Ġide": 1646,
      "IS": 1647,
      "por": 1648,
      "ats": 1649,
      "'ll": 1650,
      "ended": 1651,
      "Ġdr": 1652,
      "ID": 1653,
      "38": 1654,
      "Ġabove": 1655,
      "Ġthings": 1656,
      "Ġeas": 1657,
      "LE": 1658,
      "Pro": 1659,
      "Ġcommon": 1660,
      "ĠPl": 1661,
      "RE": 1662,
      "'ve": 1663,
      "Ġden": 1664,
      "leg": 1665,
      "Ġpath": 1666,
      "Ġmov": 1667,
      "hib": 1668,
      "45": 1669,
      "Ġview": 1670,
      "plic": 1671,
      "amma": 1672,
      "elta": 1673,
      "Ġsw": 1674,
      "IC": 1675,
      "Ġconne": 1676,
      "ten": 1677,
      "39": 1678,
      "ples": 1679,
      "Ġthought": 1680,
      "ctor": 1681,
      "'d": 1682,
      "Ġhist": 1683,
      "Ġfile": 1684,
      "aring": 1685,
      "ĠAll": 1686,
      "ification": 1687,
      "Ġleast": 1688,
      "ĠFr": 1689,
      "Ġwhether": 1690,
      "Ġself": 1691,
      "pped": 1692,
      "ream": 1693,
      "Ġ30": 1694,
      "Ġproduct": 1695,
      "isk": 1696,
      "oor": 1697,
      "Ġvers": 1698,
      "ĠEx": 1699,
      "Ġfail": 1700,
      "Ġhard": 1701,
      "ĠSo": 1702,
      "Ġcharacter": 1703,
      "Ġproblem": 1704,
      "Ġpossible": 1705,
      "Ġdays": 1706,
      "And": 1707,
      "Ġposition": 1708,
      "Ġalways": 1709,
      "Ġinvol": 1710,
      "Ġexpect": 1711,
      "Ġ11": 1712,
      "Ġdidn": 1713,
      "ĠâĢĶ": 1714,
      "mu": 1715,
      "Ġhaving": 1716,
      "Ġconsider": 1717,
      "As": 1718,
      "onse": 1719,
      "add": 1720,
      "Ġwon": 1721,
      "action": 1722,
      "ien": 1723,
      "cur": 1724,
      "ĠTo": 1725,
      "Ġsever": 1726,
      "Ġgive": 1727,
      "Ġuntil": 1728,
      "aut": 1729,
      "Ġreason": 1730,
      "HE": 1731,
      "ault": 1732,
      "Ġrecord": 1733,
      "Ġcalled": 1734,
      "Ġrese": 1735,
      "Ġfeel": 1736,
      "Ġknown": 1737,
      "Ġside": 1738,
      "Ġtot": 1739,
      "AC": 1740,
      "ware": 1741,
      "Ġvol": 1742,
      "Ġopp": 1743,
      "opy": 1744,
      "co": 1745,
      "Ġevidence": 1746,
      "ait": 1747,
      "Ġbig": 1748,
      "ij": 1749,
      "ask": 1750,
      "ending": 1751,
      "ung": 1752,
      "Ġmus": 1753,
      "rain": 1754,
      "ÃŃ": 1755,
      "aces": 1756,
      "au": 1757,
      "Ġquestion": 1758,
      "Ã³": 1759,
      "Ġdue": 1760,
      "Ġfree": 1761,
      "Ġcour": 1762,
      "Ġavail": 1763,
      "che": 1764,
      "Ġorgan": 1765,
      "Ġprom": 1766,
      "Ġhuman": 1767,
      "70": 1768,
      "Ġ--": 1769,
      "iod": 1770,
      "Ġtreatment": 1771,
      "ances": 1772,
      "Ġbuild": 1773,
      "acy": 1774,
      "ological": 1775,
      "75": 1776,
      "Ġaway": 1777,
      "Ġkeep": 1778,
      "Ġsize": 1779,
      "Ġlocal": 1780,
      "ling": 1781,
      "ĠUS": 1782,
      "imal": 1783,
      "Ġbook": 1784,
      "Ġrad": 1785,
      "ĠUnited": 1786,
      "cont": 1787,
      "ison": 1788,
      "But": 1789,
      "To": 1790,
      "play": 1791,
      "hy": 1792,
      "Ġlater": 1793,
      "ĠGr": 1794,
      "rences": 1795,
      "etic": 1796,
      "outh": 1797,
      "iron": 1798,
      "part": 1799,
      "ĠAd": 1800,
      "Ġfurther": 1801,
      "bar": 1802,
      "Ġelse": 1803,
      "Ġshown": 1804,
      "rem": 1805,
      "Ġsingle": 1806,
      "idd": 1807,
      "Ġdiv": 1808,
      "Cl": 1809,
      "Ġsum": 1810,
      "Ġfamily": 1811,
      "Ġmain": 1812,
      "hing": 1813,
      "Ġtell": 1814,
      "Ġ25": 1815,
      "44": 1816,
      "Ġtrue": 1817,
      "sel": 1818,
      "usion": 1819,
      "Ġnet": 1820,
      "ember": 1821,
      "raw": 1822,
      "pone": 1823,
      "If": 1824,
      "begin": 1825,
      "var": 1826,
      "Ġprevious": 1827,
      "Ġey": 1828,
      "ograph": 1829,
      "Ġcomb": 1830,
      "inf": 1831,
      "ĠApp": 1832,
      "col": 1833,
      "ĠThese": 1834,
      "Ġfri": 1835,
      "88": 1836,
      "mat": 1837,
      "Ġeither": 1838,
      "ĠAt": 1839,
      "pi": 1840,
      "Ġindividual": 1841,
      "org": 1842,
      "Ġorig": 1843,
      "Ġpred": 1844,
      "ĠThat": 1845,
      "ĠCol": 1846,
      "uff": 1847,
      "Ġseveral": 1848,
      "ext": 1849,
      "Ġtimes": 1850,
      "ĠLe": 1851,
      "ĠBl": 1852,
      "na": 1853,
      "Ġsimilar": 1854,
      "Ġpay": 1855,
      "resp": 1856,
      "ĠStates": 1857,
      "Ġfar": 1858,
      "itor": 1859,
      "65": 1860,
      "enc": 1861,
      "unt": 1862,
      "Ġprovide": 1863,
      "Ġprogram": 1864,
      "Ġgeneral": 1865,
      "AP": 1866,
      "usep": 1867,
      "69": 1868,
      "ĠWhen": 1869,
      "iment": 1870,
      "Ġcho": 1871,
      "Ġunderstand": 1872,
      "Ġmeans": 1873,
      "Ġplan": 1874,
      "Ġcirc": 1875,
      "ĠSp": 1876,
      "alf": 1877,
      "Ġable": 1878,
      "Ġcost": 1879,
      "ued": 1880,
      "ours": 1881,
      "nd": 1882,
      "nal": 1883,
      "ĠCourt": 1884,
      "Ġalong": 1885,
      "aken": 1886,
      "Com": 1887,
      "ohn": 1888,
      "Ġabs": 1889,
      "Ġmove": 1890,
      "Ġsure": 1891,
      "Ġfull": 1892,
      "oups": 1893,
      "ered": 1894,
      "ume": 1895,
      "04": 1896,
      "Ġemploy": 1897,
      "Ġcode": 1898,
      "Ġjud": 1899,
      "Ġweek": 1900,
      "Ġavailable": 1901,
      "ister": 1902,
      "Ġbody": 1903,
      "angle": 1904,
      "back": 1905,
      "Ġbusiness": 1906,
      "Ġwar": 1907,
      "Ġwhy": 1908,
      "sw": 1909,
      "Ġschool": 1910,
      "Ġmaterial": 1911,
      "Ġ13": 1912,
      "ler": 1913,
      "ched": 1914,
      "cle": 1915,
      "ored": 1916,
      "Ġchildren": 1917,
      "ser": 1918,
      "oney": 1919,
      "div": 1920,
      "ãĢ": 1921,
      "orth": 1922,
      "Ġinfl": 1923,
      "ering": 1924,
      "Ġshort": 1925,
      "Ġsequ": 1926,
      "osp": 1927,
      "mon": 1928,
      "Ġ24": 1929,
      "Ġgame": 1930,
      "itted": 1931,
      "Ġthough": 1932,
      "Ġalready": 1933,
      "Ġhigher": 1934,
      "Ġarea": 1935,
      "Ġdiff": 1936,
      "yle": 1937,
      "Ġspecific": 1938,
      "Ġstudies": 1939,
      "Ġcertain": 1940,
      "Ġvi": 1941,
      "opt": 1942,
      "iving": 1943,
      "Ġperiod": 1944,
      "Ġthing": 1945,
      "ising": 1946,
      "Ġtold": 1947,
      "go": 1948,
      "Ġhold": 1949,
      "mm": 1950,
      "side": 1951,
      "Ġamong": 1952,
      "ney": 1953,
      "Ġinf": 1954,
      "Ġvalues": 1955,
      "Ġ!": 1956,
      "ards": 1957,
      "Ġsent": 1958,
      "rist": 1959,
      "Ġproject": 1960,
      "ried": 1961,
      "Ġmajor": 1962,
      "data": 1963,
      "sum": 1964,
      "ley": 1965,
      "Ġsat": 1966,
      "ĠOr": 1967,
      "Ġgovernment": 1968,
      "Ġeng": 1969,
      "Ġcame": 1970,
      "oper": 1971,
      "illion": 1972,
      "ĠRes": 1973,
      "For": 1974,
      "Ġdise": 1975,
      "Ġdesign": 1976,
      "Ġenough": 1977,
      "Ġdone": 1978,
      "Ġcases": 1979,
      "Ġupon": 1980,
      "Ġsuper": 1981,
      "95": 1982,
      "Ġoften": 1983,
      "ns": 1984,
      "mit": 1985,
      "Ġexist": 1986,
      "85": 1987,
      "Ġerror": 1988,
      "mission": 1989,
      "Ġele": 1990,
      "Ġ100": 1991,
      "Ġkey": 1992,
      "Ġpri": 1993,
      "Ġparam": 1994,
      "aster": 1995,
      "Ġkind": 1996,
      "Ġben": 1997,
      "olution": 1998,
      "Ġlay": 1999,
      "Ġmom": 2000,
      "urs": 2001,
      "Ġport": 2002,
      "ries": 2003,
      "ament": 2004,
      "Ġprim": 2005,
      "Ġaction": 2006,
      "67": 2007,
      "most": 2008,
      "vent": 2009,
      "Ġwomen": 2010,
      "Ġsubject": 2011,
      "Ġlot": 2012,
      "ape": 2013,
      "ounds": 2014,
      "):": 2015,
      "ĠCal": 2016,
      "Ġtotal": 2017,
      "eps": 2018,
      "Ġstrong": 2019,
      "II": 2020,
      "erc": 2021,
      "90": 2022,
      "ique": 2023,
      "ables": 2024,
      "Ġfore": 2025,
      "eb": 2026,
      "OM": 2027,
      "Ġreview": 2028,
      "utes": 2029,
      "Ġmass": 2030,
      "Ġrate": 2031,
      "Ġcourse": 2032,
      "ai": 2033,
      "Ġteam": 2034,
      "ands": 2035,
      "Ġsens": 2036,
      "Ġaccess": 2037,
      "Tr": 2038,
      "chan": 2039,
      "ubl": 2040,
      "LL": 2041,
      "Ġsays": 2042,
      "Ġneg": 2043,
      "Ġmor": 2044,
      "Ġhowever": 2045,
      "AM": 2046,
      "Ġmil": 2047,
      "No": 2048,
      "Ġtarget": 2049,
      "Ġmar": 2050,
      "ĠMr": 2051,
      "mod": 2052,
      "Ġlevels": 2053,
      "ux": 2054,
      "Ġtalk": 2055,
      "100": 2056,
      "Ġpolit": 2057,
      "Ġpress": 2058,
      "Ġroom": 2059,
      "Ġspace": 2060,
      "Ġple": 2061,
      "Ġdiscuss": 2062,
      "af": 2063,
      "aug": 2064,
      "ibility": 2065,
      "Ġsuccess": 2066,
      "ores": 2067,
      "ĠBe": 2068,
      "Ġseen": 2069,
      "use": 2070,
      "Ġdom": 2071,
      "Ġair": 2072,
      "Ġassociated": 2073,
      "ogn": 2074,
      "Ġtrial": 2075,
      "Ġmanag": 2076,
      "Ġtook": 2077,
      "Ġver": 2078,
      "fun": 2079,
      "uit": 2080,
      "ales": 2081,
      "Ġinvestig": 2082,
      "Ġenergy": 2083,
      "Ġdefend": 2084,
      "Ġlo": 2085,
      "Ġfac": 2086,
      "ush": 2087,
      "How": 2088,
      "ened": 2089,
      "Ġenc": 2090,
      "AD": 2091,
      "ids": 2092,
      "Ġbeg": 2093,
      "SE": 2094,
      "asing": 2095,
      "cted": 2096,
      "77": 2097,
      "68": 2098,
      "Ġnight": 2099,
      "Ġreported": 2100,
      "Ġevent": 2101,
      "Ġage": 2102,
      "key": 2103,
      "Ġtogether": 2104,
      "uation": 2105,
      "no": 2106,
      "ories": 2107,
      "rug": 2108,
      "Ġbit": 2109,
      "iver": 2110,
      "On": 2111,
      "uf": 2112,
      "stit": 2113,
      "sub": 2114,
      "Ġonce": 2115,
      "Ġresponse": 2116,
      "Ã¶": 2117,
      "bib": 2118,
      "48": 2119,
      "inter": 2120,
      "Ġlove": 2121,
      "Ġgroups": 2122,
      "....": 2123,
      "ators": 2124,
      "Ġearly": 2125,
      "Ġaccount": 2126,
      "conom": 2127,
      "ĠMar": 2128,
      "bo": 2129,
      "ged": 2130,
      "ival": 2131,
      "Ġmaking": 2132,
      "31": 2133,
      "Ġlower": 2134,
      "Ġamount": 2135,
      "ception": 2136,
      "Ġconv": 2137,
      "viron": 2138,
      "Ġlog": 2139,
      "cret": 2140,
      "OT": 2141,
      "55": 2142,
      "ĠState": 2143,
      "Ġhouse": 2144,
      "table": 2145,
      "ony": 2146,
      "Al": 2147,
      "ocus": 2148,
      "Ġrequired": 2149,
      "Ġactivity": 2150,
      "Ġterms": 2151,
      "Ġwent": 2152,
      "cd": 2153,
      "Ġcompared": 2154,
      "Ġrequire": 2155,
      "Ġvir": 2156,
      "ĠCo": 2157,
      "angu": 2158,
      "Ġnecess": 2159,
      "class": 2160,
      "Ġaff": 2161,
      "Ġacross": 2162,
      "Ġdevelopment": 2163,
      "Ġpotential": 2164,
      "Ġdou": 2165,
      "Ġworking": 2166,
      "AA": 2167,
      "Un": 2168,
      "ĠAmerican": 2169,
      "Ġinj": 2170,
      "Ġcheck": 2171,
      "ension": 2172,
      "Ġcult": 2173,
      "Ġface": 2174,
      "Ġever": 2175,
      "Ġ50": 2176,
      "Ġfinal": 2177,
      "ians": 2178,
      "Ġann": 2179,
      "Ġimage": 2180,
      "Ġ%": 2181,
      ".'": 2182,
      "dex": 2183,
      "ystem": 2184,
      "Ġpast": 2185,
      "Ġdeath": 2186,
      "Ġear": 2187,
      "atory": 2188,
      "iction": 2189,
      "Ġcomput": 2190,
      "ption": 2191,
      "enn": 2192,
      "atures": 2193,
      "mber": 2194,
      "à¤": 2195,
      "wh": 2196,
      "ga": 2197,
      "Ġinclude": 2198,
      "ones": 2199,
      "Ġauthor": 2200,
      "Ġbecome": 2201,
      "Ġrange": 2202,
      "Ġrelations": 2203,
      "Ġmicro": 2204,
      "Ġrisk": 2205,
      "ude": 2206,
      "ĠUniversity": 2207,
      "Ġtw": 2208,
      "arrow": 2209,
      "Ġred": 2210,
      "mp": 2211,
      "47": 2212,
      "Ġtext": 2213,
      "Ġdoesn": 2214,
      "Ġexc": 2215,
      "Ġdetail": 2216,
      "Ġdoing": 2217,
      "ges": 2218,
      "89": 2219,
      "There": 2220,
      "Is": 2221,
      "medi": 2222,
      "Ġconditions": 2223,
      "ĠJohn": 2224,
      "une": 2225,
      "this": 2226,
      "eters": 2227,
      "head": 2228,
      "Ġissue": 2229,
      "Ġmeet": 2230,
      "66": 2231,
      "Ġdescribed": 2232,
      "Ġprovided": 2233,
      "istic": 2234,
      "Ġsepar": 2235,
      "Ġbar": 2236,
      "Ġcomplet": 2237,
      "49": 2238,
      "Ġeffects": 2239,
      "Ġrespons": 2240,
      "respond": 2241,
      "imate": 2242,
      "Ġchanges": 2243,
      "Ġasked": 2244,
      "Ġfrequ": 2245,
      "Ġcannot": 2246,
      "span": 2247,
      "ĠMay": 2248,
      "Ġrole": 2249,
      "oll": 2250,
      "Ġaccording": 2251,
      "Ġmeasure": 2252,
      "Ġpercent": 2253,
      "Ġincreased": 2254,
      "Ġresearch": 2255,
      "iter": 2256,
      "Ġep": 2257,
      "Ġmind": 2258,
      "Ġcou": 2259,
      "test": 2260,
      "Ġcompany": 2261,
      "Ġyet": 2262,
      "atter": 2263,
      "Ġcomplex": 2264,
      "Ġothers": 2265,
      "Ġincrease": 2266,
      "aced": 2267,
      "icy": 2268,
      "my": 2269,
      "Ġtre": 2270,
      "Ġservice": 2271,
      "Ġrather": 2272,
      "Ġmoney": 2273,
      "Ġtoward": 2274,
      "elt": 2275,
      "Ġcountry": 2276,
      "irl": 2277,
      "ĠGen": 2278,
      "Ġconduct": 2279,
      "Ġclear": 2280,
      "illed": 2281,
      "Ġsection": 2282,
      "ground": 2283,
      "ĠOne": 2284,
      "87": 2285,
      "So": 2286,
      "Ġcontent": 2287,
      "Ġsoft": 2288,
      "Ġsource": 2289,
      "ĠPr": 2290,
      "Ġstructure": 2291,
      "time": 2292,
      "Ġmonths": 2293,
      "Ġuser": 2294,
      "ino": 2295,
      "Ġparticip": 2296,
      "bt": 2297,
      "Ġbase": 2298,
      "Ġblood": 2299,
      "ĠCan": 2300,
      "Ġfactors": 2301,
      "pm": 2302,
      "Ġpick": 2303,
      "Ġfive": 2304,
      "order": 2305,
      "Ġnormal": 2306,
      "ava": 2307,
      "Ġcut": 2308,
      "Ġsignal": 2309,
      "Ġthird": 2310,
      "ucle": 2311,
      "Ġjob": 2312,
      "Ġstandard": 2313,
      "Ġcompon": 2314,
      "roid": 2315,
      "Res": 2316,
      "rix": 2317,
      "ĠThen": 2318,
      "Ġce": 2319,
      "ING": 2320,
      "ĠCar": 2321,
      "02": 2322,
      "Ph": 2323,
      "Ġdri": 2324,
      "Ġcorre": 2325,
      "Ġwhole": 2326,
      "Ġcy": 2327,
      "ogen": 2328,
      "Ġmatter": 2329,
      "CC": 2330,
      "nt": 2331,
      "ules": 2332,
      "ĠBr": 2333,
      "ey": 2334,
      "Ġid": 2335,
      "ĠGod": 2336,
      "ixed": 2337,
      "Ġland": 2338,
      "Ġtemper": 2339,
      "ortun": 2340,
      "now": 2341,
      "Ġtaken": 2342,
      "Ġsite": 2343,
      "ober": 2344,
      "Ġsocial": 2345,
      "Ġquant": 2346,
      "ache": 2347,
      "minist": 2348,
      "Ġclin": 2349,
      "itch": 2350,
      "irm": 2351,
      "Ġperformed": 2352,
      "Ġflow": 2353,
      "Ġactually": 2354,
      "Ġdam": 2355,
      "oph": 2356,
      "86": 2357,
      "Ġshowed": 2358,
      "09": 2359,
      "raft": 2360,
      "ops": 2361,
      "AG": 2362,
      "OS": 2363,
      ".)": 2364,
      "arent": 2365,
      "Ġlimit": 2366,
      "icult": 2367,
      "ruction": 2368,
      "ches": 2369,
      "Ġbelow": 2370,
      "Ġmultiple": 2371,
      "Ġvarious": 2372,
      "alt": 2373,
      "Ġanything": 2374,
      "bit": 2375,
      "Ġspecial": 2376,
      "Ġversion": 2377,
      "Ġhalf": 2378,
      "Ġnothing": 2379,
      "Ġsystems": 2380,
      "ĠRep": 2381,
      "Ġprior": 2382,
      "ze": 2383,
      "Ġshows": 2384,
      "Ġcorrespond": 2385,
      "ĠWith": 2386,
      "off": 2387,
      "Ġdisease": 2388,
      "ached": 2389,
      "ires": 2390,
      "ĠAfter": 2391,
      "abor": 2392,
      "Ġdetect": 2393,
      "urope": 2394,
      "ession": 2395,
      "Ġfood": 2396,
      "Ġbreak": 2397,
      "uration": 2398,
      "Ġregard": 2399,
      "ĠTe": 2400,
      "Ġapproach": 2401,
      "Ġrequest": 2402,
      "Ġpropos": 2403,
      "Ġbenef": 2404,
      "imum": 2405,
      "ĠMy": 2406,
      "Ġsyn": 2407,
      "date": 2408,
      "omet": 2409,
      "Ġviol": 2410,
      "Ġmembers": 2411,
      "84": 2412,
      "big": 2413,
      "Ġalmost": 2414,
      "Ġpositive": 2415,
      "umber": 2416,
      "inary": 2417,
      "Ġfocus": 2418,
      "ero": 2419,
      "cular": 2420,
      "That": 2421,
      "Ġmoment": 2422,
      "String": 2423,
      "ief": 2424,
      "Ġlikely": 2425,
      "Ġut": 2426,
      "Ġmax": 2427,
      "Ġconsidered": 2428,
      "pping": 2429,
      "Ġconcent": 2430,
      "79": 2431,
      "uk": 2432,
      "Ġmakes": 2433,
      "Ġmarket": 2434,
      "Ġpoints": 2435,
      "Ġexperience": 2436,
      "Ġcreate": 2437,
      "OP": 2438,
      "Ġobtained": 2439,
      "Ġheart": 2440,
      "load": 2441,
      "Ġsix": 2442,
      "Ġweight": 2443,
      "ĠâĢĺ": 2444,
      "Ġfactor": 2445,
      "ike": 2446,
      "Ġq": 2447,
      "Ġblack": 2448,
      "log": 2449,
      "Sh": 2450,
      "Ġclose": 2451,
      "where": 2452,
      "Ġspect": 2453,
      "Ġdevice": 2454,
      "onal": 2455,
      "lim": 2456,
      "ĠYork": 2457,
      "Ġsus": 2458,
      "Ġaffect": 2459,
      "Ġlooking": 2460,
      "Ġtrying": 2461,
      "iding": 2462,
      "Ġnear": 2463,
      "comm": 2464,
      "ips": 2465,
      "Ġsex": 2466,
      "Ġer": 2467,
      "ĠChrist": 2468,
      "Ġtable": 2469,
      "Ġsil": 2470,
      "Ġcross": 2471,
      "Ġcreat": 2472,
      "Ġdifficult": 2473,
      "itting": 2474,
      "Ġdig": 2475,
      "Ġdemonstr": 2476,
      "Ġrat": 2477,
      "Ġcustom": 2478,
      "Figure": 2479,
      "aff": 2480,
      "cing": 2481,
      "rec": 2482,
      "Ġcity": 2483,
      "Ġcause": 2484,
      "Ġmagn": 2485,
      "td": 2486,
      "Ġfuture": 2487,
      "Ġill": 2488,
      "Ġdrug": 2489,
      "struct": 2490,
      "Ġdat": 2491,
      "but": 2492,
      "Ġhom": 2493,
      "Ġentire": 2494,
      "Ġdecre": 2495,
      "isc": 2496,
      "âĢ¦": 2497,
      "Ġproperty": 2498,
      "Ġbelieve": 2499,
      "à¸": 2500,
      "Ġste": 2501,
      "Ġyoung": 2502,
      "Ġmut": 2503,
      "Ġstring": 2504,
      "ilt": 2505,
      "Ġadded": 2506,
      "iet": 2507,
      "Ġfav": 2508,
      "ĠFl": 2509,
      "Ġparent": 2510,
      "ii": 2511,
      "see": 2512,
      "Ġnat": 2513,
      "Ġtax": 2514,
      "Ġhistory": 2515,
      "IM": 2516,
      "Ġeconom": 2517,
      "ĠBy": 2518,
      "Ġang": 2519,
      "Ġapplication": 2520,
      "Ġsolution": 2521,
      "Ġtrad": 2522,
      "ama": 2523,
      "ĠAss": 2524,
      "08": 2525,
      "Ġrelated": 2526,
      "Ar": 2527,
      "ulated": 2528,
      "Ġincluded": 2529,
      "Ġminutes": 2530,
      "ball": 2531,
      "year": 2532,
      "Ġfront": 2533,
      "Ġcontr": 2534,
      "Ġheld": 2535,
      "Ġregion": 2536,
      "fully": 2537,
      "ros": 2538,
      "Ġcancer": 2539,
      "rown": 2540,
      "AB": 2541,
      "Ġstory": 2542,
      "Ġeyes": 2543,
      "Ġpaper": 2544,
      "Ġdefined": 2545,
      "ĠAN": 2546,
      "Ġidea": 2547,
      "resh": 2548,
      "Ġur": 2549,
      "itten": 2550,
      "Ġflu": 2551,
      "Ġassess": 2552,
      "Ġwalk": 2553,
      "03": 2554,
      "chie": 2555,
      "lying": 2556,
      "Ġdecl": 2557,
      "42": 2558,
      "App": 2559,
      "import": 2560,
      "ĠIN": 2561,
      "46": 2562,
      "ĠSte": 2563,
      "Ġseason": 2564,
      "Ġaddress": 2565,
      "Ġrelationship": 2566,
      "hel": 2567,
      "ĠPar": 2568,
      "Ġloss": 2569,
      "Ġreceived": 2570,
      "ada": 2571,
      "aged": 2572,
      "Ġseries": 2573,
      "Ġpo": 2574,
      "Ñĥ": 2575,
      "Ġfall": 2576,
      "inn": 2577,
      "rs": 2578,
      "Ġdeal": 2579,
      "Ġsimple": 2580,
      "Ġgetting": 2581,
      "ster": 2582,
      "Ġblock": 2583,
      "Col": 2584,
      "aging": 2585,
      "Ġlength": 2586,
      "ences": 2587,
      "ening": 2588,
      "xi": 2589,
      "Ġmaint": 2590,
      "Ġattack": 2591,
      "Ġmiss": 2592,
      "Ġcamp": 2593,
      "Ġworks": 2594,
      "uly": 2595,
      "Ġnetwork": 2596,
      "Ġvoid": 2597,
      "She": 2598,
      "Ġhimself": 2599,
      "oud": 2600,
      "iting": 2601,
      "Ġaccept": 2602,
      "Ġappl": 2603,
      "Ġwords": 2604,
      "dro": 2605,
      "ĠTHE": 2606,
      "izing": 2607,
      "Ġcoll": 2608,
      "iqu": 2609,
      "ledge": 2610,
      "ĠMore": 2611,
      "57": 2612,
      "ises": 2613,
      "pose": 2614,
      "US": 2615,
      "ols": 2616,
      "wise": 2617,
      "like": 2618,
      "nu": 2619,
      "net": 2620,
      "verse": 2621,
      "bed": 2622,
      "IR": 2623,
      "tic": 2624,
      "Ġdefin": 2625,
      "ems": 2626,
      "ĠHis": 2627,
      "Ġbound": 2628,
      "Ġtum": 2629,
      "ĠEn": 2630,
      "Ġfig": 2631,
      "Ġlearn": 2632,
      "Ġhours": 2633,
      "When": 2634,
      "Ġmillion": 2635,
      "ĠMc": 2636,
      "Ġperformance": 2637,
      "59": 2638,
      "Ġsaw": 2639,
      "Ġlink": 2640,
      "ĠAm": 2641,
      "Ġstarted": 2642,
      "Ġstates": 2643,
      "Ġprivate": 2644,
      "oms": 2645,
      "Ġcontact": 2646,
      "Ġneeded": 2647,
      "ĠEurope": 2648,
      "Ġdecision": 2649,
      "more": 2650,
      "Ġtoday": 2651,
      "Ġdifference": 2652,
      "Ġvia": 2653,
      "Ġadj": 2654,
      "umn": 2655,
      "gree": 2656,
      "06": 2657,
      "Ġpopulation": 2658,
      "All": 2659,
      "Ġpain": 2660,
      "Ġbad": 2661,
      "Ġwanted": 2662,
      "43": 2663,
      "Ġadditional": 2664,
      "Ġmethods": 2665,
      "ĠMan": 2666,
      "Ġfilm": 2667,
      "do": 2668,
      "Ġchall": 2669,
      "Ã¼": 2670,
      "Ġshall": 2671,
      "ili": 2672,
      "ĠCor": 2673,
      "Ġsomeone": 2674,
      "ĠGe": 2675,
      "uth": 2676,
      "Ġeff": 2677,
      "miss": 2678,
      "Ġmother": 2679,
      "Ġpattern": 2680,
      "Ġlines": 2681,
      "ĠNot": 2682,
      "inks": 2683,
      "anks": 2684,
      "ender": 2685,
      "Ġpatient": 2686,
      "overed": 2687,
      "with": 2688,
      "Ġcommunity": 2689,
      "Ġgrowth": 2690,
      "comp": 2691,
      "Ġcard": 2692,
      "76": 2693,
      "IP": 2694,
      "TR": 2695,
      "Ġenvironment": 2696,
      "Ġ21": 2697,
      "Ġparty": 2698,
      "gl": 2699,
      "ĠPol": 2700,
      "Ġseems": 2701,
      "ensive": 2702,
      "Ġbegin": 2703,
      "oke": 2704,
      "Ġcompl": 2705,
      "Ġitself": 2706,
      "file": 2707,
      "78": 2708,
      "Ø§": 2709,
      "atus": 2710,
      "View": 2711,
      "Ġdisplay": 2712,
      "oved": 2713,
      "Ġdie": 2714,
      "Wh": 2715,
      "Ġlive": 2716,
      "Ġdest": 2717,
      "ych": 2718,
      "41": 2719,
      "Ġquick": 2720,
      "Ġword": 2721,
      "reet": 2722,
      "ĠAct": 2723,
      "amed": 2724,
      "Ġprobably": 2725,
      "atal": 2726,
      "ĠDo": 2727,
      "Ġhost": 2728,
      "Ġwhite": 2729,
      "based": 2730,
      "yp": 2731,
      "ills": 2732,
      "ĠIm": 2733,
      "Ġfoot": 2734,
      "PR": 2735,
      "Ġappear": 2736,
      "Ġattempt": 2737,
      "arc": 2738,
      "vant": 2739,
      "odes": 2740,
      "define": 2741,
      "ying": 2742,
      "Ġinstead": 2743,
      "Ġsearch": 2744,
      "Ġfund": 2745,
      "come": 2746,
      "ĠMe": 2747,
      "ynam": 2748,
      "Ġtaking": 2749,
      "ï¼": 2750,
      "eks": 2751,
      "Ġreve": 2752,
      "ĠDr": 2753,
      "used": 2754,
      "Ġneeds": 2755,
      "Ġpan": 2756,
      "Ġmotion": 2757,
      "urch": 2758,
      "unch": 2759,
      "iles": 2760,
      "Ġinvolved": 2761,
      "CL": 2762,
      "56": 2763,
      "Ġmodels": 2764,
      "code": 2765,
      "Ġbehind": 2766,
      "Ġstep": 2767,
      "Ġground": 2768,
      "comes": 2769,
      "ä¸": 2770,
      "gest": 2771,
      "My": 2772,
      "Ġfalse": 2773,
      "pri": 2774,
      "Ġgirl": 2775,
      "ha": 2776,
      "ĠCity": 2777,
      "des": 2778,
      "ana": 2779,
      "Ġadminist": 2780,
      "Table": 2781,
      "Ġoriginal": 2782,
      "Ġproblems": 2783,
      "Ġservices": 2784,
      "Ġpage": 2785,
      "Ġquite": 2786,
      "ste": 2787,
      "Ġexact": 2788,
      "light": 2789,
      "Ġexec": 2790,
      "83": 2791,
      "olve": 2792,
      "ese": 2793,
      "Ġcomes": 2794,
      "Se": 2795,
      "Ġeverything": 2796,
      "ites": 2797,
      "aled": 2798,
      "astic": 2799,
      "Ġknew": 2800,
      "Ġlooked": 2801,
      "ĠGu": 2802,
      "Ġexpected": 2803,
      "Ġess": 2804,
      "xim": 2805,
      "ĠCont": 2806,
      "Ġanti": 2807,
      "OL": 2808,
      "Ġvo": 2809,
      "Ġproduction": 2810,
      "Ġtemperature": 2811,
      "ĠQu": 2812,
      "Ġinput": 2813,
      "size": 2814,
      "Ġsense": 2815,
      "Ġelement": 2816,
      "Ġ29": 2817,
      "Ġdistrict": 2818,
      "oo": 2819,
      "Ġfire": 2820,
      "Ġquality": 2821,
      "aving": 2822,
      "Ġles": 2823,
      "Ġcompar": 2824,
      "Ġcolor": 2825,
      "hem": 2826,
      "Ġstay": 2827,
      "arr": 2828,
      "PS": 2829,
      "Ġsem": 2830,
      "Ġload": 2831,
      "Ġinitial": 2832,
      "Ġinside": 2833,
      "Ġ22": 2834,
      "Ġnecessary": 2835,
      "Ġcontract": 2836,
      "Ġestim": 2837,
      "Ã£": 2838,
      "ĠNational": 2839,
      "Ã§": 2840,
      "ĠDep": 2841,
      "Ġindust": 2842,
      "Ġdim": 2843,
      "sk": 2844,
      "Ġgene": 2845,
      "position": 2846,
      "UR": 2847,
      "Ġbring": 2848,
      "Ġnucle": 2849,
      "rote": 2850,
      "ĠPres": 2851,
      "eration": 2852,
      "UT": 2853,
      "Ġwin": 2854,
      "Ġfriend": 2855,
      "Ġrecent": 2856,
      "Ġinstall": 2857,
      "dom": 2858,
      "MS": 2859,
      "ulations": 2860,
      "Ġespecially": 2861,
      "Ġwait": 2862,
      "ĠJan": 2863,
      "Ġoutside": 2864,
      "Ġ...": 2865,
      "Ġson": 2866,
      "ae": 2867,
      "Ġ28": 2868,
      "Ġbir": 2869,
      "Im": 2870,
      "Ġproced": 2871,
      "den": 2872,
      "ades": 2873,
      "Ġlonger": 2874,
      "53": 2875,
      "ram": 2876,
      "Ġimplement": 2877,
      "utions": 2878,
      "Ġpresence": 2879,
      "quad": 2880,
      "box": 2881,
      "Ġsimply": 2882,
      "Ġpersonal": 2883,
      "Ġexperiment": 2884,
      "Ġdoor": 2885,
      "illi": 2886,
      "Ġjo": 2887,
      "lig": 2888,
      "rc": 2889,
      "Ġissues": 2890,
      "Ġpie": 2891,
      "ado": 2892,
      "With": 2893,
      "Ġprint": 2894,
      "bre": 2895,
      "rav": 2896,
      "Ġfeatures": 2897,
      "Ġ40": 2898,
      "Ġaverage": 2899,
      "Ġdocument": 2900,
      "ging": 2901,
      "Ġfather": 2902,
      "Ġevents": 2903,
      "Ġbecame": 2904,
      "itude": 2905,
      "hers": 2906,
      "bor": 2907,
      "Ġprovides": 2908,
      "Ġwall": 2909,
      "Ġcapt": 2910,
      "At": 2911,
      "Ġstra": 2912,
      "Ġbegan": 2913,
      "Ġphase": 2914,
      "state": 2915,
      "Ġsample": 2916,
      "Ġdetermined": 2917,
      "Ġsett": 2918,
      "Ð»": 2919,
      "Ġwoman": 2920,
      "word": 2921,
      "ĠAg": 2922,
      "Ġmedia": 2923,
      "olic": 2924,
      "field": 2925,
      "Ġcomplete": 2926,
      "Ġfem": 2927,
      "rim": 2928,
      "Ġwrong": 2929,
      "dis": 2930,
      "sl": 2931,
      "Ġeffort": 2932,
      "Ġ27": 2933,
      "Ġ26": 2934,
      "Ġformer": 2935,
      "54": 2936,
      "Ġmusic": 2937,
      "Ġdu": 2938,
      "\".": 2939,
      "Ġlanguage": 2940,
      "osition": 2941,
      "Ġcorrect": 2942,
      "ĠBo": 2943,
      "pre": 2944,
      "ronic": 2945,
      "By": 2946,
      "Ġremain": 2947,
      "aves": 2948,
      "dered": 2949,
      "su": 2950,
      "Ġslow": 2951,
      "Ġdepend": 2952,
      "Ġfunctions": 2953,
      "Ġge": 2954,
      "uous": 2955,
      "Ġpressure": 2956,
      "const": 2957,
      "Ġeasy": 2958,
      "Ġlack": 2959,
      "ĠOF": 2960,
      "Ġplaintiff": 2961,
      "Ġstrateg": 2962,
      "Ġstudents": 2963,
      "elling": 2964,
      "Ġimpact": 2965,
      "down": 2966,
      "ENT": 2967,
      "Ġforce": 2968,
      "Ġcopy": 2969,
      "Ġvideo": 2970,
      "Pl": 2971,
      "Ġ23": 2972,
      "Ġir": 2973,
      "Ġwindow": 2974,
      "Ġhor": 2975,
      "Ġhyp": 2976,
      "Ġcry": 2977,
      "olds": 2978,
      "Ñı": 2979,
      "82": 2980,
      "oon": 2981,
      "Ġprec": 2982,
      "Ġtypes": 2983,
      "Ġhot": 2984,
      "Ġpolice": 2985,
      "Ġrunning": 2986,
      "Ġsoon": 2987,
      "actions": 2988,
      "Ġphysical": 2989,
      "Ġstri": 2990,
      "Ġdate": 2991,
      "Ġstop": 2992,
      "Ġhope": 2993,
      "era": 2994,
      "idge": 2995,
      "Ġacid": 2996,
      "that": 2997,
      "Ġsamples": 2998,
      "Ġturned": 2999,
      "ĠNe": 3000,
      "Ġquestions": 3001,
      "Ġgave": 3002,
      "Ã¨": 3003,
      "Ġtrack": 3004,
      "Ġmemory": 3005,
      "Ġwritten": 3006,
      "Ġfelt": 3007,
      "ags": 3008,
      "72": 3009,
      "Ġisn": 3010,
      "sim": 3011,
      "list": 3012,
      "Ġcoming": 3013,
      "Ġcred": 3014,
      "Ġleave": 3015,
      "Ġchem": 3016,
      "ĠRev": 3017,
      "haps": 3018,
      "icon": 3019,
      "Ġmember": 3020,
      "Ġpresented": 3021,
      "Ġfollowed": 3022,
      "umb": 3023,
      "Ġcreated": 3024,
      "Ġlate": 3025,
      "Ġhands": 3026,
      "Ġofficial": 3027,
      "74": 3028,
      "Ġpolitical": 3029,
      "Ġrights": 3030,
      "63": 3031,
      "Ġsle": 3032,
      "param": 3033,
      "Ġeffective": 3034,
      "Ġten": 3035,
      "Ġforward": 3036,
      "Ġproducts": 3037,
      "52": 3038,
      "Ġpack": 3039,
      "Ġrev": 3040,
      "ĠPe": 3041,
      "Ġdirectly": 3042,
      "Ġvalid": 3043,
      "Ġwasn": 3044,
      "Ġsound": 3045,
      "ett": 3046,
      "81": 3047,
      "Gr": 3048,
      "Ġconfig": 3049,
      "Ġtried": 3050,
      "ĠEl": 3051,
      "Ġbur": 3052,
      "Ġscreen": 3053,
      "ega": 3054,
      "Ġindex": 3055,
      "tered": 3056,
      "Ġproperties": 3057,
      "Ġgenes": 3058,
      "Ġselect": 3059,
      "sm": 3060,
      "ague": 3061,
      "ken": 3062,
      "char": 3063,
      "ĠBrit": 3064,
      "ĠGo": 3065,
      "Ġweeks": 3066,
      "ĠEd": 3067,
      "dev": 3068,
      "Ġago": 3069,
      "lier": 3070,
      "rief": 3071,
      "Ġprimary": 3072,
      "Ġnatural": 3073,
      "ula": 3074,
      "Ġincreasing": 3075,
      "Ġwrite": 3076,
      "ĠComp": 3077,
      "Ġrandom": 3078,
      "Get": 3079,
      "Ġnull": 3080,
      "Ġidentified": 3081,
      "Ġfollows": 3082,
      "hood": 3083,
      "Ġknowledge": 3084,
      "Ġmi": 3085,
      "lin": 3086,
      "Ġdark": 3087,
      "ĠWorld": 3088,
      "Ġpolicy": 3089,
      "acc": 3090,
      "Not": 3091,
      "Ġbuilding": 3092,
      "Ġdetermine": 3093,
      "73": 3094,
      "Ġprevent": 3095,
      "ements": 3096,
      "ĠWar": 3097,
      "Ġcontroll": 3098,
      "Ġanswer": 3099,
      "Ġlost": 3100,
      "Ġframe": 3101,
      "ĠDes": 3102,
      "ĠReg": 3103,
      "Ġnews": 3104,
      "iber": 3105,
      "Ġimmedi": 3106,
      "fs": 3107,
      "Ġareas": 3108,
      "Ġbott": 3109,
      "Ġmach": 3110,
      "Ġdeep": 3111,
      "71": 3112,
      "Ġgas": 3113,
      "clus": 3114,
      "58": 3115,
      "amm": 3116,
      "apan": 3117,
      "ils": 3118,
      "ĠSouth": 3119,
      "Ã£o": 3120,
      "Ġsort": 3121,
      "Ġgreater": 3122,
      "ĠMin": 3123,
      "ĠInc": 3124,
      "oma": 3125,
      "Ġwhose": 3126,
      "Ġavoid": 3127,
      "Ġsoftware": 3128,
      "lementary": 3129,
      "kn": 3130,
      "ĠSch": 3131,
      "Ġwatch": 3132,
      "Ġtransfer": 3133,
      "uary": 3134,
      "oe": 3135,
      "Ġexcept": 3136,
      "Ġstatus": 3137,
      "Ġlimited": 3138,
      "Ġmap": 3139,
      "51": 3140,
      "Ġps": 3141,
      "Ġdeveloped": 3142,
      "Ġfavor": 3143,
      "ĠII": 3144,
      "Ġbasis": 3145,
      "Ðº": 3146,
      "Ġbed": 3147,
      "ĠAf": 3148,
      "They": 3149,
      "Ġrelease": 3150,
      "ĠNorth": 3151,
      "Ġrefer": 3152,
      "Ġmis": 3153,
      "Ġapplied": 3154,
      "Ġtraining": 3155,
      "ĠRuss": 3156,
      "Ġheard": 3157,
      "Ġ?": 3158,
      "ica": 3159,
      "Ġalthough": 3160,
      "Ġmedical": 3161,
      "Ġstyle": 3162,
      "icles": 3163,
      "asons": 3164,
      "Ġability": 3165,
      "Ġthemselves": 3166,
      "ĠAug": 3167,
      "Ġmention": 3168,
      "ius": 3169,
      "anger": 3170,
      "ĠAust": 3171,
      "Ġnature": 3172,
      "Ġmice": 3173,
      "reng": 3174,
      "ography": 3175,
      "gn": 3176,
      "rial": 3177,
      "Ġmatch": 3178,
      "Ġtheory": 3179,
      "62": 3180,
      "vere": 3181,
      "Ġprep": 3182,
      "hern": 3183,
      "men": 3184,
      "Ġaw": 3185,
      "och": 3186,
      "ĠJust": 3187,
      "Ġautom": 3188,
      "Ġplayers": 3189,
      "ĠSm": 3190,
      "error": 3191,
      "ĠÐ¿": 3192,
      "Ġsal": 3193,
      "Ġanyone": 3194,
      "Ġparticularly": 3195,
      "ios": 3196,
      "pite": 3197,
      "Ġpull": 3198,
      "Ġpreviously": 3199,
      "rupt": 3200,
      "Ġround": 3201,
      "lege": 3202,
      "Ġrespond": 3203,
      "Ġcompan": 3204,
      "erson": 3205,
      "Ġincludes": 3206,
      "Ġusually": 3207,
      "ager": 3208,
      "IF": 3209,
      "Ġsn": 3210,
      "pper": 3211,
      "fra": 3212,
      "Ġgrad": 3213,
      "Ġund": 3214,
      "ĠSome": 3215,
      "Ġfast": 3216,
      "Ġliving": 3217,
      "Ġdraw": 3218,
      "uel": 3219,
      "Ġalone": 3220,
      "Ġren": 3221,
      "Ġbox": 3222,
      "Ġrecomm": 3223,
      "Ġfight": 3224,
      "Ġaud": 3225,
      "ĠOct": 3226,
      "ellow": 3227,
      "Ġcontain": 3228,
      "61": 3229,
      "ashing": 3230,
      "Ġcover": 3231,
      "isions": 3232,
      "Ad": 3233,
      "Ġgenerally": 3234,
      "oles": 3235,
      "Ġrepe": 3236,
      "aches": 3237,
      "print": 3238,
      "Ġdead": 3239,
      "zy": 3240,
      "De": 3241,
      "fered": 3242,
      "rite": 3243,
      "igen": 3244,
      "Ġfriends": 3245,
      "PL": 3246,
      "Ġprot": 3247,
      "Ġbroad": 3248,
      "Ġpublished": 3249,
      "Qu": 3250,
      "Ġanim": 3251,
      "illing": 3252,
      "iven": 3253,
      "Ġnational": 3254,
      "pril": 3255,
      "Ġtown": 3256,
      "Ã³n": 3257,
      "Ġnote": 3258,
      "pen": 3259,
      "Ġdriv": 3260,
      "joy": 3261,
      "Ġjudgment": 3262,
      "Ġdirection": 3263,
      "Ġspeed": 3264,
      "EL": 3265,
      "Ġimages": 3266,
      "Ġvan": 3267,
      "Ġexpress": 3268,
      "gor": 3269,
      "Ġshare": 3270,
      "osph": 3271,
      "Ġsqu": 3272,
      "Ġlos": 3273,
      "met": 3274,
      "ĠWhile": 3275,
      "anch": 3276,
      "Ġnumbers": 3277,
      "ĠLa": 3278,
      "Ġoffice": 3279,
      "Ġindependent": 3280,
      "Ġstatement": 3281,
      "Ġonline": 3282,
      "Ġdifferences": 3283,
      "Ġopin": 3284,
      "Ġtou": 3285,
      "Ġclaims": 3286,
      "ãģ®": 3287,
      "ĠPresident": 3288,
      "ĠMarch": 3289,
      "urg": 3290,
      "Ġcommand": 3291,
      "Ġstage": 3292,
      "Ġ60": 3293,
      "Ġdro": 3294,
      "aries": 3295,
      "ĠCounty": 3296,
      "Ġarticle": 3297,
      "ĠSince": 3298,
      "Ġmessage": 3299,
      "Ġtakes": 3300,
      "unk": 3301,
      "Ġactive": 3302,
      "Ġcand": 3303,
      "oul": 3304,
      "vey": 3305,
      "Ġunit": 3306,
      "Ġhttp": 3307,
      "term": 3308,
      "Ġpractice": 3309,
      "Ġengine": 3310,
      "ental": 3311,
      "94": 3312,
      "ĠNow": 3313,
      "top": 3314,
      "hest": 3315,
      "Ġgames": 3316,
      "Ġoffer": 3317,
      "Ġaltern": 3318,
      "Ġband": 3319,
      "Ġperfect": 3320,
      "Ġregular": 3321,
      "ham": 3322,
      "Ġpretty": 3323,
      "ĠAmerica": 3324,
      "Ġroad": 3325,
      "ĠHar": 3326,
      "ĠFirst": 3327,
      "ĠÃ©": 3328,
      "Ġled": 3329,
      "ĠJune": 3330,
      "BC": 3331,
      "Or": 3332,
      "Ġsaying": 3333,
      "Ġbrought": 3334,
      "Ġspeak": 3335,
      "Ġreach": 3336,
      "ming": 3337,
      "Ġsecurity": 3338,
      "Ġconstruct": 3339,
      "Ġappropri": 3340,
      "cell": 3341,
      "atives": 3342,
      "Ġens": 3343,
      "ĠHouse": 3344,
      "Ed": 3345,
      "Ġfeed": 3346,
      "Ġbrain": 3347,
      "Ġrot": 3348,
      "undred": 3349,
      "ille": 3350,
      "erve": 3351,
      "lation": 3352,
      "ĠSept": 3353,
      "bon": 3354,
      "Ġpresident": 3355,
      "cast": 3356,
      "ran": 3357,
      "Oh": 3358,
      "Ġtele": 3359,
      "Le": 3360,
      "Ġnegative": 3361,
      "Ġprotect": 3362,
      "za": 3363,
      "Ġdouble": 3364,
      "Ġ2016": 3365,
      "Ġball": 3366,
      "inate": 3367,
      "Ġwriting": 3368,
      "pan": 3369,
      "Ġfine": 3370,
      "supp": 3371,
      "ĠBar": 3372,
      "omen": 3373,
      "Ġcontinue": 3374,
      "Ġord": 3375,
      "UN": 3376,
      "cho": 3377,
      "One": 3378,
      "Ġobtain": 3379,
      "Do": 3380,
      "attle": 3381,
      "ĠJapan": 3382,
      "orph": 3383,
      "Ġcam": 3384,
      "Ġ2012": 3385,
      "ĠGl": 3386,
      "aling": 3387,
      "Ġult": 3388,
      "Ġcenter": 3389,
      "Ġstreng": 3390,
      "ĠÃł": 3391,
      "ĠHer": 3392,
      "Ġ2014": 3393,
      "Ġtitle": 3394,
      "SC": 3395,
      "urb": 3396,
      "from": 3397,
      "call": 3398,
      "pat": 3399,
      "Ġlarger": 3400,
      "itter": 3401,
      "Ġhon": 3402,
      "ayer": 3403,
      "Ġ2013": 3404,
      "Ġstress": 3405,
      "Ġclean": 3406,
      "Ġarr": 3407,
      "uge": 3408,
      "Ġproposed": 3409,
      "Ġfinanc": 3410,
      "Ġrule": 3411,
      "Ġways": 3412,
      "Ġhear": 3413,
      "yond": 3414,
      "Ġserious": 3415,
      "sing": 3416,
      "estern": 3417,
      "Ġdevices": 3418,
      "Ġpurpose": 3419,
      "ĠAP": 3420,
      "Ġgrant": 3421,
      "rench": 3422,
      "Ġrecently": 3423,
      "Ġrelative": 3424,
      "Ġpoor": 3425,
      "Ġfre": 3426,
      "enty": 3427,
      "Ġter": 3428,
      "ĠIS": 3429,
      "Ġsituation": 3430,
      "ui": 3431,
      "Ġbackground": 3432,
      "eline": 3433,
      "Ġattention": 3434,
      "Mod": 3435,
      "ocks": 3436,
      "Ġhighly": 3437,
      "la": 3438,
      "ports": 3439,
      "Now": 3440,
      "Ġtreated": 3441,
      "Ġeveryone": 3442,
      "Ġmorning": 3443,
      "ĠChina": 3444,
      "Ġallowed": 3445,
      "ĠSu": 3446,
      "Ġassert": 3447,
      "ervice": 3448,
      "Ñĭ": 3449,
      "Ġrates": 3450,
      "Ġvisit": 3451,
      "psi": 3452,
      "ĠSun": 3453,
      "97": 3454,
      "Ġinform": 3455,
      "band": 3456,
      "Ġargument": 3457,
      "ĠSystem": 3458,
      "Ġglobal": 3459,
      "Ġdesigned": 3460,
      "Ġwrote": 3461,
      "non": 3462,
      "ĠApril": 3463,
      "ĠJuly": 3464,
      "Ġil": 3465,
      "Ġoil": 3466,
      "change": 3467,
      "ÑĮ": 3468,
      "Ġacqu": 3469,
      "Ġri": 3470,
      "ico": 3471,
      "mar": 3472,
      "Ġsuit": 3473,
      "Ġstar": 3474,
      "Ġcharge": 3475,
      "Ġdistance": 3476,
      "omy": 3477,
      "Ð²": 3478,
      "Ġintern": 3479,
      "98": 3480,
      "ulate": 3481,
      "ĠÑģ": 3482,
      "reme": 3483,
      "Ġbeaut": 3484,
      "bi": 3485,
      "Ġrow": 3486,
      "Ġfa": 3487,
      "96": 3488,
      "Ġproduced": 3489,
      "Ġprop": 3490,
      "ondon": 3491,
      "ĠMon": 3492,
      "Ġbirth": 3493,
      "Ġda": 3494,
      "Ġmount": 3495,
      "iled": 3496,
      "itness": 3497,
      "Ġsufficient": 3498,
      "hors": 3499,
      "Ġsold": 3500,
      "Ġusers": 3501,
      "lo": 3502,
      "ĠGeneral": 3503,
      "iated": 3504,
      "Ġgraph": 3505,
      "Cal": 3506,
      "izes": 3507,
      "Ġarch": 3508,
      "ĠAugust": 3509,
      "oted": 3510,
      "Ġfixed": 3511,
      "Ġhar": 3512,
      "Ġmag": 3513,
      "Ġestablished": 3514,
      "gy": 3515,
      "acing": 3516,
      "ĠSw": 3517,
      "Ġselected": 3518,
      "EX": 3519,
      "was": 3520,
      "pid": 3521,
      "Ġfailed": 3522,
      "Ġparts": 3523,
      "Ġgives": 3524,
      "cember": 3525,
      "ĠJanuary": 3526,
      "Ġdegree": 3527,
      "Ġheat": 3528,
      "map": 3529,
      "Ġoperation": 3530,
      "ĠWest": 3531,
      "New": 3532,
      "Ġmid": 3533,
      "iring": 3534,
      "Ġproceed": 3535,
      "oring": 3536,
      "Ġenjoy": 3537,
      "Äĥ": 3538,
      "Ġmyself": 3539,
      "Ġ2010": 3540,
      "Ġcaused": 3541,
      "Ġbuilt": 3542,
      "Ġidentify": 3543,
      "Ġdivided": 3544,
      "Ġbal": 3545,
      "Ġdeb": 3546,
      "Ġcentral": 3547,
      "ĠAp": 3548,
      "Ġdetails": 3549,
      "Ġsecret": 3550,
      "ĠDem": 3551,
      "Ġwonder": 3552,
      "Ġleading": 3553,
      "Ġmer": 3554,
      "Ġtravel": 3555,
      "Ġhundred": 3556,
      "OW": 3557,
      "inct": 3558,
      "Ġindividuals": 3559,
      "Ġimm": 3560,
      "Ġcomponents": 3561,
      "gu": 3562,
      "ovember": 3563,
      "Ġtechnology": 3564,
      "known": 3565,
      "js": 3566,
      "ancy": 3567,
      "Ġworked": 3568,
      "Ġstim": 3569,
      "Ġbank": 3570,
      "Ġscale": 3571,
      "Ġeight": 3572,
      "Sc": 3573,
      "ees": 3574,
      "Ġvoice": 3575,
      "Ġlegal": 3576,
      "Ġearlier": 3577,
      "Ġthreat": 3578,
      "Ġmanagement": 3579,
      "ĠFrom": 3580,
      "Ġchoice": 3581,
      "Ġlocation": 3582,
      "Ġlat": 3583,
      "ener": 3584,
      "Ġpen": 3585,
      "vare": 3586,
      "Ġprime": 3587,
      "Ġcompletely": 3588,
      "zed": 3589,
      "ube": 3590,
      "ãĢĤ": 3591,
      "Ġfindings": 3592,
      "Ġcountries": 3593,
      "Ġfair": 3594,
      "Ġagreement": 3595,
      "exp": 3596,
      "lock": 3597,
      "SP": 3598,
      "king": 3599,
      "Ġhit": 3600,
      "ida": 3601,
      "Ġlas": 3602,
      "Ġreading": 3603,
      "orem": 3604,
      "iency": 3605,
      "Ġswe": 3606,
      "Ġnotice": 3607,
      "Ġfiles": 3608,
      "Ġpsych": 3609,
      "Ġdog": 3610,
      "fort": 3611,
      "Ġhyper": 3612,
      "Yes": 3613,
      "Ġsites": 3614,
      "Ġprice": 3615,
      "ĠKing": 3616,
      "ford": 3617,
      "ights": 3618,
      "Ġcomputer": 3619,
      "ĠEnglish": 3620,
      "Ġweb": 3621,
      "Ġcomment": 3622,
      "ĠOb": 3623,
      "Ġaim": 3624,
      "Ġsaf": 3625,
      "Ġcurrently": 3626,
      "Ġchanged": 3627,
      "semb": 3628,
      "Ġones": 3629,
      "Ġmoved": 3630,
      "zz": 3631,
      "ĠSeptember": 3632,
      "group": 3633,
      "Ġfederal": 3634,
      "Ġtowards": 3635,
      "urt": 3636,
      "ĠÐ²": 3637,
      "Ġtissue": 3638,
      "Ġworth": 3639,
      "ĠRed": 3640,
      "aur": 3641,
      "ĠDistrict": 3642,
      "Ġcompanies": 3643,
      "elle": 3644,
      "ĠFeb": 3645,
      "Ġcook": 3646,
      "ĠÐ½": 3647,
      "Ġrequires": 3648,
      "ares": 3649,
      "cap": 3650,
      "Ġwebsite": 3651,
      "orage": 3652,
      "ffer": 3653,
      "Ġdecided": 3654,
      "Ġqual": 3655,
      "rate": 3656,
      "Ġcontains": 3657,
      "Ġarm": 3658,
      "itions": 3659,
      "Ġrecept": 3660,
      "Ġfailure": 3661,
      "ouble": 3662,
      "Ñĩ": 3663,
      "Ġsche": 3664,
      "ĠOctober": 3665,
      "Ġmode": 3666,
      "Ġreleased": 3667,
      "Ġlocated": 3668,
      "Ġemb": 3669,
      "Ġplant": 3670,
      "Ġdrive": 3671,
      "Ġformed": 3672,
      "ris": 3673,
      "BS": 3674,
      "Ġboard": 3675,
      "ifically": 3676,
      "Ġlooks": 3677,
      "Ġnames": 3678,
      "Ġseemed": 3679,
      "Ġremember": 3680,
      "Ġbeyond": 3681,
      "ĠInt": 3682,
      "Ġcarry": 3683,
      "Ġnovel": 3684,
      "room": 3685,
      "unn": 3686,
      "cil": 3687,
      "((": 3688,
      "Ġextra": 3689,
      "Ġculture": 3690,
      "ÙĦ": 3691,
      "Ġconcern": 3692,
      "Ġinn": 3693,
      "Ġmulti": 3694,
      "ĠStud": 3695,
      "Ġconcept": 3696,
      "Ġpor": 3697,
      "Ġwife": 3698,
      "Des": 3699,
      "init": 3700,
      "\\'": 3701,
      "ĠTrans": 3702,
      "Ġphone": 3703,
      "bb": 3704,
      "Ġallows": 3705,
      "Ġcool": 3706,
      "------": 3707,
      "ĠDepartment": 3708,
      "Ġbuy": 3709,
      "TT": 3710,
      "Ġindustry": 3711,
      "link": 3712,
      "Ġmeaning": 3713,
      "Ġplease": 3714,
      "Well": 3715,
      "Ġsong": 3716,
      "Ġcontrast": 3717,
      "Ġoption": 3718,
      "iÃ³n": 3719,
      "Ġtumor": 3720,
      "Ġequal": 3721,
      "irmed": 3722,
      "Ġexerc": 3723,
      "active": 3724,
      "Ġcontaining": 3725,
      "From": 3726,
      "Ġprefer": 3727,
      "Ġslight": 3728,
      "iate": 3729,
      "wards": 3730,
      "Ġsupported": 3731,
      "Ġtrust": 3732,
      "Ġclearly": 3733,
      "Ġnumer": 3734,
      "Ġtim": 3735,
      "under": 3736,
      "uted": 3737,
      "Of": 3738,
      "dim": 3739,
      "92": 3740,
      "ka": 3741,
      "Set": 3742,
      "Ġroll": 3743,
      "vis": 3744,
      "Ġsometimes": 3745,
      "user": 3746,
      "uns": 3747,
      "Ġquickly": 3748,
      "asm": 3749,
      "Ġnor": 3750,
      "Ġcampaign": 3751,
      "Ġplayed": 3752,
      "MP": 3753,
      "Ġappeal": 3754,
      "odies": 3755,
      "After": 3756,
      "Ġexactly": 3757,
      "quest": 3758,
      "Ġremains": 3759,
      "ĠMod": 3760,
      "Ġfinding": 3761,
      "Ġgenerated": 3762,
      "Ġ31": 3763,
      "ĠCons": 3764,
      "Ġcouple": 3765,
      "ĠDecember": 3766,
      "Ġgoes": 3767,
      "Ġ32": 3768,
      "Ġappropriate": 3769,
      "Ġcouldn": 3770,
      "Ġinterview": 3771,
      "untu": 3772,
      "Ġadjust": 3773,
      "SA": 3774,
      "Ġsmaller": 3775,
      "Ġemail": 3776,
      "Ġclosed": 3777,
      "Ġarriv": 3778,
      "Ġoverall": 3779,
      "aker": 3780,
      "Ġhighest": 3781,
      "rier": 3782,
      "Ġactual": 3783,
      "93": 3784,
      "ĠJe": 3785,
      "Ġhappened": 3786,
      "ara": 3787,
      "ĠNovember": 3788,
      "ĠDet": 3789,
      "iforn": 3790,
      "Ġsleep": 3791,
      "encies": 3792,
      "Ġconnection": 3793,
      "bum": 3794,
      "Ġreasons": 3795,
      "Ġrelig": 3796,
      "hand": 3797,
      "which": 3798,
      "Ġoptions": 3799,
      "ato": 3800,
      "Def": 3801,
      "Ġcandid": 3802,
      "rad": 3803,
      "Ġtransport": 3804,
      "Ġwide": 3805,
      "Ġcritical": 3806,
      "Ġappears": 3807,
      "Ġrelevant": 3808,
      "iques": 3809,
      "EC": 3810,
      "anged": 3811,
      "kay": 3812,
      "ais": 3813,
      "Ġvs": 3814,
      "Ġpopular": 3815,
      "chi": 3816,
      "rum": 3817,
      "Ġelectro": 3818,
      "vec": 3819,
      "Ġvolume": 3820,
      "Ġshowing": 3821,
      "Ġmedium": 3822,
      "Ġapply": 3823,
      "Ġuses": 3824,
      "round": 3825,
      "Ġparents": 3826,
      "orge": 3827,
      "ĠPR": 3828,
      "lick": 3829,
      "Ġstore": 3830,
      "lib": 3831,
      "Ġstation": 3832,
      "ĠChe": 3833,
      "rick": 3834,
      "ashington": 3835,
      "Ġinterpret": 3836,
      "Ġpair": 3837,
      "Ġmilitary": 3838,
      "Ġfeet": 3839,
      "iers": 3840,
      "!!": 3841,
      "ĠSen": 3842,
      "Ġhospital": 3843,
      "Ġparties": 3844,
      "Ġfigure": 3845,
      "Be": 3846,
      "Ġexperiments": 3847,
      "Ġthinking": 3848,
      "Ġmur": 3849,
      "ĠOf": 3850,
      "Ġconnect": 3851,
      "Ġunderstanding": 3852,
      "ĠRepublic": 3853,
      "Ġfat": 3854,
      "rael": 3855,
      "Ġmal": 3856,
      "ano": 3857,
      "ĠLondon": 3858,
      "vision": 3859,
      "Ġ2008": 3860,
      "ael": 3861,
      "board": 3862,
      "mark": 3863,
      "ruary": 3864,
      "Ġformation": 3865,
      "Ġready": 3866,
      "iday": 3867,
      "Ġsec": 3868,
      "Ġhair": 3869,
      "Ġfear": 3870,
      "Ġthrow": 3871,
      "Ġproduce": 3872,
      "Ġactivities": 3873,
      "well": 3874,
      "Ġlearning": 3875,
      "ĠHol": 3876,
      "Add": 3877,
      "Ġconcentration": 3878,
      "Ġfinally": 3879,
      "Ġinteresting": 3880,
      "Ġdamage": 3881,
      "Ġfiled": 3882,
      "ĠSchool": 3883,
      "Supp": 3884,
      "ifornia": 3885,
      "Ġeducation": 3886,
      "ĠCong": 3887,
      "Ġpul": 3888,
      "Ġfeature": 3889,
      "Ġgoal": 3890,
      "Ġproof": 3891,
      "91": 3892,
      "aste": 3893,
      "ky": 3894,
      "Ġopinion": 3895,
      "ĠMark": 3896,
      "Ġimmediately": 3897,
      "ãĢģ": 3898,
      "Ġ2009": 3899,
      "Ġstaff": 3900,
      "Ġfully": 3901,
      "cos": 3902,
      "Ġmaterials": 3903,
      "Ġyes": 3904,
      "Ġobvious": 3905,
      "Ġstrength": 3906,
      "Ġsetting": 3907,
      "Ġgreen": 3908,
      "Ġplayer": 3909,
      "rep": 3910,
      "Ġreceive": 3911,
      "Ġ2018": 3912,
      "Ġmiddle": 3913,
      "Ġstated": 3914,
      "Ġthroughout": 3915,
      "Time": 3916,
      "Ġserver": 3917,
      "force": 3918,
      "ĠHealth": 3919,
      "Ġhab": 3920,
      "Man": 3921,
      "Ġprogress": 3922,
      "alle": 3923,
      "ĠBritish": 3924,
      "Ġgone": 3925,
      "Ġmit": 3926,
      "PP": 3927,
      "fo": 3928,
      "otes": 3929,
      "adem": 3930,
      "py": 3931,
      "Ġ35": 3932,
      "ĠAccording": 3933,
      "Ġresulting": 3934,
      "Ġreduce": 3935,
      "Ġblue": 3936,
      "orney": 3937,
      "Ġconnected": 3938,
      "Ġrules": 3939,
      "Ġmeeting": 3940,
      "bin": 3941,
      "Ġsto": 3942,
      "Int": 3943,
      "Ġskin": 3944,
      "Ġaspect": 3945,
      "Ġinternal": 3946,
      "Ġexhib": 3947,
      "Key": 3948,
      "Ġcosts": 3949,
      "Ġ($": 3950,
      "Ġpassed": 3951,
      "pol": 3952,
      "ĠBro": 3953,
      "Ġcontinued": 3954,
      "Ġcollect": 3955,
      "Ġcarried": 3956,
      "style": 3957,
      "Ġcounter": 3958,
      "Ġnearly": 3959,
      "Ġonto": 3960,
      "Ġdemand": 3961,
      "Ġfinancial": 3962,
      "Ġinfluence": 3963,
      "Ġyourself": 3964,
      "item": 3965,
      "Ġtask": 3966,
      "iling": 3967,
      "Ġchance": 3968,
      "Ġmess": 3969,
      "asc": 3970,
      "Ġplaced": 3971,
      "Ġrob": 3972,
      "Ġcollection": 3973,
      "Ġgets": 3974,
      "Ġcit": 3975,
      "Ġlives": 3976,
      "Ġdefine": 3977,
      "Ġhearing": 3978,
      "ĠHigh": 3979,
      "Ġletter": 3980,
      "Ġseparate": 3981,
      "Ġlinks": 3982,
      "Ġindicated": 3983,
      "ded": 3984,
      "oses": 3985,
      "Ġbrief": 3986,
      "Ġbinding": 3987,
      "ĠTw": 3988,
      "Ġscore": 3989,
      "Ġmaximum": 3990,
      "RI": 3991,
      "oat": 3992,
      "Ġletters": 3993,
      "DA": 3994,
      "ĠMus": 3995,
      "Ġnoted": 3996,
      "oto": 3997,
      "Ġplaying": 3998,
      "NS": 3999,
      "Ġreaction": 4000,
      "Ġmoving": 4001,
      "Ġreflect": 4002,
      "ĠAND": 4003,
      "Ġtour": 4004,
      "Ġapplications": 4005,
      "omb": 4006,
      "Ġreturned": 4007,
      "color": 4008,
      "PA": 4009,
      "Ġign": 4010,
      "Ġenter": 4011,
      "pa": 4012,
      "pling": 4013,
      "Ġnamed": 4014,
      "Ġfields": 4015,
      "Ġmedic": 4016,
      "ĠPark": 4017,
      "ĠAT": 4018,
      "Ġbecomes": 4019,
      "Ġyield": 4020,
      "related": 4021,
      "Ġmort": 4022,
      "ĠMor": 4023,
      "ĠBecause": 4024,
      "free": 4025,
      "Ġreached": 4026,
      "roy": 4027,
      "Ġsi": 4028,
      "Ġbrother": 4029,
      "asion": 4030,
      "Ġperhaps": 4031,
      "Ġgiving": 4032,
      "Ġkept": 4033,
      "Ġgrand": 4034,
      "asp": 4035,
      "inger": 4036,
      "Here": 4037,
      "Ġfit": 4038,
      "bra": 4039,
      "Class": 4040,
      "Ġforms": 4041,
      "hold": 4042,
      "Ġrevealed": 4043,
      "Ġstraight": 4044,
      "ĠEven": 4045,
      "atur": 4046,
      "ĠØ": 4047,
      "Ġwild": 4048,
      "Ġitems": 4049,
      "Ġvehicle": 4050,
      "Ġandroid": 4051,
      "iform": 4052,
      "Ġexists": 4053,
      "Ġdied": 4054,
      "stream": 4055,
      "Ġhour": 4056,
      "ATE": 4057,
      "Why": 4058,
      "Ġtool": 4059,
      "Ġinstit": 4060,
      "grad": 4061,
      "Ġsources": 4062,
      "DR": 4063,
      "othe": 4064,
      "berg": 4065,
      "Ġmodern": 4066,
      "Ġutil": 4067,
      "Ġstarting": 4068,
      "Ġjury": 4069,
      "omic": 4070,
      "amin": 4071,
      "rant": 4072,
      "Ġfix": 4073,
      "erved": 4074,
      "utive": 4075,
      "Ġintr": 4076,
      "oman": 4077,
      "Ġsafe": 4078,
      "Ġregarding": 4079,
      "ĠCalifornia": 4080,
      "ĠSan": 4081,
      "Ġbottom": 4082,
      "cles": 4083,
      "Ġboy": 4084,
      "Ġsend": 4085,
      "Ġconvention": 4086,
      "atin": 4087,
      "Ġotherwise": 4088,
      "otion": 4089,
      "Ġreports": 4090,
      "Ġparticipants": 4091,
      "Ġtalking": 4092,
      "Ġstuff": 4093,
      "Ġsteps": 4094,
      "Ġcombination": 4095,
      "Ġmajority": 4096,
      "ella": 4097,
      "Ġedge": 4098,
      "len": 4099,
      "Ġthick": 4100,
      "Ġdomain": 4101,
      "Ġpow": 4102,
      "ÑģÑĤ": 4103,
      "icit": 4104,
      "erate": 4105,
      "See": 4106,
      "ech": 4107,
      "ĠDon": 4108,
      "Ab": 4109,
      "cons": 4110,
      "ĠWashington": 4111,
      "Ġplus": 4112,
      "Ġbasic": 4113,
      "case": 4114,
      "Ġmaybe": 4115,
      "rend": 4116,
      "Ġchannel": 4117,
      "Ġcircuit": 4118,
      "Ġresistance": 4119,
      "Ġplaces": 4120,
      "Ġeconomic": 4121,
      "Ġpicked": 4122,
      "long": 4123,
      "ĠGet": 4124,
      "Ġzero": 4125,
      "enses": 4126,
      "Ġuns": 4127,
      "Ġinfection": 4128,
      "Ġcounsel": 4129,
      "Ġbeginning": 4130,
      "Ã©s": 4131,
      "place": 4132,
      "Me": 4133,
      "fil": 4134,
      "Ġanimals": 4135,
      "Ġweak": 4136,
      "PC": 4137,
      "Ġconcentr": 4138,
      "Ġcivil": 4139,
      "ĠFebruary": 4140,
      "Ġwouldn": 4141,
      "Ġtruth": 4142,
      "Ġunits": 4143,
      "Ġmale": 4144,
      "Ġpaid": 4145,
      "Test": 4146,
      "Ġ90": 4147,
      "can": 4148,
      "Ġseven": 4149,
      "Ġ80": 4150,
      "oken": 4151,
      "Ġbooks": 4152,
      "Ġjur": 4153,
      "Ġestablish": 4154,
      "Ġsun": 4155,
      "ady": 4156,
      "Ġshot": 4157,
      "iny": 4158,
      "Ġeth": 4159,
      "ĠUSA": 4160,
      "Ġopportunity": 4161,
      "Ġhappen": 4162,
      "Ġportion": 4163,
      "Ġum": 4164,
      "ĠFrench": 4165,
      "Ġobjects": 4166,
      "Ġachieve": 4167,
      "Ġcalculated": 4168,
      "ĠDavid": 4169,
      "onic": 4170,
      "uses": 4171,
      "Ġsuggested": 4172,
      "ÐµÐ½": 4173,
      "ĠData": 4174,
      "Ð´": 4175,
      "Ġeye": 4176,
      "ĠOther": 4177,
      "Ġmanner": 4178,
      "ny": 4179,
      "Ġlib": 4180,
      "çļ": 4181,
      "Ġje": 4182,
      "Ġconstruction": 4183,
      "Ġreduction": 4184,
      "tem": 4185,
      "ĠIsrael": 4186,
      "Ġmachine": 4187,
      "Ġplatform": 4188,
      "Ġmetal": 4189,
      "Ġwave": 4190,
      "ãģĦ": 4191,
      "Ġbul": 4192,
      "Ġhistor": 4193,
      "agon": 4194,
      "iance": 4195,
      "ocket": 4196,
      "gery": 4197,
      "Ġkill": 4198,
      "Ð¼": 4199,
      "Ġcore": 4200,
      "Ġprocessing": 4201,
      "orry": 4202,
      "Ġfunctional": 4203,
      "CS": 4204,
      "Ġsusp": 4205,
      "di": 4206,
      "eria": 4207,
      "Ġupper": 4208,
      "ĠPaul": 4209,
      "Ġwa": 4210,
      "je": 4211,
      "otype": 4212,
      "Ġtesting": 4213,
      "Ġremoved": 4214,
      "Big": 4215,
      "Ġtouch": 4216,
      "ria": 4217,
      "Ġhop": 4218,
      "Ġconsistent": 4219,
      "inese": 4220,
      "Ġlab": 4221,
      "Ġdetected": 4222,
      "ingu": 4223,
      "ĠAc": 4224,
      "Ġvill": 4225,
      "Ġagree": 4226,
      "Ġspread": 4227,
      "Ġconducted": 4228,
      "ĠCenter": 4229,
      "Ġprocedure": 4230,
      "ls": 4231,
      "ĠDis": 4232,
      "Ġtree": 4233,
      "Ġlabel": 4234,
      "Ġchoose": 4235,
      "Ġwhom": 4236,
      "ĠAM": 4237,
      "gar": 4238,
      "nes": 4239,
      "Ġhappy": 4240,
      "Ġinternational": 4241,
      "RA": 4242,
      "Ġ2007": 4243,
      "Ġtests": 4244,
      "ĠWhite": 4245,
      "ĠAlso": 4246,
      "Ġnorm": 4247,
      "Ġadapt": 4248,
      "Ġindicate": 4249,
      "çļĦ": 4250,
      "ĠPal": 4251,
      "Ġstatist": 4252,
      "zym": 4253,
      "Ġactions": 4254,
      "Form": 4255,
      "Ġrapid": 4256,
      "Ġswitch": 4257,
      "IA": 4258,
      "Ġharm": 4259,
      "Ġsets": 4260,
      "omin": 4261,
      "Ġpeak": 4262,
      "aly": 4263,
      "lam": 4264,
      "Ġcast": 4265,
      "Ġcareer": 4266,
      "level": 4267,
      "Ġsafety": 4268,
      "Ġglass": 4269,
      "Ġfloor": 4270,
      "dot": 4271,
      "Ġtend": 4272,
      "Ġunc": 4273,
      "ĠPublic": 4274,
      "Ġwid": 4275,
      "Ġspent": 4276,
      "Ġarrest": 4277,
      "ipp": 4278,
      "Ġpetition": 4279,
      "dr": 4280,
      "Ġclient": 4281,
      "Ġtal": 4282,
      "ĠTable": 4283,
      "ĠAut": 4284,
      "Ġreasonable": 4285,
      "Ġnearest": 4286,
      "Ġprove": 4287,
      "Ġproviding": 4288,
      "Over": 4289,
      "abil": 4290,
      "Ġshape": 4291,
      "zen": 4292,
      "Ġadopt": 4293,
      "ĠEuropean": 4294,
      "ctors": 4295,
      "Ġadministration": 4296,
      "rey": 4297,
      "Ġnone": 4298,
      "%,": 4299,
      "':": 4300,
      "Ġnil": 4301,
      "ci": 4302,
      "tes": 4303,
      "Ġlabor": 4304,
      "Ġresources": 4305,
      "using": 4306,
      "Ġsen": 4307,
      "Ġvisual": 4308,
      "Ġcert": 4309,
      "Ġ2000": 4310,
      "wood": 4311,
      "jo": 4312,
      "Ġshoot": 4313,
      "Ġdaily": 4314,
      "Ġpiece": 4315,
      "Ġmac": 4316,
      "cher": 4317,
      "Ġcharacteristics": 4318,
      "Ġextrem": 4319,
      "Ġsave": 4320,
      "Ġnice": 4321,
      "Ġlaws": 4322,
      "HT": 4323,
      "Ġ95": 4324,
      "Ġremov": 4325,
      "ellig": 4326,
      "Ġgold": 4327,
      "Ġ45": 4328,
      "Ġcentury": 4329,
      "ĠJack": 4330,
      "Ġshift": 4331,
      "Ġcompr": 4332,
      "raint": 4333,
      "ustr": 4334,
      "inner": 4335,
      "Ġkilled": 4336,
      "Ġplate": 4337,
      "oting": 4338,
      "Ġfemale": 4339,
      "pected": 4340,
      "Ġ37": 4341,
      "Ġcapital": 4342,
      "Ġcapacity": 4343,
      "ails": 4344,
      "Ġfresh": 4345,
      "aud": 4346,
      "ingly": 4347,
      "ĠArm": 4348,
      "ding": 4349,
      "Ġscen": 4350,
      "ĠPM": 4351,
      "Ġbab": 4352,
      "po": 4353,
      "Ġexisting": 4354,
      "Ġunf": 4355,
      "Ġpanel": 4356,
      "what": 4357,
      "Ġbenefits": 4358,
      "info": 4359,
      "abs": 4360,
      "FA": 4361,
      "pir": 4362,
      "oute": 4363,
      "Ġwat": 4364,
      "Ġitem": 4365,
      "ĠInter": 4366,
      "Ġmist": 4367,
      "Ġcru": 4368,
      "Ġremove": 4369,
      "Ġdut": 4370,
      "500": 4371,
      "ini": 4372,
      "idden": 4373,
      "rices": 4374,
      "ĠIndian": 4375,
      "config": 4376,
      "Ġprem": 4377,
      "ĠCommission": 4378,
      "Ġalbum": 4379,
      "ĠYour": 4380,
      "Ġ2006": 4381,
      "ĠLaw": 4382,
      "Ġpicture": 4383,
      "Ġreplacement": 4384,
      "Ġdiss": 4385,
      "uman": 4386,
      "vest": 4387,
      "ifying": 4388,
      "Ġcold": 4389,
      "PD": 4390,
      "Ġcontinuous": 4391,
      "Ġensure": 4392,
      "ĠID": 4393,
      "ĠBlack": 4394,
      "Ġpun": 4395,
      "Ġappeared": 4396,
      "Ġstudied": 4397,
      "Ġhus": 4398,
      "ifier": 4399,
      "Ġdefinition": 4400,
      "ĠIndia": 4401,
      "how": 4402,
      "Ġtypically": 4403,
      "itz": 4404,
      "Ġcrim": 4405,
      "apping": 4406,
      "Ãª": 4407,
      "Ġselection": 4408,
      "Ġraised": 4409,
      "Ġcop": 4410,
      "State": 4411,
      "ãģ«": 4412,
      "Ġexposure": 4413,
      "ĠAD": 4414,
      "Ġdatabase": 4415,
      "Ġwind": 4416,
      "flow": 4417,
      "Ġburn": 4418,
      "Ġclub": 4419,
      "Ġtrade": 4420,
      "osen": 4421,
      "Ġincreases": 4422,
      "sey": 4423,
      "ette": 4424,
      "ĠSec": 4425,
      "Ġassume": 4426,
      "Ġdiscussed": 4427,
      "db": 4428,
      "Ġfeeling": 4429,
      "Ġdoc": 4430,
      "Ġguess": 4431,
      "ago": 4432,
      "start": 4433,
      "Ġprepared": 4434,
      "Ġsolutions": 4435,
      "Ġdrink": 4436,
      "Ġopened": 4437,
      "Ġmeant": 4438,
      "Ġvictim": 4439,
      "ĠResearch": 4440,
      "ĠJames": 4441,
      "Ġrace": 4442,
      "ston": 4443,
      "äº": 4444,
      "ipe": 4445,
      "Ġmo": 4446,
      "Don": 4447,
      "Ġmill": 4448,
      "Ġcup": 4449,
      "Ġtransition": 4450,
      "ota": 4451,
      "Ġresponsible": 4452,
      "Ġspin": 4453,
      "Ġcommunication": 4454,
      "Ġapproximately": 4455,
      "Ġexplain": 4456,
      "Ġded": 4457,
      "ĠHam": 4458,
      "Ġwitness": 4459,
      "FT": 4460,
      "icks": 4461,
      "Ġimproved": 4462,
      "orter": 4463,
      "Ġpackage": 4464,
      "Ġbud": 4465,
      "004": 4466,
      "ruit": 4467,
      "cor": 4468,
      "soft": 4469,
      "Ġclick": 4470,
      "Ġbond": 4471,
      "Ġwood": 4472,
      "Ġheavy": 4473,
      "Ġ36": 4474,
      "Ġlip": 4475,
      "Ġstream": 4476,
      "Ġexplained": 4477,
      "Ġdoubt": 4478,
      "car": 4479,
      "Ġsuccessful": 4480,
      "Ġna": 4481,
      "produ": 4482,
      "Ġradio": 4483,
      "?'": 4484,
      "Ġliquid": 4485,
      "ĠGoogle": 4486,
      "count": 4487,
      "Ġrock": 4488,
      "Ġmig": 4489,
      "ĠOff": 4490,
      "istant": 4491,
      "ban": 4492,
      "Ġlock": 4493,
      "Ġagent": 4494,
      "Ġ70": 4495,
      "Ġoperator": 4496,
      "Ġoccup": 4497,
      "circ": 4498,
      "Ġalleged": 4499,
      "ographic": 4500,
      "ĠPC": 4501,
      "ĠTV": 4502,
      "Ġsell": 4503,
      "han": 4504,
      "Ġrecommend": 4505,
      "Ġpara": 4506,
      "Ä±": 4507,
      "hal": 4508,
      "ĠUK": 4509,
      "Ġmeasures": 4510,
      "ĠMost": 4511,
      "Ġdismiss": 4512,
      "Ġguy": 4513,
      "Ġprepar": 4514,
      "ĠMac": 4515,
      "Ġpark": 4516,
      "Ġcertainly": 4517,
      "Ġwants": 4518,
      "EE": 4519,
      "Ġserved": 4520,
      "anging": 4521,
      "Ġintroduced": 4522,
      "ĠRich": 4523,
      "Ġsexual": 4524,
      "lem": 4525,
      "ĠSy": 4526,
      "cin": 4527,
      "Ġforces": 4528,
      "Bl": 4529,
      "ĠInternational": 4530,
      "ALL": 4531,
      "ĠChinese": 4532,
      "ario": 4533,
      "imony": 4534,
      "Ġlegis": 4535,
      "ĠEv": 4536,
      "Ġconvers": 4537,
      "Ġelectric": 4538,
      "Ġforeign": 4539,
      "ĠCH": 4540,
      "tre": 4541,
      "Ġleads": 4542,
      "Ġexpand": 4543,
      "SH": 4544,
      "Ġbenefit": 4545,
      "ura": 4546,
      "rian": 4547,
      "Ġgun": 4548,
      "ANT": 4549,
      "you": 4550,
      "Ġprograms": 4551,
      "icial": 4552,
      "Ġolder": 4553,
      "Ġbelong": 4554,
      "Ġsurround": 4555,
      "enced": 4556,
      "Ġessential": 4557,
      "nb": 4558,
      "Ġinsert": 4559,
      "Ġnation": 4560,
      "Ġgrowing": 4561,
      "Out": 4562,
      "Ġcombined": 4563,
      "Ġborder": 4564,
      "Up": 4565,
      "Ġdefense": 4566,
      "ĠGerman": 4567,
      "Ġborn": 4568,
      "ĠPress": 4569,
      "ĠRE": 4570,
      "ä»": 4571,
      "Ġchallenge": 4572,
      "rient": 4573,
      "Ġ48": 4574,
      "Ġmotor": 4575,
      "LA": 4576,
      "Ġideas": 4577,
      "Ġvent": 4578,
      "Ġhuge": 4579,
      "Ġstrategy": 4580,
      "Ġcomments": 4581,
      "Ġprofessional": 4582,
      "Read": 4583,
      "ĠAtt": 4584,
      "Ġkin": 4585,
      "vo": 4586,
      "ĠRel": 4587,
      "Ġfib": 4588,
      "Ġthank": 4589,
      "Ġstorage": 4590,
      "mail": 4591,
      "ĠStreet": 4592,
      "ĠFe": 4593,
      "Ġmonitor": 4594,
      "orrow": 4595,
      "pers": 4596,
      "Ġcollected": 4597,
      "ĠPre": 4598,
      "Ġwish": 4599,
      "Ġupdate": 4600,
      "Ġunless": 4601,
      "idel": 4602,
      "PT": 4603,
      "ua": 4604,
      "Ġstock": 4605,
      "Ġdescription": 4606,
      "ita": 4607,
      "Ġspecifically": 4608,
      "Ġactivation": 4609,
      "raz": 4610,
      "Ġsav": 4611,
      "arant": 4612,
      "Ġdespite": 4613,
      "Ġadvantage": 4614,
      "kt": 4615,
      "Ġserve": 4616,
      "Ġkids": 4617,
      "Ġprison": 4618,
      "chen": 4619,
      "open": 4620,
      "ĠCongress": 4621,
      "Ġcontrols": 4622,
      "ĠTwo": 4623,
      "Ġexercise": 4624,
      "Ġvert": 4625,
      "Ġempt": 4626,
      "ĠMiss": 4627,
      "Ġsummer": 4628,
      "ĠSam": 4629,
      "Ġmg": 4630,
      "Ġkid": 4631,
      "ulf": 4632,
      "Ġslightly": 4633,
      "Ġdelay": 4634,
      "ĠPost": 4635,
      "Ġremaining": 4636,
      "aa": 4637,
      "Ġconfirmed": 4638,
      "rd": 4639,
      "Reg": 4640,
      "Ð¾Ð²": 4641,
      "ĠEast": 4642,
      "lt": 4643,
      "Ġchemical": 4644,
      "ĠMart": 4645,
      "Ġalternative": 4646,
      "Ġpal": 4647,
      "eds": 4648,
      "Ġcat": 4649,
      "hi": 4650,
      "ĠNOT": 4651,
      "Can": 4652,
      "Ġfilter": 4653,
      "Ġsch": 4654,
      "Ġvac": 4655,
      "ows": 4656,
      "Ġfif": 4657,
      "ĠEach": 4658,
      "Ġmissing": 4659,
      "Ġring": 4660,
      "Ġworkers": 4661,
      "Ġagreed": 4662,
      "ĠÐ¸": 4663,
      "SI": 4664,
      "Ġnut": 4665,
      "Ġ2005": 4666,
      "Ġplans": 4667,
      "Ġvel": 4668,
      "osc": 4669,
      "ba": 4670,
      "ãĤĭ": 4671,
      "Ġcomplaint": 4672,
      "Ġcatch": 4673,
      "Ġdrugs": 4674,
      "isation": 4675,
      "ĠNote": 4676,
      "Ġinvestigation": 4677,
      "kg": 4678,
      "Ġcalls": 4679,
      "Ġfootball": 4680,
      "Ùħ": 4681,
      "uing": 4682,
      "ÙĨ": 4683,
      "Ġpros": 4684,
      "iders": 4685,
      "Ġtechnique": 4686,
      "ĠEngland": 4687,
      "Ġentry": 4688,
      "pass": 4689,
      "Ġscience": 4690,
      "onna": 4691,
      "Ġrecords": 4692,
      "ĠUp": 4693,
      "Ġassociation": 4694,
      "Ġdigital": 4695,
      "Ġoccurred": 4696,
      "Ġdenied": 4697,
      "Ġsurgery": 4698,
      "Ġfamilies": 4699,
      "Ġoperations": 4700,
      "Then": 4701,
      "Ġhealthy": 4702,
      "Ġaffected": 4703,
      "Ġholding": 4704,
      "Ġmix": 4705,
      "Ġcycle": 4706,
      "edom": 4707,
      "Ġfirm": 4708,
      "Ġminor": 4709,
      "Ġrelation": 4710,
      "Ġwarm": 4711,
      "ãģĹ": 4712,
      "Ġanimal": 4713,
      "zon": 4714,
      "itis": 4715,
      "riage": 4716,
      "Ġtempor": 4717,
      "Ġtraditional": 4718,
      "ĠGroup": 4719,
      "pc": 4720,
      "check": 4721,
      "Ġoffered": 4722,
      "Ġofficer": 4723,
      "Ġopening": 4724,
      "Ġ34": 4725,
      "elled": 4726,
      "Ġwhatever": 4727,
      "kin": 4728,
      "CO": 4729,
      "arp": 4730,
      "Ġsymptoms": 4731,
      "Ġgal": 4732,
      "Ġefficient": 4733,
      "Ġfrag": 4734,
      "Ġ33": 4735,
      "itled": 4736,
      "Ġdrop": 4737,
      "Ġminimum": 4738,
      "Ġabsence": 4739,
      "ignment": 4740,
      "Ġchain": 4741,
      "ĠTO": 4742,
      "Ġsuggests": 4743,
      "Ġhusband": 4744,
      "Ġdistributed": 4745,
      "Ġuna": 4746,
      "åı": 4747,
      "DS": 4748,
      "gs": 4749,
      "ander": 4750,
      "iat": 4751,
      "Ġsociety": 4752,
      "Ġrecorded": 4753,
      "Ġtrig": 4754,
      "ĠFound": 4755,
      "antly": 4756,
      "Ġdiscussion": 4757,
      "Ġcomfort": 4758,
      "Ġrank": 4759,
      "æľ": 4760,
      "Ġbone": 4761,
      "Ġbiggest": 4762,
      "Ġjudge": 4763,
      "PO": 4764,
      "Ġhol": 4765,
      "Ġentered": 4766,
      "house": 4767,
      "rich": 4768,
      "Ġclasses": 4769,
      "Ġherself": 4770,
      "ya": 4771,
      "Ġstudent": 4772,
      "Ġconver": 4773,
      "Ġ42": 4774,
      "Ġgeneration": 4775,
      "ĠMal": 4776,
      "Ġformat": 4777,
      "Ġsudden": 4778,
      "'.": 4779,
      "ki": 4780,
      "ĠBoard": 4781,
      "Ġbreast": 4782,
      "Ġcircumstances": 4783,
      "GL": 4784,
      "Ãł": 4785,
      "det": 4786,
      "post": 4787,
      "Ġestimated": 4788,
      "Ġsitu": 4789,
      "Ġscript": 4790,
      "oz": 4791,
      "Ġorganization": 4792,
      "ĠTest": 4793,
      "Ġfra": 4794,
      "Ġbill": 4795,
      "Ġeat": 4796,
      "Ġfaith": 4797,
      "Ġsummary": 4798,
      "Ġrepeated": 4799,
      "Ġhandle": 4800,
      "sem": 4801,
      "ĠKe": 4802,
      "Ġincome": 4803,
      "ĠBank": 4804,
      "ĠSupp": 4805,
      "Ġbow": 4806,
      "ĠBen": 4807,
      "Ġefforts": 4808,
      "Ġsmooth": 4809,
      "Ġintended": 4810,
      "ione": 4811,
      "Ġjoint": 4812,
      "ĠAir": 4813,
      "ĠCam": 4814,
      "Ġconventional": 4815,
      "Ġvolt": 4816,
      "Ġnoise": 4817,
      "ĠCa": 4818,
      "ĠWhy": 4819,
      "Per": 4820,
      "ĠSuper": 4821,
      "Ġrise": 4822,
      "Ġprotection": 4823,
      "lands": 4824,
      "Ġknows": 4825,
      "gin": 4826,
      "umin": 4827,
      "ĠOver": 4828,
      "olar": 4829,
      "Ġresolution": 4830,
      "Our": 4831,
      "Ġguys": 4832,
      "Ġnuclear": 4833,
      "Ġextent": 4834,
      "ivo": 4835,
      "Ġcele": 4836,
      "illa": 4837,
      "ĠÅ": 4838,
      "Ġdry": 4839,
      "Some": 4840,
      "izer": 4841,
      "Ġagents": 4842,
      "ĠGeorge": 4843,
      "ãģ¨": 4844,
      "esis": 4845,
      "sf": 4846,
      "ushed": 4847,
      "Ġrequirements": 4848,
      "Ġshared": 4849,
      "ĠÐ¾": 4850,
      "ĠLou": 4851,
      "ĠAny": 4852,
      "Sp": 4853,
      "Ġchurch": 4854,
      "ivery": 4855,
      "Ġcovered": 4856,
      "Ġleaving": 4857,
      "Ġmobile": 4858,
      "Ġinterested": 4859,
      "irty": 4860,
      "ĠTexas": 4861,
      "Ġstars": 4862,
      "ĠGreen": 4863,
      "ERS": 4864,
      "ners": 4865,
      "Ġkit": 4866,
      "burg": 4867,
      "Ġdaughter": 4868,
      "à¥": 4869,
      "Ġrepresents": 4870,
      "Ġstre": 4871,
      "ĠDi": 4872,
      "Ġoffers": 4873,
      "Ġelection": 4874,
      "ilit": 4875,
      "eless": 4876,
      "Ġdoll": 4877,
      "Ġdecreased": 4878,
      "Ġannounced": 4879,
      "Ġimplic": 4880,
      "Pr": 4881,
      "Ġreb": 4882,
      "ĠCanada": 4883,
      "Ġnorth": 4884,
      "yr": 4885,
      "van": 4886,
      "Ġearth": 4887,
      "Ġsea": 4888,
      "rees": 4889,
      "Ġcredit": 4890,
      "Ġcreating": 4891,
      "va": 4892,
      "Ġ2004": 4893,
      "BI": 4894,
      "specific": 4895,
      "ĠPort": 4896,
      "cks": 4897,
      "Ġanc": 4898,
      "ĠUnder": 4899,
      "Ġregist": 4900,
      "het": 4901,
      "ville": 4902,
      "night": 4903,
      "Ġemployees": 4904,
      "block": 4905,
      "Ġarms": 4906,
      "While": 4907,
      "ĠGermany": 4908,
      "Ġdose": 4909,
      "Ġwaiting": 4910,
      "ĠFrance": 4911,
      "rape": 4912,
      "Ġdownload": 4913,
      "mic": 4914,
      "Ġsupply": 4915,
      "Ãº": 4916,
      "oom": 4917,
      "Trans": 4918,
      "Ġmes": 4919,
      "ĠIll": 4920,
      "ĠBer": 4921,
      "Ġtrain": 4922,
      "Ġlit": 4923,
      "Ġdiet": 4924,
      "Ġsentence": 4925,
      "phone": 4926,
      "Ġscene": 4927,
      "ĠSur": 4928,
      "ĠDE": 4929,
      "ĠLord": 4930,
      "look": 4931,
      "ÑĤÐ¾": 4932,
      "Ġtestimony": 4933,
      "Ġcrow": 4934,
      "Ġmouth": 4935,
      "sens": 4936,
      "Ġwel": 4937,
      "ĠSmith": 4938,
      "etes": 4939,
      "Ġship": 4940,
      "pled": 4941,
      "ãģŁ": 4942,
      "Ġcontained": 4943,
      "Ġprofile": 4944,
      "Ġsales": 4945,
      "Ġstood": 4946,
      "cel": 4947,
      "ilde": 4948,
      "inder": 4949,
      "ras": 4950,
      "iant": 4951,
      "ansion": 4952,
      "ĠRem": 4953,
      "ulin": 4954,
      "ï¼Į": 4955,
      "Ġadding": 4956,
      "Ġexistence": 4957,
      "Ġplants": 4958,
      "Ġsust": 4959,
      "Ġofficers": 4960,
      "Ġlargest": 4961,
      "Ġdriver": 4962,
      "Ġmental": 4963,
      "Â·": 4964,
      "ĠDay": 4965,
      "current": 4966,
      "ãģ¦": 4967,
      "Ġesc": 4968,
      "Ġcommercial": 4969,
      "Ġauthority": 4970,
      "''": 4971,
      "ĠCommun": 4972,
      "ĠTom": 4973,
      "ĠAre": 4974,
      "Ġvote": 4975,
      "last": 4976,
      "Ġdriving": 4977,
      "ĠMichael": 4978,
      "Ġsquare": 4979,
      "ĠYes": 4980,
      "Ġà¤": 4981,
      "Ġstories": 4982,
      "ĠOut": 4983,
      "Ġproperly": 4984,
      "Ġinterests": 4985,
      "hr": 4986,
      "Ġloop": 4987,
      "Ġbes": 4988,
      "bert": 4989,
      "nam": 4990,
      "Ġthread": 4991,
      "Ġshut": 4992,
      "Ġindeed": 4993,
      "Ġmechanisms": 4994,
      "Ġsignals": 4995,
      "Just": 4996,
      "frame": 4997,
      "Ġmaster": 4998,
      "ĠDel": 4999,
      "Ġfol": 5000,
      "Ġstanding": 5001,
      "Ġspot": 5002,
      "just": 5003,
      "Ġcatal": 5004,
      "Ġlearned": 5005,
      "Ġcompleted": 5006,
      "Ġpure": 5007,
      "ĠNews": 5008,
      "normal": 5009,
      "run": 5010,
      "Ġtransmission": 5011,
      "Ġlatest": 5012,
      "range": 5013,
      "Ġempty": 5014,
      "Ġsupposed": 5015,
      "BA": 5016,
      "Ġpeace": 5017,
      "Ġstopped": 5018,
      "Ġlibrary": 5019,
      "ÃŃa": 5020,
      "Ġran": 5021,
      "Ġofficials": 5022,
      "stein": 5023,
      "uate": 5024,
      "front": 5025,
      "ãģ§": 5026,
      "Ġbreath": 5027,
      "Ġneighbor": 5028,
      "ĠSecond": 5029,
      "abla": 5030,
      "Ġimportance": 5031,
      "Ġgain": 5032,
      "olf": 5033,
      "Ġparticles": 5034,
      "ih": 5035,
      "ca": 5036,
      "ias": 5037,
      "ĠWestern": 5038,
      "opic": 5039,
      "ja": 5040,
      "Ġpool": 5041,
      "ears": 5042,
      "ĠMet": 5043,
      "ERT": 5044,
      "edy": 5045,
      "num": 5046,
      "Ġwire": 5047,
      "Ġelim": 5048,
      "rog": 5049,
      "Ġremained": 5050,
      "page": 5051,
      "Ġpurposes": 5052,
      "Ġdecrease": 5053,
      "Ġpolic": 5054,
      "Ġcustomers": 5055,
      "Ġmir": 5056,
      "Ġahead": 5057,
      "Ġpossibility": 5058,
      "Ġinvolve": 5059,
      "Ġfarm": 5060,
      "ipped": 5061,
      "ĠCO": 5062,
      "ĠMary": 5063,
      "ĠMat": 5064,
      "ĠUnion": 5065,
      "Ġlung": 5066,
      "Ġaren": 5067,
      "Ġconserv": 5068,
      "Ġstreet": 5069,
      "First": 5070,
      "Ġbutton": 5071,
      "Ġappar": 5072,
      "ĠChurch": 5073,
      "ĠSupreme": 5074,
      "Ġremainder": 5075,
      "Ġplane": 5076,
      "ĠChristian": 5077,
      "roller": 5078,
      "ãģ¯": 5079,
      "ishes": 5080,
      "Ġsouth": 5081,
      "dy": 5082,
      "Ġpowerful": 5083,
      "Ġdirector": 5084,
      "Ġcriminal": 5085,
      "Ġequivalent": 5086,
      "ker": 5087,
      "Ġma": 5088,
      "Ġexchange": 5089,
      "Pe": 5090,
      "icians": 5091,
      "url": 5092,
      "However": 5093,
      "after": 5094,
      "ĠTechn": 5095,
      "Ġmovie": 5096,
      "mem": 5097,
      "Ġing": 5098,
      "Ġuniform": 5099,
      "born": 5100,
      "ãĤĴ": 5101,
      "ani": 5102,
      "Ġconclusion": 5103,
      "RS": 5104,
      "Ġoutcome": 5105,
      "Ġconvert": 5106,
      "ĠCouncil": 5107,
      "Ã¢": 5108,
      "lif": 5109,
      "Ġgreatest": 5110,
      "onday": 5111,
      "ÙĬ": 5112,
      "ora": 5113,
      "uries": 5114,
      "ĠÐº": 5115,
      "Ġhaven": 5116,
      "Ġ2003": 5117,
      "rect": 5118,
      "aming": 5119,
      "Ġstable": 5120,
      "ader": 5121,
      "ructions": 5122,
      "Ġelev": 5123,
      "Ġ38": 5124,
      "win": 5125,
      "Ġcas": 5126,
      "antic": 5127,
      "Ġexpert": 5128,
      "Ġelectron": 5129,
      "Ġidentity": 5130,
      "ĠIII": 5131,
      "ĠPeople": 5132,
      "Ġindicates": 5133,
      "Ġprojects": 5134,
      "Ġbillion": 5135,
      "ĠGreat": 5136,
      "Ġfell": 5137,
      "Ġoperating": 5138,
      "Ġequipment": 5139,
      "Ġgonna": 5140,
      "Ġenem": 5141,
      "Ġinsurance": 5142,
      "Inter": 5143,
      "Ġleaves": 5144,
      "Yeah": 5145,
      "Ġflat": 5146,
      "Ġextended": 5147,
      "Ġorigin": 5148,
      "Ġbra": 5149,
      "Ġfluid": 5150,
      "ĠInstitute": 5151,
      "Ġhelped": 5152,
      "Ġspeech": 5153,
      "Ġmouse": 5154,
      "Ġseeing": 5155,
      "Ġeventually": 5156,
      "anges": 5157,
      "aine": 5158,
      "Ġpour": 5159,
      "agen": 5160,
      "ÙĪ": 5161,
      "md": 5162,
      "Ġdra": 5163,
      "Ġcontrolled": 5164,
      "sole": 5165,
      "onald": 5166,
      "KE": 5167,
      "ampions": 5168,
      "Ġappoint": 5169,
      "cluding": 5170,
      "Ġreturns": 5171,
      "real": 5172,
      "ĠClass": 5173,
      "draw": 5174,
      "rer": 5175,
      "eric": 5176,
      "Ġholds": 5177,
      "Ġmaintain": 5178,
      "crib": 5179,
      "Ne": 5180,
      "Ġsecondary": 5181,
      "Ġdiab": 5182,
      "Ġnav": 5183,
      "ĠÐ´": 5184,
      "Ġbelieved": 5185,
      "Ġcamera": 5186,
      "Ġhappens": 5187,
      "ATION": 5188,
      "Ġmostly": 5189,
      "Color": 5190,
      "Ġmiles": 5191,
      "ando": 5192,
      "Ġdiseases": 5193,
      "Ġvirus": 5194,
      "ĠCA": 5195,
      "Ġconfirm": 5196,
      "vi": 5197,
      "Ġ2001": 5198,
      "Ġfilms": 5199,
      "nce": 5200,
      "Ã¶r": 5201,
      "Ġforth": 5202,
      "ads": 5203,
      "rie": 5204,
      "anes": 5205,
      "Ġaware": 5206,
      "Att": 5207,
      "NE": 5208,
      "Ġjoin": 5209,
      "rive": 5210,
      "Ġrepresented": 5211,
      "typ": 5212,
      "Ġreality": 5213,
      "Ġruns": 5214,
      "mittee": 5215,
      "Ġcelebr": 5216,
      "Ġmuscle": 5217,
      "Ġcrime": 5218,
      "ĠSet": 5219,
      "Ġrelief": 5220,
      "Ã±": 5221,
      "Fl": 5222,
      "ĠRob": 5223,
      "iller": 5224,
      "Ġbright": 5225,
      "ses": 5226,
      "Ġschools": 5227,
      "Ġsurvey": 5228,
      "ĠService": 5229,
      "Ġoccurs": 5230,
      "Ġcharged": 5231,
      "Ġspectrum": 5232,
      "lets": 5233,
      "ĠNS": 5234,
      "Ġveloc": 5235,
      "Ġestimate": 5236,
      "Ġstatute": 5237,
      "ello": 5238,
      "ĠFOR": 5239,
      "Ġlov": 5240,
      "aper": 5241,
      "Ġbalance": 5242,
      "arian": 5243,
      "Ġleader": 5244,
      "PH": 5245,
      "TC": 5246,
      "Ġdigit": 5247,
      "Ġteams": 5248,
      "care": 5249,
      "Ġmel": 5250,
      "ln": 5251,
      "sa": 5252,
      "Ġbattle": 5253,
      "mas": 5254,
      "api": 5255,
      "ye": 5256,
      "Ġdeveloping": 5257,
      "Ġextremely": 5258,
      "ãģª": 5259,
      "istent": 5260,
      "she": 5261,
      "ĠJapanese": 5262,
      "Any": 5263,
      "ĠVir": 5264,
      "ĠHall": 5265,
      "Ġjournal": 5266,
      "Ġfinished": 5267,
      "Ġthanks": 5268,
      "Ġinner": 5269,
      "Ġsigned": 5270,
      "Ġ64": 5271,
      "Ġaf": 5272,
      "ĠRead": 5273,
      "istor": 5274,
      "ocy": 5275,
      "weight": 5276,
      "crete": 5277,
      "Ñħ": 5278,
      "Ass": 5279,
      "eles": 5280,
      "Ġchronic": 5281,
      "Are": 5282,
      "ĠRet": 5283,
      "ĠSE": 5284,
      "Ġforced": 5285,
      "Ġtro": 5286,
      "Ġliver": 5287,
      "ĠObama": 5288,
      "Ġexamined": 5289,
      "iler": 5290,
      "Ġdebt": 5291,
      "ena": 5292,
      "Ġsho": 5293,
      "Ġdelivery": 5294,
      "Dis": 5295,
      "ĠFacebook": 5296,
      "Ġgar": 5297,
      "Ġneither": 5298,
      "ading": 5299,
      "Ġice": 5300,
      "Ġ2002": 5301,
      "Ġauto": 5302,
      "Ð°Ð½": 5303,
      "source": 5304,
      "Ġagency": 5305,
      "Ġthousands": 5306,
      "åĪ": 5307,
      "Ġcolon": 5308,
      "alian": 5309,
      "appro": 5310,
      "Ġfish": 5311,
      "Ġcycl": 5312,
      "Ġchosen": 5313,
      "ĠPhil": 5314,
      "Ġrepresentation": 5315,
      "Ġadult": 5316,
      "Ġ500": 5317,
      "imb": 5318,
      "ifications": 5319,
      "Ġcalling": 5320,
      "local": 5321,
      "May": 5322,
      "rehen": 5323,
      "Ġrich": 5324,
      "ĠFriday": 5325,
      "ĠJudge": 5326,
      "Rep": 5327,
      "Ġmixed": 5328,
      "Ġarchitect": 5329,
      "ĠFoundation": 5330,
      "Ġissued": 5331,
      "Ġtag": 5332,
      "ti": 5333,
      "Ste": 5334,
      "ĠMag": 5335,
      "Ġnic": 5336,
      "ancing": 5337,
      "ĠCircuit": 5338,
      "Ġtwenty": 5339,
      "Ġspl": 5340,
      "ĠCollege": 5341,
      "Go": 5342,
      "ĠMrs": 5343,
      "Ġdirected": 5344,
      "á»": 5345,
      "Ġpossibly": 5346,
      "Ġcollege": 5347,
      "Ġsubstantial": 5348,
      "Ġattorney": 5349,
      "Ġintellig": 5350,
      "ola": 5351,
      "cup": 5352,
      "Ġgirls": 5353,
      "inst": 5354,
      "aked": 5355,
      "Ã¤n": 5356,
      ")\"": 5357,
      "ĠVol": 5358,
      "Ġpaint": 5359,
      "Ġviews": 5360,
      "isher": 5361,
      "fee": 5362,
      "ĠDiv": 5363,
      "utor": 5364,
      "fa": 5365,
      "oking": 5366,
      "icated": 5367,
      "Ġbaby": 5368,
      "osa": 5369,
      "Ġamb": 5370,
      "Ġtight": 5371,
      "ĠTime": 5372,
      "Ġtypical": 5373,
      "Ġsin": 5374,
      "Co": 5375,
      "result": 5376,
      "Ġiron": 5377,
      "These": 5378,
      "XX": 5379,
      "Ġsession": 5380,
      "ĠScience": 5381,
      "ician": 5382,
      "Count": 5383,
      "Ġ75": 5384,
      "Ġextension": 5385,
      "jud": 5386,
      "Ġcond": 5387,
      "Ġreceiving": 5388,
      "ĠLeague": 5389,
      "Ġprotected": 5390,
      "Ġpositions": 5391,
      "Ġdiscovered": 5392,
      "Ġchanging": 5393,
      "Ġnarrow": 5394,
      "Che": 5395,
      "ĠFrank": 5396,
      "pack": 5397,
      "ĠNa": 5398,
      "Ġfilled": 5399,
      "Ø±": 5400,
      "TS": 5401,
      "riend": 5402,
      "Ġthin": 5403,
      "Ġangle": 5404,
      "ĠMA": 5405,
      "Ġdestroy": 5406,
      "ĠRobert": 5407,
      "ĠBay": 5408,
      "Ġnod": 5409,
      "å®": 5410,
      "mt": 5411,
      "Ġjump": 5412,
      "standing": 5413,
      "Ġpert": 5414,
      "ĠSunday": 5415,
      "Ġnetworks": 5416,
      "acle": 5417,
      "Ġ39": 5418,
      "ostic": 5419,
      "teen": 5420,
      "osh": 5421,
      "ĠLem": 5422,
      "Ġskills": 5423,
      "law": 5424,
      "Ġenvironmental": 5425,
      "ĠMil": 5426,
      "Ġlived": 5427,
      "Ġallowing": 5428,
      "Ġalt": 5429,
      "Ġspend": 5430,
      "Ġinvestigated": 5431,
      "aren": 5432,
      "Ġchair": 5433,
      "mes": 5434,
      "create": 5435,
      "ĠMo": 5436,
      "ãģĮ": 5437,
      "Ġordered": 5438,
      "Ġking": 5439,
      "apped": 5440,
      "Ġshock": 5441,
      "uh": 5442,
      "Ġfab": 5443,
      "Ġcurve": 5444,
      "SU": 5445,
      "mo": 5446,
      "Ġoutcomes": 5447,
      "Ġscheme": 5448,
      "ĠLike": 5449,
      "ĠAustralia": 5450,
      "uce": 5451,
      "Ġunivers": 5452,
      "Ġprincip": 5453,
      "Ġeconomy": 5454,
      "Ġrecall": 5455,
      "ĠMad": 5456,
      "Ġtub": 5457,
      "Ġune": 5458,
      "Ġalter": 5459,
      "rid": 5460,
      "Ġpolar": 5461,
      "ĠIns": 5462,
      "ãĥ¼": 5463,
      "Group": 5464,
      "Ġdetailed": 5465,
      "Ġfourth": 5466,
      "Ġasking": 5467,
      "Ġom": 5468,
      "Equ": 5469,
      "ĠPen": 5470,
      "Ġisolated": 5471,
      "Ġapproved": 5472,
      "Ã§Ã£o": 5473,
      "Ġchief": 5474,
      "Ġsorry": 5475,
      "Ġminute": 5476,
      "Ġsup": 5477,
      "Ġtwice": 5478,
      "Ġton": 5479,
      "ĠParty": 5480,
      "Ġdepends": 5481,
      "icted": 5482,
      "Ġlie": 5483,
      "Ġmarried": 5484,
      "ÐµÑĢ": 5485,
      "Ġcoverage": 5486,
      "Ġcapable": 5487,
      "Ġrelates": 5488,
      "Ġconc": 5489,
      "Ġleaders": 5490,
      "ĠCommittee": 5491,
      "claim": 5492,
      "ells": 5493,
      "Ġsalt": 5494,
      "Ġsac": 5495,
      "Ġtick": 5496,
      "Ġelectronic": 5497,
      "Ġstrongly": 5498,
      "first": 5499,
      "break": 5500,
      "ĠTur": 5501,
      "åħ": 5502,
      "Ġsmart": 5503,
      "ĠHill": 5504,
      "Ġsitting": 5505,
      "dt": 5506,
      "Ð°ÑĤ": 5507,
      "ĠWeb": 5508,
      "ito": 5509,
      "iner": 5510,
      "ĠSum": 5511,
      "Ġdefect": 5512,
      "Ġbatter": 5513,
      "Ġterror": 5514,
      "mand": 5515,
      "asy": 5516,
      "ala": 5517,
      "Ġpossess": 5518,
      "cr": 5519,
      "SL": 5520,
      "Ġhell": 5521,
      "ĠNor": 5522,
      "ĠGood": 5523,
      "Ġdecisions": 5524,
      "Ġimplementation": 5525,
      "Your": 5526,
      "Ġentirely": 5527,
      "okes": 5528,
      "xe": 5529,
      "Ġgra": 5530,
      "press": 5531,
      "Ġmarked": 5532,
      "Ġguide": 5533,
      "Ġevaluation": 5534,
      "Ġfocused": 5535,
      "Ġquiet": 5536,
      "ĠAmericans": 5537,
      "tex": 5538,
      "has": 5539,
      "ä½": 5540,
      "ido": 5541,
      "ĠdÃ©": 5542,
      "Ġtens": 5543,
      "ĠAssociation": 5544,
      "Ġlisted": 5545,
      "Ġincident": 5546,
      "Ġplays": 5547,
      "ĠRiver": 5548,
      "Ġgod": 5549,
      "Ġsides": 5550,
      "Ġexcellent": 5551,
      "Ġ44": 5552,
      "itud": 5553,
      "According": 5554,
      "uesday": 5555,
      "Ġintensity": 5556,
      "select": 5557,
      "Ġtraffic": 5558,
      "Ġbrand": 5559,
      "Ġtrees": 5560,
      "Ġcategory": 5561,
      "CI": 5562,
      "Ġduty": 5563,
      "Ġcorner": 5564,
      "ãģĻ": 5565,
      "Ġquarter": 5566,
      "ket": 5567,
      "Ġbroken": 5568,
      "Ġpercentage": 5569,
      "Ġdream": 5570,
      "unc": 5571,
      "Ġaccord": 5572,
      "Ġdefendants": 5573,
      "ĠTheir": 5574,
      "Where": 5575,
      "Ġconfidence": 5576,
      "Ġnom": 5577,
      "Ġraise": 5578,
      "Ġju": 5579,
      "Ġlose": 5580,
      "Ġgranted": 5581,
      "Ġadvance": 5582,
      "Ġbeat": 5583,
      "oday": 5584,
      "iot": 5585,
      "Ġforg": 5586,
      "Ġdocuments": 5587,
      "Ġpathway": 5588,
      "Ð¿": 5589,
      "wed": 5590,
      "Ġfreedom": 5591,
      "bal": 5592,
      "ĠVer": 5593,
      "cial": 5594,
      "ĠForm": 5595,
      "Ġunderstood": 5596,
      "ailed": 5597,
      "Ġmainly": 5598,
      "ĠThomas": 5599,
      "Ġworse": 5600,
      "ĠFin": 5601,
      "Ġunknown": 5602,
      "Ġspring": 5603,
      "Ġjour": 5604,
      "Ġmanager": 5605,
      "Ġfrequently": 5606,
      "reek": 5607,
      "Ġnotes": 5608,
      "Ġformula": 5609,
      "ĠOnly": 5610,
      "agger": 5611,
      "ĠMonday": 5612,
      "Ġviolence": 5613,
      "Ġplanning": 5614,
      "ĠER": 5615,
      "Ġminim": 5616,
      "Ġpas": 5617,
      "ĠBook": 5618,
      "uls": 5619,
      "Ġreligious": 5620,
      "kins": 5621,
      "ĠBrown": 5622,
      "Ġstatements": 5623,
      "Ġfuel": 5624,
      "Ġevening": 5625,
      "Ġegg": 5626,
      "Ġpy": 5627,
      "adow": 5628,
      "Ġprotocol": 5629,
      "Ġabuse": 5630,
      "Ġarrived": 5631,
      "ĠWH": 5632,
      "ĠRussian": 5633,
      "Ġregulation": 5634,
      "å¤": 5635,
      "Ġ65": 5636,
      "ĠWilliam": 5637,
      "Ġseconds": 5638,
      "Ã¸": 5639,
      "Ġdeliver": 5640,
      "Ġcharges": 5641,
      "kl": 5642,
      "Ġtor": 5643,
      "main": 5644,
      "Ġintervention": 5645,
      "Ġadvanced": 5646,
      "Ġcaught": 5647,
      "else": 5648,
      "UD": 5649,
      "Ġapproaches": 5650,
      "Ġtom": 5651,
      "gers": 5652,
      "Ġcompare": 5653,
      "Ġenhance": 5654,
      "Ġconsult": 5655,
      "Ġcart": 5656,
      "BP": 5657,
      "GA": 5658,
      "ĠGold": 5659,
      "Ġopposite": 5660,
      "Ġappearance": 5661,
      "Ġ55": 5662,
      "Ġsale": 5663,
      "Ġcritic": 5664,
      "Ġdepending": 5665,
      "ĠGovernment": 5666,
      "Ġconsidering": 5667,
      "çĶ": 5668,
      "icago": 5669,
      "anta": 5670,
      "Ġmanaged": 5671,
      "acks": 5672,
      "ĠCr": 5673,
      "ĠCI": 5674,
      "gi": 5675,
      "Ġusual": 5676,
      "Ġadvert": 5677,
      "Ġtelevision": 5678,
      "Ġquery": 5679,
      "cut": 5680,
      "Ġca": 5681,
      "Ġseat": 5682,
      "Ġpulled": 5683,
      "Ġmodified": 5684,
      "gent": 5685,
      "Ġcort": 5686,
      "Ġcompetition": 5687,
      "Ġexposed": 5688,
      "Ġau": 5689,
      "gt": 5690,
      "sor": 5691,
      "ĠSl": 5692,
      "ĠInternet": 5693,
      "oster": 5694,
      "Ġsensitivity": 5695,
      "dir": 5696,
      "Ġgoals": 5697,
      "Ġaccident": 5698,
      "Ġconflict": 5699,
      "Ġdoctor": 5700,
      "Ġ120": 5701,
      "Ġcos": 5702,
      "Ġconcerns": 5703,
      "Ġbag": 5704,
      "uy": 5705,
      "Ġsweet": 5706,
      "Ġrecovery": 5707,
      "Ġstick": 5708,
      "Ġtill": 5709,
      "Ġaccum": 5710,
      "ĠAnn": 5711,
      "Ġpod": 5712,
      "Ġris": 5713,
      "Ġscr": 5714,
      "Ġscores": 5715,
      "Ġlimitations": 5716,
      "Ġindepend": 5717,
      "edia": 5718,
      "Ġorders": 5719,
      "Ġresulted": 5720,
      "Which": 5721,
      "mi": 5722,
      "Ġalle": 5723,
      "Ġjobs": 5724,
      "ursday": 5725,
      "ĠUN": 5726,
      "akers": 5727,
      "ko": 5728,
      "otten": 5729,
      "enth": 5730,
      "Ġble": 5731,
      "estic": 5732,
      "bour": 5733,
      "olt": 5734,
      "Ġrac": 5735,
      "Ġgate": 5736,
      "ĠWill": 5737,
      "organ": 5738,
      "istan": 5739,
      "ITY": 5740,
      "Ġended": 5741,
      "process": 5742,
      "ĠLouis": 5743,
      "Ġexperienced": 5744,
      "Ġtrip": 5745,
      "Ġinvestigate": 5746,
      "Ġconstitution": 5747,
      "ĠAS": 5748,
      "MD": 5749,
      "Ġjoined": 5750,
      "rip": 5751,
      "Ġnumerous": 5752,
      "Ġapart": 5753,
      "ĠRussia": 5754,
      "Ġhall": 5755,
      "Ġdil": 5756,
      "clusive": 5757,
      "Ø§ÙĦ": 5758,
      "Ġwalked": 5759,
      "Ġcandidate": 5760,
      "sin": 5761,
      "Ġpieces": 5762,
      "imer": 5763,
      "Ġorient": 5764,
      "ilty": 5765,
      "Ġideal": 5766,
      "anda": 5767,
      "Ġpush": 5768,
      "ĠHIV": 5769,
      "Ġrestaur": 5770,
      "ĠOffice": 5771,
      "Service": 5772,
      "Ġnine": 5773,
      "Ġqui": 5774,
      "then": 5775,
      "Ġgrav": 5776,
      "ĠWindows": 5777,
      "Ġstandards": 5778,
      "Ġexpansion": 5779,
      "Ġduration": 5780,
      "Ġ300": 5781,
      "Ġsuitable": 5782,
      "Ġpurchase": 5783,
      "Ġformal": 5784,
      "Message": 5785,
      "Gen": 5786,
      "Ġmine": 5787,
      "Ġrecognized": 5788,
      "Ġimpossible": 5789,
      "Ġdraft": 5790,
      "only": 5791,
      "Ġplot": 5792,
      "ĠÐ¿ÑĢ": 5793,
      "Ġwatching": 5794,
      "ĠOpen": 5795,
      "Ġboot": 5796,
      "Ġhem": 5797,
      "ĠScott": 5798,
      "Ġguard": 5799,
      "Ġhumans": 5800,
      "Rev": 5801,
      "Ġwarrant": 5802,
      "nesday": 5803,
      "Ġvirtual": 5804,
      "Ġbug": 5805,
      "ÐµÑĤ": 5806,
      "product": 5807,
      "Fe": 5808,
      "ĠLu": 5809,
      "Ġphoto": 5810,
      "lik": 5811,
      "Ġconcerned": 5812,
      "Ġassessed": 5813,
      "Ġluck": 5814,
      "Ġmission": 5815,
      "ĠHel": 5816,
      "Ġrare": 5817,
      "Ġfill": 5818,
      "war": 5819,
      "Ġconclude": 5820,
      "scale": 5821,
      "ĠBre": 5822,
      "Ġparallel": 5823,
      "ĠAfrica": 5824,
      "ĠMass": 5825,
      "Ġsettings": 5826,
      "Ġbiological": 5827,
      "Ġadvice": 5828,
      "Ġsand": 5829,
      "GE": 5830,
      "andon": 5831,
      "Since": 5832,
      "Ġ47": 5833,
      "Ġ1999": 5834,
      "ulture": 5835,
      "rency": 5836,
      "Ġcris": 5837,
      "orted": 5838,
      "Ġbecoming": 5839,
      "tw": 5840,
      "300": 5841,
      "del": 5842,
      "icious": 5843,
      "Ġclaimed": 5844,
      "Ġspoke": 5845,
      "Ġwidely": 5846,
      "Ġkeeping": 5847,
      "Ġbudget": 5848,
      "ben": 5849,
      "ĠEarth": 5850,
      "ĠRef": 5851,
      "Te": 5852,
      "Ġfort": 5853,
      "PU": 5854,
      "adian": 5855,
      "Ġconsent": 5856,
      "Ent": 5857,
      "Ġconven": 5858,
      "Ġfavorite": 5859,
      "Ġ49": 5860,
      "Ġsister": 5861,
      "ami": 5862,
      "ju": 5863,
      "Ġpet": 5864,
      "Ġunable": 5865,
      "Ġdisk": 5866,
      "Ġtrouble": 5867,
      "Ġreprodu": 5868,
      "aven": 5869,
      "tra": 5870,
      "usiness": 5871,
      "Ġaccepted": 5872,
      "ĠTor": 5873,
      "Ġ41": 5874,
      "Ġfamiliar": 5875,
      "Ġspecified": 5876,
      "Ġdecide": 5877,
      "ĠCarol": 5878,
      "Ġdress": 5879,
      "Ð¸ÑĤ": 5880,
      "Ġdatas": 5881,
      "Ġroute": 5882,
      "Ġneck": 5883,
      "Ġpopulations": 5884,
      "Ġjava": 5885,
      "Ġhoriz": 5886,
      "Ġdomin": 5887,
      "ĠBur": 5888,
      "Ġends": 5889,
      "Pol": 5890,
      "ivation": 5891,
      "ums": 5892,
      "ĠBill": 5893,
      "Ġsuppl": 5894,
      "Ġdisp": 5895,
      "ĠFree": 5896,
      "Ġmand": 5897,
      "Ġ43": 5898,
      "Ġstrict": 5899,
      "otted": 5900,
      "TA": 5901,
      "ĠDec": 5902,
      "Ġattached": 5903,
      "Ġrecording": 5904,
      "Ġworry": 5905,
      "Ġalcohol": 5906,
      "Ġinvolving": 5907,
      "ĠJesus": 5908,
      "ĠFederal": 5909,
      "More": 5910,
      "Ġcab": 5911,
      "lu": 5912,
      "Ġstret": 5913,
      "Ã©e": 5914,
      "ÅĤ": 5915,
      "Ġcontribution": 5916,
      "Ġtechnical": 5917,
      "ĠDen": 5918,
      "Ġos": 5919,
      "legal": 5920,
      "Ġod": 5921,
      "Ġrelationships": 5922,
      "End": 5923,
      "Ġped": 5924,
      "Ġcof": 5925,
      "Ġrub": 5926,
      "arl": 5927,
      "ching": 5928,
      "ponse": 5929,
      "Ġsan": 5930,
      "bug": 5931,
      "Ġmurder": 5932,
      "Ġseek": 5933,
      "road": 5934,
      "wing": 5935,
      "eller": 5936,
      "Mr": 5937,
      "Ġfellow": 5938,
      "ĠTimes": 5939,
      "åĲ": 5940,
      "MC": 5941,
      "Ġdans": 5942,
      "Ġkne": 5943,
      "Ġinterval": 5944,
      "ĠRichard": 5945,
      "Ġhelps": 5946,
      "Ġcustomer": 5947,
      "Ġpersons": 5948,
      "ĠWork": 5949,
      "%.": 5950,
      "Ġforget": 5951,
      "ĠSecret": 5952,
      "Look": 5953,
      "Ġtelling": 5954,
      "Ġadults": 5955,
      "ĠIran": 5956,
      "sts": 5957,
      "Ġgro": 5958,
      "Ġimprovement": 5959,
      "ĠFlorida": 5960,
      "Ġdegrees": 5961,
      "aped": 5962,
      "Ð·": 5963,
      "Ġapplicable": 5964,
      "ĠPlease": 5965,
      "Ġsoul": 5966,
      "Ã¡s": 5967,
      "Ġenforce": 5968,
      "defined": 5969,
      "à¹": 5970,
      "Ġvillage": 5971,
      "Ġarticles": 5972,
      "Ġì": 5973,
      "Ġtruly": 5974,
      "charge": 5975,
      "ivered": 5976,
      "Ġ150": 5977,
      "tag": 5978,
      "ĠParis": 5979,
      "ĠÑ": 5980,
      "Ġlimits": 5981,
      "Ġcontinues": 5982,
      "Ġbranch": 5983,
      "ifies": 5984,
      "month": 5985,
      "Ġhole": 5986,
      "Ġaspects": 5987,
      "inet": 5988,
      "Ġassembly": 5989,
      "Ġsought": 5990,
      "Ġmixture": 5991,
      "brid": 5992,
      "Ġslowly": 5993,
      "Ġindicating": 5994,
      "Ġdepartment": 5995,
      "ĠMont": 5996,
      "ĠSaturday": 5997,
      "Ġcitizens": 5998,
      "etime": 5999,
      "Ġturns": 6000,
      "inv": 6001,
      "athy": 6002,
      "Ġpolicies": 6003,
      "Ġwalking": 6004,
      "Ġadequ": 6005,
      "Ġpotentially": 6006,
      "Ġconversation": 6007,
      "Ġcourts": 6008,
      "Ġpayment": 6009,
      "Ġpartner": 6010,
      "Part": 6011,
      "Ġsounds": 6012,
      "omal": 6013,
      "azine": 6014,
      "Ġcellular": 6015,
      "Please": 6016,
      "Ġast": 6017,
      "Ġafford": 6018,
      "ĠIts": 6019,
      "ĠMS": 6020,
      "ĠIr": 6021,
      "Ġhat": 6022,
      "Ġtestified": 6023,
      "aciÃ³n": 6024,
      "Ġpil": 6025,
      "Ġconj": 6026,
      "Ġmassive": 6027,
      "Ġstarts": 6028,
      "Ġperman": 6029,
      "Ð¾Ð»": 6030,
      "Ġdynamic": 6031,
      "Ġsigns": 6032,
      "option": 6033,
      "star": 6034,
      "ĠFour": 6035,
      "Ġmarriage": 6036,
      "eli": 6037,
      "American": 6038,
      "ĠTwitter": 6039,
      "Ġabsolute": 6040,
      "Ġchallenges": 6041,
      "Ġstability": 6042,
      "Who": 6043,
      "yer": 6044,
      "Ġcommunities": 6045,
      "ĠSand": 6046,
      "ĠUse": 6047,
      "mid": 6048,
      "Ġsecure": 6049,
      "ela": 6050,
      "Ġans": 6051,
      "Ġpartial": 6052,
      "Ġaccurate": 6053,
      "ĠWhere": 6054,
      "Ġ1990": 6055,
      "ĠJohnson": 6056,
      "Ġ46": 6057,
      "Ġhal": 6058,
      "Ġthoughts": 6059,
      "Ġdepart": 6060,
      "Ġflag": 6061,
      "oral": 6062,
      "Two": 6063,
      "Ġprices": 6064,
      "Bar": 6065,
      "Ġdys": 6066,
      "aded": 6067,
      "ĠGive": 6068,
      "Ġrelax": 6069,
      "Ġassigned": 6070,
      "Ġnative": 6071,
      "Ġacute": 6072,
      "Ġhur": 6073,
      "Ġreplaced": 6074,
      "Ġsole": 6075,
      "Ġinstrument": 6076,
      "Ġfundamental": 6077,
      "udd": 6078,
      "Ġfaster": 6079,
      "Ġlinked": 6080,
      "Ġdivers": 6081,
      "BR": 6082,
      "Ġcash": 6083,
      "Ġconcluded": 6084,
      "ĠTuesday": 6085,
      "ĠSil": 6086,
      "Ġclimate": 6087,
      "ĠDO": 6088,
      "Ġfo": 6089,
      "dep": 6090,
      "fast": 6091,
      "uz": 6092,
      "Ġmerely": 6093,
      "ante": 6094,
      "ĠStr": 6095,
      "Ġphotos": 6096,
      "Ġdefinitely": 6097,
      "ĠBig": 6098,
      "Ġpictures": 6099,
      "arks": 6100,
      "Ġannual": 6101,
      "build": 6102,
      "Ġfold": 6103,
      "Ġimmig": 6104,
      "Ġsynd": 6105,
      "ĠFrancis": 6106,
      "Ġlicense": 6107,
      "Ġmetric": 6108,
      "ĠArch": 6109,
      "Ġvisible": 6110,
      "LC": 6111,
      "Ġfan": 6112,
      "Ext": 6113,
      "ĠPeter": 6114,
      "ĠFore": 6115,
      "Ġsensitive": 6116,
      "Ġinstructions": 6117,
      "nav": 6118,
      "Ġcloser": 6119,
      "Ġprotest": 6120,
      "ented": 6121,
      "Ġdecades": 6122,
      "Ġinteract": 6123,
      "dule": 6124,
      "ĠPA": 6125,
      "Ġplastic": 6126,
      "Ġthousand": 6127,
      "ĠIT": 6128,
      "Ġimplies": 6129,
      "ji": 6130,
      "ĠEX": 6131,
      "PI": 6132,
      "apse": 6133,
      "ĠEr": 6134,
      "Ġassumed": 6135,
      "Ġ56": 6136,
      "Ġlaunch": 6137,
      "Ġlisten": 6138,
      "ima": 6139,
      "ĠIslam": 6140,
      "ĠAnother": 6141,
      "bling": 6142,
      "Ġgap": 6143,
      "Ġinstalled": 6144,
      "ĠCap": 6145,
      "Ġattend": 6146,
      "Ġpointed": 6147,
      "Ġflav": 6148,
      "event": 6149,
      "Ġenable": 6150,
      "iger": 6151,
      "ĠProject": 6152,
      "ounded": 6153,
      "omer": 6154,
      "Ġproved": 6155,
      "Ġconference": 6156,
      "Thanks": 6157,
      "Ġprinciple": 6158,
      "Ġfunds": 6159,
      "Ġ1998": 6160,
      "Ġfabric": 6161,
      "ĠChicago": 6162,
      "Ġeffectively": 6163,
      "Ġreact": 6164,
      "ĠEnd": 6165,
      "Ġ52": 6166,
      "ials": 6167,
      "cat": 6168,
      "Ġhero": 6169,
      "ĠPo": 6170,
      "Ġunion": 6171,
      "Ġsplit": 6172,
      "Ġrail": 6173,
      "fold": 6174,
      "Ġmolecules": 6175,
      "Am": 6176,
      "Ġven": 6177,
      "eness": 6178,
      "Ġwalls": 6179,
      "nel": 6180,
      "dict": 6181,
      "Ġobjective": 6182,
      "Ġattacks": 6183,
      "Ġtail": 6184,
      "Ġguilty": 6185,
      "Ġreverse": 6186,
      "Ġsupporting": 6187,
      "Ġvot": 6188,
      "Ġvision": 6189,
      "Back": 6190,
      "Ð°Ð»": 6191,
      "ĠAfrican": 6192,
      "Ġcommission": 6193,
      "Ġoccasion": 6194,
      "Ġeditor": 6195,
      "Ġchannels": 6196,
      "format": 6197,
      "aria": 6198,
      "Ġlargely": 6199,
      "Ġfees": 6200,
      "Ġpredicted": 6201,
      "Ġrig": 6202,
      "Ġputting": 6203,
      "ĠÑĤ": 6204,
      "Ġshell": 6205,
      "Ġpassing": 6206,
      "Ġidentification": 6207,
      "Ġwaste": 6208,
      "iously": 6209,
      "Ġfashion": 6210,
      "Ġperm": 6211,
      "ĠSol": 6212,
      "ERE": 6213,
      "Ġinvestment": 6214,
      "ĠIP": 6215,
      "Ġhun": 6216,
      "dist": 6217,
      "Ġrealized": 6218,
      "ĠÂ£": 6219,
      "Ġbath": 6220,
      "Ġcontribute": 6221,
      "oked": 6222,
      "Ġinstant": 6223,
      "Ġmessages": 6224,
      "ĠCentral": 6225,
      "Ġreplace": 6226,
      "ĠJo": 6227,
      "Ġadmitted": 6228,
      "urop": 6229,
      "ĠWal": 6230,
      "Ġconsideration": 6231,
      "Øª": 6232,
      "ĠLi": 6233,
      "Ġemployee": 6234,
      "Ġsight": 6235,
      "inton": 6236,
      "plant": 6237,
      "Ġ72": 6238,
      "Ġradi": 6239,
      "contin": 6240,
      "Ġinformed": 6241,
      "Ġsched": 6242,
      "Another": 6243,
      "Ġestimates": 6244,
      "ipping": 6245,
      "yan": 6246,
      "Ñİ": 6247,
      "Ġpursu": 6248,
      "life": 6249,
      "Ind": 6250,
      "Ġintention": 6251,
      "Ġ1997": 6252,
      "eting": 6253,
      "Ġcomposite": 6254,
      "Ġmatters": 6255,
      "Ġexpensive": 6256,
      "ĠEU": 6257,
      "ĠThursday": 6258,
      "ĠApple": 6259,
      "lectric": 6260,
      "??": 6261,
      "Ġtit": 6262,
      "ontal": 6263,
      "Ġsuc": 6264,
      "Ġblow": 6265,
      "Ġdropped": 6266,
      "Ġzone": 6267,
      "media": 6268,
      "Ġcities": 6269,
      "ĠCount": 6270,
      "chron": 6271,
      "ORD": 6272,
      "sen": 6273,
      "Ġclosely": 6274,
      "ĠProgram": 6275,
      "ĠBack": 6276,
      "Ġbodies": 6277,
      "Ġscientific": 6278,
      "clear": 6279,
      "Ġwear": 6280,
      "Start": 6281,
      "Ġfloat": 6282,
      "Ġclar": 6283,
      "Ġ54": 6284,
      "ĠNone": 6285,
      "conf": 6286,
      "zer": 6287,
      "Ġokay": 6288,
      "Hey": 6289,
      "uled": 6290,
      "Ġfet": 6291,
      "neg": 6292,
      "Ġfont": 6293,
      "Every": 6294,
      "Ġexceed": 6295,
      "Ġlegisl": 6296,
      "ĠSociety": 6297,
      "Ġwarn": 6298,
      "ĠÐ¼": 6299,
      "Ġdisput": 6300,
      "Ġriver": 6301,
      "Ġrequirement": 6302,
      "Ġspeaking": 6303,
      "sd": 6304,
      "Ġboys": 6305,
      "pert": 6306,
      "ĠJustice": 6307,
      "Ġresponsibility": 6308,
      "inte": 6309,
      "bridge": 6310,
      "ĠJones": 6311,
      "Ġestate": 6312,
      "rac": 6313,
      "Ġhundreds": 6314,
      "ĠMinister": 6315,
      "enu": 6316,
      "Ġobservation": 6317,
      "ni": 6318,
      "Ġdangerous": 6319,
      "Ġrid": 6320,
      "Ļª": 6321,
      "Ġ51": 6322,
      "400": 6323,
      "Ġamounts": 6324,
      "Ġwindows": 6325,
      "Ġbeam": 6326,
      "Ġchart": 6327,
      "isters": 6328,
      "umer": 6329,
      "ĠWednesday": 6330,
      "missions": 6331,
      "Ġprovision": 6332,
      "Ġsick": 6333,
      "Ġsheet": 6334,
      "Ġblocks": 6335,
      "pet": 6336,
      "Ġexplore": 6337,
      "ĠInformation": 6338,
      "Ġplaintiffs": 6339,
      "Ġplain": 6340,
      "uum": 6341,
      "Ġnoticed": 6342,
      "Ġouter": 6343,
      "ĠChild": 6344,
      "outs": 6345,
      "Ġterminal": 6346,
      "ĠMount": 6347,
      "Ġconsumption": 6348,
      "Ð½Ð¾": 6349,
      "Ġautomatically": 6350,
      "wer": 6351,
      "ĠMel": 6352,
      "ĠED": 6353,
      "Ġfunding": 6354,
      "Ġoch": 6355,
      "Ġcards": 6356,
      "ĠArab": 6357,
      "ĠRoman": 6358,
      "ĠBas": 6359,
      "Ġlic": 6360,
      "ĠFre": 6361,
      "Ġsuccessfully": 6362,
      "Come": 6363,
      "bel": 6364,
      "next": 6365,
      "Ġassistance": 6366,
      "Ġkick": 6367,
      "Ġfer": 6368,
      "His": 6369,
      "Ġpig": 6370,
      "Ġproportion": 6371,
      "noon": 6372,
      "Thank": 6373,
      "Ġdiabetes": 6374,
      "minimal": 6375,
      "sup": 6376,
      "ĠSocial": 6377,
      "Ġlig": 6378,
      "Ġwriter": 6379,
      "Ġnegot": 6380,
      "Ġoffset": 6381,
      "Ġemployment": 6382,
      "Ġviolation": 6383,
      "display": 6384,
      "Ġconsists": 6385,
      "Ġsolve": 6386,
      "Ġfinish": 6387,
      "ĠStand": 6388,
      "Ġsuddenly": 6389,
      "Ġstem": 6390,
      "Ġjustice": 6391,
      "Ġvivo": 6392,
      "Ġpu": 6393,
      "Although": 6394,
      "ira": 6395,
      "sg": 6396,
      "rl": 6397,
      "Ġpreced": 6398,
      "ĠJim": 6399,
      "ĠReview": 6400,
      "ona": 6401,
      "Ġ1996": 6402,
      "Ġfigures": 6403,
      "Ġarrang": 6404,
      "ĠCharles": 6405,
      "Ġseeking": 6406,
      "Ġvon": 6407,
      "Ġexperiences": 6408,
      "ĠIsland": 6409,
      "ĠWho": 6410,
      "Ġsignificance": 6411,
      "Right": 6412,
      "Because": 6413,
      "Ġcars": 6414,
      "Ġreform": 6415,
      "Ġpoll": 6416,
      "Ġmilk": 6417,
      "ĠEst": 6418,
      "Ġveget": 6419,
      "Ġsky": 6420,
      "Ġsensor": 6421,
      "Gu": 6422,
      "friend": 6423,
      "Ġlen": 6424,
      "Ġsenior": 6425,
      "tab": 6426,
      "Br": 6427,
      "Ġcausing": 6428,
      "ĠGrand": 6429,
      "Ġpit": 6430,
      "Us": 6431,
      "Ġvast": 6432,
      "Det": 6433,
      "Ġlift": 6434,
      "ĠFile": 6435,
      "Ġbias": 6436,
      "Rem": 6437,
      "Ð¾Ð¼": 6438,
      "Note": 6439,
      "vin": 6440,
      "ao": 6441,
      "flu": 6442,
      "Ġapparently": 6443,
      "AY": 6444,
      "Ġnerv": 6445,
      "Ġcompound": 6446,
      "ãģ¾": 6447,
      "Ġho": 6448,
      "Ġhurt": 6449,
      "Ġcu": 6450,
      "ifts": 6451,
      "Ġbrown": 6452,
      "ication": 6453,
      "control": 6454,
      "Ġrecommended": 6455,
      "Ġinitially": 6456,
      "ĠMur": 6457,
      "Ġsupports": 6458,
      "ĠFed": 6459,
      "ighter": 6460,
      "Ġacting": 6461,
      "west": 6462,
      "zing": 6463,
      "Ġdamages": 6464,
      "igan": 6465,
      "ductor": 6466,
      "Ġarmy": 6467,
      "Ġelectrical": 6468,
      "Spec": 6469,
      "Ġclients": 6470,
      "Ġdelivered": 6471,
      "ivated": 6472,
      "iscuss": 6473,
      "Ġaccounts": 6474,
      "Ġvul": 6475,
      "Ġmic": 6476,
      "Ġprimarily": 6477,
      "Ġdepos": 6478,
      "Ġimagine": 6479,
      "ĠLand": 6480,
      "Ġfing": 6481,
      "Ġremoval": 6482,
      "Ġtargets": 6483,
      "Ġinternet": 6484,
      "Ġcoffee": 6485,
      "Ġkitchen": 6486,
      "Ġturning": 6487,
      "Ġsmile": 6488,
      "status": 6489,
      "ĠTem": 6490,
      "kes": 6491,
      "ados": 6492,
      "oder": 6493,
      "æĸ": 6494,
      "Ġweather": 6495,
      "Ġpromote": 6496,
      "erman": 6497,
      "Ġlocations": 6498,
      "obe": 6499,
      "ĠJava": 6500,
      "Ġaid": 6501,
      "Ġdesk": 6502,
      "ĠSpe": 6503,
      "Ġtells": 6504,
      "rot": 6505,
      "find": 6506,
      "Ġresearchers": 6507,
      "dat": 6508,
      "Ġrepresentative": 6509,
      "mediate": 6510,
      "Ġhotel": 6511,
      "Ġfighting": 6512,
      "Ġsugar": 6513,
      "rif": 6514,
      "Good": 6515,
      "hab": 6516,
      "Ġsurg": 6517,
      "Ġprincipal": 6518,
      "vol": 6519,
      "Ġflight": 6520,
      "dec": 6521,
      ".-": 6522,
      "aft": 6523,
      "zo": 6524,
      "Before": 6525,
      "Ġclosest": 6526,
      "Ġamazing": 6527,
      "Ġgender": 6528,
      "atural": 6529,
      "ĠCamp": 6530,
      "Ġhet": 6531,
      "æĪ": 6532,
      "Ġmechanical": 6533,
      "ĠLee": 6534,
      "Ġdisplayed": 6535,
      "high": 6536,
      "ati": 6537,
      "ted": 6538,
      "Ġdust": 6539,
      "Ġstages": 6540,
      "ĠArmy": 6541,
      "Ġconcerning": 6542,
      "Other": 6543,
      "Ġmonitoring": 6544,
      "ĠRoad": 6545,
      "Ġpump": 6546,
      "Ġadopted": 6547,
      "Ġpolitics": 6548,
      "Ġsir": 6549,
      "Ġ53": 6550,
      "El": 6551,
      "iki": 6552,
      "ĠBob": 6553,
      "SO": 6554,
      "ĠMath": 6555,
      "Ġera": 6556,
      "Ġbought": 6557,
      "Ġinvolves": 6558,
      "Ġ99": 6559,
      "Ġspr": 6560,
      "Ġcoach": 6561,
      "Ġfant": 6562,
      "Ġinfo": 6563,
      "Last": 6564,
      "Net": 6565,
      "Ġlies": 6566,
      "ĠMartin": 6567,
      "lang": 6568,
      "his": 6569,
      "ĠYOU": 6570,
      "Ġsurrounding": 6571,
      "Ġrepair": 6572,
      "orts": 6573,
      "ĠMedical": 6574,
      "nut": 6575,
      "ĠÐ½Ð°": 6576,
      "ĠSign": 6577,
      "Ġhadn": 6578,
      "search": 6579,
      "Ġok": 6580,
      "Ġmanage": 6581,
      "Ġextends": 6582,
      "ĠFire": 6583,
      "ista": 6584,
      "Ġja": 6585,
      "John": 6586,
      "Ġcomo": 6587,
      "Ġchick": 6588,
      "oston": 6589,
      "lines": 6590,
      "ĠRo": 6591,
      "ĠLos": 6592,
      "Ġdeploy": 6593,
      "Ġdual": 6594,
      "Ġregister": 6595,
      "Ġbigger": 6596,
      "Ġseg": 6597,
      "wa": 6598,
      "ĠWilliams": 6599,
      "creen": 6600,
      "Ġpromot": 6601,
      "Ġprofession": 6602,
      "Ġsnow": 6603,
      "Ġhidden": 6604,
      "Ġwed": 6605,
      "aks": 6606,
      "stat": 6607,
      "Ġuncertain": 6608,
      "FO": 6609,
      "ĠMcC": 6610,
      "Ġescape": 6611,
      "weet": 6612,
      "Ġsector": 6613,
      "ups": 6614,
      "Ġfly": 6615,
      "inating": 6616,
      "Ġcontainer": 6617,
      "liament": 6618,
      "ĠAv": 6619,
      "Ġcarrying": 6620,
      "ĠRepublican": 6621,
      "Ð±": 6622,
      "Ġwealth": 6623,
      "Ġanyway": 6624,
      "ĠÐ·": 6625,
      "Ġnu": 6626,
      "Ġpurs": 6627,
      "ĠMuslim": 6628,
      "ĠWall": 6629,
      "Ġbear": 6630,
      "ĠHuman": 6631,
      "ĠUs": 6632,
      "Ġhabit": 6633,
      "Ð¾Ð´": 6634,
      "Ġstone": 6635,
      "Ġsuf": 6636,
      "ila": 6637,
      "unte": 6638,
      "Ġresidents": 6639,
      "Ġdelet": 6640,
      "Ġexplanation": 6641,
      "Ġhorse": 6642,
      "Ġconstructed": 6643,
      "ws": 6644,
      "Ã¼r": 6645,
      "Ġsoil": 6646,
      "some": 6647,
      "Ġcontro": 6648,
      "WH": 6649,
      "People": 6650,
      "Ġtumors": 6651,
      "Ġmaintained": 6652,
      "Ġabsolutely": 6653,
      "æĺ": 6654,
      "Ġnewsp": 6655,
      "Ġrent": 6656,
      "QU": 6657,
      "Ġinstitution": 6658,
      "Ġweekend": 6659,
      "Ġvide": 6660,
      "Ġcoast": 6661,
      "ĠOffic": 6662,
      "eling": 6663,
      "riers": 6664,
      "Ġyellow": 6665,
      "Ġru": 6666,
      "Ġflux": 6667,
      "Ġcreation": 6668,
      "Ġpicking": 6669,
      "Ġsad": 6670,
      "ĠAcc": 6671,
      "ICE": 6672,
      "Ġmedian": 6673,
      "Ġdriven": 6674,
      "Ġ1995": 6675,
      "aze": 6676,
      "Button": 6677,
      "Ġdebate": 6678,
      "Ġdeclared": 6679,
      "ori": 6680,
      "Ġclock": 6681,
      "Ġmail": 6682,
      "Ġorganizations": 6683,
      "Ġcrisis": 6684,
      "ema": 6685,
      "ĠHospital": 6686,
      "Ġgrew": 6687,
      "Ġdiscovery": 6688,
      "isa": 6689,
      "abb": 6690,
      "Ag": 6691,
      "Ġremote": 6692,
      "util": 6693,
      "ĠSenate": 6694,
      "Ġodd": 6695,
      "Ġmenu": 6696,
      "ĠJersey": 6697,
      "allow": 6698,
      "Ġban": 6699,
      "Ġweapons": 6700,
      "Did": 6701,
      "Ġdollars": 6702,
      "Ġol": 6703,
      "Ġyouth": 6704,
      "Ġstrange": 6705,
      "Ġdeaths": 6706,
      "Ġdetermining": 6707,
      "Ġoriginally": 6708,
      "Ġcultural": 6709,
      "Ġisland": 6710,
      "Ġwest": 6711,
      "Ġsuperior": 6712,
      "ĠOld": 6713,
      "foot": 6714,
      "ĠPet": 6715,
      "Sm": 6716,
      "Ġemergency": 6717,
      "Ġclassical": 6718,
      "ova": 6719,
      "ĠMaybe": 6720,
      "orters": 6721,
      "ald": 6722,
      "ali": 6723,
      "Ġfro": 6724,
      "Ġdinner": 6725,
      "Ġsurve": 6726,
      "Ġprompt": 6727,
      "iana": 6728,
      "ÑĨ": 6729,
      "uv": 6730,
      "Ġbars": 6731,
      "ĠHenry": 6732,
      "Ġrealize": 6733,
      "ĠTim": 6734,
      "ĠNE": 6735,
      "uster": 6736,
      "Ġ59": 6737,
      "Ġshop": 6738,
      "Ġrecognition": 6739,
      "Ġdisorder": 6740,
      "Ġwinter": 6741,
      "ĠMexico": 6742,
      "Ġ57": 6743,
      "Ġmask": 6744,
      "Ġimmediate": 6745,
      "Ġwine": 6746,
      "BE": 6747,
      "Ġsports": 6748,
      "ĠWood": 6749,
      "Ġcloud": 6750,
      "AF": 6751,
      "Ġpreparation": 6752,
      "Ġfinds": 6753,
      "Ġlaugh": 6754,
      "Ġpreferred": 6755,
      "Ġbio": 6756,
      "Ġextend": 6757,
      "ĠNever": 6758,
      "Ġcontributions": 6759,
      "Ġment": 6760,
      "Ġdivision": 6761,
      "show": 6762,
      "Gl": 6763,
      "Dr": 6764,
      "rons": 6765,
      "icate": 6766,
      "Ġcalc": 6767,
      "Ġog": 6768,
      "uan": 6769,
      "Ġsed": 6770,
      "ĠSecurity": 6771,
      "anna": 6772,
      "Ġwatched": 6773,
      "Ġexcited": 6774,
      "ĠExt": 6775,
      "Ġenemy": 6776,
      "Ġafternoon": 6777,
      "Ġtrend": 6778,
      "Ġargue": 6779,
      "ĠChief": 6780,
      "Ġauthorities": 6781,
      "ĠThree": 6782,
      "Ġworst": 6783,
      "ĠHome": 6784,
      "nc": 6785,
      "ĠJeff": 6786,
      "Ġseparated": 6787,
      "Ġflo": 6788,
      "strong": 6789,
      "Ġhelping": 6790,
      "Ġtaste": 6791,
      "Ġhomes": 6792,
      "è¿": 6793,
      "Ġchest": 6794,
      "ÑĪ": 6795,
      "Ġvit": 6796,
      "Ġrapidly": 6797,
      "there": 6798,
      "Ġobviously": 6799,
      "Ġopportunities": 6800,
      "Ġtip": 6801,
      "Ġessentially": 6802,
      "Ġye": 6803,
      "Ġcircle": 6804,
      "Ġdogs": 6805,
      "Ġ1000": 6806,
      "Ġconsequences": 6807,
      "Ġspending": 6808,
      "Ġsuspect": 6809,
      "nger": 6810,
      "Ġtotally": 6811,
      "bro": 6812,
      "ĠJournal": 6813,
      "bu": 6814,
      "Rel": 6815,
      "Ġcorrectly": 6816,
      "lie": 6817,
      "lements": 6818,
      "Ġfraud": 6819,
      "Ġmob": 6820,
      "PM": 6821,
      "Ġeating": 6822,
      "Ġargued": 6823,
      "expected": 6824,
      "Ġancient": 6825,
      "before": 6826,
      "Ġmeat": 6827,
      "Ġ58": 6828,
      "Ġpowers": 6829,
      "Ġmarketing": 6830,
      "1000": 6831,
      "Ġgift": 6832,
      "iser": 6833,
      "Ġultimately": 6834,
      "bles": 6835,
      "Ġgast": 6836,
      "Ġcentre": 6837,
      "ãģĭ": 6838,
      "Pat": 6839,
      "DC": 6840,
      "even": 6841,
      "Ġoffering": 6842,
      "ĠÑĢ": 6843,
      "sche": 6844,
      "Ġexecutive": 6845,
      "Ġ400": 6846,
      "ĠCup": 6847,
      "Ġneighborhood": 6848,
      "Ġ2020": 6849,
      "Ġanswers": 6850,
      "ĠControl": 6851,
      "Ġpin": 6852,
      "power": 6853,
      "Ġ1980": 6854,
      "umes": 6855,
      "Ġcandidates": 6856,
      "Ġfinger": 6857,
      "Ġcro": 6858,
      "sign": 6859,
      "Ġfacilities": 6860,
      "Ġfeels": 6861,
      "fd": 6862,
      "Ġbuildings": 6863,
      "Ġpip": 6864,
      "Ġshel": 6865,
      "anol": 6866,
      "Ġafraid": 6867,
      "yst": 6868,
      "Ġtemperatures": 6869,
      "vas": 6870,
      "Ø¯": 6871,
      "Ġassign": 6872,
      "Ġpermission": 6873,
      "Ġshoulder": 6874,
      "Ġeigen": 6875,
      "ĠHaw": 6876,
      "Ġassault": 6877,
      "Ĥ¬": 6878,
      "ĠPlan": 6879,
      "iden": 6880,
      "Äħ": 6881,
      "Ġcapture": 6882,
      "ige": 6883,
      "Ġhate": 6884,
      "ĠSU": 6885,
      "Su": 6886,
      "si": 6887,
      "Ġlegs": 6888,
      "ÐµÐ»": 6889,
      "utch": 6890,
      "ourse": 6891,
      "Ġinqu": 6892,
      "ĠIraq": 6893,
      "Ġintelligence": 6894,
      "Ġsubmitted": 6895,
      "Ġcrystal": 6896,
      "Ġeast": 6897,
      "Ġposted": 6898,
      "ĠLib": 6899,
      "Ġscreening": 6900,
      "idents": 6901,
      "ĠWITH": 6902,
      "Ġfruit": 6903,
      "Okay": 6904,
      "oir": 6905,
      "Ġrefused": 6906,
      "Ġcoc": 6907,
      "Ġexhaust": 6908,
      "Ġremind": 6909,
      "Ġacquired": 6910,
      "anish": 6911,
      "card": 6912,
      "tax": 6913,
      "spe": 6914,
      "Ġrecover": 6915,
      "rat": 6916,
      "Ġedges": 6917,
      "Ġreserv": 6918,
      "Ġupdated": 6919,
      "Next": 6920,
      "Ġsucceed": 6921,
      "Mon": 6922,
      "Ġraw": 6923,
      "ned": 6924,
      "uma": 6925,
      "Ġdrag": 6926,
      "125": 6927,
      "Ġrain": 6928,
      "erk": 6929,
      "Ġlogic": 6930,
      "Ġposts": 6931,
      "Ġchamber": 6932,
      "iva": 6933,
      "Cons": 6934,
      "OB": 6935,
      "ador": 6936,
      "Ġsurprise": 6937,
      "ski": 6938,
      "they": 6939,
      "Ġradical": 6940,
      "Ġ85": 6941,
      "Ġfault": 6942,
      "ĠDivision": 6943,
      "GT": 6944,
      "nic": 6945,
      "fill": 6946,
      "Ġalive": 6947,
      "Results": 6948,
      "Ġbusinesses": 6949,
      "Ġwra": 6950,
      "obj": 6951,
      "ãĤĮ": 6952,
      "asts": 6953,
      "Ġalk": 6954,
      "Ġkinds": 6955,
      "illy": 6956,
      "Ġcommittee": 6957,
      "Ġ1994": 6958,
      "Ġplanned": 6959,
      "ped": 6960,
      "ester": 6961,
      "Ġsod": 6962,
      "Ġourselves": 6963,
      "Ġmaintenance": 6964,
      "Ġfaces": 6965,
      "Ġsomewhere": 6966,
      "ĠCall": 6967,
      "Ġhappening": 6968,
      "Ġcrack": 6969,
      "Ġhelpful": 6970,
      "Ġcounts": 6971,
      "Ġgest": 6972,
      "ĠThanks": 6973,
      "Ġbroke": 6974,
      "Ġbattery": 6975,
      "Ob": 6976,
      "Ġpapers": 6977,
      "avas": 6978,
      "Ġcov": 6979,
      "ĠRock": 6980,
      "ĠVirginia": 6981,
      "Ġwonderful": 6982,
      "lar": 6983,
      "two": 6984,
      "Ã©n": 6985,
      "Ġgall": 6986,
      "amente": 6987,
      "ifer": 6988,
      "ĠLake": 6989,
      "Ġwearing": 6990,
      "Ġtopic": 6991,
      "iro": 6992,
      "Ġtube": 6993,
      "Ġnormally": 6994,
      "ĠHot": 6995,
      "Ġasc": 6996,
      "onia": 6997,
      "Ġcontents": 6998,
      "Ġrib": 6999,
      "Ġreader": 7000,
      "Ġein": 7001,
      "Ġserving": 7002,
      "Ġprohib": 7003,
      "ĠAnt": 7004,
      "Ġmas": 7005,
      "ĠCapt": 7006,
      "Ùĩ": 7007,
      "Ġsuppose": 7008,
      "icide": 7009,
      "NC": 7010,
      "har": 7011,
      "Ġapplying": 7012,
      "Ã¡n": 7013,
      "Ġconversion": 7014,
      "Ġattempts": 7015,
      "idential": 7016,
      "ĠØ§ÙĦ": 7017,
      "Ġrecognize": 7018,
      "Ġmoral": 7019,
      "ĠChristmas": 7020,
      "Ġmanip": 7021,
      "when": 7022,
      "rene": 7023,
      "bound": 7024,
      "Ġregime": 7025,
      "Ġrose": 7026,
      "ĠCanadian": 7027,
      "EXT": 7028,
      "ãĥ³": 7029,
      "dem": 7030,
      "Ġpatent": 7031,
      "Ġextensive": 7032,
      "Ġcontrovers": 7033,
      "Ġinjuries": 7034,
      "Ġsharp": 7035,
      "Ġgel": 7036,
      "Ġabandon": 7037,
      "Ġproliferation": 7038,
      "rolog": 7039,
      "ĠServices": 7040,
      "Ġhistorical": 7041,
      "Hel": 7042,
      "Ġtransferred": 7043,
      "Ke": 7044,
      "Ġdos": 7045,
      "åľ": 7046,
      "Ġversions": 7047,
      "Ġfacility": 7048,
      "Ġboost": 7049,
      "home": 7050,
      "Ġbegins": 7051,
      "ĠÐ±": 7052,
      "gence": 7053,
      "ĠHamilton": 7054,
      "250": 7055,
      "Ġrequested": 7056,
      "ologic": 7057,
      "Ġ66": 7058,
      "ruption": 7059,
      "ĠSecretary": 7060,
      "Ġdas": 7061,
      "olid": 7062,
      "Ġwheel": 7063,
      "ĠAri": 7064,
      "ĠCorp": 7065,
      "Ġcrowd": 7066,
      "ĠHistory": 7067,
      "Ġcomplicated": 7068,
      "ĠEll": 7069,
      "Ġtrib": 7070,
      "Ġride": 7071,
      "Ġleadership": 7072,
      "Ġteaching": 7073,
      "enter": 7074,
      "Ġintegration": 7075,
      "ĠJewish": 7076,
      "Ġnam": 7077,
      "Ġartist": 7078,
      "Ġextreme": 7079,
      "Ġcrucial": 7080,
      "mode": 7081,
      "enger": 7082,
      "Ġreads": 7083,
      "ortion": 7084,
      "gypt": 7085,
      "ĠrÃ©": 7086,
      "Ġintroduce": 7087,
      "isor": 7088,
      "Ġstands": 7089,
      "Ġbacteria": 7090,
      "Ġsongs": 7091,
      "pop": 7092,
      "Ġanswered": 7093,
      "Ġgather": 7094,
      "anted": 7095,
      "anner": 7096,
      "Ġengaged": 7097,
      "orne": 7098,
      "Even": 7099,
      "erry": 7100,
      "Ġperforming": 7101,
      "Ġincreasingly": 7102,
      "ican": 7103,
      "ibilities": 7104,
      "Ġreligion": 7105,
      "Ġguidelines": 7106,
      "Ġshooting": 7107,
      "Ġproducing": 7108,
      "Ġcav": 7109,
      "Ġsuffered": 7110,
      "Ã¤r": 7111,
      "elly": 7112,
      "Ġreporting": 7113,
      "Ġconviction": 7114,
      "Ġapproval": 7115,
      "ĠBefore": 7116,
      "aylor": 7117,
      "ĠEs": 7118,
      "Ġinstruct": 7119,
      "ĠPac": 7120,
      "iem": 7121,
      "Ġreliable": 7122,
      "onder": 7123,
      "Ġtrigger": 7124,
      "Ġcounty": 7125,
      "Ð°Ðº": 7126,
      "ĠBritain": 7127,
      "Ġblind": 7128,
      "Ġgrade": 7129,
      "Ġsoldiers": 7130,
      "Ġfairly": 7131,
      "ĠPolice": 7132,
      "apes": 7133,
      "Ġ63": 7134,
      "Ġlens": 7135,
      "ĠAmong": 7136,
      "Ġpermit": 7137,
      "acer": 7138,
      "ĠClinton": 7139,
      "ÅŁ": 7140,
      "ĠMicrosoft": 7141,
      "Ġsolar": 7142,
      "aret": 7143,
      "een": 7144,
      "Ġillegal": 7145,
      "Ġsport": 7146,
      "agues": 7147,
      "Ġwet": 7148,
      "Ð¾Ð³": 7149,
      "itar": 7150,
      "Ac": 7151,
      "ĠBoston": 7152,
      "Ġadvoc": 7153,
      "oured": 7154,
      "ĠOrder": 7155,
      "áº": 7156,
      "Ġchose": 7157,
      "bul": 7158,
      "Ġresc": 7159,
      "Mar": 7160,
      "Ġsilver": 7161,
      "Ġseparation": 7162,
      "Ġaddressed": 7163,
      "Ġpurchased": 7164,
      "Ġimper": 7165,
      "asi": 7166,
      "root": 7167,
      "alty": 7168,
      "Ġ1993": 7169,
      "Ġmoves": 7170,
      "Ġleague": 7171,
      "Ġbridge": 7172,
      "ĠMen": 7173,
      "Ġteacher": 7174,
      "ĠKorea": 7175,
      "Ġwarning": 7176,
      "Ġboat": 7177,
      "ãģ£": 7178,
      "click": 7179,
      "Ġforest": 7180,
      "Ġ62": 7181,
      "ilib": 7182,
      "ende": 7183,
      "Ġillness": 7184,
      "fin": 7185,
      "ĠRam": 7186,
      "ĠDevelopment": 7187,
      "ĠCarolina": 7188,
      "ĠAngeles": 7189,
      "Ġpresentation": 7190,
      "ouch": 7191,
      "Web": 7192,
      "ĠCare": 7193,
      "Ġmagnitude": 7194,
      "Ġdies": 7195,
      "reams": 7196,
      "AK": 7197,
      "Ġng": 7198,
      "Ġindustrial": 7199,
      "Ġsig": 7200,
      "auge": 7201,
      "Ġmillions": 7202,
      "Ġpra": 7203,
      "ĠDown": 7204,
      "Ret": 7205,
      "Ġaudio": 7206,
      "Ġteach": 7207,
      "Ġcompat": 7208,
      "Ġfee": 7209,
      "have": 7210,
      "LD": 7211,
      "Ġintel": 7212,
      "Open": 7213,
      "Ġtort": 7214,
      "Ġkilling": 7215,
      "Ġinfected": 7216,
      "Ġreviewed": 7217,
      "second": 7218,
      "IND": 7219,
      "Like": 7220,
      "yes": 7221,
      "una": 7222,
      "Ġanywhere": 7223,
      "Ġplenty": 7224,
      "Ġmissed": 7225,
      "Ġcolors": 7226,
      "Ġarrested": 7227,
      "Ġuniversity": 7228,
      "Ġdomestic": 7229,
      "Ã´": 7230,
      "Ġrein": 7231,
      "Ġbeta": 7232,
      "Ġnewly": 7233,
      "Ġminister": 7234,
      "Ġentertain": 7235,
      "will": 7236,
      "Ġcomfortable": 7237,
      "ĠMot": 7238,
      "ä¸Ģ": 7239,
      "Ġheads": 7240,
      "pin": 7241,
      "Ġregistered": 7242,
      "ĠJackson": 7243,
      "ĠCard": 7244,
      "ĠLast": 7245,
      "Ġsurprised": 7246,
      "vals": 7247,
      "Ġvaluable": 7248,
      "nn": 7249,
      "Ġpassword": 7250,
      "las": 7251,
      "ĠTop": 7252,
      "Cor": 7253,
      "scape": 7254,
      "ĠDoes": 7255,
      "zi": 7256,
      "river": 7257,
      "Ġwinning": 7258,
      "Ġfingers": 7259,
      "Ġbrowser": 7260,
      "ĠSpanish": 7261,
      "Ġbits": 7262,
      "lections": 7263,
      "ĠItalian": 7264,
      "Ġowners": 7265,
      "ĠAppeals": 7266,
      "ĠCast": 7267,
      "gal": 7268,
      "asty": 7269,
      "bet": 7270,
      "Ġ61": 7271,
      "Ġstorm": 7272,
      "don": 7273,
      "Ġgrounds": 7274,
      "google": 7275,
      "Ġviral": 7276,
      "Ġpassion": 7277,
      "Ġintegral": 7278,
      "Ġhouses": 7279,
      "Ġblank": 7280,
      "HR": 7281,
      "ĠJoe": 7282,
      "ĠRom": 7283,
      "Also": 7284,
      "razil": 7285,
      "Ġattempted": 7286,
      "Ġmedicine": 7287,
      "ĠDemocratic": 7288,
      "Ð³": 7289,
      "Ġbelief": 7290,
      "Ġpermanent": 7291,
      "Ġlad": 7292,
      "ught": 7293,
      "Ġregional": 7294,
      "Ġ68": 7295,
      "ãģĨ": 7296,
      "ĠDespite": 7297,
      "note": 7298,
      "ĠAustralian": 7299,
      "Ġcontributed": 7300,
      "Äĩ": 7301,
      "ĠÃ¤": 7302,
      "Ġaircraft": 7303,
      "Ġrooms": 7304,
      "Ġsuffering": 7305,
      "sur": 7306,
      "Ġlaboratory": 7307,
      "ĠDirector": 7308,
      "Ġcutting": 7309,
      "Ġreactions": 7310,
      "Ġteeth": 7311,
      "ĠItaly": 7312,
      "Ġstrike": 7313,
      "Ġdecade": 7314,
      "inction": 7315,
      "Ġsetup": 7316,
      "Ġproud": 7317,
      "Ġstroke": 7318,
      "ucks": 7319,
      "ĠFind": 7320,
      "Ġtruck": 7321,
      "BO": 7322,
      "Ġstatistics": 7323,
      "exec": 7324,
      "Ġtransaction": 7325,
      "ĠSar": 7326,
      "Ġrepresenting": 7327,
      "Ġbusy": 7328,
      "who": 7329,
      "Ġinstitutions": 7330,
      "Select": 7331,
      "Ġmodify": 7332,
      "Ġdisag": 7333,
      "ctic": 7334,
      "Ġgrab": 7335,
      "Ġtheme": 7336,
      "Ġclothes": 7337,
      "Ġreplied": 7338,
      "Ġobserve": 7339,
      "Ġsemi": 7340,
      "Ġpossession": 7341,
      "anche": 7342,
      "Ġalert": 7343,
      "urns": 7344,
      "ĠKey": 7345,
      "Ġentr": 7346,
      "hus": 7347,
      "ĠMike": 7348,
      "alls": 7349,
      "Ġec": 7350,
      "ĠSpring": 7351,
      "åĽ": 7352,
      "ĠRoyal": 7353,
      "ĠÃ®": 7354,
      "idad": 7355,
      "Ġstronger": 7356,
      "isons": 7357,
      "Ġsatisfied": 7358,
      "ĠVan": 7359,
      "chain": 7360,
      "ĠDonald": 7361,
      "Ġpaying": 7362,
      "Ġvolunte": 7363,
      "Ġtiny": 7364,
      "anny": 7365,
      "ÄĻ": 7366,
      "Ġproceedings": 7367,
      "Ġtalked": 7368,
      "ĠBlue": 7369,
      "auss": 7370,
      "Ġpel": 7371,
      "Ġopposed": 7372,
      "Ġexperts": 7373,
      "Ġassist": 7374,
      "Ġscenario": 7375,
      "ÐµÐ¼": 7376,
      "Ġparticipate": 7377,
      "ĠTown": 7378,
      "endo": 7379,
      "mut": 7380,
      "duction": 7381,
      "Ġaccommod": 7382,
      "Ġtall": 7383,
      "Ġfragment": 7384,
      "Ġcoal": 7385,
      "Ġlaid": 7386,
      "ĠJoseph": 7387,
      "Ã«": 7388,
      "Ġshouldn": 7389,
      "Ġdocumentation": 7390,
      "Ġlaunched": 7391,
      "Page": 7392,
      "Ãµ": 7393,
      "Ġrom": 7394,
      "Ġcrypt": 7395,
      "Ġurban": 7396,
      "Ġbomb": 7397,
      "Ġstores": 7398,
      "Ġwelcome": 7399,
      "ĠTHIS": 7400,
      "Ġgran": 7401,
      "Ġloan": 7402,
      "yd": 7403,
      "endar": 7404,
      "Ġcopies": 7405,
      "ĠOhio": 7406,
      "Ġmatches": 7407,
      "Ġschedule": 7408,
      "Ġregulations": 7409,
      "Ã¨re": 7410,
      "Ġkiss": 7411,
      "ĠMs": 7412,
      "Ġchecked": 7413,
      "Ġaccused": 7414,
      "Ġkeys": 7415,
      "Ġnearby": 7416,
      "icul": 7417,
      "iration": 7418,
      "ĠRight": 7419,
      "Ġbreaking": 7420,
      "Ġselling": 7421,
      "itan": 7422,
      "ĠAttorney": 7423,
      "Ġoste": 7424,
      "Ð¾ÑĢ": 7425,
      "Ġbon": 7426,
      "Ġchoices": 7427,
      "Ġtrained": 7428,
      "spring": 7429,
      "ĠWomen": 7430,
      "Ġmarkets": 7431,
      "Ġvictory": 7432,
      "Ġinvolvement": 7433,
      "Ġcalculate": 7434,
      "Ġrows": 7435,
      "had": 7436,
      "cit": 7437,
      "Ġaver": 7438,
      "Ġcareful": 7439,
      "Ġdifficulty": 7440,
      "Ġpushed": 7441,
      "world": 7442,
      "ĠFort": 7443,
      "pres": 7444,
      "Ġsteel": 7445,
      "Many": 7446,
      "Ġoperate": 7447,
      "Ġstreets": 7448,
      "Gener": 7449,
      "ĠWater": 7450,
      "uer": 7451,
      "Ġfed": 7452,
      "ĠNext": 7453,
      "Ġwaves": 7454,
      "ĠDaniel": 7455,
      "ultural": 7456,
      "Ġfails": 7457,
      "ois": 7458,
      "Ġ1991": 7459,
      "stone": 7460,
      "Ġgoods": 7461,
      "Ġapartment": 7462,
      "ĠYoung": 7463,
      "iture": 7464,
      "Ġsemiconductor": 7465,
      "Ġbread": 7466,
      "Ġinvent": 7467,
      "orse": 7468,
      "Ġwal": 7469,
      "Red": 7470,
      "ĠEgypt": 7471,
      "Ġmomentum": 7472,
      "ĠColumb": 7473,
      "Ġ250": 7474,
      "Ġgreatly": 7475,
      "Ġpresents": 7476,
      "Ġdrawing": 7477,
      "Ġmanufacturing": 7478,
      "Ġopposition": 7479,
      "Ġfacing": 7480,
      "Ġbin": 7481,
      "oly": 7482,
      "ande": 7483,
      "Ġingred": 7484,
      "ÃŁ": 7485,
      "Ġmad": 7486,
      "Ġrepeat": 7487,
      "Ġconstitutional": 7488,
      "Work": 7489,
      "uten": 7490,
      "ĠEducation": 7491,
      "Ġcarrier": 7492,
      "Ġmoderate": 7493,
      "Ġconnections": 7494,
      "Min": 7495,
      "km": 7496,
      "Ġkernel": 7497,
      "Ġflash": 7498,
      "Ġrestaurant": 7499,
      "Ġprobe": 7500,
      "Ġlosing": 7501,
      "sized": 7502,
      "Ġhardware": 7503,
      "ĠNY": 7504,
      "Ġguid": 7505,
      "Ġreveal": 7506,
      "Ġbrings": 7507,
      "orial": 7508,
      "Ġevil": 7509,
      "wan": 7510,
      "Ġbasically": 7511,
      "Ð°Ð²": 7512,
      "Ġuniverse": 7513,
      "such": 7514,
      "Ġgarden": 7515,
      "ĠAnalysis": 7516,
      "Ġtea": 7517,
      "Ġinfections": 7518,
      "Ġtab": 7519,
      "Ġster": 7520,
      "GS": 7521,
      "Most": 7522,
      "Ġdecline": 7523,
      "prise": 7524,
      "Ġweren": 7525,
      "Ġmigration": 7526,
      "Ġprepare": 7527,
      "ĠDid": 7528,
      "Ġvictims": 7529,
      "ĠConstitution": 7530,
      "ĠFar": 7531,
      "bas": 7532,
      "ĠJon": 7533,
      "iano": 7534,
      "Ġunw": 7535,
      "Ġplug": 7536,
      "Ġsubstance": 7537,
      "ĠAuthor": 7538,
      "ìĿ": 7539,
      "Ġruling": 7540,
      "ologist": 7541,
      "mal": 7542,
      "porary": 7543,
      "Ġseriously": 7544,
      "Ġbil": 7545,
      "Child": 7546,
      "ĠLar": 7547,
      "olly": 7548,
      "Ġbutter": 7549,
      "Ġsomehow": 7550,
      "Ġserial": 7551,
      "about": 7552,
      "Ġapplies": 7553,
      "Ġthy": 7554,
      "ĠSa": 7555,
      "rig": 7556,
      "Ġhonor": 7557,
      "eld": 7558,
      "Ġusage": 7559,
      "system": 7560,
      "ĠSpecial": 7561,
      "chem": 7562,
      "Ġcrew": 7563,
      "Ð¹": 7564,
      "Ġcrazy": 7565,
      "Ġproposal": 7566,
      "ĠDate": 7567,
      "aux": 7568,
      "limits": 7569,
      "oli": 7570,
      "Ġsending": 7571,
      "HC": 7572,
      "Ġexcluded": 7573,
      "Ġassets": 7574,
      "reens": 7575,
      "Ġanticip": 7576,
      "Ġpregnancy": 7577,
      "Ġwestern": 7578,
      "Ġphotograph": 7579,
      "uj": 7580,
      "aba": 7581,
      "Ġintermediate": 7582,
      "ãģĵ": 7583,
      "Ġ69": 7584,
      "pie": 7585,
      "ARD": 7586,
      "Ġfeelings": 7587,
      "ÑģÐº": 7588,
      "During": 7589,
      "Ġtough": 7590,
      "Ġcorporate": 7591,
      "æĹ": 7592,
      "Ġexit": 7593,
      "Ġbat": 7594,
      "opp": 7595,
      "ĠAndroid": 7596,
      "Ġsmoking": 7597,
      "ospit": 7598,
      "Ġenforcement": 7599,
      "Ġtaxes": 7600,
      "uct": 7601,
      "hemat": 7602,
      "Ġtrick": 7603,
      "Ġsufficiently": 7604,
      "close": 7605,
      "Ġ77": 7606,
      "Ġweapon": 7607,
      "Ġsimultaneously": 7608,
      "600": 7609,
      "Ġthirty": 7610,
      "through": 7611,
      "Ġliked": 7612,
      "Ġsampling": 7613,
      "015": 7614,
      "ĠAsia": 7615,
      "ĠCase": 7616,
      "Ġauthentic": 7617,
      "Ġrisks": 7618,
      "ĠCatholic": 7619,
      "Ġhide": 7620,
      "Ġ98": 7621,
      "Ġclassified": 7622,
      "aron": 7623,
      "athan": 7624,
      "ĠJr": 7625,
      "Ġcreates": 7626,
      "ÐµÐ´": 7627,
      "ĠMiddle": 7628,
      "ĠBusiness": 7629,
      "ĠYear": 7630,
      "ĠWilson": 7631,
      "Ġtargeted": 7632,
      "Ġ78": 7633,
      "Ġtrou": 7634,
      "years": 7635,
      "inals": 7636,
      "ĠÑĩ": 7637,
      "element": 7638,
      "Ġrevolution": 7639,
      "ĠHand": 7640,
      "step": 7641,
      "ĠLove": 7642,
      "Ġtone": 7643,
      "Ġanymore": 7644,
      "Ġelected": 7645,
      "Ġham": 7646,
      "ĠCross": 7647,
      "Inst": 7648,
      "Ġhier": 7649,
      "Ġmistake": 7650,
      "ograp": 7651,
      "Ġvideos": 7652,
      "Ġdisclosed": 7653,
      "iest": 7654,
      "Ã½": 7655,
      "Ġbeer": 7656,
      "Ġactivated": 7657,
      "ĠNA": 7658,
      "Ġretail": 7659,
      "Ġrequiring": 7660,
      "IX": 7661,
      "ĠEth": 7662,
      "Ġpartially": 7663,
      "About": 7664,
      "aka": 7665,
      "Ġstir": 7666,
      "Ġannounce": 7667,
      "UC": 7668,
      "Ġrear": 7669,
      "gle": 7670,
      "Ġgrass": 7671,
      "ĠSouthern": 7672,
      "xc": 7673,
      "ĠTeam": 7674,
      "Ġaer": 7675,
      "Ġrefe": 7676,
      "ĠColl": 7677,
      "nm": 7678,
      "Ġbands": 7679,
      "Ġloaded": 7680,
      "Ġë": 7681,
      "Ġclassic": 7682,
      "Sl": 7683,
      "service": 7684,
      "enny": 7685,
      "Ġleaf": 7686,
      "ĠForce": 7687,
      "umps": 7688,
      "sch": 7689,
      "Ġconsumer": 7690,
      "fol": 7691,
      "nie": 7692,
      "Ġexecution": 7693,
      "wr": 7694,
      "ansas": 7695,
      "ĠEp": 7696,
      "ylvan": 7697,
      "ĠSher": 7698,
      "Ġicon": 7699,
      "Ġaged": 7700,
      "Ġlights": 7701,
      "105": 7702,
      "Ġadministrative": 7703,
      "ĠPak": 7704,
      "Ġdiagram": 7705,
      "Ġrenew": 7706,
      "ĠHa": 7707,
      "Ġquantity": 7708,
      "å°": 7709,
      "åŃ": 7710,
      "Ġ74": 7711,
      "Ġdrinking": 7712,
      "Ġmachines": 7713,
      "ĠShow": 7714,
      "Tex": 7715,
      "Ġconce": 7716,
      "Ġwithdraw": 7717,
      "Ġlady": 7718,
      "800": 7719,
      "Car": 7720,
      "town": 7721,
      "ĠNetwork": 7722,
      "ĠPage": 7723,
      "Ġdoct": 7724,
      "Ġtur": 7725,
      "Ġtrace": 7726,
      "Ġbulk": 7727,
      "Ø§Ø": 7728,
      "è¡": 7729,
      "Ġprogramming": 7730,
      "ĠMaster": 7731,
      "Ġfifth": 7732,
      "Ġmagic": 7733,
      "aire": 7734,
      "Ġrely": 7735,
      "ĠFROM": 7736,
      "pool": 7737,
      "ĠNov": 7738,
      "ĠRay": 7739,
      "Ġzu": 7740,
      "ĠAmendment": 7741,
      "Ð¸Ñı": 7742,
      "earing": 7743,
      "Ġdirections": 7744,
      "leton": 7745,
      "nament": 7746,
      "Ġtil": 7747,
      "Ġfemales": 7748,
      "Ver": 7749,
      "Ġinterior": 7750,
      "Once": 7751,
      "Her": 7752,
      "Ġpayments": 7753,
      "Ġbeauty": 7754,
      "Ġshares": 7755,
      "ĠFrancisco": 7756,
      "ĠKim": 7757,
      "Ġrefers": 7758,
      "Ġkm": 7759,
      "access": 7760,
      "Ġrecom": 7761,
      "Ġlying": 7762,
      "Ġcream": 7763,
      "anim": 7764,
      "ĠTechnology": 7765,
      "Ġwound": 7766,
      "ãĤĤ": 7767,
      "lers": 7768,
      "arse": 7769,
      "usal": 7770,
      "Ġmarg": 7771,
      "Ġwhenever": 7772,
      "Does": 7773,
      "Ġmales": 7774,
      "Ġprecise": 7775,
      "Ġongoing": 7776,
      "points": 7777,
      "Ġflood": 7778,
      "Ġfalling": 7779,
      "dest": 7780,
      "Ġeen": 7781,
      "person": 7782,
      "Med": 7783,
      "Ġgang": 7784,
      "ĠDemocrats": 7785,
      "Ġtroops": 7786,
      "Ġatmosphere": 7787,
      "ĠOK": 7788,
      "Ġswim": 7789,
      "pson": 7790,
      "Ġsilence": 7791,
      "Ġenerg": 7792,
      "Ġtun": 7793,
      "ĠReport": 7794,
      "Ġlegislation": 7795,
      "Ġperipheral": 7796,
      "Ġartists": 7797,
      "charg": 7798,
      "Ġcaptured": 7799,
      "Dep": 7800,
      "ĠFred": 7801,
      "Ġplates": 7802,
      "Ġcable": 7803,
      "Ġsettlement": 7804,
      "Sch": 7805,
      "Ġskill": 7806,
      "Ġist": 7807,
      "Ġgiant": 7808,
      "Ġdrivers": 7809,
      "ĠGar": 7810,
      "inois": 7811,
      "ĠBrazil": 7812,
      "ĠEnter": 7813,
      "Ġinstances": 7814,
      "Ġtomorrow": 7815,
      "Ġliber": 7816,
      "ĠOl": 7817,
      "Ġfrequent": 7818,
      "Ġmarks": 7819,
      "ĠImage": 7820,
      "Ġreturning": 7821,
      "Ġhandling": 7822,
      "Ġveter": 7823,
      "ĠPS": 7824,
      "acking": 7825,
      "Ġlists": 7826,
      "Ġyeah": 7827,
      "Ġstruck": 7828,
      "Ġadjusted": 7829,
      "onto": 7830,
      "Ġbanks": 7831,
      "bell": 7832,
      "Ġkom": 7833,
      "Ġarranged": 7834,
      "Ġhang": 7835,
      "ĠHon": 7836,
      "Ġreward": 7837,
      "Ġreaching": 7838,
      "Ġcommunications": 7839,
      "Ġorganized": 7840,
      "Ġloading": 7841,
      "Ġindependently": 7842,
      "hav": 7843,
      "Ġrejected": 7844,
      "Ġcovers": 7845,
      "Ġscientists": 7846,
      "Second": 7847,
      "Ġcomprom": 7848,
      "Ġteachers": 7849,
      "Ġbench": 7850,
      "ĠFather": 7851,
      "Ġou": 7852,
      "Ġstuck": 7853,
      "Ð¸Ð½": 7854,
      "æķ": 7855,
      "Ġcompensation": 7856,
      "iol": 7857,
      "Ġlegit": 7858,
      "Ġresponded": 7859,
      "filter": 7860,
      "stra": 7861,
      "hard": 7862,
      "Ġcovering": 7863,
      "oi": 7864,
      "Ġstations": 7865,
      "Ġaux": 7866,
      "Oper": 7867,
      "ioned": 7868,
      "ques": 7869,
      "Ġrising": 7870,
      "Ġ88": 7871,
      "empty": 7872,
      "wart": 7873,
      "ĠChris": 7874,
      "Ġagencies": 7875,
      "Ġjoy": 7876,
      "ĠIreland": 7877,
      "Ġdance": 7878,
      "icht": 7879,
      "days": 7880,
      "éĢ": 7881,
      "Ġscan": 7882,
      "Ġmere": 7883,
      "pad": 7884,
      "ĠFox": 7885,
      "connect": 7886,
      "017": 7887,
      "iry": 7888,
      "Ġserves": 7889,
      "Ġdisappoint": 7890,
      "opath": 7891,
      "Ġlob": 7892,
      "Ġmatching": 7893,
      "ãĤī": 7894,
      "åĬ": 7895,
      "bled": 7896,
      "Ġdecreasing": 7897,
      "Ġsouthern": 7898,
      "ĠToday": 7899,
      "Ġinjured": 7900,
      "Mark": 7901,
      "ĠRod": 7902,
      "Ġyesterday": 7903,
      "ĠSix": 7904,
      "Ġdestroyed": 7905,
      "PG": 7906,
      "elve": 7907,
      "Ġacademic": 7908,
      "Ġtrav": 7909,
      "ĠStart": 7910,
      "rin": 7911,
      "Ġthorough": 7912,
      "Ġnerve": 7913,
      "Ġ130": 7914,
      "ĠBa": 7915,
      "Ġ73": 7916,
      "Ġsuffer": 7917,
      "Ġprospect": 7918,
      "orses": 7919,
      "Ġpron": 7920,
      "hire": 7921,
      "plus": 7922,
      "Ġrestricted": 7923,
      "fix": 7924,
      "Ġtank": 7925,
      "Ġ71": 7926,
      "ĠBuild": 7927,
      "azz": 7928,
      "Ġcited": 7929,
      "Ġ94": 7930,
      "conomic": 7931,
      "Ġshr": 7932,
      "pu": 7933,
      "izz": 7934,
      "Ġlawyer": 7935,
      "Ġdiverse": 7936,
      "Ġsignature": 7937,
      "Ġexplicitly": 7938,
      "Ġthinks": 7939,
      "ĠSpace": 7940,
      "fi": 7941,
      "ĠDar": 7942,
      "Ġmountain": 7943,
      "irk": 7944,
      "Ġchallenging": 7945,
      "isp": 7946,
      "Ġimproving": 7947,
      "plan": 7948,
      "Ġ125": 7949,
      "Ġcheap": 7950,
      "make": 7951,
      "ĠLew": 7952,
      "ONE": 7953,
      "Dev": 7954,
      "ĠPoint": 7955,
      "week": 7956,
      "Ġchicken": 7957,
      "eman": 7958,
      "Ġlunch": 7959,
      "iar": 7960,
      "may": 7961,
      "Ġappointed": 7962,
      "Ġvoters": 7963,
      "Ġdeclare": 7964,
      "Ġedition": 7965,
      "onom": 7966,
      "Ġemployer": 7967,
      "vy": 7968,
      "hol": 7969,
      "Ġtape": 7970,
      "dig": 7971,
      "Maybe": 7972,
      "ele": 7973,
      "irms": 7974,
      "urd": 7975,
      "Ġstruggle": 7976,
      "update": 7977,
      "Ġnorthern": 7978,
      "nsylvania": 7979,
      "opes": 7980,
      "Ġclosing": 7981,
      "ĠCarl": 7982,
      "olester": 7983,
      "atre": 7984,
      "ĠConf": 7985,
      "Ġaimed": 7986,
      "angers": 7987,
      "ordan": 7988,
      "Ġhasn": 7989,
      "Sign": 7990,
      "Ġfool": 7991,
      "aver": 7992,
      "Ġloud": 7993,
      "ĠChampionship": 7994,
      "Ġcust": 7995,
      "Ġapps": 7996,
      "Em": 7997,
      "stic": 7998,
      "Ġfired": 7999,
      "ificial": 8000,
      "rele": 8001,
      "ĠThank": 8002,
      "ĠAward": 8003,
      "files": 8004,
      "Use": 8005,
      "Ġinclusion": 8006,
      "Ð¾Ð½": 8007,
      "kind": 8008,
      "Ġbirds": 8009,
      "ĠBu": 8010,
      "ĠMedia": 8011,
      "Ġtelephone": 8012,
      "Ġrum": 8013,
      "ĠSpain": 8014,
      "Ġupdates": 8015,
      "ĠPass": 8016,
      "itÃ©": 8017,
      "rained": 8018,
      "Ġ79": 8019,
      "ĠTaylor": 8020,
      "Ġcum": 8021,
      "Ġbuying": 8022,
      "Ġbasket": 8023,
      "adi": 8024,
      "Ġsmoke": 8025,
      "Ġpleasure": 8026,
      "hs": 8027,
      "Ġtransplant": 8028,
      "Ġtemporary": 8029,
      "Ġpitch": 8030,
      "Ġ89": 8031,
      "ĠKen": 8032,
      "Ġchip": 8033,
      "Ġimposed": 8034,
      "Ġlistening": 8035,
      "Ġ1983": 8036,
      "white": 8037,
      "ĠBush": 8038,
      "aska": 8039,
      "Ġheavily": 8040,
      "Ġallegations": 8041,
      "ĠGreek": 8042,
      "ensor": 8043,
      "ĠMichigan": 8044,
      "uri": 8045,
      "aland": 8046,
      "Ġpocket": 8047,
      "Ġmovies": 8048,
      "Ġresolve": 8049,
      "Ġadds": 8050,
      "ĠWat": 8051,
      "ĠDavis": 8052,
      "Ġsel": 8053,
      "Ġproduces": 8054,
      "Ġteen": 8055,
      "None": 8056,
      "Ġmagazine": 8057,
      "Ġstupid": 8058,
      "fire": 8059,
      "Ġ115": 8060,
      "aws": 8061,
      "Ġenjoyed": 8062,
      "Ġconsumers": 8063,
      "Ġdelete": 8064,
      "ĠManagement": 8065,
      "Ġelsewhere": 8066,
      "Ġkeeps": 8067,
      "ĠAge": 8068,
      "Ġbranc": 8069,
      "Ġgenerating": 8070,
      "ĠHard": 8071,
      "Ġengineering": 8072,
      "Ġsettled": 8073,
      "Ġfaced": 8074,
      "ĠDetermine": 8075,
      "ĠAbout": 8076,
      "Ġengage": 8077,
      "Ð»Ð¸": 8078,
      "./": 8079,
      "uits": 8080,
      "Ġholes": 8081,
      "Ġdebut": 8082,
      "Top": 8083,
      "Further": 8084,
      "adel": 8085,
      "Ġreflected": 8086,
      "Ġrural": 8087,
      "Ġbarrier": 8088,
      "180": 8089,
      "Ġ>>": 8090,
      "Ġovercome": 8091,
      "Ġsees": 8092,
      "oned": 8093,
      "Ġexecuted": 8094,
      "Ð°Ð¼": 8095,
      "Ġenabled": 8096,
      "Ġtracks": 8097,
      "owa": 8098,
      "awa": 8099,
      "iley": 8100,
      "ĠAcademy": 8101,
      "ĠMiller": 8102,
      "Ġfounded": 8103,
      "idal": 8104,
      "Ġ87": 8105,
      "should": 8106,
      "sv": 8107,
      "etch": 8108,
      "eh": 8109,
      "ĠFood": 8110,
      "ĠMajor": 8111,
      "Ġyards": 8112,
      "Ġappreciate": 8113,
      "rell": 8114,
      "Ġ83": 8115,
      "Ġcontinuing": 8116,
      "amps": 8117,
      "worth": 8118,
      "Ġconfront": 8119,
      "Ġcha": 8120,
      "Ġreceiver": 8121,
      "Ġfriendly": 8122,
      "uid": 8123,
      "Ġ93": 8124,
      "Ġpermitted": 8125,
      "Ġtack": 8126,
      "Ġroughly": 8127,
      "imental": 8128,
      "Ġmirror": 8129,
      "ãĤĬ": 8130,
      "Ġadmit": 8131,
      "IVE": 8132,
      "Bo": 8133,
      "Ġgut": 8134,
      "Ġnose": 8135,
      "Ġmeal": 8136,
      "Ġ82": 8137,
      "sn": 8138,
      "ĠKingdom": 8139,
      "Ġinvasion": 8140,
      "ounced": 8141,
      "Ġparticipation": 8142,
      "Ġscales": 8143,
      "gel": 8144,
      "NET": 8145,
      "ĠMain": 8146,
      "Ġintervals": 8147,
      "prod": 8148,
      "Ġdismissed": 8149,
      "Ġresolved": 8150,
      "Ñī": 8151,
      "Ġlanguages": 8152,
      "Ġconverted": 8153,
      "ijn": 8154,
      "Ġconservative": 8155,
      "Ġfalls": 8156,
      "sex": 8157,
      "Ã©t": 8158,
      "Ġhoping": 8159,
      "Ġscheduled": 8160,
      "Ġterrible": 8161,
      "Ġprofit": 8162,
      "Ġbelieves": 8163,
      "Ġfolder": 8164,
      "ĠRh": 8165,
      "Ġdetermin": 8166,
      "ĠIllinois": 8167,
      "Ġnewspaper": 8168,
      "imp": 8169,
      "yg": 8170,
      "shift": 8171,
      "ĠPacific": 8172,
      "kit": 8173,
      "Ġunusual": 8174,
      "Ġshout": 8175,
      "Ġstrings": 8176,
      "Ġsilent": 8177,
      "ĠJews": 8178,
      "Only": 8179,
      "Ġmais": 8180,
      "ĠDig": 8181,
      "Ġpersonnel": 8182,
      "Ġpilot": 8183,
      "ĠLittle": 8184,
      "Ġviewed": 8185,
      "Ġdoctors": 8186,
      "Ġvisited": 8187,
      "Ġduplic": 8188,
      "Ġ91": 8189,
      "BT": 8190,
      "Ġretire": 8191,
      "United": 8192,
      "ĠBell": 8193,
      "Ġell": 8194,
      "Ġhorizontal": 8195,
      "Ġmanual": 8196,
      "ĠIrish": 8197,
      "Ġwriters": 8198,
      "Ġbeach": 8199,
      "ĠRa": 8200,
      "Ġinterrupt": 8201,
      "Ġtonight": 8202,
      "Ġdish": 8203,
      "Ġattended": 8204,
      "Ġ86": 8205,
      "ĠScient": 8206,
      "Ġparas": 8207,
      "Ġtren": 8208,
      "Ġeggs": 8209,
      "oves": 8210,
      "Ġopinions": 8211,
      "ĠQueen": 8212,
      "ĠLocal": 8213,
      "Ġfunc": 8214,
      "Ġ112": 8215,
      "enda": 8216,
      "Ġbowl": 8217,
      "ĠPennsylvania": 8218,
      "ĠCell": 8219,
      "ologists": 8220,
      "Ð½Ñĭ": 8221,
      "Ġeverybody": 8222,
      "Ġuncertainty": 8223,
      "ĠAsian": 8224,
      "Ġcolleagues": 8225,
      "Ġprofessor": 8226,
      "Ġforever": 8227,
      "Ġlosses": 8228,
      "etr": 8229,
      "Ġoperated": 8230,
      "Ġavailability": 8231,
      "acon": 8232,
      "Ġmanufacturer": 8233,
      "Ġrecru": 8234,
      "Ġfel": 8235,
      "ĠTake": 8236,
      "ĠEnergy": 8237,
      "anz": 8238,
      "Ġterr": 8239,
      "Ġpriority": 8240,
      "Ġeverywhere": 8241,
      "Â´": 8242,
      "Ġ81": 8243,
      "ĠApplication": 8244,
      "Ġdemands": 8245,
      "Ġindirect": 8246,
      "Ġpowder": 8247,
      "Ġhousehold": 8248,
      "Ġtrail": 8249,
      "Ġpartnership": 8250,
      "Ġpersonally": 8251,
      "Ġimprovements": 8252,
      "Ġaccompanied": 8253,
      "Ġstrip": 8254,
      "ĠStill": 8255,
      "green": 8256,
      "Ġdiver": 8257,
      "pot": 8258,
      "Ġprovider": 8259,
      "master": 8260,
      "Ġjet": 8261,
      "herence": 8262,
      "ĠRest": 8263,
      "Ġphilosophy": 8264,
      "rying": 8265,
      "Ġgay": 8266,
      "ĠCEO": 8267,
      "icing": 8268,
      "Ġentering": 8269,
      "Deb": 8270,
      "Ġbless": 8271,
      "Ġtu": 8272,
      "ĠValue": 8273,
      "Ġfailing": 8274,
      "Ġprocessed": 8275,
      "Ġwireless": 8276,
      "menu": 8277,
      "dam": 8278,
      "ĠTurn": 8279,
      "Factory": 8280,
      "Ġbatt": 8281,
      "Under": 8282,
      "lot": 8283,
      "Ġfunny": 8284,
      "Ġcombat": 8285,
      "Ġdear": 8286,
      "Ġworldwide": 8287,
      "Ġrarely": 8288,
      "sto": 8289,
      "ĠÑĥ": 8290,
      "Ġcompeting": 8291,
      "Ġwake": 8292,
      "Mc": 8293,
      "hm": 8294,
      "Ġaz": 8295,
      "Ġupt": 8296,
      "ĠMir": 8297,
      "Have": 8298,
      "anto": 8299,
      "Ġmamm": 8300,
      "Ġrevenue": 8301,
      "Ġconve": 8302,
      "Ġrice": 8303,
      "Ġangry": 8304,
      "Ġstayed": 8305,
      "Ġsteady": 8306,
      "Ġseparately": 8307,
      "evin": 8308,
      "è¦": 8309,
      "eff": 8310,
      "oped": 8311,
      "Ġstudio": 8312,
      "door": 8313,
      "family": 8314,
      "Ġships": 8315,
      "background": 8316,
      "ogl": 8317,
      "jections": 8318,
      "ĠSteve": 8319,
      "Ġtrem": 8320,
      "Ġportions": 8321,
      "alling": 8322,
      "Ġignore": 8323,
      "ika": 8324,
      "ĠHo": 8325,
      "æī": 8326,
      "Ġfur": 8327,
      "dl": 8328,
      "Three": 8329,
      "ĠTri": 8330,
      "Each": 8331,
      "ĠGlobal": 8332,
      "Ġsynchron": 8333,
      "Ġverdict": 8334,
      "illance": 8335,
      "Ġexpanded": 8336,
      "making": 8337,
      "went": 8338,
      "Ġaffects": 8339,
      "Ġsomebody": 8340,
      "Ġexclusive": 8341,
      "Ġuma": 8342,
      "Ġ140": 8343,
      "Ġconcrete": 8344,
      "shot": 8345,
      "blue": 8346,
      "ĠEastern": 8347,
      "Ġturb": 8348,
      "store": 8349,
      "Ġtired": 8350,
      "ä¹": 8351,
      "outer": 8352,
      "Ġlect": 8353,
      "Ġcalm": 8354,
      "ĠSaint": 8355,
      "ĠRub": 8356,
      "Ġages": 8357,
      "Ġsurvive": 8358,
      "ĠRepublicans": 8359,
      "bral": 8360,
      "Using": 8361,
      "isen": 8362,
      "ere": 8363,
      "è¯": 8364,
      "Ġkil": 8365,
      "Ġrecur": 8366,
      "Ġrespiratory": 8367,
      "Ġdial": 8368,
      "Ġmaxim": 8369,
      "yo": 8370,
      "Ġprominent": 8371,
      "Ġencourage": 8372,
      "ãĤ¹": 8373,
      "Ùģ": 8374,
      "ĠUk": 8375,
      "hu": 8376,
      "ĠCaptain": 8377,
      "Ġremoving": 8378,
      "anti": 8379,
      "Ġworried": 8380,
      "Ġsubmit": 8381,
      "Ġacquisition": 8382,
      "ĠSea": 8383,
      "Ġmetall": 8384,
      "aki": 8385,
      "bow": 8386,
      "Ġawarded": 8387,
      "Ġguns": 8388,
      "nan": 8389,
      "Ġtrading": 8390,
      "Ð¶": 8391,
      "ometer": 8392,
      "ĠRos": 8393,
      "Ġcoat": 8394,
      "ĠBal": 8395,
      "hour": 8396,
      "Ġgray": 8397,
      "ĠCook": 8398,
      "aza": 8399,
      "Ġdiscussions": 8400,
      "eras": 8401,
      "ĠCambridge": 8402,
      "ĠBrook": 8403,
      "Ġease": 8404,
      "Ġ1960": 8405,
      "Ð°Ð·": 8406,
      "Ġbottle": 8407,
      "ĠTour": 8408,
      "Ġpasses": 8409,
      "ĠCas": 8410,
      "à¤¾": 8411,
      "å¾": 8412,
      "Ð¾Ð¹": 8413,
      "Ġvice": 8414,
      "Ġreject": 8415,
      "Ġwrites": 8416,
      "Ġsimilarly": 8417,
      "Ġclim": 8418,
      "ĠSus": 8419,
      "Ev": 8420,
      "ĠWT": 8421,
      "hot": 8422,
      "Ġdispute": 8423,
      "Ġentries": 8424,
      "ĠLes": 8425,
      "Ġ1987": 8426,
      "Ġ119": 8427,
      "Ġ160": 8428,
      "phy": 8429,
      "ÅĽ": 8430,
      "ĠSA": 8431,
      "bot": 8432,
      "agan": 8433,
      "Ġcord": 8434,
      "ĠHun": 8435,
      "Ġhaz": 8436,
      "Ġflying": 8437,
      "Ġsurge": 8438,
      "ĠnÃ£o": 8439,
      "ĠViet": 8440,
      "agram": 8441,
      "Ġmedi": 8442,
      "five": 8443,
      "erated": 8444,
      "Ġhorses": 8445,
      "Ġautomatic": 8446,
      "Ġinvalid": 8447,
      "ĠFamily": 8448,
      "pay": 8449,
      "wall": 8450,
      "Ġcompetitive": 8451,
      "anded": 8452,
      "Ġtalks": 8453,
      "Ġadvertising": 8454,
      "Hello": 8455,
      "Ġdestination": 8456,
      "ĠGeorgia": 8457,
      "Ġpatch": 8458,
      "inch": 8459,
      "TV": 8460,
      "Ġparking": 8461,
      "Ġgained": 8462,
      "æĺ¯": 8463,
      "Ġprotective": 8464,
      "Ġfiling": 8465,
      "hang": 8466,
      "dra": 8467,
      "Ġflexible": 8468,
      "Ġupload": 8469,
      "Ġcow": 8470,
      "ĠAction": 8471,
      "ĠZealand": 8472,
      "Ġvacuum": 8473,
      "ĠSanta": 8474,
      "Ġcenters": 8475,
      "ĠPrime": 8476,
      "Ġul": 8477,
      "Ġ104": 8478,
      "dp": 8479,
      "bes": 8480,
      "Ġfoods": 8481,
      "Ġcrimes": 8482,
      "ĠExec": 8483,
      "Ġ1986": 8484,
      "Ġguest": 8485,
      "Ġwedding": 8486,
      "ĠBoy": 8487,
      "ĠStandard": 8488,
      "Ġboss": 8489,
      "ĠGa": 8490,
      "Ġcontends": 8491,
      "Ġpackages": 8492,
      "Ġharder": 8493,
      "ĠLead": 8494,
      "ĠPot": 8495,
      "Ġsessions": 8496,
      "Ġbull": 8497,
      "because": 8498,
      "grav": 8499,
      "Pass": 8500,
      "remove": 8501,
      "Ġsupplied": 8502,
      "Ġqualified": 8503,
      "ĠCentre": 8504,
      "Ġwitnesses": 8505,
      "Ġlocally": 8506,
      "103": 8507,
      "Ġcheese": 8508,
      "ĠGuard": 8509,
      "Ġcuts": 8510,
      "zona": 8511,
      "super": 8512,
      "Ġincl": 8513,
      "ĠÃ¨": 8514,
      "Ġbunch": 8515,
      "Ġshadow": 8516,
      "sit": 8517,
      "Ġbeside": 8518,
      "Ġflags": 8519,
      "ucky": 8520,
      "Ġsearching": 8521,
      "acet": 8522,
      "Ġbearing": 8523,
      "Ġacceptable": 8524,
      "Ġguarantee": 8525,
      "utter": 8526,
      "Ġheating": 8527,
      "ĠDun": 8528,
      "Ġexpenses": 8529,
      "107": 8530,
      "Ġmeetings": 8531,
      "ĠLA": 8532,
      "Ġperturb": 8533,
      "117": 8534,
      "drop": 8535,
      "ĠSeries": 8536,
      "ĠHave": 8537,
      "overs": 8538,
      "Ġcompletion": 8539,
      "hop": 8540,
      "ĠThird": 8541,
      "Ġbid": 8542,
      "Ġdad": 8543,
      "Ġchecks": 8544,
      "Ġmusical": 8545,
      "Ġregarded": 8546,
      "Ġdevelopers": 8547,
      "aired": 8548,
      "amento": 8549,
      "Ġcouncil": 8550,
      "Ġknee": 8551,
      "ĠSource": 8552,
      "backs": 8553,
      "Ã¤t": 8554,
      "ĠMother": 8555,
      "Ġflour": 8556,
      "Ġpixel": 8557,
      "Ġsatell": 8558,
      "Ġdates": 8559,
      "ĠEric": 8560,
      "ĠPay": 8561,
      "arer": 8562,
      "Ġinsight": 8563,
      "tim": 8564,
      "Ġstepped": 8565,
      "ĠHor": 8566,
      "Ġink": 8567,
      "FE": 8568,
      "keys": 8569,
      "Pan": 8570,
      "good": 8571,
      "buntu": 8572,
      "Ġmood": 8573,
      "Ġpromised": 8574,
      "Ġgear": 8575,
      "ĠHead": 8576,
      "Ġsustained": 8577,
      "Book": 8578,
      "Ġasks": 8579,
      "Ġthrows": 8580,
      "ĠContin": 8581,
      "Ġtears": 8582,
      "Ġtied": 8583,
      "Ġkidney": 8584,
      "Ġmoon": 8585,
      "çĶ¨": 8586,
      "Ġelections": 8587,
      "Ġviolent": 8588,
      "Ġpenalty": 8589,
      "ropri": 8590,
      "Ġcarb": 8591,
      "Ġbarely": 8592,
      "Ùĥ": 8593,
      "108": 8594,
      "ĠWas": 8595,
      "dc": 8596,
      "oa": 8597,
      "oni": 8598,
      "Ġcooling": 8599,
      "Ġoverwhel": 8600,
      "Ġmedication": 8601,
      "Ġarmed": 8602,
      "ĠTenn": 8603,
      "åį": 8604,
      "Ġsauce": 8605,
      "Ġending": 8606,
      "Ġslic": 8607,
      "Ġeste": 8608,
      "Ġwondering": 8609,
      "Ġrecovered": 8610,
      "Ġprojection": 8611,
      "Ġjudicial": 8612,
      "Ġ117": 8613,
      "Ġnations": 8614,
      "Ġstudying": 8615,
      "Ġclimb": 8616,
      "Ġseasons": 8617,
      "rait": 8618,
      "Ġcooking": 8619,
      "Ġunlike": 8620,
      "Â¿": 8621,
      "Ġflowers": 8622,
      "hl": 8623,
      "ouston": 8624,
      "High": 8625,
      "ĠWithout": 8626,
      "Ġtension": 8627,
      "arios": 8628,
      "Ġcontest": 8629,
      "ĠKit": 8630,
      "Ġrandomly": 8631,
      "Ġfeeding": 8632,
      "abe": 8633,
      "session": 8634,
      "icking": 8635,
      "ĠMatt": 8636,
      "Ġearned": 8637,
      "mac": 8638,
      "140": 8639,
      "Ġspiritual": 8640,
      "rett": 8641,
      "Ġunexpected": 8642,
      "ĠCat": 8643,
      "Met": 8644,
      "apor": 8645,
      "Ð¾Ð±": 8646,
      "Ġnobody": 8647,
      "Ġ105": 8648,
      "ĠRose": 8649,
      "ãĥ¼ãĥ": 8650,
      "engers": 8651,
      "Ġreadily": 8652,
      "aya": 8653,
      "Ġaddresses": 8654,
      "Ġfacilitate": 8655,
      "Sw": 8656,
      "UP": 8657,
      "asted": 8658,
      "Ø©": 8659,
      "å¹": 8660,
      "gered": 8661,
      "Ġjun": 8662,
      "ĠAud": 8663,
      "Ġinvited": 8664,
      "Ġ116": 8665,
      "bury": 8666,
      "Ġcleaning": 8667,
      "Ġmixing": 8668,
      "Ġaccessible": 8669,
      "ĠRights": 8670,
      "Long": 8671,
      "Ġdrew": 8672,
      "four": 8673,
      "Ġinsufficient": 8674,
      "ĠMinn": 8675,
      "Ð¸Ð¼": 8676,
      "Put": 8677,
      "Ġweird": 8678,
      "tan": 8679,
      "Ġoh": 8680,
      "bold": 8681,
      "Ġpounds": 8682,
      "Ġputs": 8683,
      "Ġpray": 8684,
      "ĠAsh": 8685,
      "Ġdecent": 8686,
      "ĠUnfortunately": 8687,
      "Ġappeals": 8688,
      "gun": 8689,
      "Ġpromising": 8690,
      "Op": 8691,
      "Ġdestruction": 8692,
      "Ġdip": 8693,
      "env": 8694,
      "install": 8695,
      "Ġtracking": 8696,
      "Ġenorm": 8697,
      "your": 8698,
      "Ġultimate": 8699,
      "Ġtent": 8700,
      "Ð°ÑĢ": 8701,
      "Exec": 8702,
      "Ġbreakfast": 8703,
      "Ð¾ÑĤ": 8704,
      "also": 8705,
      "ĠGames": 8706,
      "sett": 8707,
      "ĠDoug": 8708,
      "render": 8709,
      "Ġpill": 8710,
      "ĠFBI": 8711,
      "late": 8712,
      "Ġpi": 8713,
      "ulative": 8714,
      "cam": 8715,
      "alo": 8716,
      "enz": 8717,
      "ÑģÑı": 8718,
      "Ã¯": 8719,
      "Ġrod": 8720,
      "away": 8721,
      "Ġdeck": 8722,
      "atile": 8723,
      "Local": 8724,
      "Ġrelating": 8725,
      "ĠKar": 8726,
      "ĠOp": 8727,
      "Ġauf": 8728,
      "ghan": 8729,
      "Ġguitar": 8730,
      "Ġpreliminary": 8731,
      "åº": 8732,
      "fall": 8733,
      "Ġphrase": 8734,
      "Ġbird": 8735,
      "Ġlocked": 8736,
      "comfort": 8737,
      "achine": 8738,
      "Ġik": 8739,
      "iones": 8740,
      "ders": 8741,
      "ĠTal": 8742,
      "archy": 8743,
      "Ġconsecutive": 8744,
      "cycl": 8745,
      "Ġneu": 8746,
      "Ġrecommendations": 8747,
      "Ġconstitute": 8748,
      "AE": 8749,
      "Ġaqu": 8750,
      "ĠConference": 8751,
      "arijuana": 8752,
      "Ġverify": 8753,
      "Ġexpectations": 8754,
      "ĠDer": 8755,
      "Ġremembered": 8756,
      "Ġpropose": 8757,
      "Ġhint": 8758,
      "Ġarrive": 8759,
      "Ġdrove": 8760,
      "Ġchecking": 8761,
      "aden": 8762,
      "Ġvessels": 8763,
      "ĠFord": 8764,
      "Ġpresidential": 8765,
      "æĿ": 8766,
      "Ġplea": 8767,
      "Ġintense": 8768,
      "Ġshoes": 8769,
      "ĠVen": 8770,
      "Ġfi": 8771,
      "Ġwaters": 8772,
      "Ġquot": 8773,
      "ĠLady": 8774,
      "Ġscar": 8775,
      "ĠElizabeth": 8776,
      "VE": 8777,
      "Ġingredients": 8778,
      "Ġconcert": 8779,
      "Ġanger": 8780,
      "Ġshopping": 8781,
      "mente": 8782,
      "ĠAnton": 8783,
      "ici": 8784,
      "Ġconvey": 8785,
      "made": 8786,
      "Ġleuk": 8787,
      "Ġcontracts": 8788,
      "Ã¨s": 8789,
      "Ġassignment": 8790,
      "Ġtang": 8791,
      "Ġsolely": 8792,
      "Ġintellectual": 8793,
      "disc": 8794,
      "Ġreporter": 8795,
      "aga": 8796,
      "ĠSyria": 8797,
      "ĠMP": 8798,
      "raine": 8799,
      "Ġcod": 8800,
      "ĠOfficer": 8801,
      "Ġunclear": 8802,
      "etary": 8803,
      "ĠColumbia": 8804,
      "Ġdifficulties": 8805,
      "ITE": 8806,
      "ç»": 8807,
      "would": 8808,
      "ĠChildren": 8809,
      "Ġgotten": 8810,
      "ĠLatin": 8811,
      "ĠMicro": 8812,
      "Ġxe": 8813,
      "Hi": 8814,
      "Ġtreating": 8815,
      "irth": 8816,
      "ĠFair": 8817,
      "Ġliberal": 8818,
      "Ġsque": 8819,
      "ĠCond": 8820,
      "oning": 8821,
      "semble": 8822,
      "bec": 8823,
      "imm": 8824,
      "Ġterritory": 8825,
      "pred": 8826,
      "agent": 8827,
      "were": 8828,
      "Ġknife": 8829,
      "Ġretriev": 8830,
      "ĠCost": 8831,
      "ĠKent": 8832,
      "overty": 8833,
      "å¼": 8834,
      "email": 8835,
      "Ġtalent": 8836,
      "clusively": 8837,
      "ĠHug": 8838,
      "Ġvalidation": 8839,
      "Ms": 8840,
      "Ġcomputers": 8841,
      "ĠEdward": 8842,
      "ĠMah": 8843,
      "Ġhits": 8844,
      "Ġshield": 8845,
      "Ġliterally": 8846,
      "Ġdefects": 8847,
      "Ġfucking": 8848,
      "empl": 8849,
      "Ġcaps": 8850,
      "ĠPrince": 8851,
      "acher": 8852,
      "bc": 8853,
      "Ġvaried": 8854,
      "norm": 8855,
      "109": 8856,
      "acco": 8857,
      "vir": 8858,
      "Ġchamp": 8859,
      "Ġheaded": 8860,
      "Ġdeeper": 8861,
      "arts": 8862,
      "Ġly": 8863,
      "cases": 8864,
      "Ġfilling": 8865,
      "Ġroy": 8866,
      "ieve": 8867,
      "Ġattributed": 8868,
      "Ġphysician": 8869,
      "area": 8870,
      "ĠÐ½Ðµ": 8871,
      "Ġpipe": 8872,
      "âĢĭ": 8873,
      "Ġmuse": 8874,
      "Ġrepeatedly": 8875,
      "Ġ600": 8876,
      "oro": 8877,
      "Ġarise": 8878,
      "igate": 8879,
      "desc": 8880,
      "olen": 8881,
      "Ġreflection": 8882,
      "Ġjail": 8883,
      "Ġmu": 8884,
      "ĠBerlin": 8885,
      "Ġresidence": 8886,
      "cht": 8887,
      "Ġwing": 8888,
      "Ġedit": 8889,
      "Ġseeds": 8890,
      "Ġguidance": 8891,
      "Ġocean": 8892,
      "nex": 8893,
      "Ã¬": 8894,
      "ĠWin": 8895,
      "ĠSav": 8896,
      "Ġintens": 8897,
      "ogram": 8898,
      "Ġalongside": 8899,
      "Ġchat": 8900,
      "Ġisolation": 8901,
      "Ġvisits": 8902,
      "Ġvisitors": 8903,
      "ounce": 8904,
      "Ġinvestors": 8905,
      "ĠNic": 8906,
      "Ġoccurring": 8907,
      "Ġworker": 8908,
      "Ġreveals": 8909,
      "Ġmemories": 8910,
      "ĠMas": 8911,
      "ĠBra": 8912,
      "fc": 8913,
      "Ġcub": 8914,
      "Ġruled": 8915,
      "ĠNight": 8916,
      "lower": 8917,
      "holders": 8918,
      "Ġraising": 8919,
      "Will": 8920,
      "Ġub": 8921,
      "Ġfert": 8922,
      "jar": 8923,
      "ISA": 8924,
      "Ġtopics": 8925,
      "rogen": 8926,
      "owed": 8927,
      "Ġgovernments": 8928,
      "Ġvotes": 8929,
      "Ġframes": 8930,
      "LP": 8931,
      "olo": 8932,
      "Ġnicht": 8933,
      "Ġlandscape": 8934,
      "final": 8935,
      "binding": 8936,
      "Rad": 8937,
      "ĠmÃ¡s": 8938,
      "Ġarrival": 8939,
      "ĠNaz": 8940,
      "Ġpreferably": 8941,
      "held": 8942,
      "pow": 8943,
      "Ġmock": 8944,
      "Ġentrance": 8945,
      "Ġcrash": 8946,
      "Ġgathered": 8947,
      "rb": 8948,
      "Ð¾Ñģ": 8949,
      "agg": 8950,
      "Ġinches": 8951,
      "ĠAnderson": 8952,
      "Ġlikes": 8953,
      "Ġlum": 8954,
      "Ġmonthly": 8955,
      "watch": 8956,
      "Ġ103": 8957,
      "Ġdimin": 8958,
      "Ġni": 8959,
      "help": 8960,
      "Ġdeclined": 8961,
      "arded": 8962,
      "ĨĴ": 8963,
      "utt": 8964,
      "aton": 8965,
      "Ġhopes": 8966,
      "Ð¸Ðµ": 8967,
      "verted": 8968,
      "Ġconvicted": 8969,
      "Change": 8970,
      "ĠJean": 8971,
      "prison": 8972,
      "bus": 8973,
      "Ġanybody": 8974,
      "Ġmold": 8975,
      "Ġawesome": 8976,
      "ĠNick": 8977,
      "ĠBrad": 8978,
      "hn": 8979,
      "eterm": 8980,
      "ĠRyan": 8981,
      "ĠPakistan": 8982,
      "Jo": 8983,
      "conv": 8984,
      "Ġtransportation": 8985,
      "stop": 8986,
      "Ġtransactions": 8987,
      "ä¼": 8988,
      "Ãµes": 8989,
      "ãģķ": 8990,
      "Ġlabeled": 8991,
      "Ġinfant": 8992,
      "Ġrestrictions": 8993,
      "ĠMill": 8994,
      "ĠAccess": 8995,
      "Ġpacket": 8996,
      "ĠBeach": 8997,
      "framework": 8998,
      "phia": 8999,
      "ĠCoast": 9000,
      "Ġloose": 9001,
      "bur": 9002,
      "ĠInf": 9003,
      "send": 9004,
      "Ġimmigration": 9005,
      "Ġbankruptcy": 9006,
      "enza": 9007,
      "amos": 9008,
      "ĠArizona": 9009,
      "ĠNAS": 9010,
      "ĠParliament": 9011,
      "people": 9012,
      "Ġborrow": 9013,
      "èĢ": 9014,
      "pur": 9015,
      "andy": 9016,
      "Ġsuicide": 9017,
      "Ġsupplies": 9018,
      "ĠÐ³": 9019,
      "ĠIndex": 9020,
      "Ġburning": 9021,
      "game": 9022,
      "ĠCro": 9023,
      "Ġspecify": 9024,
      "Ġdisrupt": 9025,
      "ĠLev": 9026,
      "phal": 9027,
      "Ġbegun": 9028,
      "Ġcategor": 9029,
      "Ġimpression": 9030,
      "arding": 9031,
      "DO": 9032,
      "oln": 9033,
      "Ġthrew": 9034,
      "Ġdin": 9035,
      "Ġconfident": 9036,
      "Ġinstruments": 9037,
      "Ġengagement": 9038,
      "uble": 9039,
      "Ġpad": 9040,
      "Ġblocked": 9041,
      "Ġlumin": 9042,
      "Ġsake": 9043,
      "Ġsurveillance": 9044,
      "Ġanterior": 9045,
      "Christ": 9046,
      "mates": 9047,
      "Ġgenuine": 9048,
      "him": 9049,
      "bind": 9050,
      "ĠKorean": 9051,
      "Ġcoordinate": 9052,
      "Ġfactory": 9053,
      "Ġtact": 9054,
      "adelphia": 9055,
      "alg": 9056,
      "æĢ": 9057,
      "application": 9058,
      "acht": 9059,
      "Ġtwelve": 9060,
      "ĠJordan": 9061,
      "Ġvig": 9062,
      "clock": 9063,
      "Ġ108": 9064,
      "Ġopens": 9065,
      "ĠIslamic": 9066,
      "Ġsuspected": 9067,
      "ĠBul": 9068,
      "Ġhip": 9069,
      "Ġdeny": 9070,
      "Ġpadding": 9071,
      "sters": 9072,
      "Ġyours": 9073,
      "Ġlabels": 9074,
      "ĠTerm": 9075,
      "ĠWild": 9076,
      "iaz": 9077,
      "nl": 9078,
      "Ġwaited": 9079,
      "stage": 9080,
      "ku": 9081,
      "Ġdefeat": 9082,
      "Ġphysically": 9083,
      "Ġholiday": 9084,
      "lat": 9085,
      "Make": 9086,
      "Ġentre": 9087,
      "Ġpars": 9088,
      "Ġdeals": 9089,
      "ĠServer": 9090,
      "Ġnas": 9091,
      "Ġcompatible": 9092,
      "ĠColorado": 9093,
      "Ġtap": 9094,
      "ancers": 9095,
      "Ġartificial": 9096,
      "oes": 9097,
      "Pres": 9098,
      "yers": 9099,
      "Ġdifferently": 9100,
      "WA": 9101,
      "Ġdozen": 9102,
      "Ġbriefly": 9103,
      "Ġunderwent": 9104,
      "Ġglob": 9105,
      "Ġassistant": 9106,
      "prim": 9107,
      "ĠNature": 9108,
      "ĠAfghan": 9109,
      "Ġbeliefs": 9110,
      "126": 9111,
      "prom": 9112,
      "Ġpushing": 9113,
      "Ġpub": 9114,
      "Ġblame": 9115,
      "ĠIsraeli": 9116,
      "Ġapt": 9117,
      "Ġsuspension": 9118,
      "ÑĬ": 9119,
      "124": 9120,
      "isi": 9121,
      "Ġbonds": 9122,
      "rass": 9123,
      "Ġcrossed": 9124,
      "lan": 9125,
      "Ġeligible": 9126,
      "asia": 9127,
      "itzer": 9128,
      "Ġoffensive": 9129,
      "Ġdont": 9130,
      "ĠCore": 9131,
      "ĠfÃ¼r": 9132,
      "bat": 9133,
      "cha": 9134,
      "ĠMinistry": 9135,
      "Search": 9136,
      "Ġvoting": 9137,
      "General": 9138,
      "Ġlap": 9139,
      "amer": 9140,
      "amo": 9141,
      "diff": 9142,
      "Ġdesert": 9143,
      "ãģ¦ãģĦ": 9144,
      "Ġdelayed": 9145,
      "Ġconspiracy": 9146,
      "Ġlands": 9147,
      "Å¼": 9148,
      "Ġcot": 9149,
      "Ġscenes": 9150,
      "sky": 9151,
      "Ġpointing": 9152,
      "Ġva": 9153,
      "Ġweights": 9154,
      "Ġovernight": 9155,
      "ockey": 9156,
      "Ġeliminate": 9157,
      "ĠPlace": 9158,
      "Ġbreaks": 9159,
      "tor": 9160,
      "Ġexport": 9161,
      "Ġlucky": 9162,
      "Ġconfused": 9163,
      "ĠRail": 9164,
      "replace": 9165,
      "äºº": 9166,
      "åĩ": 9167,
      "Ġsquad": 9168,
      "ativ": 9169,
      "ĠLinux": 9170,
      "Ġmaximal": 9171,
      "Ġequipped": 9172,
      "Ġpainting": 9173,
      "éĩ": 9174,
      "ĠAdministration": 9175,
      "ĠÙħ": 9176,
      "zes": 9177,
      "Custom": 9178,
      "oj": 9179,
      "Ġseats": 9180,
      "Ġvoor": 9181,
      "yard": 9182,
      "Ġshortly": 9183,
      "Ġcourses": 9184,
      "Ġprogramme": 9185,
      "three": 9186,
      "Ġfitting": 9187,
      "ĠToronto": 9188,
      "ĠBible": 9189,
      "idi": 9190,
      "ĠAdv": 9191,
      "ressing": 9192,
      "Ġpreventing": 9193,
      "ashes": 9194,
      "Ġmanually": 9195,
      "ulent": 9196,
      "Ġobtaining": 9197,
      "Ġfallen": 9198,
      "Ġdop": 9199,
      "court": 9200,
      "Ġcollapse": 9201,
      "Ġtrends": 9202,
      "Ġcustody": 9203,
      "ĠALL": 9204,
      "Ġcholesterol": 9205,
      "iah": 9206,
      "Ġ1982": 9207,
      "bian": 9208,
      "looking": 9209,
      "plane": 9210,
      "Del": 9211,
      "Ġticket": 9212,
      "Ġdamaged": 9213,
      "Ġshoulders": 9214,
      "enders": 9215,
      "claimed": 9216,
      "Ġincorrect": 9217,
      "Ġleak": 9218,
      "Ġtar": 9219,
      "Ġviolated": 9220,
      "ente": 9221,
      "Ġheading": 9222,
      "ĠKong": 9223,
      "ĠKat": 9224,
      "Ġcaptain": 9225,
      "Ġpeaks": 9226,
      "Ġhill": 9227,
      "Ġvibr": 9228,
      "Ġdisabled": 9229,
      "Ġbron": 9230,
      "oven": 9231,
      "news": 9232,
      "ä¸Ń": 9233,
      "åľ¨": 9234,
      "urer": 9235,
      "ede": 9236,
      "God": 9237,
      "ĠLyn": 9238,
      "Ġ135": 9239,
      "Ø¨": 9240,
      "Ġexcessive": 9241,
      "ĠPBS": 9242,
      "Ġears": 9243,
      "ĠGrant": 9244,
      "Ġdiscount": 9245,
      "Ġstriking": 9246,
      "zone": 9247,
      "itage": 9248,
      "ãĤĵ": 9249,
      "Dem": 9250,
      "Ġscaling": 9251,
      "Ġpublicly": 9252,
      "onomy": 9253,
      "Ġnos": 9254,
      "ĠMars": 9255,
      "Ġpredictions": 9256,
      "NI": 9257,
      "Ġodds": 9258,
      "ennis": 9259,
      "Ġtwe": 9260,
      "Ġpressed": 9261,
      "ĠTax": 9262,
      "ĠOP": 9263,
      "ĠKnow": 9264,
      "ĠNavy": 9265,
      "jet": 9266,
      "Ġstellar": 9267,
      "merce": 9268,
      "Ġspark": 9269,
      "ĠAgency": 9270,
      "walk": 9271,
      "Ġcul": 9272,
      "ĠHarris": 9273,
      "Ġdar": 9274,
      "ãĤ¤": 9275,
[...]
