{
  "version": "1.0",
  "truncation": {
    "direction": "Right",
    "max_length": 64,
    "strategy": "LongestFirst",
    "stride": 0
  },
  "padding": {
    "strategy": "BatchLongest",
    "direction": "Right",
    "pad_to_multiple_of": null,
    "pad_id": 9539,
    "pad_type_id": 0,
    "pad_token": "<|pad|>"
  },
  "added_tokens": [
    {
      "id": 9536,
      "content": "<|begin_of_text|>",
      "single_word": false,
      "lstrip": false,
      "rstrip": false,
      "normalized": false,
      "special": true
    },
    {
      "id": 9537,
      "content": "<|end_of_text|>",
      "single_word": false,
      "lstrip": false,
      "rstrip": false,
      "normalized": false,
      "special": true
    },
    {
      "id": 9538,
      "content": "<|mask|>",
      "single_word": false,
      "lstrip": true,
      "rstrip": false,
      "normalized": false,
      "special": true
    },
    {
      "id": 9539,
      "content": "<|pad|>",
      "single_word": false,
      "lstrip": false,
      "rstrip": false,
      "normalized": false,
      "special": true
    }
  ],
  "normalizer": null,
  "pre_tokenizer": {
    "type": "Sequence",
    "pretokenizers": [
      {
        "type": "Split",
        "pattern": {
          "Regex": "(?i:'s|'t|'re|'ve|'m|'ll|'d)|[^\\r\\n\\p{L}\\p{N}]?\\p{L}+|\\p{N}{1,3}| ?[^\\s\\p{L}\\p{N}]+[\\r\\n]*|\\s*[\\r\\n]+|\\s+(?!\\S)|\\s+"
        },
        "behavior": "Isolated",
        "invert": false
      },
      {
        "type": "ByteLevel",
        "add_prefix_space": false,
        "trim_offsets": true,
        "use_regex": false
      }
    ]
  },
  "post_processor": {
    "type": "Sequence",
    "processors": [
      {
        "type": "ByteLevel",
        "add_prefix_space": true,
        "trim_offsets": false,
        "use_regex": true
      },
      {
        "type": "TemplateProcessing",
        "single": [
          {
            "Sequence": {
              "id": "A",
              "type_id": 0
            }
          },
          {
            "SpecialToken": {
              "id": "<|end_of_text|>",
              "type_id": 0
            }
          }
        ],
        "pair": [
          {
            "Sequence": {
              "id": "A",
              "type_id": 0
            }
          },
          {
            "SpecialToken": {
              "id": "<|begin_of_text|>",
              "type_id": 1
            }
          },
          {
            "Sequence": {
              "id": "B",
              "type_id": 1
            }
          },
          {
            "SpecialToken": {
              "id": "<|end_of_text|>",
              "type_id": 1
            }
          }
        ],
        "special_tokens": {
          "<|begin_of_text|>": {
            "id": "<|begin_of_text|>",
            "ids": [
              9536
            ],
            "tokens": [
              "<|begin_of_text|>"
            ]
          },
          "<|end_of_text|>": {
            "id": "<|end_of_text|>",
            "ids": [
              9537
            ],
            "tokens": [
              "<|end_of_text|>"
            ]
          }
        }
      }
    ]
  },
  "decoder": {
    "type": "ByteLevel",
    "add_prefix_space": true,
    "trim_offsets": true,
    "use_regex": true
  },
  "model": {
    "type": "BPE",
    "dropout": null,
    "unk_token": null,
    "continuing_subword_prefix": null,
    "end_of_word_suffix": null,
    "fuse_unk": false,
    "byte_fallback": false,
    "ignore_merges": true,
    "vocab": {
      "!": 0,
      "\"": 1,
      "#": 2,
      "$": 3,
      "%": 4,
      "&": 5,
      "'": 6,
      "(": 7,
      ")": 8,
      "*": 9,
      "+": 10,
      ",": 11,
      "-": 12,
      ".": 13,
      "/": 14,
      "0": 15,
      "1": 16,
      "2": 17,
      "3": 18,
      "4": 19,
      "5": 20,
      "6": 21,
      "7": 22,
      "8": 23,
      "9": 24,
      ":": 25,
      ";": 26,
      "<": 27,
      "=": 28,
      ">": 29,
      "?": 30,
      "@": 31,
      "A": 32,
      "B": 33,
      "C": 34,
      "D": 35,
      "E": 36,
      "F": 37,
      "G": 38,
      "H": 39,
      "I": 40,
      "J": 41,
      "K": 42,
      "L": 43,
      "M": 44,
      "N": 45,
      "O": 46,
      "P": 47,
      "Q": 48,
      "R": 49,
      "S": 50,
      "T": 51,
      "U": 52,
      "V": 53,
      "W": 54,
      "X": 55,
      "Y": 56,
      "Z": 57,
      "[": 58,
      "\\": 59,
      "]": 60,
      "^": 61,
      "_": 62,
      "`": 63,
      "a": 64,
      "b": 65,
      "c": 66,
      "d": 67,
      "e": 68,
      "f": 69,
      "g": 70,
      "h": 71,
      "i": 72,
      "j": 73,
      "k": 74,
      "l": 75,
      "m": 76,
      "n": 77,
      "o": 78,
      "p": 79,
      "q": 80,
      "r": 81,
      "s": 82,
      "t": 83,
      "u": 84,
      "v": 85,
      "w": 86,
      "x": 87,
      "y": 88,
      "z": 89,
      "{": 90,
      "|": 91,
      "}": 92,
      "~": 93,
      "¡": 94,
      "¢": 95,
      "£": 96,
      "¤": 97,
      "¥": 98,
      "¦": 99,
      "§": 100,
      "¨": 101,
      "©": 102,
      "ª": 103,
      "«": 104,
      "¬": 105,
      "®": 106,
      "¯": 107,
      "°": 108,
      "±": 109,
      "²": 110,
      "³": 111,
      "´": 112,
      "µ": 113,
      "¶": 114,
      "·": 115,
      "¸": 116,
      "¹": 117,
      "º": 118,
      "»": 119,
      "¼": 120,
      "½": 121,
      "¾": 122,
      "¿": 123,
      "À": 124,
      "Á": 125,
      "Â": 126,
      "Ã": 127,
      "Ä": 128,
      "Å": 129,
      "Æ": 130,
      "Ç": 131,
      "È": 132,
      "É": 133,
      "Ê": 134,
      "Ë": 135,
      "Ì": 136,
      "Í": 137,
      "Î": 138,
      "Ï": 139,
      "Ð": 140,
      "Ñ": 141,
      "Ò": 142,
      "Ó": 143,
      "Ô": 144,
      "Õ": 145,
      "Ö": 146,
      "×": 147,
      "Ø": 148,
      "Ù": 149,
      "Ú": 150,
      "Û": 151,
      "Ü": 152,
      "Ý": 153,
      "Þ": 154,
      "ß": 155,
      "à": 156,
      "á": 157,
      "â": 158,
      "ã": 159,
      "ä": 160,
      "å": 161,
      "æ": 162,
      "ç": 163,
      "è": 164,
      "é": 165,
      "ê": 166,
      "ë": 167,
      "ì": 168,
      "í": 169,
      "î": 170,
      "ï": 171,
      "ð": 172,
      "ñ": 173,
      "ò": 174,
      "ó": 175,
      "ô": 176,
      "õ": 177,
      "ö": 178,
      "÷": 179,
      "ø": 180,
      "ù": 181,
      "ú": 182,
      "û": 183,
      "ü": 184,
      "ý": 185,
      "þ": 186,
      "ÿ": 187,
      "Ā": 188,
      "ā": 189,
      "Ă": 190,
      "ă": 191,
      "Ą": 192,
      "ą": 193,
      "Ć": 194,
      "ć": 195,
      "Ĉ": 196,
      "ĉ": 197,
      "Ċ": 198,
      "ċ": 199,
      "Č": 200,
      "č": 201,
      "Ď": 202,
      "ď": 203,
      "Đ": 204,
      "đ": 205,
      "Ē": 206,
      "ē": 207,
      "Ĕ": 208,
      "ĕ": 209,
      "Ė": 210,
      "ė": 211,
      "Ę": 212,
      "ę": 213,
      "Ě": 214,
      "ě": 215,
      "Ĝ": 216,
      "ĝ": 217,
      "Ğ": 218,
      "ğ": 219,
      "Ġ": 220,
      "ġ": 221,
      "Ģ": 222,
      "ģ": 223,
      "Ĥ": 224,
      "ĥ": 225,
      "Ħ": 226,
      "ħ": 227,
      "Ĩ": 228,
      "ĩ": 229,
      "Ī": 230,
      "ī": 231,
      "Ĭ": 232,
      "ĭ": 233,
      "Į": 234,
      "į": 235,
      "İ": 236,
      "ı": 237,
      "Ĳ": 238,
      "ĳ": 239,
      "Ĵ": 240,
      "ĵ": 241,
      "Ķ": 242,
      "ķ": 243,
      "ĸ": 244,
      "Ĺ": 245,
      "ĺ": 246,
      "Ļ": 247,
      "ļ": 248,
      "Ľ": 249,
      "ľ": 250,
      "Ŀ": 251,
      "ŀ": 252,
      "Ł": 253,
      "ł": 254,
      "Ń": 255,
      "in": 256,
      "Ġt": 257,
      "er": 258,
      "on": 259,
      "Ġa": 260,
      "re": 261,
      "at": 262,
      "st": 263,
      "en": 264,
      "or": 265,
      "Ġth": 266,
      "Ġc": 267,
      "le": 268,
      "Ġs": 269,
      "it": 270,
      "an": 271,
      "ar": 272,
      "al": 273,
      "Ġthe": 274,
      "Ġp": 275,
      "Ġf": 276,
      "ou": 277,
      "is": 278,
      "ing": 279,
      "es": 280,
      "Ġw": 281,
      "ion": 282,
      "ed": 283,
      "ic": 284,
      "Ġb": 285,
      "Ġd": 286,
      "et": 287,
      "Ġm": 288,
      "Ġo": 289,
      "ro": 290,
      "as": 291,
      "el": 292,
      "nd": 293,
      "Ġin": 294,
      "Ġh": 295,
      "ent": 296,
      "id": 297,
      "Ġn": 298,
      "am": 299,
      "Ġto": 300,
      "Ġre": 301,
      "--": 302,
      "Ġof": 303,
      "om": 304,
      "im": 305,
      "Ġ(": 306,
      "il": 307,
      "Ġand": 308,
      "ur": 309,
      "se": 310,
      "Ġl": 311,
      "ex": 312,
      "ĠS": 313,
      "ad": 314,
      "Ġ\"": 315,
      "ch": 316,
      "ut": 317,
      "if": 318,
      "em": 319,
      "ol": 320,
      "th": 321,
      "Ġg": 322,
      "ig": 323,
      "iv": 324,
      "ce": 325,
      "od": 326,
      "Ġv": 327,
      "ate": 328,
      "ĠT": 329,
      "ag": 330,
      "ay": 331,
      "ot": 332,
      "us": 333,
      "ĠC": 334,
      "Ġst": 335,
      "ĠI": 336,
      "un": 337,
      "ul": 338,
      "ue": 339,
      "ĠA": 340,
      "ow": 341,
      "Ġ'": 342,
      "ew": 343,
      "Ġ<": 344,
      "ation": 345,
      "Ġfor": 346,
      "ab": 347,
      "ort": 348,
      "um": 349,
      "ame": 350,
      "Ġis": 351,
      "pe": 352,
      "tr": 353,
      "ck": 354,
      "Ġy": 355,
      "ist": 356,
      "he": 357,
      "Ġe": 358,
      "lo": 359,
      "ĠM": 360,
      "Ġbe": 361,
      "ers": 362,
      "Ġon": 363,
      "Ġcon": 364,
      "ap": 365,
      "ub": 366,
      "ĠP": 367,
      "ass": 368,
      "int": 369,
      "ly": 370,
      "Ġ$": 371,
      "av": 372,
      "ir": 373,
      "nt": 374,
      "end": 375,
      "Ġde": 376,
      "ith": 377,
      "out": 378,
      "turn": 379,
      "lic": 380,
      "res": 381,
      "pt": 382,
      "Ġthis": 383,
      "Ġif": 384,
      "ĠD": 385,
      "ver": 386,
      "age": 387,
      "ĠB": 388,
      "Ġthat": 389,
      "ĠR": 390,
      "Ġit": 391,
      "ĠF": 392,
      "Ġr": 393,
      "os": 394,
      "and": 395,
      "Ġas": 396,
      "ke": 397,
      "con": 398,
      "ĠL": 399,
      "qu": 400,
      "lass": 401,
      "Ġwith": 402,
      "iz": 403,
      "de": 404,
      "ĠN": 405,
      "Ġal": 406,
      "op": 407,
      "up": 408,
      "get": 409,
      "ile": 410,
      "Ġan": 411,
      "ata": 412,
      "ore": 413,
      "ri": 414,
      "Ġpro": 415,
      "ter": 416,
      "ain": 417,
      "ĠW": 418,
      "ĠE": 419,
      "Ġcom": 420,
      "Ġreturn": 421,
      "art": 422,
      "ĠH": 423,
      "ack": 424,
      "Ġor": 425,
      "est": 426,
      "ment": 427,
      "ĠG": 428,
      "able": 429,
      "Ġ-": 430,
      "ine": 431,
      "ill": 432,
      "ind": 433,
      "ere": 434,
      "ity": 435,
      "Ġtr": 436,
      "ult": 437,
      "str": 438,
      "Ġyou": 439,
      "Ġnew": 440,
      "Ġj": 441,
      "Ġfrom": 442,
      "Ġex": 443,
      "ĠO": 444,
      "20": 445,
      "oc": 446,
      "Ġse": 447,
      "Ġle": 448,
      ".s": 449,
      "ant": 450,
      "Ġat": 451,
      "Ġch": 452,
      "ave": 453,
      "ang": 454,
      "Ġare": 455,
      "Ġint": 456,
      "âĢĻ": 457,
      "ert": 458,
      "ial": 459,
      "act": 460,
      "ive": 461,
      "ode": 462,
      "ost": 463,
      "Ġclass": 464,
      "Ġnot": 465,
      "og": 466,
      "ord": 467,
      "all": 468,
      "ff": 469,
      "ont": 470,
      "ime": 471,
      "are": 472,
      "ĠU": 473,
      "Ġpr": 474,
      "ies": 475,
      "ize": 476,
      "ure": 477,
      "Ġby": 478,
      "ire": 479,
      "Ġsh": 480,
      "ice": 481,
      "ast": 482,
      "ok": 483,
      "cl": 484,
      "Ġhe": 485,
      "ard": 486,
      "iew": 487,
      "Ġwas": 488,
      "ip": 489,
      "this": 490,
      "Ġu": 491,
      "ĠThe": 492,
      "ide": 493,
      "ace": 494,
      "ib": 495,
      "ac": 496,
      "Ġwe": 497,
      "Ġpublic": 498,
      "ak": 499,
      "ve": 500,
      "ust": 501,
      "que": 502,
      "Ġres": 503,
      "'s": 504,
      "Ġk": 505,
      "ans": 506,
      "yst": 507,
      "Ġi": 508,
      "Ġus": 509,
      "10": 510,
      "one": 511,
      "Ġstr": 512,
      "Ġ&": 513,
      "ach": 514,
      "ell": 515,
      "Ġhave": 516,
      "pon": 517,
      "ĠJ": 518,
      "ign": 519,
      "Ġpl": 520,
      "put": 521,
      "dd": 522,
      "ite": 523,
      "Ġget": 524,
      "cc": 525,
      "In": 526,
      "les": 527,
      "ong": 528,
      "ie": 529,
      "Ġcan": 530,
      "pr": 531,
      "Ġun": 532,
      "row": 533,
      "ber": 534,
      "Ġdo": 535,
      "ll": 536,
      "Ġel": 537,
      "ated": 538,
      "ary": 539,
      "Ġ.": 540,
      "ud": 541,
      "Ġen": 542,
      "te": 543,
      "Ġab": 544,
      "ork": 545,
      "aw": 546,
      "ob": 547,
      "201": 548,
      "app": 549,
      "Ġall": 550,
      "ory": 551,
      "ance": 552,
      "Ġcont": 553,
      "ia": 554,
      "Ġwill": 555,
      "data": 556,
      "ple": 557,
      "Ġyour": 558,
      "Ġout": 559,
      "Ġhas": 560,
      "so": 561,
      "Ġup": 562,
      "Ġdef": 563,
      "Ġbo": 564,
      "ge": 565,
      "per": 566,
      "12": 567,
      "ich": 568,
      "Ġbut": 569,
      "add": 570,
      "quest": 571,
      "ery": 572,
      "ft": 573,
      "ens": 574,
      "ake": 575,
      ".C": 576,
      "Ġgo": 577,
      "ivate": 578,
      "Ġim": 579,
      "Ġset": 580,
      "cri": 581,
      "li": 582,
      ".m": 583,
      "ally": 584,
      "set": 585,
      "ep": 586,
      "âĢĻs": 587,
      "bo": 588,
      "def": 589,
      "Ġme": 590,
      "ec": 591,
      "ĠIn": 592,
      "ph": 593,
      "ence": 594,
      "ink": 595,
      "ug": 596,
      "Ġelse": 597,
      "19": 598,
      "cont": 599,
      "Ġso": 600,
      "Ġlo": 601,
      "pro": 602,
      "ton": 603,
      "ss": 604,
      "own": 605,
      "abel": 606,
      "ous": 607,
      "The": 608,
      "olor": 609,
      "eg": 610,
      "ude": 611,
      "Ġar": 612,
      "ener": 613,
      "ser": 614,
      "11": 615,
      "fer": 616,
      "Ġmore": 617,
      "ations": 618,
      "Ġhis": 619,
      "Ġthey": 620,
      ".S": 621,
      "ĠY": 622,
      "use": 623,
      "ne": 624,
      "io": 625,
      "Ġper": 626,
      "ings": 627,
      "Ġdata": 628,
      "Ġsa": 629,
      "ef": 630,
      "Ġone": 631,
      "eng": 632,
      "Ġdis": 633,
      "Ġname": 634,
      "led": 635,
      "Ġne": 636,
      "Ġend": 637,
      "32": 638,
      "16": 639,
      "cre": 640,
      "ark": 641,
      "Ex": 642,
      "urre": 643,
      "ange": 644,
      "Ġmy": 645,
      "pan": 646,
      "ator": 647,
      "Ġpre": 648,
      "Ġx": 649,
      "15": 650,
      "ov": 651,
      "Ġtheir": 652,
      "tem": 653,
      "com": 654,
      "Ġid": 655,
      "read": 656,
      "Ġwho": 657,
      "Ġtime": 658,
      "Ġman": 659,
      "ry": 660,
      "rop": 661,
      "vel": 662,
      "Ġwhich": 663,
      "Ġany": 664,
      "we": 665,
      "Ġli": 666,
      "gr": 667,
      "Ġno": 668,
      "25": 669,
      "Ġapp": 670,
      "ions": 671,
      "Ġabout": 672,
      "Ġadd": 673,
      "Ġsu": 674,
      "Ġover": 675,
      "000": 676,
      "Ġqu": 677,
      "ca": 678,
      "Ġro": 679,
      "sh": 680,
      "ual": 681,
      "son": 682,
      "new": 683,
      "ern": 684,
      "Ġag": 685,
      "Ġ?": 686,
      "ical": 687,
      "Ġdes": 688,
      "ix": 689,
      "ays": 690,
      "Ġtype": 691,
      "'t": 692,
      "Ġinter": 693,
      "var": 694,
      "Ġpart": 695,
      "30": 696,
      "enc": 697,
      "ra": 698,
      "cho": 699,
      "18": 700,
      "ose": 701,
      "14": 702,
      "Ã©": 703,
      "oll": 704,
      "pos": 705,
      "ng": 706,
      "ates": 707,
      "Ġwork": 708,
      "Ġem": 709,
      "Ġsp": 710,
      "Ġwhen": 711,
      "to": 712,
      "ash": 713,
      "Ġuse": 714,
      "Ġad": 715,
      "ove": 716,
      "rit": 717,
      "Ġoff": 718,
      "Ġother": 719,
      "ms": 720,
      "Ġbeen": 721,
      "Ġte": 722,
      "co": 723,
      "nc": 724,
      "13": 725,
      "Ġ%": 726,
      "ann": 727,
      "ade": 728,
      "100": 729,
      "Ġsup": 730,
      "date": 731,
      "Ġacc": 732,
      "Ġhad": 733,
      "Ġbu": 734,
      "200": 735,
      "ĠRe": 736,
      "Ġwere": 737,
      "Ġfile": 738,
      "Ġwould": 739,
      "ven": 740,
      "iss": 741,
      "Ġour": 742,
      "raw": 743,
      "Ġyear": 744,
      "Ġval": 745,
      "Ġsome": 746,
      "ys": 747,
      "Ġpe": 748,
      "Ġthere": 749,
      "Ġsaid": 750,
      "du": 751,
      "line": 752,
      "Ġher": 753,
      "Ġco": 754,
      "ise": 755,
      "min": 756,
      "ute": 757,
      "ask": 758,
      "Ġlike": 759,
      "ody": 760,
      "Ġlet": 761,
      "Ġam": 762,
      "Ġgr": 763,
      "yp": 764,
      "Ġalso": 765,
      "ĠIt": 766,
      "ific": 767,
      "ors": 768,
      "Ġthan": 769,
      "ating": 770,
      "17": 771,
      "ĠThis": 772,
      "ref": 773,
      "roll": 774,
      "Ġjust": 775,
      "ian": 776,
      "Ġthem": 777,
      "der": 778,
      "...": 779,
      "ement": 780,
      "50": 781,
      "ense": 782,
      "arr": 783,
      "Ġinto": 784,
      "ied": 785,
      "ument": 786,
      "wo": 787,
      "als": 788,
      "Ġwhat": 789,
      "anc": 790,
      "Ġpos": 791,
      "ages": 792,
      "Ġsc": 793,
      "ues": 794,
      "Ġlist": 795,
      "Ġcase": 796,
      "Ġz": 797,
      "let": 798,
      "red": 799,
      "Ġfe": 800,
      "Ġ,": 801,
      "Ġfirst": 802,
      "Ġimport": 803,
      "Ġact": 804,
      "24": 805,
      "ient": 806,
      "cent": 807,
      "Ġonly": 808,
      "mer": 809,
      "Ġ--": 810,
      "Ġop": 811,
      "ank": 812,
      "Ġits": 813,
      "Ġback": 814,
      "Ġneed": 815,
      "Ġcl": 816,
      "Ġsub": 817,
      "Ġla": 818,
      ".\"": 819,
      "Ġstart": 820,
      "ner": 821,
      "ey": 822,
      "Ġent": 823,
      "its": 824,
      "ĠWe": 825,
      "ics": 826,
      "Ġunder": 827,
      "Ġreg": 828,
      "Ġthen": 829,
      "ek": 830,
      "ning": 831,
      "Ġmay": 832,
      "und": 833,
      "Ġhow": 834,
      "40": 835,
      "Ġpeople": 836,
      ".n": 837,
      "Ġind": 838,
      "ĠHe": 839,
      "ful": 840,
      "ole": 841,
      "Ġshould": 842,
      "ier": 843,
      "ote": 844,
      "Ġtest": 845,
      "ting": 846,
      "Ġmake": 847,
      "Ġafter": 848,
      "define": 849,
      "22": 850,
      "Ġright": 851,
      "day": 852,
      "Ġlong": 853,
      "ĠPro": 854,
      "Ġmin": 855,
      "air": 856,
      "ait": 857,
      "IC": 858,
      "Ġph": 859,
      "Ġfl": 860,
      "br": 861,
      "ins": 862,
      ",\"": 863,
      "Pro": 864,
      "Ġshe": 865,
      "Ġexp": 866,
      "Ġpar": 867,
      "Ġread": 868,
      "Ġrel": 869,
      "Ġform": 870,
      "Ġdr": 871,
      "order": 872,
      "play": 873,
      "Ġwant": 874,
      "az": 875,
      "be": 876,
      "Ġnumber": 877,
      "60": 878,
      "Ġcol": 879,
      "Ġkey": 880,
      "ember": 881,
      "Ġtwo": 882,
      "Ġwhere": 883,
      "uch": 884,
      "ger": 885,
      "Ġwhile": 886,
      "23": 887,
      "Ġrec": 888,
      "Ġlook": 889,
      "eter": 890,
      "ager": 891,
      "Ġcould": 892,
      "Ġbr": 893,
      "ends": 894,
      "ures": 895,
      "Ġknow": 896,
      "ets": 897,
      "Ġser": 898,
      "Ġfr": 899,
      "Ġhand": 900,
      "Ġmost": 901,
      "Ġtry": 902,
      "Ġnow": 903,
      "Ġhim": 904,
      "ify": 905,
      "Ġbreak": 906,
      "ren": 907,
      "itt": 908,
      "Ġap": 909,
      "ĠYou": 910,
      "-m": 911,
      "Ġevery": 912,
      "Ð¾": 913,
      "Ġpoint": 914,
      "Ġfil": 915,
      "Ġmod": 916,
      "Ġerror": 917,
      "ah": 918,
      "Ġpol": 919,
      "Ġshow": 920,
      "Ġfind": 921,
      "Ð°": 922,
      "enu": 923,
      "Ġcurrent": 924,
      "Ġused": 925,
      "Ġplay": 926,
      "Ġsee": 927,
      "Ġhelp": 928,
      "Ġthese": 929,
      "Ġpass": 930,
      "Ġdown": 931,
      "Ġeven": 932,
      "ason": 933,
      "Ġbl": 934,
      "Ðµ": 935,
      "Ġob": 936,
      "Ġitem": 937,
      "orn": 938,
      "Ġdon": 939,
      "man": 940,
      "27": 941,
      "tn": 942,
      "He": 943,
      "Ġdid": 944,
      "iver": 945,
      "Ġsm": 946,
      "Ġthrough": 947,
      "che": 948,
      "Ġinv": 949,
      "Ġes": 950,
      "ĠNew": 951,
      "uto": 952,
      "ler": 953,
      "Ġlast": 954,
      "Ġevent": 955,
      "ines": 956,
      "sole": 957,
      "Ġagain": 958,
      "Ġhigh": 959,
      "Ġline": 960,
      "Ġdoes": 961,
      "Ġcr": 962,
      "ars": 963,
      "28": 964,
      "Ġtem": 965,
      "ature": 966,
      "Ġbefore": 967,
      "ale": 968,
      "Ġbecause": 969,
      "roid": 970,
      "ik": 971,
      "reg": 972,
      "ĠDe": 973,
      "Ġstate": 974,
      "Ġcons": 975,
      "att": 976,
      "Ġhere": 977,
      "Ġfinal": 978,
      "Ġdel": 979,
      "26": 980,
      "ĠAnd": 981,
      "Ġrun": 982,
      "ĠX": 983,
      "ym": 984,
      "Ġvery": 985,
      "ces": 986,
      "list": 987,
      "olog": 988,
      "Ġac": 989,
      "Ġmon": 990,
      "Ġway": 991,
      "Ġcall": 992,
      "Ġatt": 993,
      "Ġcal": 994,
      "fr": 995,
      "aj": 996,
      "Ġwell": 997,
      "ĠAs": 998,
      "Ġyears": 999,
      "Ġsim": 1000,
      "mon": 1001,
      "29": 1002,
      "Ġview": 1003,
      "Ġpres": 1004,
      "We": 1005,
      "At": 1006,
      "Ġbel": 1007,
      "Ġmany": 1008,
      "21": 1009,
      "Man": 1010,
      "ender": 1011,
      "Ġbeing": 1012,
      "Ġgood": 1013,
      "Ġusing": 1014,
      "ists": 1015,
      "ĠAl": 1016,
      "Ġgu": 1017,
      "time": 1018,
      "Ġrequest": 1019,
      "Ġchild": 1020,
      "ps": 1021,
      "alk": 1022,
      "by": 1023,
      "Ġperson": 1024,
      "uf": 1025,
      "Ġque": 1026,
      "ident": 1027,
      "ott": 1028,
      "less": 1029,
      "Ġexpect": 1030,
      "urs": 1031,
      "pre": 1032,
      "ma": 1033,
      "Ġsur": 1034,
      "Ġfound": 1035,
      "par": 1036,
      "ains": 1037,
      "Ġpost": 1038,
      "-d": 1039,
      "45": 1040,
      "Ġsl": 1041,
      "Ġsuch": 1042,
      "Ġthink": 1043,
      "qual": 1044,
      "Ġmuch": 1045,
      "uc": 1046,
      "Ġsom": 1047,
      "37": 1048,
      "ãĢĤ": 1049,
      "Ġmed": 1050,
      "org": 1051,
      "ache": 1052,
      "Ġcheck": 1053,
      "the": 1054,
      "ants": 1055,
      "Ġopen": 1056,
      "Ġest": 1057,
      "Ġnext": 1058,
      "ÑĤ": 1059,
      "Ã³": 1060,
      "Ð¸": 1061,
      "Ġcar": 1062,
      "Ġgame": 1063,
      "ision": 1064,
      "Ġeach": 1065,
      "Ġav": 1066,
      "Ġsupport": 1067,
      "rem": 1068,
      "Ġown": 1069,
      "Ġcor": 1070,
      "Ġmem": 1071,
      "ience": 1072,
      "Ġsex": 1073,
      "Ġsign": 1074,
      "Ġet": 1075,
      "ĠApp": 1076,
      "Ġthose": 1077,
      "Ġsystem": 1078,
      "Ġbest": 1079,
      "code": 1080,
      "Ġsame": 1081,
      "Ġdi": 1082,
      "uss": 1083,
      "Ġcreate": 1084,
      "fe": 1085,
      "UN": 1086,
      "ats": 1087,
      "Ġmade": 1088,
      "Ġmark": 1089,
      "yn": 1090,
      "Ġgroup": 1091,
      "Ġfin": 1092,
      "Ġworld": 1093,
      "ty": 1094,
      "Ġprocess": 1095,
      "Ġcre": 1096,
      "arn": 1097,
      "ives": 1098,
      "Ġmain": 1099,
      "Ġcolor": 1100,
      "Ġreport": 1101,
      "Ġtake": 1102,
      "Ġday": 1103,
      "Ġsk": 1104,
      "bers": 1105,
      "Ġcomple": 1106,
      "Ġtop": 1107,
      "Ġfree": 1108,
      "eta": 1109,
      "Ġaction": 1110,
      "not": 1111,
      "Ġindex": 1112,
      "her": 1113,
      "On": 1114,
      "mand": 1115,
      "Ġreal": 1116,
      "land": 1117,
      "leg": 1118,
      "Ġmessage": 1119,
      "ivers": 1120,
      "38": 1121,
      "Ġart": 1122,
      "Ġbetween": 1123,
      "ene": 1124,
      "Ã¡": 1125,
      "ten": 1126,
      "Ġke": 1127,
      "ui": 1128,
      "Ġtable": 1129,
      "sub": 1130,
      "Ġhead": 1131,
      "Ġmust": 1132,
      "Ġorder": 1133,
      "over": 1134,
      "Ġsay": 1135,
      "Ġter": 1136,
      "Ġproduct": 1137,
      "This": 1138,
      "70": 1139,
      "Ġdouble": 1140,
      "Ġplace": 1141,
      "Ġinformation": 1142,
      "Ġweek": 1143,
      "els": 1144,
      "Sh": 1145,
      "come": 1146,
      "Ġsw": 1147,
      "bl": 1148,
      "Ġprogram": 1149,
      "check": 1150,
      "Ġund": 1151,
      "75": 1152,
      "ags": 1153,
      "Ġresponse": 1154,
      "US": 1155,
      "Ġcode": 1156,
      "Ġwithout": 1157,
      "Ġsol": 1158,
      "44": 1159,
      "ĠSo": 1160,
      "Ġstill": 1161,
      "Ġcap": 1162,
      "Ġrep": 1163,
      "ved": 1164,
      ".N": 1165,
      "Ġfield": 1166,
      "col": 1167,
      "Ġcour": 1168,
      "An": 1169,
      "Ġteam": 1170,
      "Ġsecond": 1171,
      "Ġgoing": 1172,
      "39": 1173,
      "Ġfam": 1174,
      "Ġfact": 1175,
      "31": 1176,
      "Al": 1177,
      "Ð½": 1178,
      "ond": 1179,
      "Ġhome": 1180,
      "Ġleft": 1181,
      "Ġdirect": 1182,
      "As": 1183,
      "ret": 1184,
      "ado": 1185,
      "ee": 1186,
      "It": 1187,
      "oute": 1188,
      "Ġallow": 1189,
      "ai": 1190,
      "ane": 1191,
      "no": 1192,
      "sp": 1193,
      "Ġdifferent": 1194,
      "ĠIs": 1195,
      "Ġca": 1196,
      "Ġaround": 1197,
      "Ġreally": 1198,
      "tra": 1199,
      "Ġboth": 1200,
      "arm": 1201,
      "Ġput": 1202,
      "ÑĢ": 1203,
      "ung": 1204,
      "Ġlevel": 1205,
      "ux": 1206,
      "post": 1207,
      "Ġlocal": 1208,
      "ina": 1209,
      "ric": 1210,
      "Ġfa": 1211,
      "Ġquest": 1212,
      "Ġtoo": 1213,
      "Ġgreat": 1214,
      "Ñģ": 1215,
      "ron": 1216,
      "oy": 1217,
      "Ġmonth": 1218,
      "Ġsuper": 1219,
      "bar": 1220,
      "Ġtitle": 1221,
      "Ġmet": 1222,
      "Ġlife": 1223,
      "ĠUS": 1224,
      "Ġcatch": 1225,
      "Ġpay": 1226,
      "Ġchange": 1227,
      "'re": 1228,
      "los": 1229,
      "Ã¤": 1230,
      "ĠNo": 1231,
      "Ġold": 1232,
      "Ġbook": 1233,
      "Ġversion": 1234,
      "Ġthree": 1235,
      "ero": 1236,
      "Ġlaw": 1237,
      "Ġbase": 1238,
      "Ġduring": 1239,
      "tes": 1240,
      "Ġspe": 1241,
      "ves": 1242,
      "Ġagainst": 1243,
      "Ġpower": 1244,
      "ium": 1245,
      "ese": 1246,
      "ique": 1247,
      "erg": 1248,
      "ons": 1249,
      "-t": 1250,
      "sc": 1251,
      "Ã¼": 1252,
      "Ġsuccess": 1253,
      "ched": 1254,
      "Ġdate": 1255,
      "chem": 1256,
      "my": 1257,
      "Ġbig": 1258,
      "era": 1259,
      "Ġpop": 1260,
      "Ġfew": 1261,
      "ÃŃ": 1262,
      "Ġdem": 1263,
      "Ġmatch": 1264,
      "Ġanother": 1265,
      "Ġsit": 1266,
      "Ġcare": 1267,
      "Ġeffect": 1268,
      "ending": 1269,
      "For": 1270,
      "Ġfun": 1271,
      "start": 1272,
      "Ġleg": 1273,
      "Ġservice": 1274,
      "Ġsince": 1275,
      "Ġnon": 1276,
      "Ġlos": 1277,
      "Ġfull": 1278,
      "Ġturn": 1279,
      "Ġbody": 1280,
      "199": 1281,
      "pi": 1282,
      "Ġsomething": 1283,
      "Ġstand": 1284,
      "Ġavailable": 1285,
      "mt": 1286,
      "Ġblock": 1287,
      "Ġkeep": 1288,
      "open": 1289,
      "Ġthings": 1290,
      "Ġred": 1291,
      "js": 1292,
      "Ġcontrol": 1293,
      "Ġcome": 1294,
      "Ġsource": 1295,
      "odes": 1296,
      "Ġask": 1297,
      "Ġemail": 1298,
      "47": 1299,
      "Ġbusiness": 1300,
      "ta": 1301,
      "Ġrequired": 1302,
      "500": 1303,
      ".,": 1304,
      "ts": 1305,
      "af": 1306,
      "Ġmight": 1307,
      "Ġnever": 1308,
      "ada": 1309,
      "ĠHow": 1310,
      "Ġhard": 1311,
      "Ġintern": 1312,
      "mod": 1313,
      "Ġcalled": 1314,
      "Ġcho": 1315,
      "ird": 1316,
      "Ġoptions": 1317,
      "You": 1318,
      "ety": 1319,
      "Ġsmall": 1320,
      "Ġaccess": 1321,
      "Ġjob": 1322,
      "ĠThere": 1323,
      "Ġaddress": 1324,
      "oo": 1325,
      "atur": 1326,
      "Ġlittle": 1327,
      "Ġfri": 1328,
      "Ġport": 1329,
      "eh": 1330,
      "Ġstatus": 1331,
      "aim": 1332,
      "Ġos": 1333,
      "Ġupdate": 1334,
      "aff": 1335,
      "95": 1336,
      "Ġlink": 1337,
      "me": 1338,
      "Ġgiven": 1339,
      "Ġbetter": 1340,
      "Ġfeel": 1341,
      "enn": 1342,
      "Ġalready": 1343,
      "Ġincluding": 1344,
      "outer": 1345,
      "Ġalways": 1346,
      "If": 1347,
      "vis": 1348,
      "Ġgot": 1349,
      "Ġless": 1350,
      "Ġaccount": 1351,
      "Ġder": 1352,
      "Ġlot": 1353,
      "Ġbit": 1354,
      "Ġfollowing": 1355,
      "Ġsure": 1356,
      "Ġprom": 1357,
      "Ġsearch": 1358,
      "Ġer": 1359,
      "aut": 1360,
      "ling": 1361,
      "bed": 1362,
      "Ġsays": 1363,
      "Ġtemp": 1364,
      "Ġrest": 1365,
      "Ġver": 1366,
      "Ġdie": 1367,
      "Ġsite": 1368,
      "No": 1369,
      "rec": 1370,
      "Ġwon": 1371,
      "Ġvideo": 1372,
      "adi": 1373,
      "'m": 1374,
      "Ġcert": 1375,
      "Ġcell": 1376,
      "ari": 1377,
      "Ġplayer": 1378,
      "ais": 1379,
      "Ġcost": 1380,
      "ks": 1381,
      "Ġtotal": 1382,
      "Ġclear": 1383,
      "uro": 1384,
      "Ġtechn": 1385,
      "Ġrow": 1386,
      "Ġseem": 1387,
      "Ġshort": 1388,
      "ĠNot": 1389,
      "Ġcompany": 1390,
      "Ġdone": 1391,
      "Ġhealth": 1392,
      "status": 1393,
      "inc": 1394,
      "Ġchildren": 1395,
      "Ġdays": 1396,
      "-l": 1397,
      "irm": 1398,
      "omb": 1399,
      "Ġonline": 1400,
      "au": 1401,
      "where": 1402,
      "Ġreason": 1403,
      "Ġwithin": 1404,
      "une": 1405,
      "Ġcent": 1406,
      "Ġarr": 1407,
      "Ġbro": 1408,
      "Ġschool": 1409,
      "ava": 1410,
      "42": 1411,
      "Ġinclude": 1412,
      "!!": 1413,
      "Ġann": 1414,
      "Ġstop": 1415,
      "Ġlater": 1416,
      "Ġlove": 1417,
      "oud": 1418,
      "Ġable": 1419,
      "Ġmen": 1420,
      "Ã¶": 1421,
      "Ġgive": 1422,
      "amb": 1423,
      "Ġcondition": 1424,
      "ĠCan": 1425,
      "do": 1426,
      "ze": 1427,
      "Ġimportant": 1428,
      "Ġda": 1429,
      "Ġfamily": 1430,
      "Ġoption": 1431,
      "Ġexist": 1432,
      "ica": 1433,
      "'ve": 1434,
      "Ġoffer": 1435,
      "Ġwater": 1436,
      "Ġche": 1437,
      "ĠMy": 1438,
      "Ġstep": 1439,
      "ances": 1440,
      "300": 1441,
      "active": 1442,
      "ama": 1443,
      "Ġgovernment": 1444,
      "ĠID": 1445,
      "And": 1446,
      "Ð»": 1447,
      "Ġtimes": 1448,
      "Ġfour": 1449,
      "Ġfar": 1450,
      "Ġpresent": 1451,
      "uest": 1452,
      "Ġbas": 1453,
      "ifier": 1454,
      "Ġlib": 1455,
      "Ġroom": 1456,
      "Ġonce": 1457,
      "Ġresults": 1458,
      "Ġcontinue": 1459,
      "Ġtalk": 1460,
      "eb": 1461,
      "Ġmass": 1462,
      "Ġmean": 1463,
      "Ġuntil": 1464,
      "Ġmarket": 1465,
      "Ġarea": 1466,
      "uit": 1467,
      "Ġmus": 1468,
      "Ġkind": 1469,
      "mb": 1470,
      "Ġlight": 1471,
      "uk": 1472,
      "ohn": 1473,
      "Ġside": 1474,
      "Ġbased": 1475,
      "Ġplan": 1476,
      "unk": 1477,
      "Ġaway": 1478,
      "iod": 1479,
      "Ã§": 1480,
      "izer": 1481,
      "Ġnear": 1482,
      "alt": 1483,
      "Ġcountry": 1484,
      "Ġauthor": 1485,
      "Ġspecific": 1486,
      "ones": 1487,
      "ĠDo": 1488,
      "Ġalong": 1489,
      "Ġexpress": 1490,
      "env": 1491,
      "Ġbegin": 1492,
      "Ġwin": 1493,
      "Ã³n": 1494,
      "Ġthing": 1495,
      "Ġwhy": 1496,
      "Ġdoesn": 1497,
      "ij": 1498,
      "Ġsingle": 1499,
      "ley": 1500,
      "create": 1501,
      "Ġrights": 1502,
      "Ġpo": 1503,
      "Ġant": 1504,
      "ĠWhen": 1505,
      "Ġwomen": 1506,
      "Ã£": 1507,
      "Ġpossible": 1508,
      "Ġdidn": 1509,
      "Ġsent": 1510,
      "Ġenc": 1511,
      "Ġcommand": 1512,
      "Ġrecent": 1513,
      "ĠMay": 1514,
      "Ġmoney": 1515,
      "Ġtold": 1516,
      "current": 1517,
      "Ġauto": 1518,
      "ĠState": 1519,
      "da": 1520,
      "Ġworking": 1521,
      "Ġwindow": 1522,
      "Ġleast": 1523,
      "ĠGeneral": 1524,
      "Ġrecord": 1525,
      "Ġdat": 1526,
      "Ġmaking": 1527,
      "ued": 1528,
      "emp": 1529,
      "\".": 1530,
      "Ġclose": 1531,
      "Ġpercent": 1532,
      "Ġpast": 1533,
      "Ġmove": 1534,
      "Ġpat": 1535,
      "Ġvi": 1536,
      "'ll": 1537,
      "Ġcity": 1538,
      "ario": 1539,
      "Ġtell": 1540,
      "Ġfont": 1541,
      "ĠAm": 1542,
      "Ġcourse": 1543,
      "Ġlate": 1544,
      "Ġamount": 1545,
      "ino": 1546,
      "Ġì": 1547,
      "Ġben": 1548,
      "Ġenough": 1549,
      "now": 1550,
      "Ġlooking": 1551,
      "Ġhold": 1552,
      "vo": 1553,
      "yc": 1554,
      "Ġpot": 1555,
      "go": 1556,
      "Ġlow": 1557,
      "Ġpara": 1558,
      "Ġprice": 1559,
      "Ġtoday": 1560,
      "Ġpolit": 1561,
      "Ġattack": 1562,
      "ana": 1563,
      "Ġstory": 1564,
      "Ġmeet": 1565,
      "Ġden": 1566,
      "change": 1567,
      "ici": 1568,
      "na": 1569,
      "Ġsort": 1570,
      "pare": 1571,
      "Ġthought": 1572,
      "umer": 1573,
      "Ġdet": 1574,
      "Ġabove": 1575,
      "Ġquestion": 1576,
      "Ġword": 1577,
      "Ġprovide": 1578,
      "Ġresearch": 1579,
      "Ã£o": 1580,
      "Ġcover": 1581,
      "Ġwhether": 1582,
      "Ġhaving": 1583,
      "lem": 1584,
      "ney": 1585,
      "show": 1586,
      "lev": 1587,
      "ades": 1588,
      "ause": 1589,
      "Ġfre": 1590,
      "Ġlarge": 1591,
      "ias": 1592,
      "top": 1593,
      "Ġweb": 1594,
      "Ġdev": 1595,
      "Ġdeal": 1596,
      "Ġproblem": 1597,
      "Ġthough": 1598,
      "Ġpoints": 1599,
      "Ġever": 1600,
      "Ġservices": 1601,
      "Ġactually": 1602,
      "Ġmillion": 1603,
      "Ġconc": 1604,
      "ios": 1605,
      "Ġunderstand": 1606,
      "Ġhappen": 1607,
      "Ġles": 1608,
      "Ġoften": 1609,
      "Ġinfo": 1610,
      "ony": 1611,
      "Ġspace": 1612,
      "umb": 1613,
      "Ġpassword": 1614,
      "Ġstore": 1615,
      "ĠWhat": 1616,
      "sm": 1617,
      "New": 1618,
      "Ġdetails": 1619,
      "Ġprob": 1620,
      "Ġface": 1621,
      "Ġsave": 1622,
      "dev": 1623,
      "Ġitems": 1624,
      "ien": 1625,
      "Ġmar": 1626,
      "Ġmajor": 1627,
      "Ġexpected": 1628,
      "Ġyet": 1629,
      "Ġfood": 1630,
      "ites": 1631,
      "Ġmembers": 1632,
      "Ġbar": 1633,
      "comm": 1634,
      "Ġsend": 1635,
      "ros": 1636,
      "fa": 1637,
      "Ġbecome": 1638,
      "ĠUnited": 1639,
      "Ġmakes": 1640,
      "Ġglobal": 1641,
      "Ġcontact": 1642,
      "Ġcertain": 1643,
      "iÃ³n": 1644,
      "iles": 1645,
      "oss": 1646,
      "ster": 1647,
      "Ġnews": 1648,
      "cel": 1649,
      "Ġmedia": 1650,
      "Ġfail": 1651,
      "Ġblack": 1652,
      "ĠAmerican": 1653,
      "Ġadded": 1654,
      "Ġbuy": 1655,
      "Ġcame": 1656,
      "Ġdelete": 1657,
      "Ġcard": 1658,
      "Ġgetting": 1659,
      "Ġclaim": 1660,
      "Ġair": 1661,
      "ements": 1662,
      "Ġenter": 1663,
      "Ġlocation": 1664,
      "Ġnight": 1665,
      "Ġdoing": 1666,
      "Ġpick": 1667,
      "Ġwatch": 1668,
      "Ġhuman": 1669,
      "Ġtax": 1670,
      "Ġgirl": 1671,
      "Ġbox": 1672,
      "rel": 1673,
      "Ġhouse": 1674,
      "Ġtrack": 1675,
      "je": 1676,
      "ĠJohn": 1677,
      "Ġce": 1678,
      "Ġapplication": 1679,
      "any": 1680,
      "Ñĥ": 1681,
      "Ġwait": 1682,
      "ĠÃł": 1683,
      "Ġtogether": 1684,
      "Ġothers": 1685,
      "Ġfund": 1686,
      "Ġseveral": 1687,
      "ii": 1688,
      "Ġil": 1689,
      "main": 1690,
      "elt": 1691,
      "ĠUniversity": 1692,
      "cer": 1693,
      "ales": 1694,
      "ny": 1695,
      "Ġesc": 1696,
      "What": 1697,
      "Ġhistory": 1698,
      "Ġdu": 1699,
      "unt": 1700,
      "Ġfuture": 1701,
      "Ġmode": 1702,
      "There": 1703,
      "Ġtook": 1704,
      "Ġgames": 1705,
      "Is": 1706,
      "Ġbad": 1707,
      "Ġneeds": 1708,
      "Ġknown": 1709,
      "Ġseen": 1710,
      "51": 1711,
      "ume": 1712,
      "Ġborder": 1713,
      "Ġlive": 1714,
      "temp": 1715,
      "iet": 1716,
      "Ġge": 1717,
      "eme": 1718,
      "Ġhope": 1719,
      "find": 1720,
      "Ġyoung": 1721,
      "Ġstudy": 1722,
      "ili": 1723,
      "Ġnetwork": 1724,
      "rest": 1725,
      "Ġlimit": 1726,
      "Ġcut": 1727,
      "Ġcou": 1728,
      "Ġwent": 1729,
      "Ġfire": 1730,
      "Ġacross": 1731,
      "Ġofficial": 1732,
      "Ġvisit": 1733,
      "Ġreceived": 1734,
      "Ġmonths": 1735,
      "ico": 1736,
      "ĠÃ©": 1737,
      "ball": 1738,
      "One": 1739,
      "pha": 1740,
      "Ġcomment": 1741,
      "But": 1742,
      "uel": 1743,
      "Ġbackground": 1744,
      "Ġseries": 1745,
      "Ġhot": 1746,
      "Ġbill": 1747,
      "Ġcomes": 1748,
      "Ġremove": 1749,
      "met": 1750,
      "Ġfront": 1751,
      "uy": 1752,
      "Ġdig": 1753,
      "hr": 1754,
      "Ġgen": 1755,
      "Ġste": 1756,
      "Ġselected": 1757,
      "Ġaccording": 1758,
      "rag": 1759,
      "Ġactiv": 1760,
      "Ġvirtual": 1761,
      "aur": 1762,
      "Ġanything": 1763,
      "Ġhours": 1764,
      "Ġwar": 1765,
      "Ġearly": 1766,
      "Ġcenter": 1767,
      "Ġago": 1768,
      "Ġdue": 1769,
      "Ġpor": 1770,
      "Ġcannot": 1771,
      "Ġwhite": 1772,
      "Ġperiod": 1773,
      "Ġscreen": 1774,
      "'d": 1775,
      "Ġnet": 1776,
      "ĠStates": 1777,
      "Ġneg": 1778,
      "Ġcommon": 1779,
      "ges": 1780,
      "Ġaccept": 1781,
      "Ġrandom": 1782,
      "Ġhit": 1783,
      "ria": 1784,
      "atal": 1785,
      "Ġamong": 1786,
      "Ġdeb": 1787,
      "ha": 1788,
      "Ġanswer": 1789,
      "Ġage": 1790,
      "Ñı": 1791,
      "Ġfive": 1792,
      "53": 1793,
      "Ġfriend": 1794,
      "ows": 1795,
      "dis": 1796,
      "zy": 1797,
      "Ġtre": 1798,
      "la": 1799,
      "ĠYork": 1800,
      "Ġdiscuss": 1801,
      "Ġissue": 1802,
      "Ġland": 1803,
      "Ġsal": 1804,
      "Ġworks": 1805,
      "Ġhalf": 1806,
      "Ġpolice": 1807,
      "ua": 1808,
      "Ġempty": 1809,
      "Ġeverything": 1810,
      "Ġnothing": 1811,
      "Ġrunning": 1812,
      "por": 1813,
      "ĠCity": 1814,
      "ĠWest": 1815,
      "Ġna": 1816,
      "Ġsomeone": 1817,
      "ato": 1818,
      "Ġshare": 1819,
      "Ġur": 1820,
      "ĠWorld": 1821,
      "How": 1822,
      "Ġchanges": 1823,
      "Ġpersonal": 1824,
      "Ġevents": 1825,
      "za": 1826,
      "Ġneeded": 1827,
      "Ġfight": 1828,
      "Ġein": 1829,
      "Ġrate": 1830,
      "inner": 1831,
      "Ġtw": 1832,
      "cd": 1833,
      "ĠMr": 1834,
      "Ġcorrect": 1835,
      "Ġfall": 1836,
      "Ġdevelopment": 1837,
      "Ġsi": 1838,
      "ving": 1839,
      "Ġbelieve": 1840,
      "ns": 1841,
      "So": 1842,
      "Ġminutes": 1843,
      "Ġtaken": 1844,
      "aced": 1845,
      "Ġisn": 1846,
      "Ġson": 1847,
      "Ġum": 1848,
      "Ġmoment": 1849,
      "Ġbring": 1850,
      "Ã¨": 1851,
      "Ġtrying": 1852,
      "Ġmember": 1853,
      "acc": 1854,
      "Ġboard": 1855,
      "Ġsus": 1856,
      "Ġplease": 1857,
      "bit": 1858,
      "Ġtypes": 1859,
      "When": 1860,
      "Ġedit": 1861,
      "ĠEurope": 1862,
      "ille": 1863,
      "Ġinstead": 1864,
      "Ġfilm": 1865,
      "Ġphone": 1866,
      "Ġactive": 1867,
      "delete": 1868,
      "Ġmo": 1869,
      "Ġdeath": 1870,
      "Ġarticle": 1871,
      "rodu": 1872,
      "Ñĭ": 1873,
      "ka": 1874,
      "Ġsell": 1875,
      "rip": 1876,
      "Ġfeature": 1877,
      "Ġvia": 1878,
      "Ġlim": 1879,
      "block": 1880,
      "Ġcomplete": 1881,
      "Ġgeneral": 1882,
      "Ġasked": 1883,
      "ores": 1884,
      "SP": 1885,
      "ÅĤ": 1886,
      "rap": 1887,
      "Ġparty": 1888,
      "Ġnormal": 1889,
      "Ġfurther": 1890,
      "Ġmusic": 1891,
      "Ġtaking": 1892,
      "ĠAfter": 1893,
      "Ġfailed": 1894,
      "ba": 1895,
      "Ġterm": 1896,
      "has": 1897,
      "Ġpotential": 1898,
      "lim": 1899,
      "ague": 1900,
      "-year": 1901,
      "pat": 1902,
      "ĠHouse": 1903,
      "Ġconditions": 1904,
      "-to": 1905,
      "Ġfavor": 1906,
      "ĠNow": 1907,
      "Ġmer": 1908,
      "Ġloss": 1909,
      "net": 1910,
      "Ġissues": 1911,
      "Ġstay": 1912,
      "Ġdom": 1913,
      "Ġlower": 1914,
      "ief": 1915,
      "Ġformer": 1916,
      "Ġsix": 1917,
      "ida": 1918,
      "ald": 1919,
      "Ġrather": 1920,
      "Ġbuilding": 1921,
      "Ġquestions": 1922,
      "Ġje": 1923,
      "Ġcas": 1924,
      "Ġsecurity": 1925,
      "Ġhowever": 1926,
      "Ġinside": 1927,
      "Ġpresident": 1928,
      "Ġtag": 1929,
      "Ġattempt": 1930,
      "Ġfriends": 1931,
      "ĠNorth": 1932,
      "ello": 1933,
      "That": 1934,
      "Ðº": 1935,
      "ĠPresident": 1936,
      "Ġcampaign": 1937,
      "Ġalt": 1938,
      "Ġenergy": 1939,
      "Ġseg": 1940,
      "Ġhor": 1941,
      "iers": 1942,
      "can": 1943,
      "Ġbehind": 1944,
      "ÑĮ": 1945,
      "long": 1946,
      "Ġwanted": 1947,
      "lt": 1948,
      "eline": 1949,
      "ĠWill": 1950,
      "Ġpolicy": 1951,
      "Ġthird": 1952,
      "Ġbed": 1953,
      "ĠInc": 1954,
      "Ġserv": 1955,
      "Ġhar": 1956,
      "Ġtraining": 1957,
      "icht": 1958,
      "Ġmag": 1959,
      "Ġrelease": 1960,
      "ĠSouth": 1961,
      "ando": 1962,
      "sk": 1963,
      "Ġoutside": 1964,
      "gn": 1965,
      "ises": 1966,
      "Ġground": 1967,
      "Ġpour": 1968,
      "Ġtree": 1969,
      "iam": 1970,
      "Ġshows": 1971,
      "Ġball": 1972,
      "Ġfast": 1973,
      "ante": 1974,
      "Ġfit": 1975,
      "Ġpolitical": 1976,
      "card": 1977,
      "och": 1978,
      "Ġindustry": 1979,
      "Ġextra": 1980,
      "Ġreported": 1981,
      "Ġwrong": 1982,
      "Ġseems": 1983,
      "Ġunit": 1984,
      "Ġtakes": 1985,
      "Ġappear": 1986,
      "Ġdifficult": 1987,
      "Ġcoming": 1988,
      "Ġsettings": 1989,
      "iqu": 1990,
      "Ġpretty": 1991,
      "Ġlonger": 1992,
      "Ġmenu": 1993,
      "Ġcurrently": 1994,
      "Ġactual": 1995,
      "Ġfix": 1996,
      "Ġcases": 1997,
      "My": 1998,
      "ĠSE": 1999,
      "ĠNational": 2000,
      "ara": 2001,
      "ĠÐ¿": 2002,
      "Ġhigher": 2003,
      "cr": 2004,
      "ĠGoogle": 2005,
      "Ġuna": 2006,
      "Ġprogress": 2007,
      "Ġmid": 2008,
      "ĠMicrosoft": 2009,
      "Ġdim": 2010,
      "Ġadditional": 2011,
      "Ġnumbers": 2012,
      "Ġsound": 2013,
      "Ġstatement": 2014,
      "Ġalert": 2015,
      "Ġsoon": 2016,
      "Ġë": 2017,
      "Ġlas": 2018,
      "endar": 2019,
      "ÄĻ": 2020,
      "Ġchoose": 2021,
      "how": 2022,
      "ĠAmerica": 2023,
      "Ġoffice": 2024,
      "den": 2025,
      "Ġnote": 2026,
      "Ã¼r": 2027,
      "ester": 2028,
      "uz": 2029,
      "Ġgroups": 2030,
      "Ġve": 2031,
      "ĠPlease": 2032,
      "Ġwoman": 2033,
      "Ġgets": 2034,
      "igr": 2035,
      "Ġsem": 2036,
      "-up": 2037,
      "Ġcause": 2038,
      "Ġmultiple": 2039,
      "ido": 2040,
      "Ġreceive": 2041,
      "ÐµÐ½": 2042,
      "Ġincrease": 2043,
      "Ġleave": 2044,
      "-n": 2045,
      "Ġbre": 2046,
      "Ġnotice": 2047,
      "Ġstandard": 2048,
      "Ġstates": 2049,
      "Ġnational": 2050,
      "Ġproblems": 2051,
      "istor": 2052,
      "ste": 2053,
      "Ġforce": 2054,
      "Ġprevent": 2055,
      "apan": 2056,
      "ador": 2057,
      "Top": 2058,
      "po": 2059,
      "ãĢģ": 2060,
      "bum": 2061,
      "ians": 2062,
      "Ġliving": 2063,
      "Ġok": 2064,
      "IX": 2065,
      "Ã©s": 2066,
      "ĠNews": 2067,
      "remove": 2068,
      "erry": 2069,
      "ares": 2070,
      "Do": 2071,
      "ĠÑģ": 2072,
      "Ġpopular": 2073,
      "cal": 2074,
      "Ġdir": 2075,
      "Ġallowed": 2076,
      "Ġtrain": 2077,
      "Ġsil": 2078,
      "Ġtechnology": 2079,
      "should": 2080,
      "Ġmit": 2081,
      "Ġaverage": 2082,
      "ĠMarch": 2083,
      "fin": 2084,
      "Ġcourt": 2085,
      "Ð²": 2086,
      "Ġdecision": 2087,
      "Ġsaw": 2088,
      "Ġsaying": 2089,
      "Ġanyone": 2090,
      "Ġsong": 2091,
      "Ġchanged": 2092,
      "Ãª": 2093,
      "Please": 2094,
      "à¤": 2095,
      "Ġkill": 2096,
      "Ġdrug": 2097,
      "Ġconvert": 2098,
      "Ġmat": 2099,
      "Ġplus": 2100,
      "aste": 2101,
      "Ġready": 2102,
      "Ġsense": 2103,
      "ĠJune": 2104,
      "Ġlatest": 2105,
      "Ġregion": 2106,
      "Ġreach": 2107,
      "ados": 2108,
      "Ġweeks": 2109,
      "Ġlost": 2110,
      "ani": 2111,
      "Ġhimself": 2112,
      "Ġdog": 2113,
      "pir": 2114,
      "Ġpaper": 2115,
      "Ġstaff": 2116,
      "ja": 2117,
      "pu": 2118,
      "Ġoil": 2119,
      "Ġstock": 2120,
      "Ġdead": 2121,
      "dom": 2122,
      "Ġrules": 2123,
      "ula": 2124,
      "mar": 2125,
      "ĠChina": 2126,
      "Ġplaying": 2127,
      "Ġcouple": 2128,
      "command": 2129,
      "Ġroad": 2130,
      "urt": 2131,
      "ych": 2132,
      "Ġheld": 2133,
      "Ġtab": 2134,
      "ano": 2135,
      "Ã±": 2136,
      "Ġmachine": 2137,
      "Ġoperation": 2138,
      "men": 2139,
      "zen": 2140,
      "ura": 2141,
      "Ġsch": 2142,
      "Ġmovie": 2143,
      "Ġsec": 2144,
      "Ø§": 2145,
      "Ġwasn": 2146,
      "aciÃ³n": 2147,
      "Ġjud": 2148,
      "Ġrot": 2149,
      "Ġpen": 2150,
      "ĠJuly": 2151,
      "Card": 2152,
      "Ġlegal": 2153,
      "Ġten": 2154,
      "Ġgoes": 2155,
      "Ġmis": 2156,
      "des": 2157,
      "91": 2158,
      "ĠÐ²": 2159,
      "acion": 2160,
      "ĠApril": 2161,
      "Ġtravel": 2162,
      "Ġpassed": 2163,
      "Ġbus": 2164,
      "ĠCenter": 2165,
      "Ġprec": 2166,
      "ĠSan": 2167,
      "Ġcountries": 2168,
      "kt": 2169,
      "Ġqual": 2170,
      "idad": 2171,
      "ĠPM": 2172,
      "ci": 2173,
      "Äħ": 2174,
      "Ġlooks": 2175,
      "Ġreleased": 2176,
      "ĠTV": 2177,
      "inq": 2178,
      "ael": 2179,
      "Ġfinancial": 2180,
      "Ġthreat": 2181,
      "Ã§Ã£o": 2182,
      "Ġou": 2183,
      "Ġrecently": 2184,
      "Ġreturned": 2185,
      "Ġseek": 2186,
      "Ġsystems": 2187,
      "Å¼": 2188,
      "ris": 2189,
      "bon": 2190,
      "pite": 2191,
      "-based": 2192,
      "ordin": 2193,
      "Ġusually": 2194,
      "Ġist": 2195,
      "Ġcustomer": 2196,
      "odo": 2197,
      "Ġplant": 2198,
      "Ġchance": 2199,
      "Ġord": 2200,
      "Ñĩ": 2201,
      "Ġroute": 2202,
      "hi": 2203,
      "After": 2204,
      "Ġcontr": 2205,
      "Ġprimary": 2206,
      "Ġbi": 2207,
      "Red": 2208,
      "Ġleaders": 2209,
      "Ġgun": 2210,
      "Ġupdated": 2211,
      "Ġinform": 2212,
      "ala": 2213,
      "Ġhab": 2214,
      "ĠDay": 2215,
      "ĠOver": 2216,
      "Ġled": 2217,
      "uri": 2218,
      "gl": 2219,
      "Ġbank": 2220,
      "Ġhands": 2221,
      "ota": 2222,
      "Am": 2223,
      "Ġsens": 2224,
      "Ġremember": 2225,
      "cout": 2226,
      "Ġenv": 2227,
      "Ġpark": 2228,
      "Ġsen": 2229,
      "uts": 2230,
      "inn": 2231,
      "aling": 2232,
      "conf": 2233,
      "Ġmiddle": 2234,
      "ĠAugust": 2235,
      "Ġquickly": 2236,
      "ho": 2237,
      "Ġcop": 2238,
      "Ġgreen": 2239,
      "comment": 2240,
      "Ġune": 2241,
      "ĠKing": 2242,
      "ora": 2243,
      "Ġir": 2244,
      "Ġelection": 2245,
      "illa": 2246,
      "Ġsetting": 2247,
      "Ġhappy": 2248,
      "Ġcamera": 2249,
      "cons": 2250,
      "ita": 2251,
      "ĠCounty": 2252,
      "Ġmilitary": 2253,
      "Ġsale": 2254,
      "non": 2255,
      "rim": 2256,
      "-old": 2257,
      "Ġtown": 2258,
      "Ġslow": 2259,
      "Ġblue": 2260,
      "ago": 2261,
      "Ġcustomers": 2262,
      "Ġdark": 2263,
      "si": 2264,
      "ĠEast": 2265,
      "Ġpackage": 2266,
      "ione": 2267,
      "Ġplayed": 2268,
      "mo": 2269,
      "ito": 2270,
      "Ġdeliver": 2271,
      "Ãł": 2272,
      "Ġcomputer": 2273,
      "Ġpas": 2274,
      "Ġmobile": 2275,
      "pass": 2276,
      "Ġha": 2277,
      "Ġleading": 2278,
      "Ġzu": 2279,
      "Ġinvolved": 2280,
      "Ġeyes": 2281,
      "Ġnice": 2282,
      "Ġfloor": 2283,
      "ĠUK": 2284,
      "Ġwish": 2285,
      "Ġstage": 2286,
      "igen": 2287,
      "Ġmeeting": 2288,
      "Ġworked": 2289,
      "iny": 2290,
      "Ð¼": 2291,
      "cha": 2292,
      "Ġang": 2293,
      "Ġhour": 2294,
      "Ġspeak": 2295,
      "Ġseconds": 2296,
      "Ġinternational": 2297,
      "iate": 2298,
      "rd": 2299,
      "ĠWashington": 2300,
      "Ġsituation": 2301,
      "ette": 2302,
      "Ġvon": 2303,
      "Ġblood": 2304,
      "Ġphoto": 2305,
      "Ġgave": 2306,
      "Ġshot": 2307,
      "ĠAir": 2308,
      "Ġmorning": 2309,
      "Ġtrade": 2310,
      "wer": 2311,
      "Ġsy": 2312,
      "Ġpiece": 2313,
      "ran": 2314,
      "va": 2315,
      "ini": 2316,
      "Ġcam": 2317,
      "pa": 2318,
      "ÑģÑĤ": 2319,
      "ĠFriday": 2320,
      "Ġbuf": 2321,
      "Ġnov": 2322,
      "Ġdas": 2323,
      "Ġheard": 2324,
      "Ġfair": 2325,
      "Ġsales": 2326,
      "save": 2327,
      "ki": 2328,
      "ĠUN": 2329,
      "Ġplans": 2330,
      "Ãº": 2331,
      "call": 2332,
      "Ġcredit": 2333,
      "orge": 2334,
      "Ġdifference": 2335,
      "Ġtried": 2336,
      "send": 2337,
      "Ġreports": 2338,
      "ĠStreet": 2339,
      "ellig": 2340,
      "Äĥ": 2341,
      "ĠÐ½": 2342,
      "elle": 2343,
      "Can": 2344,
      "Ð¾Ð²": 2345,
      "arty": 2346,
      "ona": 2347,
      "Ġcapital": 2348,
      "Ġhear": 2349,
      "emo": 2350,
      "oi": 2351,
      "Ġcalls": 2352,
      "ga": 2353,
      "ĠIndia": 2354,
      "Ġing": 2355,
      "Ġpet": 2356,
      "Ġcharge": 2357,
      "lich": 2358,
      "Ġarm": 2359,
      "Ġstar": 2360,
      "Ġfederal": 2361,
      "Ġcarry": 2362,
      "ĠIsrael": 2363,
      "Ġearlier": 2364,
      "Ġtim": 2365,
      "Ġtemper": 2366,
      "ĠDavid": 2367,
      "Ġwants": 2368,
      "Ġpicture": 2369,
      "-de": 2370,
      "Ġpull": 2371,
      "ente": 2372,
      "Ġgas": 2373,
      "Ġkids": 2374,
      "Ġshown": 2375,
      "ella": 2376,
      "Ġlat": 2377,
      "pet": 2378,
      "ĠCanada": 2379,
      "They": 2380,
      "Ġdans": 2381,
      "Ġhair": 2382,
      "Ġcu": 2383,
      "ped": 2384,
      "Ġpow": 2385,
      "ĠPaul": 2386,
      "ĠTop": 2387,
      "Ġvote": 2388,
      "Ġfine": 2389,
      "car": 2390,
      "Ġaltern": 2391,
      "make": 2392,
      "Ġfavorite": 2393,
      "Ġhappened": 2394,
      "oms": 2395,
      "Ġnamed": 2396,
      "Ġrock": 2397,
      "Ð´": 2398,
      "Ġeconomic": 2399,
      "Ġrace": 2400,
      "Ġphysical": 2401,
      "Ġremoved": 2402,
      "Ġlooked": 2403,
      "aturday": 2404,
      "Ġdro": 2405,
      "Ġtowards": 2406,
      "Ġuns": 2407,
      "ih": 2408,
      "Ġwall": 2409,
      "Ġnearly": 2410,
      "ĠMonday": 2411,
      "Ġsun": 2412,
      "Ġbul": 2413,
      "Ġmyself": 2414,
      "Ġpopulation": 2415,
      "ĠCalifornia": 2416,
      "\"I": 2417,
      "uesday": 2418,
      "Ġcosts": 2419,
      "Ġlaunch": 2420,
      "Ġband": 2421,
      "Ã¡s": 2422,
      "ett": 2423,
      "Ġimmediately": 2424,
      "zer": 2425,
      "Ġfigure": 2426,
      "eller": 2427,
      "Ġpoll": 2428,
      "Ġgiving": 2429,
      "Ġbillion": 2430,
      "Ġple": 2431,
      "ĠObama": 2432,
      "Ġpa": 2433,
      "Ġanti": 2434,
      "ĠLondon": 2435,
      "ĠCourt": 2436,
      "ena": 2437,
      "Ġzero": 2438,
      "Ġpaid": 2439,
      "Ġincreased": 2440,
      "ĠfÃ¼r": 2441,
      "ursday": 2442,
      "Ġmaximum": 2443,
      "Ġforeign": 2444,
      "Ġpan": 2445,
      "Ġtour": 2446,
      "Ġauf": 2447,
      "Ġannounced": 2448,
      "rie": 2449,
      "Ġsupported": 2450,
      "rier": 2451,
      "ige": 2452,
      "Ġpressure": 2453,
      "rian": 2454,
      "ĠSunday": 2455,
      "iger": 2456,
      "Ġthinking": 2457,
      "Ġsets": 2458,
      "eder": 2459,
      "jo": 2460,
      "Ġpool": 2461,
      "nesday": 2462,
      "Ġrap": 2463,
      "Ð°Ð½": 2464,
      "Ġworkers": 2465,
      "Ġmaster": 2466,
      "Ġstories": 2467,
      "inese": 2468,
      "Ġsteps": 2469,
      "Ġofficials": 2470,
      "Ġgar": 2471,
      "ĠAT": 2472,
      "Ġspent": 2473,
      "ÅĽ": 2474,
      "Ġprincip": 2475,
      "Ġmissing": 2476,
      "Ġwife": 2477,
      "Ġtalking": 2478,
      "Ġlocated": 2479,
      "Ġcards": 2480,
      "Ġpers": 2481,
      "Ġkilled": 2482,
      "ÃŃa": 2483,
      "Ġsin": 2484,
      "ĠdÃ©": 2485,
      "Ġhop": 2486,
      "Ġmil": 2487,
      "Ġdemand": 2488,
      "Ġplaces": 2489,
      "Ġma": 2490,
      "Ġagree": 2491,
      "Ġpod": 2492,
      "ĠEuropean": 2493,
      "?\"": 2494,
      "chen": 2495,
      "ima": 2496,
      "Ġdirector": 2497,
      "Ġyield": 2498,
      "Ġrestaur": 2499,
      "duc": 2500,
      "iki": 2501,
      "Ġgirls": 2502,
      "Ġsocket": 2503,
      "Ġprices": 2504,
      "dk": 2505,
      "Ġreset": 2506,
      "ĠÐ¸": 2507,
      "ĠTuesday": 2508,
      "Ġguys": 2509,
      "ÐµÑĢ": 2510,
      "Ġinternet": 2511,
      "Ġpurchase": 2512,
      "Ġaren": 2513,
      "Ġfish": 2514,
      "??": 2515,
      "Ġjo": 2516,
      "Ġleader": 2517,
      "More": 2518,
      "ĠÐº": 2519,
      "Ġconfirm": 2520,
      "Ġcouldn": 2521,
      "Ġaudio": 2522,
      "Ġspot": 2523,
      "lig": 2524,
      "ete": 2525,
      "Ġfresh": 2526,
      "Ġmoved": 2527,
      "ĠSaturday": 2528,
      "Äĩ": 2529,
      "Ġpul": 2530,
      "Ġhundred": 2531,
      "Ġtransaction": 2532,
      "ĠIndian": 2533,
      "ni": 2534,
      "ji": 2535,
      "ya": 2536,
      "Your": 2537,
      "Ġlargest": 2538,
      "Ġqui": 2539,
      "Ġng": 2540,
      "Ġsing": 2541,
      "Ġsuit": 2542,
      "Ġjump": 2543,
      "Ġsmart": 2544,
      "Ġassist": 2545,
      "ĠThursday": 2546,
      "Ġbur": 2547,
      "ĠÐ´": 2548,
      "ĠJames": 2549,
      "-se": 2550,
      "Ġrates": 2551,
      "Ġbon": 2552,
      "Ð¾Ð»": 2553,
      "igo": 2554,
      "Ġadding": 2555,
      "Ġmach": 2556,
      "ĠBritish": 2557,
      "eler": 2558,
      "Ġprev": 2559,
      "Ġclosed": 2560,
      "Ã©e": 2561,
      "ky": 2562,
      "Ġau": 2563,
      "ĠWednesday": 2564,
      "olver": 2565,
      "ola": 2566,
      "alar": 2567,
      "She": 2568,
      "å¹´": 2569,
      "Ġappears": 2570,
      "Ġcomo": 2571,
      "ali": 2572,
      "Ġtele": 2573,
      "ben": 2574,
      "Ġreasons": 2575,
      "Ð°ÑĤ": 2576,
      "Ġaf": 2577,
      "While": 2578,
      "Ġcolors": 2579,
      "kin": 2580,
      "ĠCongress": 2581,
      "Ġarrest": 2582,
      "Ð¿": 2583,
      "ĠIndex": 2584,
      "Ġinterested": 2585,
      "Ġrent": 2586,
      "Ġalbum": 2587,
      "Ġbudget": 2588,
      "PA": 2589,
      "dt": 2590,
      "Ġgone": 2591,
      "Ġbattle": 2592,
      "uda": 2593,
      "Ġstation": 2594,
      "Ġshop": 2595,
      "Ġeight": 2596,
      "Ġmail": 2597,
      "but": 2598,
      "Ġseven": 2599,
      "Ġvolume": 2600,
      "Ġtit": 2601,
      "Ġcompleted": 2602,
      "Ġspr": 2603,
      "mi": 2604,
      "Ġpayment": 2605,
      "ĠApple": 2606,
      "Ġboy": 2607,
      "Ġbalance": 2608,
      "ÐµÑĤ": 2609,
      "Ġeat": 2610,
      "Ġtro": 2611,
      "Ġclaims": 2612,
      "arc": 2613,
      "ander": 2614,
      "Ġwarm": 2615,
      "which": 2616,
      "gi": 2617,
      "ĠÐ¾": 2618,
      "bi": 2619,
      "contr": 2620,
      "Ġsett": 2621,
      "abe": 2622,
      "ĠSecurity": 2623,
      "Ġcat": 2624,
      "ĠTexas": 2625,
      "anta": 2626,
      "Ġwouldn": 2627,
      "Ġship": 2628,
      "ela": 2629,
      "iques": 2630,
      "Ġahead": 2631,
      "Ġpun": 2632,
      "fc": 2633,
      "Ġtransfer": 2634,
      "Ġgay": 2635,
      "Ġol": 2636,
      "Ġquarter": 2637,
      "yan": 2638,
      "zi": 2639,
      "aine": 2640,
      "Ġcash": 2641,
      "ĠRussia": 2642,
      "Ġsan": 2643,
      "Some": 2644,
      "pop": 2645,
      "Ġtend": 2646,
      "elen": 2647,
      "Ġsoft": 2648,
      "Ġhighest": 2649,
      "ĠWhy": 2650,
      "Ġforces": 2651,
      "hol": 2652,
      "Ġposted": 2653,
      "Ġremains": 2654,
      "Ġcin": 2655,
      "mat": 2656,
      "Ġstarts": 2657,
      "Ġruns": 2658,
      "uler": 2659,
      "Ġdefinitely": 2660,
      "Ġsigned": 2661,
      "Ġult": 2662,
      "Ġdress": 2663,
      "ĠRussian": 2664,
      "ches": 2665,
      "unes": 2666,
      "ÙĦ": 2667,
      "agen": 2668,
      "Ġshowed": 2669,
      "ĠBank": 2670,
      "produ": 2671,
      "Ġul": 2672,
      "una": 2673,
      "ugar": 2674,
      "Ġopening": 2675,
      "Ġhappens": 2676,
      "di": 2677,
      "Ġwaiting": 2678,
      "Ġeconomy": 2679,
      "ĠFrench": 2680,
      "Ġstreet": 2681,
      "Ġkept": 2682,
      "ju": 2683,
      "olly": 2684,
      "Ġê": 2685,
      "Ġut": 2686,
      "Ġcentral": 2687,
      "Ġonto": 2688,
      "Ġfactory": 2689,
      "Ġmal": 2690,
      "Ġreached": 2691,
      "Ġmir": 2692,
      "kan": 2693,
      "Ġfat": 2694,
      "Ġprotest": 2695,
      "ils": 2696,
      "Ġserve": 2697,
      "zone": 2698,
      "Ġlang": 2699,
      "endo": 2700,
      "iro": 2701,
      "Ġpros": 2702,
      "ĠAre": 2703,
      "gu": 2704,
      "rm": 2705,
      "Ġdies": 2706,
      "Ġdos": 2707,
      "izz": 2708,
      "Ġton": 2709,
      "Ġbaby": 2710,
      "Ġattacks": 2711,
      "Ġhospital": 2712,
      "encia": 2713,
      "Ġnicht": 2714,
      "uer": 2715,
      "Ġspeech": 2716,
      "Ġwarn": 2717,
      "Ġinvestigation": 2718,
      "Ġdespite": 2719,
      "chain": 2720,
      "Ġregarding": 2721,
      "Ġresolve": 2722,
      "ira": 2723,
      "Ã¢": 2724,
      "Ġupdates": 2725,
      "Ġtoward": 2726,
      "Ġlisten": 2727,
      "Car": 2728,
      "activ": 2729,
      "æķ°": 2730,
      "Ġvir": 2731,
      "Ġefforts": 2732,
      "Ġbranch": 2733,
      "ĠAmericans": 2734,
      "Ġradio": 2735,
      "Ġhat": 2736,
      "Ġoffered": 2737,
      "æĹ¥": 2738,
      "Ġpeace": 2739,
      "Ġpi": 2740,
      "Ġban": 2741,
      "istan": 2742,
      "Ð·": 2743,
      "Ġfootball": 2744,
      "Ġbag": 2745,
      "Ġmac": 2746,
      "amente": 2747,
      "Ġpin": 2748,
      "Ġti": 2749,
      "Ġhaven": 2750,
      "Ġweekend": 2751,
      "oon": 2752,
      "ye": 2753,
      "Ġvous": 2754,
      "Ġshowing": 2755,
      "cher": 2756,
      "Ġdefense": 2757,
      "Ġbes": 2758,
      "Ð¾ÑĢ": 2759,
      "Where": 2760,
      "ĠCouncil": 2761,
      "idade": 2762,
      "Ġrich": 2763,
      "sa": 2764,
      "ista": 2765,
      "Ġagency": 2766,
      "Ġtrial": 2767,
      "Ġplaced": 2768,
      "Ġdan": 2769,
      "Ġweather": 2770,
      "Ġseeing": 2771,
      "Ġcancel": 2772,
      "Ġagreement": 2773,
      "Ġfi": 2774,
      "Ġcandidate": 2775,
      "ĠBay": 2776,
      "ania": 2777,
      "Ġviolence": 2778,
      "ema": 2779,
      "hat": 2780,
      "Ġstick": 2781,
      "Ġmas": 2782,
      "Ġfav": 2783,
      "eras": 2784,
      "Ġapplied": 2785,
      "Ġcold": 2786,
      "Ġsand": 2787,
      "Ġrid": 2788,
      "Ġentre": 2789,
      "Ġexchange": 2790,
      "Ġdocuments": 2791,
      "-P": 2792,
      "rend": 2793,
      "ati": 2794,
      "when": 2795,
      "Ġshut": 2796,
      "Ġtemperature": 2797,
      "Ġmetal": 2798,
      "Ġll": 2799,
      "ko": 2800,
      "you": 2801,
      "ĠrÃ©": 2802,
      "Ġprison": 2803,
      "ĠRepublican": 2804,
      "Ð¸ÑĤ": 2805,
      "bor": 2806,
      "çļĦ": 2807,
      "Ġbeat": 2808,
      "Ġcancer": 2809,
      "Ġsea": 2810,
      "Ġaus": 2811,
      "oston": 2812,
      "bes": 2813,
      "Ġmess": 2814,
      "Ġtraffic": 2815,
      "ĠEngland": 2816,
      "Ġta": 2817,
      "Ġofficer": 2818,
      "Ġopinion": 2819,
      "Ġautomatically": 2820,
      "ĠMinister": 2821,
      "stop": 2822,
      "Ġmi": 2823,
      "Ġhotel": 2824,
      "oz": 2825,
      "Ð¾Ð´": 2826,
      "Ġputs": 2827,
      "Ġdeck": 2828,
      "Ġbin": 2829,
      "Ġidentity": 2830,
      "Ã´": 2831,
      "acer": 2832,
      "Ġtra": 2833,
      "ĠFlorida": 2834,
      "xa": 2835,
      "Ġofficers": 2836,
      "Ġaccounts": 2837,
      "ĠFrance": 2838,
      "uj": 2839,
      "Ġnom": 2840,
      "Ġpieces": 2841,
      "Ġbusinesses": 2842,
      "Ġjour": 2843,
      "ÐµÐ½Ð¸": 2844,
      "Ġdelivery": 2845,
      "enda": 2846,
      "Ġschedule": 2847,
      "Hello": 2848,
      "Ġarticles": 2849,
      "Ġwest": 2850,
      "Ġwid": 2851,
      "Ġavec": 2852,
      "æľĪ": 2853,
      "Ġtu": 2854,
      "Ġcrime": 2855,
      "bel": 2856,
      "Ġkitchen": 2857,
      "-out": 2858,
      "azz": 2859,
      "Ġdaughter": 2860,
      "Ġsouth": 2861,
      "ĠEU": 2862,
      "anda": 2863,
      "Ġeine": 2864,
      "esso": 2865,
      "Ġris": 2866,
      "Ġsports": 2867,
      "lu": 2868,
      "-pro": 2869,
      "Ġdriving": 2870,
      "Ġpropos": 2871,
      "Ġwear": 2872,
      "Ġice": 2873,
      "kr": 2874,
      "ĠGermany": 2875,
      "Ġanimal": 2876,
      "Ġmais": 2877,
      "Ġprepar": 2878,
      "Ġrom": 2879,
      "prev": 2880,
      "Ġgod": 2881,
      "ĠSenate": 2882,
      "Ġweapons": 2883,
      "pol": 2884,
      "Ġmurder": 2885,
      "Ġbright": 2886,
      "Ġsie": 2887,
      "akt": 2888,
      "Ġcrash": 2889,
      "Ð±": 2890,
      "iva": 2891,
      "Will": 2892,
      "Ġwind": 2893,
      "Ġsam": 2894,
      "Ġholding": 2895,
      "Ġsupposed": 2896,
      "vi": 2897,
      "Ġholds": 2898,
      "news": 2899,
      "wa": 2900,
      "Ġrise": 2901,
      "Ġlisted": 2902,
      "olo": 2903,
      "Ġoccurred": 2904,
      "Ġsz": 2905,
      "Ġaux": 2906,
      "Ġartist": 2907,
      "Ġflat": 2908,
      "Ġchecked": 2909,
      "ĠPolice": 2910,
      "ÐµÐ¼": 2911,
      "Ġwatching": 2912,
      "Ġblank": 2913,
      "ez": 2914,
      "World": 2915,
      "Ġzone": 2916,
      "Ġverify": 2917,
      "ono": 2918,
      "Ġcer": 2919,
      "tre": 2920,
      "Ġorders": 2921,
      "ĠAfrica": 2922,
      "Ùħ": 2923,
      "Ġchief": 2924,
      "Ġtom": 2925,
      "Ġcharges": 2926,
      "ĠBoston": 2927,
      "Ġfilled": 2928,
      "Ġnorth": 2929,
      "Ġtermin": 2930,
      "Ġber": 2931,
      "asi": 2932,
      "Why": 2933,
      "ĠMuslim": 2934,
      "Ġlie": 2935,
      "Ġprime": 2936,
      "ti": 2937,
      "dy": 2938,
      "ĠIran": 2939,
      "Ġju": 2940,
      "Ã©t": 2941,
      "uen": 2942,
      "Ġprocedure": 2943,
      "Ġends": 2944,
      "bus": 2945,
      "Ġexplain": 2946,
      "Ġeste": 2947,
      "iat": 2948,
      "Ġkid": 2949,
      "Ġyang": 2950,
      "ÑĨ": 2951,
      "Ġvent": 2952,
      "uan": 2953,
      "plan": 2954,
      "Ã©n": 2955,
      "zz": 2956,
      "amento": 2957,
      "aria": 2958,
      "Ġshooting": 2959,
      "iner": 2960,
      "Ġlocations": 2961,
      "Ñħ": 2962,
      "Ġped": 2963,
      "Ġmine": 2964,
      "Ġchair": 2965,
      "Ġele": 2966,
      "Ġfunds": 2967,
      "uce": 2968,
      "ila": 2969,
      "Ġcup": 2970,
      "Ġrob": 2971,
      "Ġsport": 2972,
      "ische": 2973,
      "king": 2974,
      "Ġsurvey": 2975,
      "hab": 2976,
      "Ġmel": 2977,
      "amos": 2978,
      "ami": 2979,
      "Ġuma": 2980,
      "Ġran": 2981,
      "Ġentered": 2982,
      "Ġich": 2983,
      "prec": 2984,
      "Ġdoctor": 2985,
      "ĠCentral": 2986,
      "Ġputting": 2987,
      "Ġprefer": 2988,
      "Ġals": 2989,
      "\"We": 2990,
      "lan": 2991,
      "Ġrating": 2992,
      "Ġrestaurant": 2993,
      "isa": 2994,
      "Ġconfirmed": 2995,
      "Ġhearing": 2996,
      "Ġmouth": 2997,
      "oria": 2998,
      "Ġod": 2999,
      "Ġbought": 3000,
      "Ġmoves": 3001,
      "Ġcoffee": 3002,
      "Ġfighting": 3003,
      "nie": 3004,
      "ĠÑĤ": 3005,
      "ĠMaster": 3006,
      "ateur": 3007,
      "Ġwed": 3008,
      "Ġmes": 3009,
      "Ġadvanced": 3010,
      "Ġpal": 3011,
      "Ġtruck": 3012,
      "Ġbroken": 3013,
      "Ġmarriage": 3014,
      "iento": 3015,
      "ĠÐ·": 3016,
      "Ġkom": 3017,
      "Ġissued": 3018,
      "Ġleaves": 3019,
      "Ġexecutive": 3020,
      "Ġnu": 3021,
      "Ġtwice": 3022,
      "ĠmÃ¡s": 3023,
      "Ġdrag": 3024,
      "Ġsed": 3025,
      "Ġbot": 3026,
      "ende": 3027,
      "Ġlay": 3028,
      "ĠWhere": 3029,
      "Ġflight": 3030,
      "Ġstated": 3031,
      "Ġeast": 3032,
      "åį": 3033,
      "lf": 3034,
      "Ġplane": 3035,
      "uard": 3036,
      "itz": 3037,
      "Ġfell": 3038,
      "Ġfee": 3039,
      "reh": 3040,
      "Ø±": 3041,
      "Ð»Ð¸": 3042,
      "Ġtv": 3043,
      "Ġplays": 3044,
      "Ġdiscount": 3045,
      "ĠIraq": 3046,
      "adas": 3047,
      "Ġdomin": 3048,
      "orno": 3049,
      "Ġru": 3050,
      "cy": 3051,
      "Ġtrading": 3052,
      "Ãµ": 3053,
      "Ġva": 3054,
      "Ġrain": 3055,
      "Ġdollars": 3056,
      "Ġrequested": 3057,
      "Ġintelligence": 3058,
      "Ġrat": 3059,
      "Ġnuclear": 3060,
      "Ġcrisis": 3061,
      "Ġstanding": 3062,
      "Ġauthorities": 3063,
      "Ġunion": 3064,
      "aret": 3065,
      "ĠÐ¼": 3066,
      "Ġnie": 3067,
      "Ġbeach": 3068,
      "imo": 3069,
      "Ġprofit": 3070,
      "Ġera": 3071,
      "Ġho": 3072,
      "Ã¡n": 3073,
      "Ġcurrency": 3074,
      "Ġclassic": 3075,
      "ĠÃ¨": 3076,
      "Ġaccident": 3077,
      "Ġcharged": 3078,
      "iones": 3079,
      "Ġwalking": 3080,
      "ifer": 3081,
      "Ġordered": 3082,
      "Ġevening": 3083,
      "Ġarrived": 3084,
      "-mail": 3085,
      "ĠPay": 3086,
      "Ġking": 3087,
      "ĠHelp": 3088,
      "Ġabuse": 3089,
      "Ġchemical": 3090,
      "Ġorient": 3091,
      "Ġsob": 3092,
      "ika": 3093,
      "Are": 3094,
      "Ġnotification": 3095,
      "Ġgoogle": 3096,
      "lie": 3097,
      "Ġmand": 3098,
      "-ch": 3099,
      "ungen": 3100,
      "Two": 3101,
      "æĺ": 3102,
      "çĶ¨": 3103,
      "Ġnine": 3104,
      "Ġsending": 3105,
      "Ġdebt": 3106,
      "Ġconcerned": 3107,
      "Ġaccepted": 3108,
      "Ġsongs": 3109,
      "uent": 3110,
      "zt": 3111,
      "Ġsitting": 3112,
      "ãĥ¼": 3113,
      "Ġarms": 3114,
      "Ġmarkets": 3115,
      "Ġvictim": 3116,
      "Ġfourth": 3117,
      "ĠStandard": 3118,
      "Ġapproved": 3119,
      "Ġsnow": 3120,
      "ÙĨ": 3121,
      "Ġtodo": 3122,
      "Ġsel": 3123,
      "Ġpel": 3124,
      "Ġillegal": 3125,
      "Ġci": 3126,
      "Ġbuying": 3127,
      "Ġmu": 3128,
      "Ġfort": 3129,
      "Ġnue": 3130,
      "aus": 3131,
      "ĠKorea": 3132,
      "hal": 3133,
      "Ġride": 3134,
      "Ġunable": 3135,
      "Ġnos": 3136,
      "elly": 3137,
      "Ġadvance": 3138,
      "Ñİ": 3139,
      "pio": 3140,
      "Ġshopping": 3141,
      "Ġsigns": 3142,
      "ĠJones": 3143,
      "Ġja": 3144,
      "actual": 3145,
      "Ġbird": 3146,
      "osa": 3147,
      "aire": 3148,
      "hen": 3149,
      "uv": 3150,
      "iser": 3151,
      "Ġwave": 3152,
      "iche": 3153,
      "Ã¨re": 3154,
      "anz": 3155,
      "alendar": 3156,
      "Ġprove": 3157,
      "ÐµÐ»": 3158,
      "ku": 3159,
      "Ð¹": 3160,
      "Ã¨s": 3161,
      "ÑĪ": 3162,
      "gar": 3163,
      "Ġcum": 3164,
      "Ġeating": 3165,
      "Ġplastic": 3166,
      "Ġpand": 3167,
      "Ġmarried": 3168,
      "Ð¾Ð¼": 3169,
      "Ġwearing": 3170,
      "Ġstatements": 3171,
      "Ã³w": 3172,
      "Ġtrouble": 3173,
      "ĠMexico": 3174,
      "Mr": 3175,
      "idi": 3176,
      "Ġaid": 3177,
      "Ġfaces": 3178,
      "iti": 3179,
      "Ġalle": 3180,
      "Ġrobot": 3181,
      "Ġreceiving": 3182,
      "Ġchecks": 3183,
      "itar": 3184,
      "Ġaz": 3185,
      "Ġanywhere": 3186,
      "Ġoder": 3187,
      "ĠnÃ£o": 3188,
      "nam": 3189,
      "Ġtrees": 3190,
      "Ġhier": 3191,
      "Ġvictims": 3192,
      "iana": 3193,
      "Ġble": 3194,
      "Ġtelevision": 3195,
      "aciones": 3196,
      "Ġfees": 3197,
      "Ġwel": 3198,
      "aga": 3199,
      "Ġfacility": 3200,
      "Ġhappening": 3201,
      "Ġhasn": 3202,
      "nen": 3203,
      "Ġpaying": 3204,
      "Ġarrested": 3205,
      "ĠPrime": 3206,
      "abb": 3207,
      "alo": 3208,
      "uh": 3209,
      "mente": 3210,
      "imm": 3211,
      "what": 3212,
      "eur": 3213,
      "Ġsind": 3214,
      "aya": 3215,
      "Ġdogs": 3216,
      "Ġdelivered": 3217,
      "à¥": 3218,
      "ĠSyria": 3219,
      "ring": 3220,
      "Ġwerden": 3221,
      "Ġmachines": 3222,
      "ĠStock": 3223,
      "Ãµes": 3224,
      "ÙĪ": 3225,
      "agra": 3226,
      "ova": 3227,
      "ĠsiÄĻ": 3228,
      "Ġvotes": 3229,
      "Help": 3230,
      "aza": 3231,
      "ĠÃ¤": 3232,
      "Ġlights": 3233,
      "aman": 3234,
      "Ġminister": 3235,
      "Ġnombre": 3236,
      "zo": 3237,
      "Ġgest": 3238,
      "Ġdot": 3239,
      "Ġbomb": 3240,
      "sup": 3241,
      "Microsoft": 3242,
      "Ġindustrial": 3243,
      "Ġba": 3244,
      "Ġmad": 3245,
      "ìĿ´": 3246,
      "itÃ©": 3247,
      "iente": 3248,
      "Ġemergency": 3249,
      "æĪĲ": 3250,
      "Ġbodies": 3251,
      "Ġsky": 3252,
      "Could": 3253,
      "Ġhurt": 3254,
      "Ġplanned": 3255,
      "oment": 3256,
      "dim": 3257,
      "Ġsolar": 3258,
      "ĠØ§": 3259,
      "Ġbike": 3260,
      "aÃ§Ã£o": 3261,
      "har": 3262,
      "Ġhits": 3263,
      "ĠâĤ¬": 3264,
      "ĠVirginia": 3265,
      "Ġassistance": 3266,
      "Ġboys": 3267,
      "Ġtech": 3268,
      "iel": 3269,
      "Ð¾ÑĤ": 3270,
      "Ġmeat": 3271,
      "Hi": 3272,
      "éĹ": 3273,
      "åĲį": 3274,
      "ĠÐ½Ð°": 3275,
      "iano": 3276,
      "ÐµÐ´": 3277,
      "Ġtid": 3278,
      "ÐºÐ°": 3279,
      "Ġshouldn": 3280,
      "ëĭ¤": 3281,
      "Ġrepeat": 3282,
      "uten": 3283,
      "ìŀ": 3284,
      "Ġcalendar": 3285,
      "Ġstrike": 3286,
      "orem": 3287,
      "Ġgang": 3288,
      "Ġaccused": 3289,
      "Ġdire": 3290,
      "ĠBritain": 3291,
      "isi": 3292,
      "Ġtur": 3293,
      "Ġpulled": 3294,
      "ego": 3295,
      "Ġshares": 3296,
      "Ġrig": 3297,
      "asse": 3298,
      "Ġholiday": 3299,
      "Ġbei": 3300,
      "Ġchecking": 3301,
      "Ġjest": 3302,
      "Ġsole": 3303,
      "Ġpresidential": 3304,
      "Ø¯": 3305,
      "aka": 3306,
      "stra": 3307,
      "æĹ¶": 3308,
      "idos": 3309,
      "Ġstands": 3310,
      "Ġafternoon": 3311,
      "lag": 3312,
      "Ġwie": 3313,
      "ĠAustralian": 3314,
      "ĠSW": 3315,
      "Ġlimits": 3316,
      "Ġarmy": 3317,
      "uma": 3318,
      "Ġkan": 3319,
      "Ġpowers": 3320,
      "Ġtalks": 3321,
      "Ġstorm": 3322,
      "onna": 3323,
      "fall": 3324,
      "owa": 3325,
      "agues": 3326,
      "Ð¸Ñģ": 3327,
      "Ġga": 3328,
      "Ġcha": 3329,
      "åĨ": 3330,
      "Ġsolo": 3331,
      "Ġgi": 3332,
      "zie": 3333,
      "Ġscheduled": 3334,
      "Ġgarden": 3335,
      "anto": 3336,
      "iar": 3337,
      "Ġty": 3338,
      "idades": 3339,
      "Ġkeeps": 3340,
      "ori": 3341,
      "Ġkeyboard": 3342,
      "Ġcoast": 3343,
      "Ġyesterday": 3344,
      "Ð½Ð¾": 3345,
      "Ġnoticed": 3346,
      "Ð»Ñı": 3347,
      "Ã©es": 3348,
      "Ġglo": 3349,
      "Ġze": 3350,
      "bat": 3351,
      "apis": 3352,
      "Ġyellow": 3353,
      "Ġopposition": 3354,
      "Ã©r": 3355,
      "Ð¾Ð±": 3356,
      "Ġreact": 3357,
      "cz": 3358,
      "ĠÃ¼ber": 3359,
      "erte": 3360,
      "Ġbedroom": 3361,
      "Ġdw": 3362,
      "ĠFBI": 3363,
      "dm": 3364,
      "Ġdinner": 3365,
      "Ġbrown": 3366,
      "erto": 3367,
      "icion": 3368,
      "Ġvor": 3369,
      "Ġtracks": 3370,
      "cht": 3371,
      "ĠÑĥ": 3372,
      "aller": 3373,
      "Ġreceiver": 3374,
      "ques": 3375,
      "Ã¤r": 3376,
      "oda": 3377,
      "Ġrum": 3378,
      "Ð°Ð½Ð¸": 3379,
      "aylor": 3380,
      "Ã¤t": 3381,
      "Ġnearby": 3382,
      "Ġnach": 3383,
      "ashes": 3384,
      "ĠÐ±": 3385,
      "awa": 3386,
      "ĠBush": 3387,
      "Ġbid": 3388,
      "Ġlista": 3389,
      "Ġtransactions": 3390,
      "Ġhabit": 3391,
      "Ġaircraft": 3392,
      "Ġinstrument": 3393,
      "Ġot": 3394,
      "Ġpayments": 3395,
      "Ð½Ð°": 3396,
      "Ġtan": 3397,
      "ä»¶": 3398,
      "oli": 3399,
      "Ġcrazy": 3400,
      "Ġnormally": 3401,
      "IFT": 3402,
      "Øª": 3403,
      "ĠChief": 3404,
      "Ġelectronic": 3405,
      "sz": 3406,
      "Ġbien": 3407,
      "Ġcutting": 3408,
      "bra": 3409,
      "will": 3410,
      "Ġwet": 3411,
      "Ġges": 3412,
      "Black": 3413,
      "erring": 3414,
      "Google": 3415,
      "Ġgear": 3416,
      "las": 3417,
      "Ð¾Ð³": 3418,
      "icide": 3419,
      "Ġreprodu": 3420,
      "Ġly": 3421,
      "Ã±o": 3422,
      "Ġchose": 3423,
      "ÙĬ": 3424,
      "ìĦ": 3425,
      "ucc": 3426,
      "Ġanymore": 3427,
      "chi": 3428,
      "seg": 3429,
      "who": 3430,
      "aki": 3431,
      "iten": 3432,
      "Ġhang": 3433,
      "ãģĹ": 3434,
      "Ġza": 3435,
      "Ġbreaking": 3436,
      "Ġpurchased": 3437,
      "Ð¾Ðº": 3438,
      "Ġbatt": 3439,
      "Ġhal": 3440,
      "lower": 3441,
      "Ġpag": 3442,
      "ä¸Ģ": 3443,
      "Ġhell": 3444,
      "sim": 3445,
      "Ġsont": 3446,
      "para": 3447,
      "Ġriver": 3448,
      "Ġwithdraw": 3449,
      "Ġwins": 3450,
      "Ġdenied": 3451,
      "Ġwird": 3452,
      "ouver": 3453,
      "Ġsurgery": 3454,
      "Ġreform": 3455,
      "Ġbis": 3456,
      "Ġsuddenly": 3457,
      "Ġao": 3458,
      "Ġtracking": 3459,
      "Ġbathroom": 3460,
      "ĠÄĳ": 3461,
      "Ġsoldiers": 3462,
      "ĠEgypt": 3463,
      "è¯·": 3464,
      "Ġstrange": 3465,
      "program": 3466,
      "Ã¹": 3467,
      "Ġdass": 3468,
      "ÐµÐº": 3469,
      "Ġhouses": 3470,
      "don": 3471,
      "azione": 3472,
      "Ġkil": 3473,
      "ĠHospital": 3474,
      "Ġwallet": 3475,
      "Ġactivation": 3476,
      "Ġcuts": 3477,
      "ahr": 3478,
      "Ġincorrect": 3479,
      "Ġliv": 3480,
      "Ġra": 3481,
      "mu": 3482,
      "Ġsobre": 3483,
      "Ġesta": 3484,
      "Ġwake": 3485,
      "cker": 3486,
      "Ġfunny": 3487,
      "icas": 3488,
      "Who": 3489,
      "Ġbirthday": 3490,
      "weather": 3491,
      "Ġsuspect": 3492,
      "Ġmarch": 3493,
      "Ġhorse": 3494,
      "Ġdella": 3495,
      "Ġprocessed": 3496,
      "Ġko": 3497,
      "Ġrein": 3498,
      "Ġbir": 3499,
      "Ã§Ãµes": 3500,
      "iller": 3501,
      "Ġdance": 3502,
      "iami": 3503,
      "Ġdar": 3504,
      "Ġbow": 3505,
      "ĠPosted": 3506,
      "Ġpending": 3507,
      "Ġrecognize": 3508,
      "lica": 3509,
      "ãģ¯": 3510,
      "ede": 3511,
      "Ġboat": 3512,
      "Ġcarrying": 3513,
      "anti": 3514,
      "Ġgal": 3515,
      "Ð³": 3516,
      "isse": 3517,
      "dam": 3518,
      "tele": 3519,
      "Ġlawyer": 3520,
      "iso": 3521,
      "asa": 3522,
      "Ġeinen": 3523,
      "ĠestÃ¡": 3524,
      "antes": 3525,
      "Ġshirt": 3526,
      "Ġsupporters": 3527,
      "Ġtodos": 3528,
      "Ġdont": 3529,
      "Ġinjured": 3530,
      "Ġses": 3531,
      "amar": 3532,
      "Ġeu": 3533,
      "Ġrestaurants": 3534,
      "tw": 3535,
      "Ġhi": 3536,
      "Å¼e": 3537,
      "ellen": 3538,
      "ãĥ³": 3539,
      "Ġstuck": 3540,
      "uni": 3541,
      "ghan": 3542,
      "Ġkann": 3543,
      "Ġgran": 3544,
      "Ġbat": 3545,
      "ãģ®": 3546,
      "Ġlunch": 3547,
      "sten": 3548,
      "Ġcleaning": 3549,
      "best": 3550,
      "Ð°Ðº": 3551,
      "omo": 3552,
      "zed": 3553,
      "ĠIsraeli": 3554,
      "People": 3555,
      "ë¥": 3556,
      "ä¸Ń": 3557,
      "Ð°Ð»": 3558,
      "Ġelections": 3559,
      "Ġbread": 3560,
      "Ġguilty": 3561,
      "Ġrose": 3562,
      "ieren": 3563,
      "yo": 3564,
      "Ġzum": 3565,
      "Ġrefused": 3566,
      "isch": 3567,
      "Ã¼n": 3568,
      "Ð¸Ð¼": 3569,
      "Ġsalary": 3570,
      "Ġwir": 3571,
      "was": 3572,
      "Ġfraud": 3573,
      "ĠKorean": 3574,
      "Ġore": 3575,
      "Ùĩ": 3576,
      "Ġchicken": 3577,
      "ãģ§": 3578,
      "Ġthousand": 3579,
      "íķĺ": 3580,
      "union": 3581,
      "atan": 3582,
      "Ġìŀ": 3583,
      "Ġmeetings": 3584,
      "Ġtipo": 3585,
      "Ġmountain": 3586,
      "Ġpounds": 3587,
      "Ġflying": 3588,
      "uno": 3589,
      "Ð¾Ð¹": 3590,
      "Ġpenalty": 3591,
      "Ġgrass": 3592,
      "Ġai": 3593,
      "Ġchip": 3594,
      "aco": 3595,
      "Ġnam": 3596,
      "yal": 3597,
      "Ġcant": 3598,
      "Ġbottle": 3599,
      "åİ": 3600,
      "ĠCould": 3601,
      "Ġmistake": 3602,
      "ä¸į": 3603,
      "Ġdeposit": 3604,
      "Ġkon": 3605,
      "iga": 3606,
      "wan": 3607,
      "ëĬĶ": 3608,
      "enta": 3609,
      "Ġtomorrow": 3610,
      "ãģĦ": 3611,
      "Ġwy": 3612,
      "Ġjet": 3613,
      "enz": 3614,
      "Ġalarm": 3615,
      "æĸ°": 3616,
      "wi": 3617,
      "Ã©m": 3618,
      "ĠPakistan": 3619,
      "inois": 3620,
      "Ġnations": 3621,
      "inen": 3622,
      "Ã¡t": 3623,
      "ãģ¾": 3624,
      "nh": 3625,
      "ahl": 3626,
      "Ġairport": 3627,
      "Ġmai": 3628,
      "hu": 3629,
      "æĸĩ": 3630,
      "ÐºÐ¸": 3631,
      "Ġvice": 3632,
      "iste": 3633,
      "ĠAfghan": 3634,
      "Ġini": 3635,
      "Ġlady": 3636,
      "Ġquit": 3637,
      "Ġpou": 3638,
      "oca": 3639,
      "activate": 3640,
      "Ġrestrictions": 3641,
      "ä¸ĭ": 3642,
      "Ġtroops": 3643,
      "Ġnous": 3644,
      "tit": 3645,
      "Ġokay": 3646,
      "Ġautomatic": 3647,
      "Ð¶": 3648,
      "Ġguitar": 3649,
      "Ġfinance": 3650,
      "Ġgotten": 3651,
      "Ð¾Ð»ÑĮ": 3652,
      "iert": 3653,
      "Ġeiner": 3654,
      "Ġtwenty": 3655,
      "Ġsettlement": 3656,
      "ĠJordan": 3657,
      "iza": 3658,
      "aca": 3659,
      "Ġade": 3660,
      "Ġnome": 3661,
      "Ġnas": 3662,
      "Ġcheese": 3663,
      "ĠØ§ÙĦ": 3664,
      "ÐµÐ½Ð¸Ðµ": 3665,
      "åĪĨ": 3666,
      "Ġattempted": 3667,
      "ãģĻ": 3668,
      "onde": 3669,
      "Ġger": 3670,
      "åħ¥": 3671,
      "Ð°ÑĢ": 3672,
      "aires": 3673,
      "ĠÑĩ": 3674,
      "Ġzur": 3675,
      "Ð¾Ð½": 3676,
      "'est": 3677,
      "Ġak": 3678,
      "Ġgenre": 3679,
      "Ġarrive": 3680,
      "switch": 3681,
      "äºº": 3682,
      "Ġalg": 3683,
      "Ġloud": 3684,
      "ë¡ľ": 3685,
      "eren": 3686,
      "ĠExpress": 3687,
      "ä¼": 3688,
      "Ġeinem": 3689,
      "ä¸Ĭ": 3690,
      "Ã§a": 3691,
      "google": 3692,
      "Ġgray": 3693,
      "Ġrejected": 3694,
      "ĠÑĦ": 3695,
      "Ġbrill": 3696,
      "Ġforecast": 3697,
      "tery": 3698,
      "Ġws": 3699,
      "Ġhaben": 3700,
      "Ġappointment": 3701,
      "Ġhay": 3702,
      "Ġeuro": 3703,
      "ĠÐ¿Ð¾": 3704,
      "ĠSpain": 3705,
      "Ġdollar": 3706,
      "Ġjun": 3707,
      "Ġfifth": 3708,
      "Ġdecline": 3709,
      "ä¸º": 3710,
      "Ġdia": 3711,
      "ischen": 3712,
      "este": 3713,
      "dit": 3714,
      "Ð°Ð²": 3715,
      "Ð¸ÑĤÑĮ": 3716,
      "Ġnoch": 3717,
      "Ġmusical": 3718,
      "Ġoc": 3719,
      "Ġworried": 3720,
      "Ġgel": 3721,
      "Ġgut": 3722,
      "ĠGreek": 3723,
      "ìĿĦ": 3724,
      "Ġspokesman": 3725,
      "Ġub": 3726,
      "Ġtonight": 3727,
      "Ġdining": 3728,
      "arga": 3729,
      "Ġocean": 3730,
      "Ð°Ñģ": 3731,
      "Ġcz": 3732,
      "åı·": 3733,
      "Ð°ÑĤÑĮ": 3734,
      "Ġdesk": 3735,
      "Ġpes": 3736,
      "Ġtut": 3737,
      "Ġsouthern": 3738,
      "ĠÑĢ": 3739,
      "Ġprogramme": 3740,
      "ĠSyrian": 3741,
      "Ġhip": 3742,
      "Ġsuicide": 3743,
      "Ġdent": 3744,
      "Ġgained": 3745,
      "Ġbom": 3746,
      "Ġnorthern": 3747,
      "Ġcollapse": 3748,
      "ĠKong": 3749,
      "Ġpert": 3750,
      "Ġpink": 3751,
      "Ã±os": 3752,
      "Ġfer": 3753,
      "robot": 3754,
      "Ġpu": 3755,
      "Ġjed": 3756,
      "apa": 3757,
      "Ã±a": 3758,
      "åĽŀ": 3759,
      "Ġagenda": 3760,
      "ë¥¼": 3761,
      "Ġfu": 3762,
      "Ġcancell": 3763,
      "ÅĽci": 3764,
      "Ġoct": 3765,
      "ÐµÐ½Ð¸Ñı": 3766,
      "åľ¨": 3767,
      "Ġwestern": 3768,
      "Ã©l": 3769,
      "æİ": 3770,
      "cancel": 3771,
      "Ġmehr": 3772,
      "Ð°Ð¹": 3773,
      "there": 3774,
      "good": 3775,
      "zens": 3776,
      "Ġorange": 3777,
      "Ġspeaker": 3778,
      "Ġpron": 3779,
      "à¹Ī": 3780,
      "angan": 3781,
      "Ġegg": 3782,
      "ĠÐ½Ðµ": 3783,
      "Hey": 3784,
      "Ð°Ð·": 3785,
      "Ġvend": 3786,
      "Ġwarned": 3787,
      "ĠÃ¡": 3788,
      "ĠExchange": 3789,
      "uar": 3790,
      "iu": 3791,
      "ĠUkraine": 3792,
      "Ġdeclined": 3793,
      "Ġgym": 3794,
      "æľī": 3795,
      "alia": 3796,
      "iere": 3797,
      "Ġfest": 3798,
      "Ã©g": 3799,
      "Ġay": 3800,
      "cow": 3801,
      "Æ°": 3802,
      "Ð¸Ð½": 3803,
      "ä¸ª": 3804,
      "immer": 3805,
      "Ã¡l": 3806,
      "Ġny": 3807,
      "Ġcrypto": 3808,
      "aja": 3809,
      "Ġfloating": 3810,
      "walk": 3811,
      "vez": 3812,
      "Ð°Ð¿": 3813,
      "Ġrecall": 3814,
      "pot": 3815,
      "Ġgolf": 3816,
      "ÅĦ": 3817,
      "anie": 3818,
      "aug": 3819,
      "ãģ¨": 3820,
      "Ġbowl": 3821,
      "Ġrally": 3822,
      "sal": 3823,
      "Ġreleases": 3824,
      "akan": 3825,
      "Ġgarage": 3826,
      "vere": 3827,
      "Ġblocked": 3828,
      "atas": 3829,
      "Ġsein": 3830,
      "ÑĦ": 3831,
      "Ã¼ck": 3832,
      "Ġcow": 3833,
      "Stock": 3834,
      "Ġig": 3835,
      "ackson": 3836,
      "ìĹĲ": 3837,
      "Ġjak": 3838,
      "ä½ľ": 3839,
      "Ġsab": 3840,
      "ulus": 3841,
      "uesta": 3842,
      "Ġfaire": 3843,
      "encer": 3844,
      "hor": 3845,
      "oa": 3846,
      "ĠUSD": 3847,
      "Ġuntuk": 3848,
      "Ġplug": 3849,
      "Three": 3850,
      "bu": 3851,
      "Ġrice": 3852,
      "ãģ«": 3853,
      "ãĥĪ": 3854,
      "Ġfrozen": 3855,
      "Ġfait": 3856,
      "arma": 3857,
      "Ġmeng": 3858,
      "ÑĢÑĥ": 3859,
      "Ã¡rio": 3860,
      "Ġgrey": 3861,
      "Ġties": 3862,
      "Ġriding": 3863,
      "arte": 3864,
      "à¹ī": 3865,
      "ĠÐ´Ð»Ñı": 3866,
      "enden": 3867,
      "Ġki": 3868,
      "pn": 3869,
      "rac": 3870,
      "ê°Ģ": 3871,
      "ei": 3872,
      "beit": 3873,
      "Ġmont": 3874,
      "Ġmeets": 3875,
      "Ġsucc": 3876,
      "eling": 3877,
      "Ġcette": 3878,
      "Ø³": 3879,
      "Ġjam": 3880,
      "via": 3881,
      "Ġabortion": 3882,
      "iÃ¨re": 3883,
      "Ġbra": 3884,
      "eu": 3885,
      "Ġrib": 3886,
      "Ġhaz": 3887,
      "Ġvacation": 3888,
      "elo": 3889,
      "à¸Ļ": 3890,
      "cu": 3891,
      "Ã§o": 3892,
      "igg": 3893,
      "åĩº": 3894,
      "Ġprecis": 3895,
      "xit": 3896,
      "ĠÐ¾ÑĤ": 3897,
      "Ġactivate": 3898,
      "rij": 3899,
      "Ġwondering": 3900,
      "Ġnh": 3901,
      "zn": 3902,
      "Ġbil": 3903,
      "ibt": 3904,
      "Ġlanding": 3905,
      "pes": 3906,
      "ĠÐ°": 3907,
      "ìĿĺ": 3908,
      "æĺ¯": 3909,
      "Ġdengan": 3910,
      "mont": 3911,
      "Ġfare": 3912,
      "Ġlying": 3913,
      "æĹ¶éĹ´": 3914,
      "ãģĹãģ": 3915,
      "ê¸°": 3916,
      "sta": 3917,
      "Ġpremier": 3918,
      "ĠAfghanistan": 3919,
      "Ġneu": 3920,
      "elli": 3921,
      "Ã³d": 3922,
      "bre": 3923,
      "rock": 3924,
      "udi": 3925,
      "enez": 3926,
      "ÑģÑı": 3927,
      "Ġvez": 3928,
      "tol": 3929,
      "Ġlaptop": 3930,
      "Ġblast": 3931,
      "iri": 3932,
      "Ġconventional": 3933,
      "åī": 3934,
      "è¡¨": 3935,
      "éĻ¤": 3936,
      "plain": 3937,
      "zym": 3938,
      "à¸²": 3939,
      "oni": 3940,
      "such": 3941,
      "ĠÐ²Ñĭ": 3942,
      "Ġsono": 3943,
      "Ġmortgage": 3944,
      "Ġcyber": 3945,
      "nia": 3946,
      "uir": 3947,
      "ĠÑį": 3948,
      "åĬł": 3949,
      "Ùģ": 3950,
      "Ġrefund": 3951,
      "Ġtraveling": 3952,
      "éĿ": 3953,
      "Ġsep": 3954,
      "ÐµÐ¹": 3955,
      "sch": 3956,
      "Ġcondem": 3957,
      "ĠPutin": 3958,
      "Ġsleeping": 3959,
      "Ġparliament": 3960,
      "itas": 3961,
      "ĠÐ¾Ð±": 3962,
      "Ġjury": 3963,
      "bag": 3964,
      "Ġprz": 3965,
      "Ð¾Ð¶": 3966,
      "Ġtrop": 3967,
      "çĶŁ": 3968,
      "Ġdit": 3969,
      "aran": 3970,
      "Ġspeakers": 3971,
      "ì§Ģ": 3972,
      "ĠktÃ³": 3973,
      "Ġtoy": 3974,
      "Ø¨": 3975,
      "Ġfailing": 3976,
      "elson": 3977,
      "etter": 3978,
      "Ġknife": 3979,
      "Ġlag": 3980,
      "Ġale": 3981,
      "Does": 3982,
      "nik": 3983,
      "Ã¤h": 3984,
      "ÅĤa": 3985,
      "Ġbass": 3986,
      "ìĭ": 3987,
      "Ġprox": 3988,
      "Ã¤nd": 3989,
      "anno": 3990,
      "Ã¼h": 3991,
      "Ġanniversary": 3992,
      "Ms": 3993,
      "Ġjoke": 3994,
      "Â£": 3995,
      "ãĤ¹": 3996,
      "lichen": 3997,
      "Ġfoi": 3998,
      "Ġrecipient": 3999,
      "pow": 4000,
      "bie": 4001,
      "illo": 4002,
      "Ġlake": 4003,
      "Ġdei": 4004,
      "ĠPalestinian": 4005,
      "ĠStorm": 4006,
      "ĠCorp": 4007,
      "comb": 4008,
      "çĲĨ": 4009,
      "Ġidentification": 4010,
      "æľ¬": 4011,
      "Ġprotests": 4012,
      "Ġcabinet": 4013,
      "notify": 4014,
      "Ġvom": 4015,
      "Ġactivated": 4016,
      "cciÃ³n": 4017,
      "ê³": 4018,
      "Ġfue": 4019,
      "Ġë°": 4020,
      "ahan": 4021,
      "'un": 4022,
      "Ġwenn": 4023,
      "Ð¾Ð³Ð¾": 4024,
      "Ġdub": 4025,
      "empo": 4026,
      "ÑĢÐ°": 4027,
      "Ġabroad": 4028,
      "ĠÐµ": 4029,
      "unden": 4030,
      "ãģĵ": 4031,
      "Ġceiling": 4032,
      "Ġpassengers": 4033,
      "Ġsoccer": 4034,
      "ieder": 4035,
      "strar": 4036,
      "Ã²": 4037,
      "Police": 4038,
      "ikan": 4039,
      "è¡Į": 4040,
      "çº": 4041,
      "cou": 4042,
      "Ġpulling": 4043,
      "Ġtwitter": 4044,
      "China": 4045,
      "à¸£": 4046,
      "-month": 4047,
      "Ġakt": 4048,
      "Ġah": 4049,
      "Ġstolen": 4050,
      "Ġwooden": 4051,
      "Ġstrikes": 4052,
      "esa": 4053,
      "å®ļ": 4054,
      "enti": 4055,
      "Ġtransferred": 4056,
      "æĶ¹": 4057,
      "Ġwalks": 4058,
      "ÐµÑģ": 4059,
      "Ġstocks": 4060,
      "ÑĤÐ¸": 4061,
      "Ġpizza": 4062,
      "Ġmuy": 4063,
      "Ġduplicate": 4064,
      "iao": 4065,
      "wy": 4066,
      "Ġsoll": 4067,
      "cion": 4068,
      "Ġamid": 4069,
      "Ð½Ð¸": 4070,
      "alloween": 4071,
      "Ġmos": 4072,
      "å¸Ĥ": 4073,
      "Ġalla": 4074,
      "æľŁ": 4075,
      "Ġbay": 4076,
      "Ġdesde": 4077,
      "rez": 4078,
      "Ġsinger": 4079,
      "ĠpiÃ¹": 4080,
      "Ð¾Ñģ": 4081,
      "Ġreproduce": 4082,
      "Ð°Ð´": 4083,
      "ilen": 4084,
      "azer": 4085,
      "Ġseller": 4086,
      "Ġcoat": 4087,
      "nya": 4088,
      "Ġpac": 4089,
      "Ġverification": 4090,
      "ĠÃªtre": 4091,
      "ÅĤo": 4092,
      "did": 4093,
      "à¸Ń": 4094,
      "Ġfacebook": 4095,
      "termin": 4096,
      "Ġsits": 4097,
      "Ġfecha": 4098,
      "ä»¥": 4099,
      "Ġrocks": 4100,
      "Ġcooperation": 4101,
      "ĠÐ¸Ð·": 4102,
      "ĠìĿ´": 4103,
      "Which": 4104,
      "Ġconvicted": 4105,
      "Ġkr": 4106,
      "Ġterrorism": 4107,
      "Ġpassenger": 4108,
      "Ġeastern": 4109,
      "Ø¹": 4110,
      "Ġtempo": 4111,
      "ificar": 4112,
      "Ġwi": 4113,
      "ìĪĺ": 4114,
      "Ġapple": 4115,
      "à¸±": 4116,
      "Ġmich": 4117,
      "Ġrip": 4118,
      "Ġalto": 4119,
      "åħĥ": 4120,
      "ĠÅ¼e": 4121,
      "enza": 4122,
      "ĠÙħ": 4123,
      "Ġswimming": 4124,
      "æĸ¹": 4125,
      "ÃŃs": 4126,
      "Ġkar": 4127,
      "æĬ": 4128,
      "nte": 4129,
      "Ġpurchases": 4130,
      "rod": 4131,
      "Ã¬": 4132,
      "iÃ©n": 4133,
      "aku": 4134,
      "far": 4135,
      "íķľ": 4136,
      "Ġresign": 4137,
      "uli": 4138,
      "Ġdip": 4139,
      "ĠÃ©tÃ©": 4140,
      "Ġearnings": 4141,
      "mitt": 4142,
      "Ãªncia": 4143,
      "owe": 4144,
      "Ġwo": 4145,
      "Ġsanctions": 4146,
      "Ð°Ð¼": 4147,
      "Ġsuspected": 4148,
      "åĮº": 4149,
      "tests": 4150,
      "ÑĢÐ¾Ð²": 4151,
      "à¤¾": 4152,
      "alg": 4153,
      "Ġuno": 4154,
      "Ġverified": 4155,
      "itÃł": 4156,
      "Ġhill": 4157,
      "ĠIndonesia": 4158,
      "Ġremind": 4159,
      "åįķ": 4160,
      "Ã´ng": 4161,
      "icia": 4162,
      "ãĥ¼ãĥ": 4163,
      "Ġestado": 4164,
      "anya": 4165,
      "imos": 4166,
      "cia": 4167,
      "Ġauss": 4168,
      "hn": 4169,
      "Ã®": 4170,
      "Ġcamb": 4171,
      "mul": 4172,
      "cie": 4173,
      "Ġri": 4174,
      "Ġdari": 4175,
      "ãĤ¤": 4176,
      "Ġneces": 4177,
      "Ġdell": 4178,
      "Ġintens": 4179,
      "Ġcasa": 4180,
      "Ã¨me": 4181,
      "Ð¾ÑģÑĤ": 4182,
      "atura": 4183,
      "ÃŃas": 4184,
      "umi": 4185,
      "æ³ķ": 4186,
      "Ġnel": 4187,
      "Ġpepper": 4188,
      "Ġoverseas": 4189,
      "Ġzw": 4190,
      "Ġbail": 4191,
      "Ġgros": 4192,
      "Ġreaches": 4193,
      "tu": 4194,
      "Ġatomic": 4195,
      "Ġcontacted": 4196,
      "åīį": 4197,
      "Ġdou": 4198,
      "Ġgrande": 4199,
      "eo": 4200,
      "iele": 4201,
      "ÑĤÐ¾": 4202,
      "Ġfence": 4203,
      "Ġaspir": 4204,
      "ÐµÐ³": 4205,
      "ĠÐ³": 4206,
      "Ġdal": 4207,
      "Ġlu": 4208,
      "Ġtin": 4209,
      "ãĤĵ": 4210,
      "Ġraid": 4211,
      "imi": 4212,
      "Ġministry": 4213,
      "ÅĽÄĩ": 4214,
      "ìĬ¤": 4215,
      "Ġpurple": 4216,
      "Ġwars": 4217,
      "arta": 4218,
      "South": 4219,
      "Ġquel": 4220,
      "Ġsixth": 4221,
      "Ġdispute": 4222,
      "volume": 4223,
      "Ġjack": 4224,
      "æ³¨": 4225,
      "Ġsinging": 4226,
      "lio": 4227,
      "'a": 4228,
      "uka": 4229,
      "à¸ģ": 4230,
      "ãĥĥ": 4231,
      "hai": 4232,
      "North": 4233,
      "Ġmissile": 4234,
      "á»ĩ": 4235,
      "Ġworkout": 4236,
      "Ġpant": 4237,
      "Ġdirt": 4238,
      "ĠPhilippines": 4239,
      "Ġhacer": 4240,
      "ĠRomney": 4241,
      "omer": 4242,
      "Ġdressed": 4243,
      "unto": 4244,
      "ÐµÐ»ÑĮ": 4245,
      "Ġaj": 4246,
      "Ġbang": 4247,
      "ĠÐ»": 4248,
      "Ġtam": 4249,
      "Ġsehr": 4250,
      "Ġdeux": 4251,
      "itos": 4252,
      "Ġscandal": 4253,
      "Ġunemployment": 4254,
      "Ġtous": 4255,
      "Ġpeaceful": 4256,
      "zu": 4257,
      "Ġcancelled": 4258,
      "Ġkeras": 4259,
      "ìŀĲ": 4260,
      "Ġdz": 4261,
      "adt": 4262,
      "Ġprotesters": 4263,
      "ĠElection": 4264,
      "apat": 4265,
      "ãģª": 4266,
      "Æ°á»": 4267,
      "Ġsul": 4268,
      "Ġfrank": 4269,
      "Ġchi": 4270,
      "iera": 4271,
      "Ġtoll": 4272,
      "Ø©": 4273,
      "Ġmant": 4274,
      "Ġluc": 4275,
      "Ġmejor": 4276,
      "Ġshuffle": 4277,
      "umm": 4278,
      "Ð¸ÑĤÐµ": 4279,
      "Ġjumped": 4280,
      "Ġyoga": 4281,
      "Ġtemps": 4282,
      "guard": 4283,
      "Ġsoldier": 4284,
      "Ġthirty": 4285,
      "Ġcouch": 4286,
      "yer": 4287,
      "Ġmog": 4288,
      "Ġmud": 4289,
      "Ġros": 4290,
      "Ġwings": 4291,
      "Ġjacket": 4292,
      "èĥ½": 4293,
      "ientes": 4294,
      "Ġwieder": 4295,
      "reduce": 4296,
      "Ġpiano": 4297,
      "à¸¡": 4298,
      "å¤§": 4299,
      "ĠprÃ©": 4300,
      "Ġrepet": 4301,
      "Ġcuando": 4302,
      "åº¦": 4303,
      "wal": 4304,
      "Ġmatt": 4305,
      "die": 4306,
      "etta": 4307,
      "Ġreminder": 4308,
      "ÄĻd": 4309,
      "Ġfavorites": 4310,
      "å§ĭ": 4311,
      "keit": 4312,
      "Ð°Ð½Ð¸Ðµ": 4313,
      "Ġvisa": 4314,
      "hub": 4315,
      "ahu": 4316,
      "ìĦľ": 4317,
      "ìļ©": 4318,
      "Ġdrone": 4319,
      "Ġholy": 4320,
      "tar": 4321,
      "-ups": 4322,
      "Ġautor": 4323,
      "Ġdiese": 4324,
      "Ġplaylist": 4325,
      "ÃŁen": 4326,
      "Ġbroader": 4327,
      "ĠKill": 4328,
      "Ġek": 4329,
      "iem": 4330,
      "Ġmim": 4331,
      "Ð°ÐµÑĤ": 4332,
      "åĪ°": 4333,
      "Ġspi": 4334,
      "Ġbew": 4335,
      "Ġjou": 4336,
      "Four": 4337,
      "Ġdelle": 4338,
      "ÑĢÐ°Ð²": 4339,
      "Ð¸Ð²": 4340,
      "Ãªn": 4341,
      "su": 4342,
      "does": 4343,
      "lett": 4344,
      "éĿ¢": 4345,
      "mel": 4346,
      "ĠPIN": 4347,
      "Ġprisoners": 4348,
      "oso": 4349,
      "bang": 4350,
      "Ġyoutube": 4351,
      "Å¼y": 4352,
      "åķ": 4353,
      "Ġdeport": 4354,
      "oko": 4355,
      "Ġkur": 4356,
      "Ġtidak": 4357,
      "zÄħ": 4358,
      "nych": 4359,
      "Ġgibt": 4360,
      "Ġlub": 4361,
      "ä¿¡æģ¯": 4362,
      "zel": 4363,
      "ĠIranian": 4364,
      "Ġreversed": 4365,
      "çĤ¹": 4366,
      "Ġcerca": 4367,
      "ÙĤ": 4368,
      "Ġwounded": 4369,
      "ropa": 4370,
      "Ġbacks": 4371,
      "Ġgra": 4372,
      "ãģŁ": 4373,
      "roc": 4374,
      "Ġpeu": 4375,
      "Ġindia": 4376,
      "Ġcomposite": 4377,
      "ukan": 4378,
      "Ġhabe": 4379,
      "ĠìĦ": 4380,
      "ĠØ¨": 4381,
      "Ġcarpet": 4382,
      "arak": 4383,
      "à¹Ģ": 4384,
      "Ġexpires": 4385,
      "ĠÃ¢": 4386,
      "anh": 4387,
      "Ġalgo": 4388,
      "Ġgli": 4389,
      "Ġfolk": 4390,
      "uter": 4391,
      "Ġlamp": 4392,
      "Ġdancing": 4393,
      "Would": 4394,
      "Ġcommander": 4395,
      "anche": 4396,
      "ë¦¬": 4397,
      "Ð»ÑĮ": 4398,
      "Ġsar": 4399,
      "icher": 4400,
      "æıĲ": 4401,
      "could": 4402,
      "ãĤ¯": 4403,
      "kar": 4404,
      "Ð¾Ð¿": 4405,
      "ĠNigeria": 4406,
      "Ġunited": 4407,
      "ãģĮ": 4408,
      "Ġvacuum": 4409,
      "Ġsang": 4410,
      "ativo": 4411,
      "åıĳ": 4412,
      "Ġnuevo": 4413,
      "Ġlig": 4414,
      "à¸µ": 4415,
      "å¼ı": 4416,
      "Ġmundo": 4417,
      "ÑĥÑĩ": 4418,
      "Ġdisappeared": 4419,
      "Ð°ÑģÑģ": 4420,
      "åĽ½": 4421,
      "Ġbell": 4422,
      "ufen": 4423,
      "Ġcivilians": 4424,
      "ussia": 4425,
      "Ġsta": 4426,
      "ĠÐ¿Ð¾Ð»": 4427,
      "gd": 4428,
      "Ġforgot": 4429,
      "åĪłéĻ¤": 4430,
      "anan": 4431,
      "íĬ¸": 4432,
      "ĠGaza": 4433,
      "ĠmÃ¡": 4434,
      "ĠìĪĺ": 4435,
      "Ġtiempo": 4436,
      "ëł¥": 4437,
      "ĠcÃ³": 4438,
      "ÑĤÑĮ": 4439,
      "Ġkills": 4440,
      "Ġclassical": 4441,
      "ibo": 4442,
      "Ġdich": 4443,
      "unde": 4444,
      "Ġìĭ": 4445,
      "Ġfich": 4446,
      "Ġdla": 4447,
      "Ġexchanges": 4448,
      "Ġjumping": 4449,
      "Ġmie": 4450,
      "æİ¥": 4451,
      "Ġabb": 4452,
      "Ġcaf": 4453,
      "Ġdorm": 4454,
      "Ġsentenced": 4455,
      "Ġgeb": 4456,
      "Ġnaj": 4457,
      "esta": 4458,
      "ĠÅĽ": 4459,
      "ãģĨ": 4460,
      "orie": 4461,
      "Ġdurante": 4462,
      "ĠNATO": 4463,
      "Ġmerchant": 4464,
      "åħ³": 4465,
      "éĩį": 4466,
      "ãĤĭ": 4467,
      "Ġprog": 4468,
      "uchar": 4469,
      "ìłķ": 4470,
      "ĠprÃ³": 4471,
      "ìĭľ": 4472,
      "Ð°ÑĨÐ¸": 4473,
      "Ã¡c": 4474,
      "ëĵľ": 4475,
      "Ġswift": 4476,
      "ÑĪÐ¸": 4477,
      "ãĤĴ": 4478,
      "zeit": 4479,
      "ÃŃc": 4480,
      "Ġpom": 4481,
      "ifica": 4482,
      "åľ°": 4483,
      "ãģĤ": 4484,
      "Ġyo": 4485,
      "ÅĤy": 4486,
      "Mal": 4487,
      "ĠsÃ£o": 4488,
      "hir": 4489,
      "è®¾": 4490,
      "zione": 4491,
      "Ġquando": 4492,
      "ãģķ": 4493,
      "çĽ®": 4494,
      "Ġwithdrawal": 4495,
      "å¼Ģ": 4496,
      "ĠÐ·Ð°Ð¿": 4497,
      "Ġdalam": 4498,
      "adora": 4499,
      "Ġgust": 4500,
      "ØŃ": 4501,
      "äºĭ": 4502,
      "Ġzn": 4503,
      "Ġamended": 4504,
      "Ġfreeze": 4505,
      "uelle": 4506,
      "Ġric": 4507,
      "Ġvessels": 4508,
      "'une": 4509,
      "please": 4510,
      "Ġpound": 4511,
      "Ġheadlines": 4512,
      "Ġtodas": 4513,
      "ÑĢÐ¸": 4514,
      "today": 4515,
      "Ġmomento": 4516,
      "Ġrim": 4517,
      "Ġmana": 4518,
      "fÃ¼": 4519,
      "Ð½Ð°Ñĩ": 4520,
      "Ġcents": 4521,
      "ĠIraqi": 4522,
      "kie": 4523,
      "ãĤĬ": 4524,
      "Ð»Ð°": 4525,
      "ìķ": 4526,
      "hole": 4527,
      "à¸ĩ": 4528,
      "Ã¨res": 4529,
      "åı¯": 4530,
      "quant": 4531,
      "à¥įà¤": 4532,
      "Ġpartir": 4533,
      "è¦ģ": 4534,
      "Ġrab": 4535,
      "Ġlecture": 4536,
      "Ġtrapped": 4537,
      "Ġtransfers": 4538,
      "Ġtres": 4539,
      "repeat": 4540,
      "Ġgarlic": 4541,
      "kh": 4542,
      "'Ã©": 4543,
      "eri": 4544,
      "å°ı": 4545,
      "arÃ¡": 4546,
      "usa": 4547,
      "oka": 4548,
      "éĢī": 4549,
      "zw": 4550,
      "à¸´": 4551,
      "iov": 4552,
      "Ġprzy": 4553,
      "æĺİ": 4554,
      "Ġosc": 4555,
      "Ġdieser": 4556,
      "ãĥ©": 4557,
      "ãģĭ": 4558,
      "Ġsofa": 4559,
      "Ùĥ": 4560,
      "ìĸ´": 4561,
      "Ġdod": 4562,
      "åĪĹ": 4563,
      "ç½ĳ": 4564,
      "music": 4565,
      "Ġrides": 4566,
      "æľĢ": 4567,
      "anic": 4568,
      "Ġket": 4569,
      "ìĿ¸": 4570,
      "Ø§ÙĦ": 4571,
      "à¤¾à¤": 4572,
      "Ġtennis": 4573,
      "ĠÃºlt": 4574,
      "Ġvic": 4575,
      "zm": 4576,
      "Ġsous": 4577,
      "åĻ¨": 4578,
      "Ġlam": 4579,
      "aggi": 4580,
      "Ġbor": 4581,
      "azioni": 4582,
      "Ġfuse": 4583,
      "chied": 4584,
      "Ġpopul": 4585,
      "à¸¥": 4586,
      "zes": 4587,
      "Ġmenos": 4588,
      "Ġpada": 4589,
      "æīĢ": 4590,
      "åĨħ": 4591,
      "uti": 4592,
      "ãĤĤ": 4593,
      "Ġcleaner": 4594,
      "ÐµÐ·": 4595,
      "Ġsheep": 4596,
      "gra": 4597,
      "Ġlun": 4598,
      "ãĤĮ": 4599,
      "ucht": 4600,
      "ìĿ¼": 4601,
      "Ġdre": 4602,
      "Ġolive": 4603,
      "ĠìĤ¬": 4604,
      "Ġsau": 4605,
      "Ġange": 4606,
      "Ġbrightness": 4607,
      "ãģĬ": 4608,
      "alan": 4609,
      "ë©´": 4610,
      "Ġparas": 4611,
      "æ¶Ī": 4612,
      "prime": 4613,
      "aÃ±": 4614,
      "ãĤī": 4615,
      "Ġfifty": 4616,
      "ãģ¾ãģĻ": 4617,
      "tro": 4618,
      "Ã¶s": 4619,
      "ä¿Ŀ": 4620,
      "quier": 4621,
      "Ġvu": 4622,
      "Ġchina": 4623,
      "ski": 4624,
      "Ġexpire": 4625,
      "Ġavant": 4626,
      "æ¬¡": 4627,
      "ãĥ«": 4628,
      "ÐµÐ²": 4629,
      "æľº": 4630,
      "å¯¹": 4631,
      "Ġakan": 4632,
      "ĠYemen": 4633,
      "ischer": 4634,
      "Ġmam": 4635,
      "Ġups": 4636,
      "éĩı": 4637,
      "usk": 4638,
      "Ø´": 4639,
      "ìĦ±": 4640,
      "Ġjan": 4641,
      "ellt": 4642,
      "ajÄħ": 4643,
      "æŁ¥": 4644,
      "ĠserÃ¡": 4645,
      "Ġliste": 4646,
      "éĥ¨": 4647,
      "Ġhu": 4648,
      "Ġzap": 4649,
      "Ġë§": 4650,
      "Ġhast": 4651,
      "ÑĥÑİ": 4652,
      "'ai": 4653,
      "emu": 4654,
      "Ø¬": 4655,
      "åĴĮ": 4656,
      "æĽ´": 4657,
      "ĠPalestinians": 4658,
      "Ġcloses": 4659,
      "Ġmall": 4660,
      "ilio": 4661,
      "Ġantes": 4662,
      "Ġmodo": 4663,
      "Ġmissiles": 4664,
      "spe": 4665,
      "acji": 4666,
      "Ð°Ð³": 4667,
      "Ġrope": 4668,
      "Ġcanceled": 4669,
      "åĲİ": 4670,
      "á»ĥ": 4671,
      "Ġquesto": 4672,
      "Ġtrafficking": 4673,
      "inta": 4674,
      "Ġmetro": 4675,
      "Ð½ÑĭÐ¹": 4676,
      "Israel": 4677,
      "Ġnad": 4678,
      "India": 4679,
      "íĻ": 4680,
      "Ġkam": 4681,
      "Ġurgent": 4682,
      "Ġker": 4683,
      "ìĿĢ": 4684,
      "regar": 4685,
      "Ġmuito": 4686,
      "kat": 4687,
      "Ãºs": 4688,
      "uche": 4689,
      "ĠÑģÐ¾": 4690,
      "íĦ°": 4691,
      "íķ´": 4692,
      "Ġjazz": 4693,
      "Ġlugar": 4694,
      "Ġpon": 4695,
      "ĠmÃ©d": 4696,
      "-me": 4697,
      "Ð¸ÑģÑĤ": 4698,
      "Ġhora": 4699,
      "ladesh": 4700,
      "dar": 4701,
      "emas": 4702,
      "äºĨ": 4703,
      "Ġjumps": 4704,
      "iamo": 4705,
      "'il": 4706,
      "éĩĳ": 4707,
      "Ġada": 4708,
      "Ġestar": 4709,
      "Ġessere": 4710,
      "Ġstatue": 4711,
      "iaÅĤ": 4712,
      "Ð¾Ð·Ð´": 4713,
      "Ġmotorcycle": 4714,
      "åįĪ": 4715,
      "Ġsept": 4716,
      "ÃŃvel": 4717,
      "Ġprend": 4718,
      "à¥ĩ": 4719,
      "ê³ł": 4720,
      "Ã³g": 4721,
      "Ġbog": 4722,
      "voir": 4723,
      "à¸¢": 4724,
      "Ġsempre": 4725,
      "ÑĭÐ²": 4726,
      "ÑĢÐ°Ð½": 4727,
      "ÑĭÐ¹": 4728,
      "why": 4729,
      "Ġsap": 4730,
      "Ġsera": 4731,
      "Ġreun": 4732,
      "Ġlaying": 4733,
      "Sy": 4734,
      "agnitude": 4735,
      "íĺ": 4736,
      "Several": 4737,
      "ç©º": 4738,
      "sil": 4739,
      "Ġhace": 4740,
      "Ġspraw": 4741,
      "itÃ©s": 4742,
      "ĠdÃŃa": 4743,
      "das": 4744,
      "leur": 4745,
      "Ġbicycle": 4746,
      "ìĺ": 4747,
      "Ġcuisine": 4748,
      "Ġhelicopter": 4749,
      "Ø§Ø±": 4750,
      "zenia": 4751,
      "Ġdefin": 4752,
      "Ġdentro": 4753,
      "Ġmuss": 4754,
      "ĠmÃ©t": 4755,
      "Ġbob": 4756,
      "Ã¡m": 4757,
      "Ø®": 4758,
      "ÐºÑĥ": 4759,
      "Ġsore": 4760,
      "atu": 4761,
      "jÄĻ": 4762,
      "Ġprima": 4763,
      "Ġrebel": 4764,
      "atro": 4765,
      "ĠìŀĪ": 4766,
      "Ġkal": 4767,
      "zig": 4768,
      "Ð°Ñı": 4769,
      "Ð¾ÑĤÐ¾ÑĢ": 4770,
      "Ġê°Ģ": 4771,
      "kal": 4772,
      "hey": 4773,
      "Ġcurrencies": 4774,
      "wart": 4775,
      "Ġespa": 4776,
      "Ġrebels": 4777,
      "otto": 4778,
      "Ġsuis": 4779,
      "èģ": 4780,
      "à¸ª": 4781,
      "Ð²ÐµÐ´": 4782,
      "ãģł": 4783,
      "Ġitu": 4784,
      "Ġcores": 4785,
      "ìļĶ": 4786,
      "å¤©": 4787,
      "Ġdern": 4788,
      "osto": 4789,
      "nej": 4790,
      "ĠaÃ±o": 4791,
      "Ð¾Ð±Ð°Ð²": 4792,
      "à¸Ĺ": 4793,
      "Ġmismo": 4794,
      "ÑĥÐ´": 4795,
      "Ġnella": 4796,
      "arto": 4797,
      "æĪĳ": 4798,
      "Ġczy": 4799,
      "åħ¨": 4800,
      "Ãªte": 4801,
      "Ġdivert": 4802,
      "Ġcricket": 4803,
      "Ġìłķ": 4804,
      "Ġsmiling": 4805,
      "Ġviel": 4806,
      "Ġcollar": 4807,
      "vor": 4808,
      "Ġcrashes": 4809,
      "à¸ļ": 4810,
      "ä»Ĭ": 4811,
      "ÐµÑģÑĤ": 4812,
      "Ġfois": 4813,
      "Ġbak": 4814,
      "ĠÐ¿ÑĢÐ¸": 4815,
      "Ġbombing": 4816,
      "ardi": 4817,
      "æĿ¥": 4818,
      "Su": 4819,
      "Ġnag": 4820,
      "anson": 4821,
      "æŃ£": 4822,
      "è¯´": 4823,
      "æĦı": 4824,
      "atorio": 4825,
      "éĢģ": 4826,
      "ĠKenya": 4827,
      "ÑĤÐ¾ÑĢ": 4828,
      "Ġpeng": 4829,
      "richt": 4830,
      "Ġbud": 4831,
      "ãĥª": 4832,
      "Ġdiesem": 4833,
      "elles": 4834,
      "Ġfutures": 4835,
      "Ġauthorize": 4836,
      "Ãªs": 4837,
      "jÄħ": 4838,
      "owy": 4839,
      "iÃŁ": 4840,
      "charged": 4841,
      "alu": 4842,
      "ä¼ļ": 4843,
      "Ġsext": 4844,
      "Ġnueva": 4845,
      "Five": 4846,
      "à¸Ķ": 4847,
      "ãģ¦": 4848,
      "nehmen": 4849,
      "Ġìľ": 4850,
      "Ġfaz": 4851,
      "Ġlaunches": 4852,
      "ìłľ": 4853,
      "ĠEUR": 4854,
      "ĠsÄħ": 4855,
      "zent": 4856,
      "ãĥ¼ãĤ": 4857,
      "Ġrises": 4858,
      "à¸§": 4859,
      "rir": 4860,
      "Originally": 4861,
      "alter": 4862,
      "Ġearthquake": 4863,
      "Ġonion": 4864,
      "Ġbrit": 4865,
      "Ð¾Ñĩ": 4866,
      "ichte": 4867,
      "Ġwit": 4868,
      "ologie": 4869,
      "ÑĥÑĤ": 4870,
      "ĠÙĪ": 4871,
      "Ġeurope": 4872,
      "ãģ§ãģĻ": 4873,
      "Ð°Ð¶": 4874,
      "ĠrÃ©g": 4875,
      "obre": 4876,
      "Ġprzez": 4877,
      "licht": 4878,
      "ĠÐ±Ñĭ": 4879,
      "Ġjetzt": 4880,
      "ÑĢÐ°Ð¼": 4881,
      "agar": 4882,
      "Ð¸Ðº": 4883,
      "mus": 4884,
      "affe": 4885,
      "Ġmonde": 4886,
      "Ð¼ÐµÐ½": 4887,
      "dz": 4888,
      "Ġmachen": 4889,
      "Ġtreaty": 4890,
      "ĠlÃł": 4891,
      "ĠÃ§a": 4892,
      "ĠmoÅ¼": 4893,
      "Ġklass": 4894,
      "ologia": 4895,
      "æºĲ": 4896,
      "ÑĢÑĭ": 4897,
      "Ġpak": 4898,
      "Ġano": 4899,
      "èī²": 4900,
      "Ġblanket": 4901,
      "Ġtrump": 4902,
      "æĻĤ": 4903,
      "iÃ§Ã£o": 4904,
      "ĠÑĨ": 4905,
      "ycz": 4906,
      "Ġìŀħ": 4907,
      "ë°": 4908,
      "Ð°Ð½Ð¸Ñı": 4909,
      "è¿ĩ": 4910,
      "ambah": 4911,
      "çĶµ": 4912,
      "Ġtrabajo": 4913,
      "ĠNas": 4914,
      "Ġmemb": 4915,
      "iku": 4916,
      "Ġnovo": 4917,
      "Ġmilitants": 4918,
      "uenta": 4919,
      "Ġatau": 4920,
      "Ġtym": 4921,
      "ĠÑĢÐ°Ð·": 4922,
      "Ġneue": 4923,
      "zenie": 4924,
      "ëŀ": 4925,
      "ĠatÃ©": 4926,
      "ĠBangladesh": 4927,
      "ç¨ĭ": 4928,
      "posta": 4929,
      "Ġmonkey": 4930,
      "Æ¡": 4931,
      "Ġpotato": 4932,
      "ãĥ¡": 4933,
      "Ð»Ð¾": 4934,
      "ãĤ¢": 4935,
      "Ã©tÃ©": 4936,
      "Ġpoco": 4937,
      "Ð½Ð¾Ð³Ð¾": 4938,
      "Ġpasse": 4939,
      "EU": 4940,
      "essen": 4941,
      "ãģĹãģ¦": 4942,
      "Ġavoir": 4943,
      "Ãªm": 4944,
      "Ġfox": 4945,
      "à¤¿": 4946,
      "emente": 4947,
      "Ġville": 4948,
      "Ð½Ð¾Ð¹": 4949,
      "Ġhoras": 4950,
      "å¸¸": 4951,
      "Ġdesp": 4952,
      "æĿ¡": 4953,
      "Ġhue": 4954,
      "Ġwonders": 4955,
      "pod": 4956,
      "ÑĥÐ¼": 4957,
      "chet": 4958,
      "Ð¸Ñı": 4959,
      "Ð½Ñı": 4960,
      "spi": 4961,
      "å½ĵ": 4962,
      "à¸«": 4963,
      "nement": 4964,
      "iman": 4965,
      "ĠcÄĥ": 4966,
      "Death": 4967,
      "Ġgeht": 4968,
      "ĠLebanon": 4969,
      "istani": 4970,
      "Ġciudad": 4971,
      "Ġwont": 4972,
      "Ø§ÙĨ": 4973,
      "ĠØª": 4974,
      "ppo": 4975,
      "Ġvai": 4976,
      "Ð´Ð°": 4977,
      "Ġstole": 4978,
      "Åº": 4979,
      "orgen": 4980,
      "Ġjohn": 4981,
      "Ġtoutes": 4982,
      "Ø²": 4983,
      "Ġsunny": 4984,
      "god": 4985,
      "kont": 4986,
      "Ġsalon": 4987,
      "ĠÐ¿Ð¾Ð´": 4988,
      "Ġpla": 4989,
      "åĲĪ": 4990,
      "Ġetwas": 4991,
      "bucks": 4992,
      "elim": 4993,
      "Ġtopped": 4994,
      "Ġfazer": 4995,
      "à¸ķ": 4996,
      "Ġclash": 4997,
      "è½¦": 4998,
      "Ġbisa": 4999,
      "Ġmoi": 5000,
      "rais": 5001,
      "visions": 5002,
      "endi": 5003,
      "Ġlust": 5004,
      "Ġlandlord": 5005,
      "Ġlum": 5006,
      "Ġtoda": 5007,
      "ĠÐ¿ÑĢÐ¾": 5008,
      "utar": 5009,
      "esty": 5010,
      "Ġmesmo": 5011,
      "Ġlis": 5012,
      "ìļ°": 5013,
      "Ġusu": 5014,
      "à¸Ħ": 5015,
      "Ġdias": 5016,
      "inform": 5017,
      "Tell": 5018,
      "Ġzwei": 5019,
      "Ġwt": 5020,
      "inz": 5021,
      "Ġnova": 5022,
      "Ġjul": 5023,
      "åĳ¨": 5024,
      "Ġinterim": 5025,
      "ĠComposite": 5026,
      "ãĤ°": 5027,
      "ĠTaliban": 5028,
      "ëª": 5029,
      "uales": 5030,
      "Ð¸Ð·": 5031,
      "Ġaument": 5032,
      "lez": 5033,
      "'en": 5034,
      "ĠbÄĻd": 5035,
      "è®°": 5036,
      "äºĮ": 5037,
      "xo": 5038,
      "Ġtecn": 5039,
      "ìŀ¥": 5040,
      "Ġparis": 5041,
      "ĠÃ³": 5042,
      "Ġatual": 5043,
      "awi": 5044,
      "Ġcentro": 5045,
      "Ġcafe": 5046,
      "ÑĢÐ¾Ñģ": 5047,
      "Ġcet": 5048,
      "ĠÐ¸Ð½": 5049,
      "Ġsaber": 5050,
      "Ġtomato": 5051,
      "ĠaprÃ¨s": 5052,
      "Ġdok": 5053,
      "Ġdib": 5054,
      "Ġfilme": 5055,
      "Ġsidewalk": 5056,
      "à¸·": 5057,
      "pas": 5058,
      "Ġrevert": 5059,
      "stell": 5060,
      "Ġteng": 5061,
      "adir": 5062,
      "Ġmein": 5063,
      "è¿Ľ": 5064,
      "ìĦ¸": 5065,
      "Ġgospel": 5066,
      "izaciÃ³n": 5067,
      "Ġpunto": 5068,
      "Ġpend": 5069,
      "ãĥŃ": 5070,
      "Ġdatum": 5071,
      "Ġquand": 5072,
      "à¸¹": 5073,
      "Øµ": 5074,
      "ĠpaÃŃs": 5075,
      "ë³´": 5076,
      "Ġtravail": 5077,
      "iona": 5078,
      "ÃŃo": 5079,
      "Ġpendant": 5080,
      "Ġmilano": 5081,
      "Ġese": 5082,
      "acz": 5083,
      "ĠestÃ¡n": 5084,
      "ĠktÃ³ry": 5085,
      "amat": 5086,
      "quel": 5087,
      "Ġviele": 5088,
      "ìľ¼ë¡ľ": 5089,
      "ë²Ī": 5090,
      "Ð°ÑĤÐ°": 5091,
      "ĠhÃ¡": 5092,
      "Ġsei": 5093,
      "å¤ļ": 5094,
      "Ġtelefon": 5095,
      "Ġreddit": 5096,
      "ÑĥÑī": 5097,
      "Ġting": 5098,
      "Ġparked": 5099,
      "æĬ¥": 5100,
      "Ġdiz": 5101,
      "ĠquÃ©": 5102,
      "nde": 5103,
      "Ġnouveau": 5104,
      "Ġconfirms": 5105,
      "uci": 5106,
      "ãģ¡": 5107,
      "ĠDow": 5108,
      "Ġiphone": 5109,
      "rÃ©": 5110,
      "anni": 5111,
      "tek": 5112,
      "Ġaby": 5113,
      "arin": 5114,
      "Ġdeclining": 5115,
      "ĠhÃ¶": 5116,
      "æ·»åĬł": 5117,
      "ĠÃ©tait": 5118,
      "ĠktÃ³re": 5119,
      "íķĺëĬĶ": 5120,
      "Ġairplane": 5121,
      "Ð½ÑĭÐµ": 5122,
      "Ġcliff": 5123,
      "ÑĥÑģ": 5124,
      "ĠÐºÐ¾Ð¼": 5125,
      "ĠnÃ¤": 5126,
      "French": 5127,
      "Ġparl": 5128,
      "Ġaustralia": 5129,
      "inha": 5130,
      "Ġsubway": 5131,
      "Ġtutti": 5132,
      "è¿Ļ": 5133,
      "Ã¡vel": 5134,
      "ĠVisa": 5135,
      "Ġvas": 5136,
      "Ġfranc": 5137,
      "ÑĤÐ°": 5138,
      "éĵ": 5139,
      "Ġaqui": 5140,
      "ìĨĮ": 5141,
      "Ġblues": 5142,
      "Ø·": 5143,
      "à¥Ģ": 5144,
      "Ð½ÑĭÑħ": 5145,
      "jam": 5146,
      "Ġpuis": 5147,
      "Ġire": 5148,
      "Ð½Ð°Ñı": 5149,
      "Ð¾Ðµ": 5150,
      "Ġdisposable": 5151,
      "ĠKilled": 5152,
      "Ġrecognise": 5153,
      "Ġsek": 5154,
      "Ð¸Ð¹": 5155,
      "ĠÐ·Ð°": 5156,
      "ãĥ¬": 5157,
      "è®¾ç½®": 5158,
      "ĠØ¹": 5159,
      "rar": 5160,
      "ĠÐ²ÑģÐµ": 5161,
      "Ġanda": 5162,
      "Ġzona": 5163,
      "æĻ": 5164,
      "Ñĳ": 5165,
      "å°Ĩ": 5166,
      "Ġdra": 5167,
      "Ġdapat": 5168,
      "åĪĹè¡¨": 5169,
      "à¤°": 5170,
      "ugal": 5171,
      "-vous": 5172,
      "Ġkat": 5173,
      "Ġpouvez": 5174,
      "Ġcours": 5175,
      "noÅĽci": 5176,
      "ĠØ¯": 5177,
      "Obama": 5178,
      "Rom": 5179,
      "Ġmeine": 5180,
      "ÅĤÄħ": 5181,
      "Ġevento": 5182,
      "ĠPakistani": 5183,
      "ĠÐ¼Ð¾Ð¶": 5184,
      "Russia": 5185,
      "Ġìĭľ": 5186,
      "ĠÑħ": 5187,
      "Ġberlin": 5188,
      "Ġburger": 5189,
      "é«ĺ": 5190,
      "ĠPoor": 5191,
      "¤í": 5192,
      "warz": 5193,
      "åŃĲ": 5194,
      "Ġmend": 5195,
      "éģĵ": 5196,
      "ĠÑģÐ²": 5197,
      "èª": 5198,
      "ãĥī": 5199,
      "Ġwszyst": 5200,
      "éĤ": 5201,
      "Ġsog": 5202,
      "ĠArmstrong": 5203,
      "liga": 5204,
      "ÅĤad": 5205,
      "Chinese": 5206,
      "æīĭ": 5207,
      "Ġlumin": 5208,
      "Ġsemana": 5209,
      "ä¸ī": 5210,
      "Ġvoir": 5211,
      "rale": 5212,
      "ĠÐ¸Ð»Ð¸": 5213,
      "ĠdÃŃas": 5214,
      "ovi": 5215,
      "Ġchez": 5216,
      "Ġê³": 5217,
      "gio": 5218,
      "Ġcows": 5219,
      "ä»İ": 5220,
      "Ġstan": 5221,
      "orean": 5222,
      "Ġgor": 5223,
      "umat": 5224,
      "enci": 5225,
      "gli": 5226,
      "ĠÑı": 5227,
      "Ġmois": 5228,
      "inte": 5229,
      "conte": 5230,
      "Ġdebit": 5231,
      "Ġalta": 5232,
      "Ġtrouver": 5233,
      "ĠÙģ": 5234,
      "Ġencontrar": 5235,
      "å®¶": 5236,
      "Ġpint": 5237,
      "Ġchaque": 5238,
      "Ġmelhor": 5239,
      "vu": 5240,
      "Ġnour": 5241,
      "achen": 5242,
      "wie": 5243,
      "anmar": 5244,
      "æĹ¥æľŁ": 5245,
      "zej": 5246,
      "Ġhap": 5247,
      "Ġnaz": 5248,
      "Ġsuiv": 5249,
      "vir": 5250,
      "Ġdob": 5251,
      "ä»ĺ": 5252,
      "Ġtema": 5253,
      "ÐµÑĪ": 5254,
      "è·¯": 5255,
      "Ġmarca": 5256,
      "ĠATM": 5257,
      "Ġhai": 5258,
      "ĠÅ¼": 5259,
      "Ġlied": 5260,
      "ãĤ³": 5261,
      "Ð¸Ð¸": 5262,
      "Ġmaison": 5263,
      "ÐµÐ³Ð¾": 5264,
      "ftar": 5265,
      "ãĤ¿": 5266,
      "į°ìĿ´": 5267,
      "gni": 5268,
      "qui": 5269,
      "Ġahora": 5270,
      "hora": 5271,
      "ixa": 5272,
      "give": 5273,
      "uso": 5274,
      "Ġcerc": 5275,
      "ä¿ĿåŃĺ": 5276,
      "Ġusar": 5277,
      "Ġdegli": 5278,
      "Ø³Øª": 5279,
      "Ġdieses": 5280,
      "stag": 5281,
      "Ð½Ð¾Ð²": 5282,
      "agu": 5283,
      "ensch": 5284,
      "ãģı": 5285,
      "Ġsavoir": 5286,
      "iÄħ": 5287,
      "Ġmettre": 5288,
      "è¾ĳ": 5289,
      "ä¸Ģä¸ª": 5290,
      "orgia": 5291,
      "Ġjue": 5292,
      "Ġbach": 5293,
      "uner": 5294,
      "Ð½Ð¾Ðµ": 5295,
      "ãģĶ": 5296,
      "ÐºÐ¾": 5297,
      "Ġkol": 5298,
      "Ġzm": 5299,
      "Ð¸Ð´": 5300,
      "à¸µà¹Ī": 5301,
      "lis": 5302,
      "Ġzwischen": 5303,
      "Ð°Ð»Ð¸": 5304,
      "íĺ¸": 5305,
      "Ġmitt": 5306,
      "ĠÐºÐ»": 5307,
      "Ġmars": 5308,
      "izaÃ§Ã£o": 5309,
      "ĠÑĩÑĤÐ¾": 5310,
      "Ã³ÅĤ": 5311,
      "Ġexchanged": 5312,
      "Ġczas": 5313,
      "ãĥĥãĤ¯": 5314,
      "Ġestas": 5315,
      "Ġcosa": 5316,
      "åĬĽ": 5317,
      "Ġnouvelle": 5318,
      "Ġconsulta": 5319,
      "Indian": 5320,
      "primer": 5321,
      "Ã¡nd": 5322,
      "Ġfrance": 5323,
      "Ġdidnt": 5324,
      "Ø§Øª": 5325,
      "à¸¸": 5326,
      "Russian": 5327,
      "ĠvÃł": 5328,
      "czy": 5329,
      "Ġaller": 5330,
      "Ġà¤ķ": 5331,
      "å¤ĸ": 5332,
      "ĠìĥĿ": 5333,
      "ĠcÃ¢": 5334,
      "íķł": 5335,
      "à¸Ĥ": 5336,
      "è°ĥ": 5337,
      "é¡¹": 5338,
      "Ġumbrella": 5339,
      "Ġì§": 5340,
      "isia": 5341,
      "ëıĦ": 5342,
      "Ġwarns": 5343,
      "wis": 5344,
      "'av": 5345,
      "ujÄħ": 5346,
      "Ġë©": 5347,
      "à¸Ĭ": 5348,
      "Ġstato": 5349,
      "clair": 5350,
      "Ð²ÐµÑĢ": 5351,
      "Ġmart": 5352,
      "Ġjours": 5353,
      "Ġdalla": 5354,
      "Ġkel": 5355,
      "Ġmassacre": 5356,
      "arl": 5357,
      "Ġdost": 5358,
      "Ġeing": 5359,
      "ĠìķĦ": 5360,
      "ìĿĮ": 5361,
      "registr": 5362,
      "Ġtha": 5363,
      "vre": 5364,
      "ê·¸": 5365,
      "Ġheute": 5366,
      "Ġici": 5367,
      "Ġordin": 5368,
      "tanggal": 5369,
      "orrent": 5370,
      "ç¬ĳ": 5371,
      "Ġhoy": 5372,
      "Japan": 5373,
      "Ð¾Ð·Ð²": 5374,
      "-te": 5375,
      "bil": 5376,
      "Ġdecir": 5377,
      "çĽ¸": 5378,
      "ĠÐ½Ð¾Ð²": 5379,
      "Ġsteak": 5380,
      "France": 5381,
      "staw": 5382,
      "jest": 5383,
      "Ġdun": 5384,
      "å¹³": 5385,
      "Ð°Ñĩ": 5386,
      "owaÄĩ": 5387,
      "Ġprzed": 5388,
      "åĲ¬": 5389,
      "Ð¸Ðµ": 5390,
      "ĠBrotherhood": 5391,
      "è§£": 5392,
      "uale": 5393,
      "imas": 5394,
      "Ġëĭ¤": 5395,
      "Ø§Ùħ": 5396,
      "ÐµÐµ": 5397,
      "Ġtego": 5398,
      "ĠdespuÃ©s": 5399,
      "Ġyork": 5400,
      "Ġwithdrawn": 5401,
      "ë¡Ŀ": 5402,
      "Ġdzie": 5403,
      "icias": 5404,
      "Ð°Ð¼Ð¸": 5405,
      "wor": 5406,
      "ÐµÑĤÑģÑı": 5407,
      "ãģį": 5408,
      "à¹Ħ": 5409,
      "Ġletz": 5410,
      "Ġsudah": 5411,
      "iesz": 5412,
      "å¾Ĺ": 5413,
      "ĠÑĤÐ°Ðº": 5414,
      "Ġesa": 5415,
      "áº¡n": 5416,
      "Ġsia": 5417,
      "Ġlebih": 5418,
      "Ġtransferring": 5419,
      "Ġcalend": 5420,
      "akukan": 5421,
      "æĽ´æĸ°": 5422,
      "æĶ¶": 5423,
      "otte": 5424,
      "Ġallen": 5425,
      "Ġmang": 5426,
      "ãģĵãģ®": 5427,
      "ĠÙĨ": 5428,
      "å®ī": 5429,
      "ìĦ¸ìļĶ": 5430,
      "ëĿ¼": 5431,
      "Ġdois": 5432,
      "åıĸæ¶Ī": 5433,
      "åĪĽå»º": 5434,
      "è®¢åįķ": 5435,
      "Ġpouring": 5436,
      "Ġdiesen": 5437,
      "ĠÐ±ÑĥÐ´": 5438,
      "Ġbonne": 5439,
      "ÑĭÐµ": 5440,
      "ÑģÑĤÑĢ": 5441,
      "Ġsworn": 5442,
      "aktu": 5443,
      "Ð°ÑĪ": 5444,
      "ĠìķĬ": 5445,
      "ĠÃ©v": 5446,
      "eti": 5447,
      "ajar": 5448,
      "çľĭ": 5449,
      "Ġkes": 5450,
      "Äĳ": 5451,
      "Ġdzi": 5452,
      "Ã³b": 5453,
      "Ã¶ff": 5454,
      "eker": 5455,
      "ãĥ³ãĥĪ": 5456,
      "Ġoleh": 5457,
      "ÐµÐ½ÑĮ": 5458,
      "Ġsaat": 5459,
      "Ġpresidente": 5460,
      "Ġë©Ķ": 5461,
      "ÐºÐ»ÑİÑĩ": 5462,
      "ienia": 5463,
      "è¡¨ç¤º": 5464,
      "ãĥķ": 5465,
      "éľ": 5466,
      "Ġclashes": 5467,
      "ë¬¸": 5468,
      "Ġquesta": 5469,
      "à¹īà¸Ń": 5470,
      "Ġminutos": 5471,
      "iges": 5472,
      "ĠÐºÐ°Ðº": 5473,
      "spr": 5474,
      "acja": 5475,
      "keiten": 5476,
      "Ġhin": 5477,
      "ãĥĸ": 5478,
      "Ġpedido": 5479,
      "å¸ĥ": 5480,
      "British": 5481,
      "Ġtreffen": 5482,
      "Ġposing": 5483,
      "ĠcafÃ©": 5484,
      "rz": 5485,
      "amu": 5486,
      "'app": 5487,
      "anj": 5488,
      "ĠØ´": 5489,
      "çŁ¥": 5490,
      "mute": 5491,
      "Ġlocales": 5492,
      "ëĲľ": 5493,
      "asz": 5494,
      "ificaciÃ³n": 5495,
      "æ°´": 5496,
      "ĠÃłs": 5497,
      "Ãłi": 5498,
      "Ġbrighter": 5499,
      "ÐºÐµ": 5500,
      "Ġsic": 5501,
      "Ġnast": 5502,
      "ieux": 5503,
      "Ġrepro": 5504,
      "Ġbesten": 5505,
      "å¥½": 5506,
      "ambia": 5507,
      "çī©": 5508,
      "Tok": 5509,
      "áºŃt": 5510,
      "venta": 5511,
      "Ġott": 5512,
      "ìķĦ": 5513,
      "Ãły": 5514,
      "ĠkhÃ´ng": 5515,
      "Ġgio": 5516,
      "ĠaquÃŃ": 5517,
      "Ġjeden": 5518,
      "Ġtg": 5519,
      "ìĬ¤íĬ¸": 5520,
      "Ġchristmas": 5521,
      "-ce": 5522,
      "Ġmute": 5523,
      "æĶ¾": 5524,
      "regist": 5525,
      "iphone": 5526,
      "quina": 5527,
      "ëŀĺ": 5528,
      "Ġdeposited": 5529,
      "Ð¾Ð»ÑĮÐºÐ¾": 5530,
      "ĠØ§ÙĦÙħ": 5531,
      "ì¶": 5532,
      "cura": 5533,
      "bis": 5534,
      "ĠëķĮ": 5535,
      "ĠlÃ¡": 5536,
      "ê³¼": 5537,
      "ĠØ±": 5538,
      "Ġbuen": 5539,
      "icionar": 5540,
      "cem": 5541,
      "ãģĻãĤĭ": 5542,
      "Ġfiat": 5543,
      "Ìģ": 5544,
      "Ġdisco": 5545,
      "Ġdomic": 5546,
      "Ġíķĺ": 5547,
      "ä¹ĭ": 5548,
      "ãģĭãĤī": 5549,
      "Ġsaya": 5550,
      "åı°": 5551,
      "Ġdavid": 5552,
      "ìĹ´": 5553,
      "Ġswinging": 5554,
      "Ġì¤": 5555,
      "æĺ¾ç¤º": 5556,
      "å·ŀ": 5557,
      "Ġmidi": 5558,
      "Ġvou": 5559,
      "Ġgerne": 5560,
      "Ġëª¨": 5561,
      "rze": 5562,
      "Ġê¸°": 5563,
      "Ġjapan": 5564,
      "Ð¾Ð±Ñī": 5565,
      "Ġpem": 5566,
      "Ġkita": 5567,
      "ubi": 5568,
      "mach": 5569,
      "ìĽĲ": 5570,
      "ì£¼": 5571,
      "Ġmenjadi": 5572,
      "Ġogni": 5573,
      "ucha": 5574,
      "éħį": 5575,
      "oran": 5576,
      "nez": 5577,
      "Ġmeny": 5578,
      "Someone": 5579,
      "ĠÑĪ": 5580,
      "pour": 5581,
      "ochen": 5582,
      "Ġwys": 5583,
      "à¥ĭ": 5584,
      "tere": 5585,
      "Ġessa": 5586,
      "Ġtrabalho": 5587,
      "à¸Ľ": 5588,
      "iran": 5589,
      "cciones": 5590,
      "toc": 5591,
      "Ġê·¸": 5592,
      "Ġtoc": 5593,
      "Ġsiguiente": 5594,
      "Ġzwe": 5595,
      "ãģĹãģŁ": 5596,
      "ĠíĮĮ": 5597,
      "Ġsegunda": 5598,
      "Ġgaz": 5599,
      "ìĤ¬": 5600,
      "Ùī": 5601,
      "Ġcidade": 5602,
      "æµ·": 5603,
      "Ġmeu": 5604,
      "Ġtrois": 5605,
      "å¼Ģå§ĭ": 5606,
      "Ġroku": 5607,
      "rei": 5608,
      "Ø°": 5609,
      "æīĢæľī": 5610,
      "Ġviene": 5611,
      "ÑĥÑĢ": 5612,
      "oger": 5613,
      "ÅĽli": 5614,
      "chs": 5615,
      "Ġprogramm": 5616,
      "èĬĤ": 5617,
      "ĠÐ·Ð°Ð¿Ð¸Ñģ": 5618,
      "assa": 5619,
      "Ġì£¼": 5620,
      "ÐµÑĩ": 5621,
      "à¹Į": 5622,
      "Ġkim": 5623,
      "Ð»ÐµÐ½Ð¸Ðµ": 5624,
      "Ġonze": 5625,
      "éĸĵ": 5626,
      "Ġlivre": 5627,
      "ĠÙĩ": 5628,
      "undi": 5629,
      "ìĥģ": 5630,
      "tin": 5631,
      "æ¯Ķ": 5632,
      "éĹ®": 5633,
      "ë¯¸": 5634,
      "ãĤ·": 5635,
      "ĠÐ´Ð¾": 5636,
      "ãĥĹ": 5637,
      "Ã´le": 5638,
      "Ġmia": 5639,
      "-il": 5640,
      "íĻĶ": 5641,
      "nÄħ": 5642,
      "Ġchinese": 5643,
      "ĠìłĦ": 5644,
      "ĠestÃ£o": 5645,
      "ìĹĲìĦľ": 5646,
      "Ġalex": 5647,
      "Ġdow": 5648,
      "lover": 5649,
      "Ġgeben": 5650,
      "ifie": 5651,
      "iej": 5652,
      "ä½ł": 5653,
      "bies": 5654,
      "alarm": 5655,
      "ĠÙĦ": 5656,
      "ãģĤãĤĬ": 5657,
      "ĠÐ¿ÑĢÐµÐ´": 5658,
      "ãĥĨ": 5659,
      "Ġhamburg": 5660,
      "Ġbardzo": 5661,
      "ãĤĪ": 5662,
      "Ġsoir": 5663,
      "ÅĽcie": 5664,
      "Ġsulla": 5665,
      "Ġë¦¬": 5666,
      "roma": 5667,
      "-par": 5668,
      "ìĹ¬": 5669,
      "orda": 5670,
      "ëıĻ": 5671,
      "Ġvier": 5672,
      "zin": 5673,
      "ìŀ¬": 5674,
      "uestas": 5675,
      "łí": 5676,
      "ĠÐ¶": 5677,
      "ä¸İ": 5678,
      "ìĺ¤": 5679,
      "ãģĿãģ®": 5680,
      "è¯Ŀ": 5681,
      "Ġseguir": 5682,
      "Ġroma": 5683,
      "Ġdang": 5684,
      "Ġdrei": 5685,
      "Ġtahun": 5686,
      "Ġbomber": 5687,
      "zych": 5688,
      "ĠìłĢìŀ¥": 5689,
      "è¯»": 5690,
      "ç¾İ": 5691,
      "ĠAUD": 5692,
      "äºĭä»¶": 5693,
      "owo": 5694,
      "ê²Į": 5695,
      "å±±": 5696,
      "Ġì¶Ķ": 5697,
      "ãģĪ": 5698,
      "Ø¶": 5699,
      "Ð´ÐµÐ»": 5700,
      "Ġsala": 5701,
      "à¹īà¸²": 5702,
      "Ð¶Ðµ": 5703,
      "ĠÐ»Ð¸": 5704,
      "ATO": 5705,
      "stellen": 5706,
      "ì¤": 5707,
      "von": 5708,
      "iÃ¨res": 5709,
      "ĠÐ·Ð°Ðº": 5710,
      "ĠbÄĻdzie": 5711,
      "Ġspielen": 5712,
      "ĠÑĤÐ¾": 5713,
      "unas": 5714,
      "ĠÐ´Ð¾Ð±Ð°Ð²": 5715,
      "Ġprendre": 5716,
      "Ġwelche": 5717,
      "chains": 5718,
      "å¤į": 5719,
      "æīĭæľº": 5720,
      "uger": 5721,
      "ioso": 5722,
      "åįĹ": 5723,
      "Ġharus": 5724,
      "å¿ħ": 5725,
      "Ġbers": 5726,
      "Ġsatu": 5727,
      "Äĥng": 5728,
      "ãģ¤": 5729,
      "ÙĪØ±": 5730,
      "ĠìĿ¸": 5731,
      "ä¸ŃåĽ½": 5732,
      "xin": 5733,
      "gende": 5734,
      "Ð¸ÑĢÐ¾Ð²": 5735,
      "Ã³a": 5736,
      "ĠwÃ¼rde": 5737,
      "ÑĪÐµ": 5738,
      "Ġmau": 5739,
      "Ġpuedes": 5740,
      "Ġgiorn": 5741,
      "Ġpian": 5742,
      "Ġdopo": 5743,
      "è¿ĳ": 5744,
      "Ġora": 5745,
      "Ã³r": 5746,
      "Ã¼nst": 5747,
      "Ġrejects": 5748,
      "owied": 5749,
      "Ġintellig": 5750,
      "alten": 5751,
      "Ġenvoy": 5752,
      "åĪ©": 5753,
      "ç§»": 5754,
      "zÄĻ": 5755,
      "ĠÐºÐ»Ð°ÑģÑģ": 5756,
      "ì¹ĺ": 5757,
      "Ġcá»§a": 5758,
      "ãĤµ": 5759,
      "Ġmarc": 5760,
      "Ġerh": 5761,
      "apr": 5762,
      "ĠØ³": 5763,
      "Ġjac": 5764,
      "ĠmÃºs": 5765,
      "à¸ŀ": 5766,
      "niej": 5767,
      "é¦ĸ": 5768,
      "Ġhoch": 5769,
      "Ġìłķë³´": 5770,
      "orea": 5771,
      "Ġrapp": 5772,
      "à¤¨": 5773,
      "ieber": 5774,
      "Ġtopping": 5775,
      "Ð½Ð¾ÑģÑĤÑĮ": 5776,
      "ëŁ¬": 5777,
      "ãĥ¼ãĤ¹": 5778,
      "ëĤĺ": 5779,
      "owej": 5780,
      "ikit": 5781,
      "à¸Ī": 5782,
      "Ġzam": 5783,
      "ãģĦãģ¾ãģĻ": 5784,
      "Ġapa": 5785,
      "Ġtarde": 5786,
      "è¥¿": 5787,
      "ĠÐ¿Ð¾ÑģÐ»": 5788,
      "Ġíķ´": 5789,
      "Ġdni": 5790,
      "hei": 5791,
      "ãĤģ": 5792,
      "Ġwyn": 5793,
      "Ġtard": 5794,
      "arseille": 5795,
      "Ġmemes": 5796,
      "anst": 5797,
      "Ġhaut": 5798,
      "prech": 5799,
      "Ġprimo": 5800,
      "Ġíķľ": 5801,
      "Ã³j": 5802,
      "Ġthi": 5803,
      "Ġchanger": 5804,
      "irim": 5805,
      "ĠÃºltimo": 5806,
      "Ġsamp": 5807,
      "ĠpolÃŃtica": 5808,
      "ĠÐ±ÑĭÑĤÑĮ": 5809,
      "Ġwithdrew": 5810,
      "Ð»ÐµÐ½Ð¸Ñı": 5811,
      "Iran": 5812,
      "íļĮ": 5813,
      "ĠhÃłng": 5814,
      "Ġdernier": 5815,
      "Ġlouder": 5816,
      "ãĤŃ": 5817,
      "altung": 5818,
      "Ġzosta": 5819,
      "arkan": 5820,
      "Ġbanyak": 5821,
      "quoi": 5822,
      "Ġtej": 5823,
      "ĠcÃ´ng": 5824,
      "izia": 5825,
      "Ġlondon": 5826,
      "Ġìłľ": 5827,
      "jad": 5828,
      "Ġë§Į": 5829,
      "Ġminha": 5830,
      "ÑĭÑħ": 5831,
      "å¦Ĥæŀľ": 5832,
      "vrir": 5833,
      "ê°Ħ": 5834,
      "iego": 5835,
      "Ġcanc": 5836,
      "Ġalarms": 5837,
      "jak": 5838,
      "Ġgehen": 5839,
      "Ġbesoin": 5840,
      "iÄĻ": 5841,
      "ĠnÃ¤ch": 5842,
      "Ġenviar": 5843,
      "Bang": 5844,
      "Ġvolum": 5845,
      "Ġbeneficiary": 5846,
      "Ġurges": 5847,
      "dre": 5848,
      "kas": 5849,
      "åĪ«": 5850,
      "å¹¶": 5851,
      "Ġíģ´": 5852,
      "Ġvog": 5853,
      "iad": 5854,
      "ãģ¿": 5855,
      "ÄĻp": 5856,
      "auss": 5857,
      "ãĥ¼ãĥ«": 5858,
      "ë¶Ģ": 5859,
      "Ġguardar": 5860,
      "å¿ĥ": 5861,
      "Ġrussian": 5862,
      "Ð¸Ð»": 5863,
      "ĠÙħÙĨ": 5864,
      "ĠkaÅ¼": 5865,
      "Ġë³´": 5866,
      "ĠØ£": 5867,
      "æķ´": 5868,
      "ÑĥÐ±": 5869,
      "Ġdunk": 5870,
      "ĠÄĳÆ°á»£c": 5871,
      "amenti": 5872,
      "quÃ©": 5873,
      "Ġort": 5874,
      "Ġpemb": 5875,
      "åĽĽ": 5876,
      "ãĤ»": 5877,
      "Ġë°ĺ": 5878,
      "ĠcÃ©": 5879,
      "fait": 5880,
      "usu": 5881,
      "Ġfatto": 5882,
      "Ġtua": 5883,
      "ĠMali": 5884,
      "Gun": 5885,
      "-feira": 5886,
      "Ġquello": 5887,
      "Ġforte": 5888,
      "roz": 5889,
      "wiÄĻ": 5890,
      "ĠthÃłnh": 5891,
      "ziel": 5892,
      "ãĤ¦": 5893,
      "æ¶Īæģ¯": 5894,
      "ãģķãģĦ": 5895,
      "å¤´": 5896,
      "Ġluz": 5897,
      "æĺ¯åĲ¦": 5898,
      "éĤ®": 5899,
      "zimmer": 5900,
      "ãĥ¼ãĥī": 5901,
      "ĠÑĩÐ¸ÑģÐ»Ð¾": 5902,
      "ĠìŀĪëĬĶ": 5903,
      "redi": 5904,
      "åı¸": 5905,
      "liste": 5906,
      "engo": 5907,
      "à¸·à¹Ī": 5908,
      "éĹ¨": 5909,
      "atÃ³rio": 5910,
      "à¤ķ": 5911,
      "à¹Īà¸²": 5912,
      "å®¢": 5913,
      "Ġmadrid": 5914,
      "ëĭ¹": 5915,
      "Ġbuena": 5916,
      "Ġëı": 5917,
      "ëĵ¤": 5918,
      "akhir": 5919,
      "zeÅĦ": 5920,
      "ÑģÐº": 5921,
      "Ġperk": 5922,
      "çī¹": 5923,
      "ê²½": 5924,
      "tur": 5925,
      "Ġlavoro": 5926,
      "Ġdepois": 5927,
      "Ø§Ø¯": 5928,
      "Ġfais": 5929,
      "Ġespresso": 5930,
      "Ã¨te": 5931,
      "Ġì¡°": 5932,
      "Ġrendez": 5933,
      "Ġreminders": 5934,
      "ĠgÅĤ": 5935,
      "Ġench": 5936,
      "Ġagora": 5937,
      "Ġkannst": 5938,
      "ãĥĲ": 5939,
      "ìłĦ": 5940,
      "ĠìĦ¤ìłķ": 5941,
      "ĠkÃ¼": 5942,
      "ãĥĥãĥĪ": 5943,
      "ÐµÐ¿": 5944,
      "ufe": 5945,
      "ÑĥÐº": 5946,
      "Ð»Ð¸ÑĨ": 5947,
      "ĠëĤ´": 5948,
      "Ġsushi": 5949,
      "à¸±à¸Ļ": 5950,
      "ĠmÃ¶chte": 5951,
      "íķĺê¸°": 5952,
      "Ġding": 5953,
      "Ð¸Ð»ÑĮ": 5954,
      "ãģ©": 5955,
      "czas": 5956,
      "Ð¸Ñħ": 5957,
      "prÃ¼": 5958,
      "Ġpours": 5959,
      "Ġì§Ģ": 5960,
      "ëĮĢ": 5961,
      "iete": 5962,
      "ĠÐºÐ¾ÑĢ": 5963,
      "Ġtengo": 5964,
      "ĠãĤ³": 5965,
      "Ġletzten": 5966,
      "Ġpaul": 5967,
      "Ġaconte": 5968,
      "Ġgerade": 5969,
      "ukkan": 5970,
      "åĮħ": 5971,
      "ãĥĩ": 5972,
      "hay": 5973,
      "ÑģÑĤÐ°Ð½Ð¾Ð²": 5974,
      "ä¸ľ": 5975,
      "Ġbitte": 5976,
      "illez": 5977,
      "Ñį": 5978,
      "Ġkem": 5979,
      "Ġpierws": 5980,
      "Ġromant": 5981,
      "Æ¡n": 5982,
      "ãĥŀ": 5983,
      "Putin": 5984,
      "rego": 5985,
      "iap": 5986,
      "Ġcommande": 5987,
      "iÄĩ": 5988,
      "ĠÑįÑĤÐ¾": 5989,
      "kir": 5990,
      "å½ĵåīį": 5991,
      "hapus": 5992,
      "ppelin": 5993,
      "Ġstellen": 5994,
      "Ġà¤¸": 5995,
      "Ġìŀĳ": 5996,
      "ĠØŃ": 5997,
      "Ġentend": 5998,
      "kur": 5999,
      "Ġbaru": 6000,
      "Ġaggi": 6001,
      "ĠÑģÐº": 6002,
      "åĲ¯": 6003,
      "Ġì¶Ķê°Ģ": 6004,
      "inem": 6005,
      "jourd": 6006,
      "ëį": 6007,
      "ĠÐ±ÑĥÐ´ÐµÑĤ": 6008,
      "Ġverifying": 6009,
      "unj": 6010,
      "nero": 6011,
      "ÑĢÐ¾Ð²ÐµÑĢ": 6012,
      "åĮĹäº¬": 6013,
      "Ġmio": 6014,
      "boa": 6015,
      "Ġtrong": 6016,
      "ç®Ĺ": 6017,
      "ziaÅĤ": 6018,
      "æ±Ł": 6019,
      "zioni": 6020,
      "Thai": 6021,
      "acje": 6022,
      "Ġhospitalized": 6023,
      "éĩĮ": 6024,
      "Ð¸Ð³": 6025,
      "Ġchaud": 6026,
      "ÙĪØ¯": 6027,
      "ä»½": 6028,
      "ãĥĶ": 6029,
      "Ġllevar": 6030,
      "zyÄĩ": 6031,
      "Ġgusta": 6032,
      "Ġfuera": 6033,
      "Ø£": 6034,
      "Ġhari": 6035,
      "Ġmondo": 6036,
      "æ°ĳ": 6037,
      "isz": 6038,
      "Ġatm": 6039,
      "buat": 6040,
      "Ð½Ð¸Ðº": 6041,
      "Ð°Ð¹Ð´": 6042,
      "æ²»": 6043,
      "Ġbele": 6044,
      "å£°": 6045,
      "ãĤĦ": 6046,
      "Ġamigo": 6047,
      "Ġhaus": 6048,
      "Ġcinco": 6049,
      "ĠmÃºsica": 6050,
      "ãĤ«": 6051,
      "Ġsangat": 6052,
      "ĠÐ¸Ð³": 6053,
      "Ġsalle": 6054,
      "ãĤ¹ãĥĪ": 6055,
      "ë¹Ħ": 6056,
      "Ġë¡": 6057,
      "ngo": 6058,
      "Ø§Ø¨": 6059,
      "Ġzad": 6060,
      "Ġdonner": 6061,
      "Ġdez": 6062,
      "ĠprÃ³ximo": 6063,
      "indre": 6064,
      "æ²¡": 6065,
      "Ġì¤ĳ": 6066,
      "Ġë¡ľ": 6067,
      "ĠÃºltima": 6068,
      "opi": 6069,
      "Ġactivating": 6070,
      "annya": 6071,
      "Ġê²ĥ": 6072,
      "Ġmeiner": 6073,
      "æį¢": 6074,
      "Ġmemiliki": 6075,
      "ãģıãģłãģķãģĦ": 6076,
      "Ġduas": 6077,
      "éĥ½": 6078,
      "ãĥ¥": 6079,
      "à¹ģ": 6080,
      "Ġjorn": 6081,
      "åºĹ": 6082,
      "Ġschl": 6083,
      "Ã³mo": 6084,
      "ĠÐ·Ð°Ð³": 6085,
      "Ġincontro": 6086,
      "Ġsemaine": 6087,
      "èµ·": 6088,
      "noÅĽÄĩ": 6089,
      "bz": 6090,
      "Ġxa": 6091,
      "Ġalguna": 6092,
      "Ġkho": 6093,
      "bright": 6094,
      "âĢļ": 6095,
      "Ġming": 6096,
      "ĠaÃ±": 6097,
      "æĭī": 6098,
      "ç±³": 6099,
      "à¸°": 6100,
      "Ġyuan": 6101,
      "ĠÐµÐ³Ð¾": 6102,
      "à¤Ĥ": 6103,
      "Ġsecara": 6104,
      "ysz": 6105,
      "tell": 6106,
      "Ġeventos": 6107,
      "aniu": 6108,
      "iciar": 6109,
      "æ»": 6110,
      "ĠÐ½Ð°Ñĩ": 6111,
      "ë§Į": 6112,
      "à¥ģ": 6113,
      "Ð¾Ð»Ð¾Ð²": 6114,
      "Ġponer": 6115,
      "Ġnuovo": 6116,
      "ÙĪÙĦ": 6117,
      "changer": 6118,
      "åľŁ": 6119,
      "uais": 6120,
      "Shares": 6121,
      "Ġzab": 6122,
      "Ġmnie": 6123,
      "Ġìĺ¤": 6124,
      "orsi": 6125,
      "Ġajust": 6126,
      "ĠÐ´Ð²": 6127,
      "æ¯ı": 6128,
      "Ġhoje": 6129,
      "Ġverde": 6130,
      "Ġconna": 6131,
      "daq": 6132,
      "ĠÙĬ": 6133,
      "ç®±": 6134,
      "ĠÑģÐ¿Ð¸ÑģÐ¾Ðº": 6135,
      "Ġbombings": 6136,
      "å¾Į": 6137,
      "ÙĬØ©": 6138,
      "ĠëĤĺ": 6139,
      "Ġê°ľ": 6140,
      "Ġqua": 6141,
      "Ġcloudy": 6142,
      "ĠgÃ©": 6143,
      "ĠÄĳi": 6144,
      "Ġmaintenant": 6145,
      "aktiv": 6146,
      "kish": 6147,
      "ernes": 6148,
      "ĠÑĤÐ¾Ð»ÑĮÐºÐ¾": 6149,
      "Ġë°°": 6150,
      "åı¯ä»¥": 6151,
      "Ġsagen": 6152,
      "Ġapril": 6153,
      "Ġgrub": 6154,
      "Ġalgunas": 6155,
      "Ġquelle": 6156,
      "Ġdime": 6157,
      "ĠíĻķìĿ¸": 6158,
      "arme": 6159,
      "Ġlagi": 6160,
      "Ġë¹Ħ": 6161,
      "Ġkab": 6162,
      "esz": 6163,
      "åıĺ": 6164,
      "rello": 6165,
      "Ġquoi": 6166,
      "Ġtutte": 6167,
      "ĽĦ": 6168,
      "ĠsÅĤ": 6169,
      "ahkan": 6170,
      "Ġcuc": 6171,
      "ĠØ®": 6172,
      "Ġimportantes": 6173,
      "ienie": 6174,
      "ÅĤem": 6175,
      "istes": 6176,
      "berapa": 6177,
      "Ġnoche": 6178,
      "ĠÅĤ": 6179,
      "Ġaujourd": 6180,
      "heure": 6181,
      "Ġë°©": 6182,
      "dzi": 6183,
      "ingt": 6184,
      "elah": 6185,
      "åħ³éĹŃ": 6186,
      "ĠannÃ©e": 6187,
      "Ġheures": 6188,
      "éĴŁ": 6189,
      "à¸³": 6190,
      "ãĤ¤ãĥ³": 6191,
      "ghi": 6192,
      "ankan": 6193,
      "äºĶ": 6194,
      "Ġwissen": 6195,
      "Ġnied": 6196,
      "ĠÐ¿Ð¾Ð¼": 6197,
      "ãĤ¸": 6198,
      "æľ¨": 6199,
      "æīĵ": 6200,
      "zik": 6201,
      "ãģĳ": 6202,
      "Ġcouleur": 6203,
      "æ´»": 6204,
      "ãĤ¨": 6205,
      "æĴŃ": 6206,
      "Ġflorida": 6207,
      "à¸²à¸£": 6208,
      "ãģ£ãģ¦": 6209,
      "Ġhut": 6210,
      "è¯¥": 6211,
      "hari": 6212,
      "ĠÐ½ÑĥÐ¶": 6213,
      "Ġcuatro": 6214,
      "ãģ§ãģ¯": 6215,
      "è¨ĺäºĭ": 6216,
      "Ġaplik": 6217,
      "á»Ŀ": 6218,
      "Ã®t": 6219,
      "ĠmÃŃ": 6220,
      "ìĭĿ": 6221,
      "Ð½ÑĥÑİ": 6222,
      "akah": 6223,
      "ìĥĿ": 6224,
      "raison": 6225,
      "leurs": 6226,
      "ĠvÃ©r": 6227,
      "Ġmusica": 6228,
      "ĠìĤŃìłľ": 6229,
      "ãģĿãĤĮ": 6230,
      "Ġcambi": 6231,
      "Ġurgently": 6232,
      "uellement": 6233,
      "Ġheure": 6234,
      "Ġpob": 6235,
      "ĠÐ¿ÐµÑĢÐ²": 6236,
      "jej": 6237,
      "ÑģÑĤÑĢÐ¾Ð¹": 6238,
      "omba": 6239,
      "attro": 6240,
      "Ġcheque": 6241,
      "phoon": 6242,
      "ãĤı": 6243,
      "icho": 6244,
      "Ġzeit": 6245,
      "ìĥī": 6246,
      "ĠÙģÙĬ": 6247,
      "ãģĹãģ¾ãģĻ": 6248,
      "Äĥm": 6249,
      "ãĥģ": 6250,
      "æĺŁ": 6251,
      "ãĤº": 6252,
      "Ġtys": 6253,
      "Ġneste": 6254,
      "Ġsemua": 6255,
      "ä¸¤": 6256,
      "Pale": 6257,
      "ãĥĭ": 6258,
      "ãĥ¼ãĤ¸": 6259,
      "Ã¡o": 6260,
      "ĠÙĤ": 6261,
      "kraine": 6262,
      "Ġwelt": 6263,
      "ĠÑĢÐ°Ñģ": 6264,
      "åł±": 6265,
      "ãĤ¤ãĥĪ": 6266,
      "Ġcena": 6267,
      "çĲĥ": 6268,
      "Ġquelque": 6269,
      "Ð¼Ð¾Ð¶": 6270,
      "cis": 6271,
      "ê³µ": 6272,
      "Ġspiel": 6273,
      "ÐµÐºÑģ": 6274,
      "ĠcÃ¡c": 6275,
      "belum": 6276,
      "Ġquella": 6277,
      "imu": 6278,
      "angi": 6279,
      "à¤¸": 6280,
      "Ġê°Ļ": 6281,
      "Ġentrega": 6282,
      "Ġexchanging": 6283,
      "kus": 6284,
      "increase": 6285,
      "ĠmÃ¼nchen": 6286,
      "enk": 6287,
      "Ġmies": 6288,
      "ãģ¾ãģĹãģŁ": 6289,
      "éŁ³": 6290,
      "Ð½Ðµ": 6291,
      "Ġsaja": 6292,
      "Ġcolore": 6293,
      "á»Ł": 6294,
      "ÅĽnie": 6295,
      "Ġcalifornia": 6296,
      "aÄĩ": 6297,
      "Ġnouvelles": 6298,
      "ë²Ħ": 6299,
      "Ġked": 6300,
      "ĠsarÃł": 6301,
      "ĠÄĳÃ£": 6302,
      "ĠÐµÑģÑĤÑĮ": 6303,
      "Ġbaik": 6304,
      "ĠìĬ": 6305,
      "à¤¤": 6306,
      "Ġfriday": 6307,
      "ĠheiÃŁ": 6308,
      "çģ«": 6309,
      "ëªħ": 6310,
      "cip": 6311,
      "ĠÄĳá»ĥ": 6312,
      "onald": 6313,
      "ãĥĳ": 6314,
      "ë¶Ħ": 6315,
      "æ¸ħ": 6316,
      "voy": 6317,
      "Ġdici": 6318,
      "Ø¯ÙĬ": 6319,
      "Ħìŀ¬": 6320,
      "ĠrÃ³Å¼": 6321,
      "Ġsve": 6322,
      "Ġgiorno": 6323,
      "china": 6324,
      "Thousands": 6325,
      "å°±": 6326,
      "erais": 6327,
      "Ġpog": 6328,
      "æ²¡æľī": 6329,
      "ĠwiÄĻcej": 6330,
      "Æ°Æ¡": 6331,
      "ĠpassÃ©": 6332,
      "ìĻĢ": 6333,
      "à¹īà¸Ńà¸¡": 6334,
      "ÅĤe": 6335,
      "ÐµÐ»Ðµ": 6336,
      "Ġpuedo": 6337,
      "spiel": 6338,
      "ìľĦ": 6339,
      "å¹¿": 6340,
      "ÙĦØ§": 6341,
      "Ġfrat": 6342,
      "cil": 6343,
      "ceu": 6344,
      "íģ¬": 6345,
      "ĠÑĩÑĤÐ¾Ð±Ñĭ": 6346,
      "ç¡®è®¤": 6347,
      "åİĨ": 6348,
      "Ġpracy": 6349,
      "Ġmeinen": 6350,
      "unya": 6351,
      "Ġestoy": 6352,
      "ubah": 6353,
      "Ġminut": 6354,
      "Ġseventeen": 6355,
      "Ġimpost": 6356,
      "Ġbarcelona": 6357,
      "æŃ¢": 6358,
      "ificaÃ§Ã£o": 6359,
      "ungi": 6360,
      "Ġdap": 6361,
      "ĠtrÃªs": 6362,
      "iedy": 6363,
      "ĠbyÅĤ": 6364,
      "ëĵł": 6365,
      "Ġë°Ķ": 6366,
      "Øº": 6367,
      "Ð»Ð¾Ð¶": 6368,
      "Ġenam": 6369,
      "æĻĤéĸĵ": 6370,
      "usta": 6371,
      "ĠÅĽw": 6372,
      "Ġboa": 6373,
      "ellung": 6374,
      "æĸĩç«ł": 6375,
      "á»įc": 6376,
      "Ã¼gen": 6377,
      "éĺ³": 6378,
      "ĠktÃ³ra": 6379,
      "éĺŁ": 6380,
      "ĠØ¬": 6381,
      "ouve": 6382,
      "Ġkolej": 6383,
      "ìĭł": 6384,
      "ÑĥÐ¹": 6385,
      "lus": 6386,
      "arÃŃa": 6387,
      "Ġxe": 6388,
      "Ġpouco": 6389,
      "Ġtemperatura": 6390,
      "Ġwithdrawing": 6391,
      "åĪĨéĴŁ": 6392,
      "ëĭĪ": 6393,
      "ê¹": 6394,
      "Ġraining": 6395,
      "ĠGBP": 6396,
      "à¹ĩ": 6397,
      "ê¸Ģ": 6398,
      "Ġì´Ī": 6399,
      "ãĥ¼ãĥĪ": 6400,
      "Ġgrazing": 6401,
      "kah": 6402,
      "Ġdziew": 6403,
      "rete": 6404,
      "ĠìĹ¬": 6405,
      "à¸±à¸ļ": 6406,
      "ĠìĿ¼": 6407,
      "ÙĦÙī": 6408,
      "à¸·à¸Ń": 6409,
      "ĠÑģÐ¿": 6410,
      "Ġà¤ª": 6411,
      "Ġsui": 6412,
      "Ø¨Ø±": 6413,
      "Ġrouge": 6414,
      "Ġlem": 6415,
      "Ġaktual": 6416,
      "ĠalgÃºn": 6417,
      "Ġà¤¹": 6418,
      "Ġprise": 6419,
      "Ġviet": 6420,
      "Ġindonesia": 6421,
      "kÄĻ": 6422,
      "áº¥y": 6423,
      "Ø«": 6424,
      "Ġlokal": 6425,
      "ãģĵãĤĮ": 6426,
      "Ġë²Ī": 6427,
      "ë©Ķ": 6428,
      "Ð¾ÑģÑĤÐ¸": 6429,
      "Ġdesta": 6430,
      "à¸ľ": 6431,
      "Ġcoz": 6432,
      "coles": 6433,
      "Ġslicing": 6434,
      "Ġbeberapa": 6435,
      "Ġfora": 6436,
      "Ø±ÙĪ": 6437,
      "ç§ģ": 6438,
      "à¥įà¤°": 6439,
      "à¸´à¸Ļ": 6440,
      "ìĤ°": 6441,
      "éľĢè¦ģ": 6442,
      "á»ı": 6443,
      "ĠÑĤÐµÐºÑĥÑī": 6444,
      "ĠØ¥": 6445,
      "Ġkamu": 6446,
      "Ġwithdrawals": 6447,
      "coni": 6448,
      "Ġcalor": 6449,
      "ĠjournÃ©e": 6450,
      "åħ¨éĥ¨": 6451,
      "ì§Ħ": 6452,
      "åİ»": 6453,
      "åįİ": 6454,
      "Ġë¶Ģ": 6455,
      "Ã¡nt": 6456,
      "ÐµÑī": 6457,
      "Ġmarzo": 6458,
      "Æ°á»Ŀi": 6459,
      "Ġnuova": 6460,
      "uste": 6461,
      "Egypt": 6462,
      "Ġgiorni": 6463,
      "Ġitalia": 6464,
      "èı": 6465,
      "Ġláº¡i": 6466,
      "Ġwaktu": 6467,
      "ĠÑĤÑĢ": 6468,
      "ÑĤÑĭ": 6469,
      "Ġeuropean": 6470,
      "orque": 6471,
      "ĠìļĶ": 6472,
      "angkan": 6473,
      "à¹Ħà¸¡": 6474,
      "è©±": 6475,
      "ĠÐ¾ÑĤÐ¿ÑĢÐ°Ð²": 6476,
      "Ġfrying": 6477,
      "çķª": 6478,
      "ĠvÃło": 6479,
      "à¤ª": 6480,
      "Ġaku": 6481,
      "çİ¯": 6482,
      "å¼ł": 6483,
      "à¸ĵ": 6484,
      "Ã©rt": 6485,
      "Ġseis": 6486,
      "Ð¾Ð´Ð°": 6487,
      "Ġë²Ħ": 6488,
      "Ġchambre": 6489,
      "ÑĨÐ°": 6490,
      "ĠÐ·Ð°ÐºÐ°Ð·": 6491,
      "Ġspaghetti": 6492,
      "ĠÙĥ": 6493,
      "ÃĦ": 6494,
      "Ġcita": 6495,
      "'hui": 6496,
      "ilihan": 6497,
      "quelle": 6498,
      "Ġporter": 6499,
      "à¤®": 6500,
      "åĨį": 6501,
      "Ġirgend": 6502,
      "åı¯èĥ½": 6503,
      "Ġabril": 6504,
      "æļ": 6505,
      "ĠMandela": 6506,
      "stinian": 6507,
      "Ġquake": 6508,
      "spotify": 6509,
      "ĠÐºÐ¾": 6510,
      "íķĺì§Ģ": 6511,
      "Ð½Ð¸ÐºÐ°": 6512,
      "Ġust": 6513,
      "ëª©": 6514,
      "Ġbaja": 6515,
      "ĠderniÃ¨re": 6516,
      "Ġë³Ģê²½": 6517,
      "Ġvedere": 6518,
      "Ġpizzas": 6519,
      "Ġspotify": 6520,
      "çĶµè¯Ŀ": 6521,
      "chine": 6522,
      "Ġmichael": 6523,
      "Ġingin": 6524,
      "ulares": 6525,
      "ãĥĿ": 6526,
      "Ġpanda": 6527,
      "Pakistan": 6528,
      "ÐµÑģÑĤÐ¸": 6529,
      "eliminar": 6530,
      "êµ¬": 6531,
      "ä»Ĭå¹´": 6532,
      "áº¡o": 6533,
      "Ġpotrze": 6534,
      "Ġtakeaway": 6535,
      "Ġlyon": 6536,
      "ÑĢÐ°Ð·": 6537,
      "Ã©o": 6538,
      "á»ĥm": 6539,
      "cznie": 6540,
      "ì°": 6541,
      "Ġmusique": 6542,
      "Ġoggi": 6543,
      "æµģ": 6544,
      "Ġeins": 6545,
      "Ã¹ng": 6546,
      "Ġmeinem": 6547,
      "Ġê°Ģìł¸": 6548,
      "Ġartikel": 6549,
      "antar": 6550,
      "è§ģ": 6551,
      "ikut": 6552,
      "ç»Ļ": 6553,
      "Ġqualche": 6554,
      "Ġì»": 6555,
      "zego": 6556,
      "ÑıÑĤ": 6557,
      "porter": 6558,
      "ëĶĶ": 6559,
      "baru": 6560,
      "Ġbáº¡n": 6561,
      "Ġdomingo": 6562,
      "wel": 6563,
      "Ġcocina": 6564,
      "Ġintelig": 6565,
      "ìķ¼": 6566,
      "ÃŃcia": 6567,
      "Ġpronto": 6568,
      "Ġphoenix": 6569,
      "à¸ģà¸£": 6570,
      "ãĤª": 6571,
      "wake": 6572,
      "ìľ¼ë©´": 6573,
      "ãĥł": 6574,
      "ĠÐ½Ð°Ð¿": 6575,
      "Ġvener": 6576,
      "ĠprÃ³xima": 6577,
      "ĠÃ©c": 6578,
      "ĠÐ¼Ð¾Ð¶Ð½Ð¾": 6579,
      "ãĥĵ": 6580,
      "Ġvais": 6581,
      "ĠìĹĲ": 6582,
      "apatkan": 6583,
      "ĠÐ¿Ð¾ÑģÐ»ÐµÐ´": 6584,
      "è¦ĭ": 6585,
      "Ġì¹": 6586,
      "åĭķ": 6587,
      "ÐµÑĢÐ°": 6588,
      "Ã¤hl": 6589,
      "Ġtaco": 6590,
      "æł·": 6591,
      "Ġtanggal": 6592,
      "ĠnÃ¤chsten": 6593,
      "à¸¹à¸¥": 6594,
      "Ġà¤®": 6595,
      "niejs": 6596,
      "Ø¯Ùĩ": 6597,
      "Ø§Ø³": 6598,
      "ĠÐ±ÐµÐ·": 6599,
      "Ġgrac": 6600,
      "ì£¼ìĦ¸ìļĶ": 6601,
      "åıª": 6602,
      "Ġquiero": 6603,
      "ĠmÃº": 6604,
      "èĢģ": 6605,
      "ĠÐ²ÑĢÐµÐ¼Ñı": 6606,
      "à¤²": 6607,
      "Singapore": 6608,
      "Ġspiele": 6609,
      "amedi": 6610,
      "Ø¥": 6611,
      "Ã³nica": 6612,
      "Ġalgumas": 6613,
      "jadi": 6614,
      "Ġtentang": 6615,
      "ĠØµ": 6616,
      "Ġmá»Ľi": 6617,
      "æī¾": 6618,
      "ê±°": 6619,
      "Ġchicago": 6620,
      "ĠÐ·Ð°Ð²": 6621,
      "isci": 6622,
      "alte": 6623,
      "Æ°a": 6624,
      "Ġsunday": 6625,
      "zap": 6626,
      "Ø¸": 6627,
      "ãĥ©ãĥ³": 6628,
      "ĠthÃ´ng": 6629,
      "pizza": 6630,
      "å°ıæĹ¶": 6631,
      "ĠkÃ¶ln": 6632,
      "porto": 6633,
      "nio": 6634,
      "Ġxu": 6635,
      "Ġê´Ģ": 6636,
      "ì¡°": 6637,
      "Ġpeny": 6638,
      "Ġnajle": 6639,
      "ndern": 6640,
      "Ġnga": 6641,
      "Ġpeux": 6642,
      "Ġmonday": 6643,
      "Ġentreg": 6644,
      "izzer": 6645,
      "ãĥ³ãĤ°": 6646,
      "Ġrefunded": 6647,
      "Ġlaut": 6648,
      "ÙĬØ±": 6649,
      "Ġreverted": 6650,
      "Ġwashington": 6651,
      "ìļ´": 6652,
      "Ġìĭľìŀĳ": 6653,
      "Ð½Ð¾Ð¼": 6654,
      "à¸ģà¸²à¸£": 6655,
      "ÑıÑĤÑĮ": 6656,
      "ä¾¡": 6657,
      "à¤¹": 6658,
      "Ġpeter": 6659,
      "æ°Ĺ": 6660,
      "çº¦": 6661,
      "ĠãĤĴ": 6662,
      "éĢŁ": 6663,
      "ĠíĽĦ": 6664,
      "Ã´m": 6665,
      "ÑĥÐ³": 6666,
      "Ġà¹Ģ": 6667,
      "Ġfeliz": 6668,
      "åįģ": 6669,
      "Ġquali": 6670,
      "itag": 6671,
      "Ġtá»«": 6672,
      "Ġessen": 6673,
      "Ã³st": 6674,
      "ntag": 6675,
      "ĠØ§ÙĦØª": 6676,
      "Ġkhi": 6677,
      "Ġgia": 6678,
      "Ġdispositivo": 6679,
      "Ġíķł": 6680,
      "ĠhÃ¤tte": 6681,
      "ĠsÃ¡ch": 6682,
      "ĠìķĪ": 6683,
      "ÙĬÙĦ": 6684,
      "ëĤ´": 6685,
      "Ġrosa": 6686,
      "Ġê°ĢëĬ¥": 6687,
      "ãĥĬ": 6688,
      "Ġostat": 6689,
      "ä¸ĵ": 6690,
      "Ġstanza": 6691,
      "Ġdemasi": 6692,
      "uÃ©": 6693,
      "à¸ĸ": 6694,
      "ĠmaÃ±ana": 6695,
      "Ġë§Ī": 6696,
      "Ġnoticias": 6697,
      "ĠìĺĪ": 6698,
      "zac": 6699,
      "Ġflute": 6700,
      "awy": 6701,
      "Ġchu": 6702,
      "Ð°Ð»Ð°": 6703,
      "Ø§Ùģ": 6704,
      "Ġë°ľ": 6705,
      "ĠÑģÐ°Ð¼": 6706,
      "ĠfÃ¼n": 6707,
      "íķ´ìĦľ": 6708,
      "Ð¸ÑĤÑģÑı": 6709,
      "Ð¾Ð½ÑĤ": 6710,
      "pesan": 6711,
      "Ġchopping": 6712,
      "como": 6713,
      "ampilkan": 6714,
      "Ġbella": 6715,
      "éĽ·": 6716,
      "eczy": 6717,
      "ĠnÃły": 6718,
      "ÌĢ": 6719,
      "æŃ£åľ¨": 6720,
      "Ġãģ®": 6721,
      "Ġalgum": 6722,
      "Ġcoisa": 6723,
      "Iraq": 6724,
      "contra": 6725,
      "Ð¾Ð±ÑĭÑĤÐ¸": 6726,
      "Ġdua": 6727,
      "ĠÑĥÑģÐ»": 6728,
      "Ġbais": 6729,
      "ĠcittÃł": 6730,
      "Ġdak": 6731,
      "äºĽ": 6732,
      "Ġtert": 6733,
      "Ġprogramma": 6734,
      "ĠëĲĺ": 6735,
      "Ġaktuellen": 6736,
      "produce": 6737,
      "åĢį": 6738,
      "Ġguarda": 6739,
      "èªŃ": 6740,
      "cosa": 6741,
      "ĠsÃ¡bado": 6742,
      "blings": 6743,
      "á»ķi": 6744,
      "æĪĳçļĦ": 6745,
      "æĪĳä»¬": 6746,
      "Ð°ÑĤÑĮÑģÑı": 6747,
      "ĠÐºÐ¾ÑĤÐ¾ÑĢÑĭÐ¹": 6748,
      "Ġcomida": 6749,
      "Ġbestellen": 6750,
      "åıĭ": 6751,
      "Ġsinh": 6752,
      "ë³µ": 6753,
      "Ġletto": 6754,
      "à¸µà¸¢": 6755,
      "ungkin": 6756,
      "Ġskateboard": 6757,
      "ĠíļĮ": 6758,
      "Ġconseg": 6759,
      "Israeli": 6760,
      "ĠlÃ²ng": 6761,
      "Ġquatre": 6762,
      "Ø§Ø¡": 6763,
      "Ð¾ÑģÑĮ": 6764,
      "ä½ķ": 6765,
      "é¢Ħ": 6766,
      "ãĥĢ": 6767,
      "Ġíı¬": 6768,
      "Ġdanh": 6769,
      "Ġê²Į": 6770,
      "Ð´Ðµ": 6771,
      "å°Ķ": 6772,
      "Ġjouer": 6773,
      "à¸²à¸": 6774,
      "à¥Ī": 6775,
      "à¥ĩà¤Ĥ": 6776,
      "à¤¾à¤°": 6777,
      "Ġà¤¬": 6778,
      "Ġà¤ľ": 6779,
      "à¤Ĺ": 6780,
      "Ġà¤¨": 6781,
      "Ġà¤ħ": 6782,
      "Ġà¤µ": 6783,
      "Ġà¤¦": 6784,
      "Ġà¤²": 6785,
      "à¥Ĥ": 6786,
      "à¤¦": 6787,
      "à¸Ńà¸ĩ": 6788,
      "ÙĪÙĨ": 6789,
      "à¤µ": 6790,
      "à¹Ĥ": 6791,
      "Ġà¤°": 6792,
      "à¥įà¤¯": 6793,
      "à¤¾à¤¨": 6794,
      "Ø§Ùĩ": 6795,
      "à¥ĭà¤Ĥ": 6796,
      "à¤¯": 6797,
      "ĠØ¨Ø±": 6798,
      "Ġà¤Ĩ": 6799,
      "à¤¿à¤¯": 6800,
      "ÙĬÙĨ": 6801,
      "Ġà¤¤": 6802,
      "ÑĩÐ¸": 6803,
      "Ġà¤ķà¤°": 6804,
      "Ø§Ø²": 6805,
      "Ġà¤ī": 6806,
      "à¤¬": 6807,
      "ØªØ±": 6808,
      "ÙĩØ§": 6809,
      "Ġà¤Ĺ": 6810,
      "à¤ľ": 6811,
      "à¸²à¸Ļ": 6812,
      "Ġà¤Ń": 6813,
      "à¤¿à¤ķ": 6814,
      "à¸²à¸¢": 6815,
      "Ø§ÙĪ": 6816,
      "Ġà¤Ķà¤°": 6817,
      "à¤¡": 6818,
      "Ġà¤ĩ": 6819,
      "à¥įà¤¤": 6820,
      "à¤Ł": 6821,
      "ĠØ²": 6822,
      "à¸²à¸ĩ": 6823,
      "Ġà¹Ģà¸": 6824,
      "Ø§ÙĬ": 6825,
      "ÑĢÐµ": 6826,
      "åĴ": 6827,
      "Ø§Ø´": 6828,
      "à¤¾à¤²": 6829,
      "ëħĦ": 6830,
      "Ġà¤¯": 6831,
      "à¤¼": 6832,
      "ÑĥÐ²": 6833,
      "ÙĪÙħ": 6834,
      "à¥Īà¤Ĥ": 6835,
      "à¸²à¸¡": 6836,
      "Ġmá»Ļt": 6837,
      "Ġà¤ı": 6838,
      "Ġà¤ªà¤°": 6839,
      "ĠØ§ÙĨ": 6840,
      "Ġvá»Ľi": 6841,
      "à¤ļ": 6842,
      "à¸²à¸ģ": 6843,
      "Ø§Ø¹": 6844,
      "à¹ģà¸¥": 6845,
      "Ġngh": 6846,
      "à¹ĥà¸Ļ": 6847,
      "à¤¿à¤¤": 6848,
      "à¥įà¤Ł": 6849,
      "Ð»Ñĥ": 6850,
      "Ø±ÙĬ": 6851,
      "Ð½Ð¸Ñħ": 6852,
      "ÑĢÐ¾": 6853,
      "Ġà¤ļ": 6854,
      "à¤¾à¤¤": 6855,
      "Ø§ÙĤ": 6856,
      "Ġà¤¶": 6857,
      "ĠÄĳá»Ļ": 6858,
      "iá»ģu": 6859,
      "à¸¨": 6860,
      "ĠnÄĥ": 6861,
      "ÐºÐ¸Ð¹": 6862,
      "à¥įà¤µ": 6863,
      "ĠØ§ÙĦØ£": 6864,
      "Ø§Ø¦": 6865,
      "ĠØ·": 6866,
      "ÙħØ§ÙĨ": 6867,
      "Ð´Ð¸": 6868,
      "à¸¶": 6869,
      "à¤¿à¤ı": 6870,
      "ãģ£ãģŁ": 6871,
      "çĤ": 6872,
      "à¸Ńà¸Ļ": 6873,
      "à¤¿à¤²": 6874,
      "à¤§": 6875,
      "à¹ģà¸¥à¸°": 6876,
      "ØªÙĩ": 6877,
      "ĠÙħØ¹": 6878,
      "Ð½Ð¸Ð¹": 6879,
      "ĠØ§ÙĦØ¹": 6880,
      "Ø±Ø¨": 6881,
      "à¤¾à¤®": 6882,
      "Ġà¤ĩà¤¸": 6883,
      "à¤¿à¤¸": 6884,
      "á»¯ng": 6885,
      "à¤¾à¤Ĥ": 6886,
      "à¹ĩà¸Ļ": 6887,
      "Ġà¤¥": 6888,
      "Ã¢y": 6889,
      "ĠÙħÙĪ": 6890,
      "ĠngÆ°á»Ŀi": 6891,
      "ÙĬØ¯": 6892,
      "Ø§ØŃ": 6893,
      "Ùĭ": 6894,
      "ĠÑĢÐ¾Ð·": 6895,
      "à¹Ģà¸Ľ": 6896,
      "à¸±à¸ĩ": 6897,
      "Ð»Ðµ": 6898,
      "à¤¾à¤¯": 6899,
      "ÙĪØ§ÙĨ": 6900,
      "Ġthá»ĥ": 6901,
      "à¸±à¸ģ": 6902,
      "Ġà¤ıà¤ķ": 6903,
      "ìĽĶ": 6904,
      "Ġà¸Ħ": 6905,
      "à¤¿à¤¨": 6906,
      "Ġnhá»¯ng": 6907,
      "ĠnhÆ°": 6908,
      "à¹Ģà¸£": 6909,
      "Ġà¸ª": 6910,
      "à¤£": 6911,
      "à¤¶": 6912,
      "ĠÙħØŃ": 6913,
      "ÙĦÙĬ": 6914,
      "à¥įà¤·": 6915,
      "à¸±à¹ī": 6916,
      "ĠÐ¿Ð¾Ñģ": 6917,
      "à¥įà¤®": 6918,
      "Ø±Ùģ": 6919,
      "à¤Ń": 6920,
      "à¹Ħà¸Ķ": 6921,
      "ãģªãģĦ": 6922,
      "ĠØ¹ÙĦÙī": 6923,
      "Ð´Ñĥ": 6924,
      "Ð°ÑĢÐ°": 6925,
      "à¤¾à¤¦": 6926,
      "ÙĦÙĩ": 6927,
      "ÙĦÙħ": 6928,
      "à¸Ĥà¸Ńà¸ĩ": 6929,
      "à¥Ģà¤Ĥ": 6930,
      "Ġà¤«": 6931,
      "à¤¾à¤¸": 6932,
      "à¹ĥà¸«": 6933,
      "Ð¾Ð²Ð°": 6934,
      "à¸Ńà¸¢": 6935,
      "ĠnÄĥm": 6936,
      "à¤Ī": 6937,
      "Ġà¤ĸ": 6938,
      "Ø¦": 6939,
      "ĠØ§ÙĦØ³": 6940,
      "Ø§Ø¬": 6941,
      "ÙħØ§": 6942,
      "êµŃ": 6943,
      "Ð¾Ñİ": 6944,
      "Ø¯Ø±": 6945,
      "à¹Ģà¸ģ": 6946,
      "à¸ł": 6947,
      "Ã¡ng": 6948,
      "à¥ĩà¤¶": 6949,
      "à¸ĭ": 6950,
      "à¥ĭà¤Ĺ": 6951,
      "à¤¾à¤ľ": 6952,
      "Ð°Ñħ": 6953,
      "à¤¿à¤°": 6954,
      "à¸²à¸ª": 6955,
      "Ġtáº¡i": 6956,
      "ĠØº": 6957,
      "Ø§Ø®": 6958,
      "ĠØ§ÙĦØŃ": 6959,
      "ĠÐ±Ñĥ": 6960,
      "Ġvá»ģ": 6961,
      "ÙħÙĦ": 6962,
      "à¸Ľà¸£à¸°": 6963,
      "Ġà¤°à¤¹": 6964,
      "Ø¹Ø¯": 6965,
      "ĠØ¨Ø§ÙĦ": 6966,
      "à¸²à¸§": 6967,
      "ÙĪØ¨": 6968,
      "ë§Ī": 6969,
      "à¥Į": 6970,
      "à¤ı": 6971,
      "Ð½ÑĭÐ¼": 6972,
      "ÙħÙĨ": 6973,
      "ÙĪØ³": 6974,
      "ĠlÃłm": 6975,
      "ĠÄĳáº¿n": 6976,
      "à¤ªà¤¨": 6977,
      "ĠÙĦÙĦ": 6978,
      "à¤¾à¤¹": 6979,
      "ĠÙħØ±": 6980,
      "à¸Ńà¸£": 6981,
      "à¸±à¸Ķ": 6982,
      "nou": 6983,
      "à¸¹à¹ī": 6984,
      "à¹Ģà¸¥": 6985,
      "ĠÄĳÃ³": 6986,
      "ĠÙģØ±": 6987,
      "Ø§Ø±Ø¯": 6988,
      "à¸Ħà¸£": 6989,
      "à¥įà¤¥": 6990,
      "ÙĩØ±": 6991,
      "à¥ī": 6992,
      "à¥ģà¤°": 6993,
      "Ġà¸ģ": 6994,
      "à¸²à¸Ħ": 6995,
      "Ġà¤¸à¤®": 6996,
      "Ġviá»ĩc": 6997,
      "Ġsáº½": 6998,
      "ÙĬÙħ": 6999,
      "£p": 7000,
      "à¤¾à¤µ": 7001,
      "à¥įà¤¸": 7002,
      "Ġà¸ŀ": 7003,
      "Ã´i": 7004,
      "Ġá»Ł": 7005,
      "ĠtrÃªn": 7006,
      "à¸Ł": 7007,
      "ĠÐ²Ð¾": 7008,
      "à¥Ĥà¤°": 7009,
      "ĠÄĳá»Ļng": 7010,
      "ÙĪØ¹": 7011,
      "Ġquan": 7012,
      "Ġà¤¨à¤¹": 7013,
      "çĿĢ": 7014,
      "à¸ķà¸£": 7015,
      "ĠØ£ÙĨ": 7016,
      "éĤ£": 7017,
      "Ġà¸¡": 7018,
      "ØªÙħ": 7019,
      "ĠØ¨ÙĨ": 7020,
      "à¸«à¸Ļ": 7021,
      "Ð»Ð¸Ð²": 7022,
      "ĠÙħØ´": 7023,
      "Ø§Ø·": 7024,
      "Ø¨ÙĬ": 7025,
      "Ġà¸£": 7026,
      "ÙĦØ§Ùħ": 7027,
      "Ġhiá»ĩn": 7028,
      "ç³": 7029,
      "Ġà¤ķà¤°à¤¨": 7030,
      "Ġà¸Ń": 7031,
      "ĠÙħØª": 7032,
      "à¸´à¸Ķ": 7033,
      "ĠØ§ÙĦÙĤ": 7034,
      "Ġà¤¯à¤¹": 7035,
      "Ġà¸Ĺ": 7036,
      "ÙĩÙħ": 7037,
      "à¹Ģà¸Ķ": 7038,
      "Ġà¹ģ": 7039,
      "Ġà¹Ĥ": 7040,
      "Å©ng": 7041,
      "ÙģØ±": 7042,
      "ĠÐ¿Ð¾Ðº": 7043,
      "ĠØ§ÙĦÙĨ": 7044,
      "ĠnhÃł": 7045,
      "à¹Ģà¸Ĺ": 7046,
      "Ø§Øµ": 7047,
      "ĠÄĳáº§u": 7048,
      "à¥ĩà¤ķ": 7049,
      "ÑĢÐ¾Ð¼": 7050,
      "ãģĵãģ¨": 7051,
      "ĠØ§Ø±": 7052,
      "ĠØªØŃ": 7053,
      "à¥įà¤²": 7054,
      "à¥įà¤ķ": 7055,
      "ĠmÃł": 7056,
      "Ġà¸Ī": 7057,
      "à¤«": 7058,
      "ĠØ¹ÙĨ": 7059,
      "æķĻ": 7060,
      "à¤¿à¤Ĥ": 7061,
      "Ġsá»±": 7062,
      "ëį°": 7063,
      "à¹Īà¸ĩ": 7064,
      "ØªØ¨": 7065,
      "Ġnhiá»ģu": 7066,
      "Ġà¸«": 7067,
      "ĠchÃŃnh": 7068,
      "Ġbá»ĭ": 7069,
      "Ã¡nh": 7070,
      "ĠÙħØ³": 7071,
      "á»ĭch": 7072,
      "à¹Īà¸²à¸ĩ": 7073,
      "Ġà¸Ľ": 7074,
      "Ð±Ð¾ÑĤ": 7075,
      "ÙĪÙĤ": 7076,
      "ë¥´": 7077,
      "Ġcáº£": 7078,
      "à¹īà¸Ńà¸ĩ": 7079,
      "à¹īà¸§": 7080,
      "à¸Ńà¸ģ": 7081,
      "à¤ĸ": 7082,
      "ë¬´": 7083,
      "Ãło": 7084,
      "Ġà¤Ĩà¤ª": 7085,
      "Ġà¤ħà¤ªà¤¨": 7086,
      "ĠØ§ÙĦØ¨": 7087,
      "à¥ĭà¤¨": 7088,
      "Ġà¤Ł": 7089,
      "Ġà¤īà¤¸": 7090,
      "Ġà¤¡": 7091,
      "à¸µà¹ī": 7092,
      "áº·t": 7093,
      "æĸ¯": 7094,
      "Ġëį": 7095,
      "ĠÐ¿Ð»": 7096,
      "ê³Ħ": 7097,
      "Ø³Ùħ": 7098,
      "áº¯c": 7099,
      "Ġà¤¸à¤ķ": 7100,
      "Ġà¸Ļ": 7101,
      "à¤¾à¤¥": 7102,
      "ĠÙħÙĤ": 7103,
      "Ġtheo": 7104,
      "ĠØ§ÙĦØ´": 7105,
      "à¹Ģà¸ŀ": 7106,
      "à¹Ģà¸Ĥ": 7107,
      "à¤¿à¤¶": 7108,
      "à¤¾à¤ĩ": 7109,
      "Ø§Ùĥ": 7110,
      "ĠÑĢÐ¾Ðº": 7111,
      "Ġpháº£i": 7112,
      "à¸Ħà¸§à¸²à¸¡": 7113,
      "æĥ³": 7114,
      "Ġnháº¥t": 7115,
      "à¸Ńà¸¡": 7116,
      "ÙĪØ´": 7117,
      "ÙģØª": 7118,
      "ĠØ§ÙĦØ¬": 7119,
      "ìĺģ": 7120,
      "ĠØ¥ÙĦÙī": 7121,
      "ìĹħ": 7122,
      "ĠØªØ±": 7123,
      "ĠØ§ÙĦÙĥ": 7124,
      "à¥įà¤¦": 7125,
      "ëł¤": 7126,
      "ĠthÃ¬": 7127,
      "Ø³Ø¨": 7128,
      "Ġà¹ģà¸¥à¸°": 7129,
      "ÙĦÙĥ": 7130,
      "ĠngÃły": 7131,
      "à¥ĥ": 7132,
      "Ġà¸ķ": 7133,
      "çĶ°": 7134,
      "à¸±à¸§": 7135,
      "ê¸Ī": 7136,
      "Ġìĸ´": 7137,
      "à¹Ģà¸¡": 7138,
      "à¸²à¸Ĺ": 7139,
      "Ġà¸ļ": 7140,
      "ìĦł": 7141,
      "à¤¿à¤µ": 7142,
      "ê¹Į": 7143,
      "ĠÑģÐ»Ñĥ": 7144,
      "Ġà¤Ĺà¤¯": 7145,
      "ÙĬØ§": 7146,
      "à¤Ĥà¤¤": 7147,
      "ëłĪ": 7148,
      "à¥ĩà¤¤": 7149,
      "ĠØ§ÙĦØ¥": 7150,
      "Ð¿Ð¾Ð²": 7151,
      "ĠnÃ³": 7152,
      "ÙĪØ¬": 7153,
      "ãģĤãĤĭ": 7154,
      "à¸Ńà¸ļ": 7155,
      "ÙĪÙĬ": 7156,
      "à¤ķà¤°": 7157,
      "ìķĪ": 7158,
      "ĠhÆ¡n": 7159,
      "Ġà¤ķà¤¹": 7160,
      "Ø§Ø¶": 7161,
      "ãĥŁ": 7162,
      "ãĤĪãģĨ": 7163,
      "ÐµÑĢÐ¸": 7164,
      "íĶĦ": 7165,
      "Ø®Ø±": 7166,
      "à¥ĭà¤¤": 7167,
      "ÐºÐ¾Ð¹": 7168,
      "à¸«à¸¥": 7169,
      "ĠÄĳá»ģ": 7170,
      "ÙĬÙģ": 7171,
      "Ġthá»Ŀi": 7172,
      "ĠìĨĮ": 7173,
      "à¸ĩà¸²à¸Ļ": 7174,
      "ĠÙħØ§": 7175,
      "à¤Ĥà¤Ĺ": 7176,
      "ĠÄĳá»ĵng": 7177,
      "Ã²n": 7178,
      "à¥ģà¤²": 7179,
      "à¥įà¤ª": 7180,
      "ÙħØ±": 7181,
      "Ð¿ÑĢÐ¸": 7182,
      "à¤¾à¤ª": 7183,
      "Ġà¤ħà¤¨": 7184,
      "ÙĦÙģ": 7185,
      "ĠÐ½Ð°Ð´": 7186,
      "à¥ĩà¤Ł": 7187,
      "Ġë§Ĳ": 7188,
      "ĠìĬ¤": 7189,
      "à¸´à¸ķ": 7190,
      "ìĭ¤": 7191,
      "à¥Ģà¤¨": 7192,
      "à¥ĩà¤¨": 7193,
      "ĠØ°": 7194,
      "à¹Ħà¸Ľ": 7195,
      "à¥ĭà¤°": 7196,
      "à¸¸à¸Ķ": 7197,
      "ĠØ§ÙĦØ±": 7198,
      "Ġà¤¸à¤ķà¤¤": 7199,
      "à¹īà¸²à¸Ļ": 7200,
      "ĠtrÃ¬nh": 7201,
      "ĠØ§ÙĦÙģ": 7202,
      "Ð¾Ð³Ð´Ð°": 7203,
      "à¸Ĺà¸¢": 7204,
      "ØŃØ¯": 7205,
      "à¸ģà¸¥": 7206,
      "Ø¨Ùĩ": 7207,
      "ĠÄĳiá»ģu": 7208,
      "ìľł": 7209,
      "à¤¾à¤ķ": 7210,
      "à¹Īà¸Ļ": 7211,
      "à¸¹à¹Ī": 7212,
      "Ġìĭł": 7213,
      "ÙĭØ§": 7214,
      "ãĥİ": 7215,
      "Ġpháº§n": 7216,
      "à¸Īà¸°": 7217,
      "áº¯t": 7218,
      "Ø±Ø©": 7219,
      "à¸´à¸ĩ": 7220,
      "à¸´à¹Ī": 7221,
      "à¤¾à¤Ī": 7222,
      "ìĹ°": 7223,
      "ĠØ§ÙĦØµ": 7224,
      "ëĭ¨": 7225,
      "Ø¨Ø¯": 7226,
      "à¥įà¤¹": 7227,
      "íķĺê³ł": 7228,
      "ĠØªØ¹": 7229,
      "ç¥ŀ": 7230,
      "Ġdá»±": 7231,
      "à¹Ģà¸«": 7232,
      "Ð°Ð½Ð°": 7233,
      "Ġà¤ªà¤¹": 7234,
      "Ġcao": 7235,
      "à¤¾à¤ı": 7236,
      "à¥ĩà¤²": 7237,
      "à¹Ģà¸ª": 7238,
      "à¥ģà¤¨": 7239,
      "Ġà¸§": 7240,
      "ĠØ«": 7241,
      "å¤ª": 7242,
      "Ġà¤¬à¤¨": 7243,
      "ĠlÆ°á»£ng": 7244,
      "Ġë¯¸": 7245,
      "ÙĪØª": 7246,
      "à¥Ģà¤¯": 7247,
      "à¸Īà¸²à¸ģ": 7248,
      "ĠthÃ¡ng": 7249,
      "à¸«à¸£": 7250,
      "åħī": 7251,
      "åĤ": 7252,
      "ÙĦØ©": 7253,
      "Ġê±°": 7254,
      "ĠÑĩÐ°Ñģ": 7255,
      "ì¹´": 7256,
      "ĠÐ·Ð°Ð±": 7257,
      "ÙĥØ©": 7258,
      "Ð²Ð¾": 7259,
      "Ø¹Ø©": 7260,
      "ÑĥÑĪ": 7261,
      "ĠÑĤÐµÐ¼": 7262,
      "ÙĬØª": 7263,
      "ìĹĪ": 7264,
      "Ø°Ø§": 7265,
      "ìłĢ": 7266,
      "ĠÐ½Ð°Ñģ": 7267,
      "ÑģÐºÐ¾Ð¹": 7268,
      "ÙĤÙĦ": 7269,
      "à¸²à¸¥": 7270,
      "ÙĬØ³": 7271,
      "ë°©": 7272,
      "à¥įà¤ļ": 7273,
      "ĠnÃªn": 7274,
      "Ð½Ð¸Ðµ": 7275,
      "ĠØ§ÙĦØ®": 7276,
      "à¹Ģà¸§": 7277,
      "à¥įà¤¨": 7278,
      "à¸´à¹Ĥ": 7279,
      "íĮĮ": 7280,
      "ĠãĢģ": 7281,
      "Ø´Ø±": 7282,
      "æ©Ł": 7283,
      "à¥ĩà¤°": 7284,
      "ë§¤": 7285,
      "à¸²à¸Ķ": 7286,
      "ĠØ¶": 7287,
      "à¥ģà¤ķ": 7288,
      "ì°¨": 7289,
      "ÙĨØ§": 7290,
      "çİĭ": 7291,
      "à¸ļà¸£": 7292,
      "Ġà¤ķà¤°à¤¤": 7293,
      "åħĭ": 7294,
      "à¸±à¹Ī": 7295,
      "Æ¡i": 7296,
      "ëª¨": 7297,
      "å£«": 7298,
      "ÙĬÙĥ": 7299,
      "à¸²à¸ķ": 7300,
      "à¤¥": 7301,
      "Ġà¤²à¤Ĺ": 7302,
      "ìĺĢ": 7303,
      "ĠÐ°Ð½": 7304,
      "ĠphÃ¡t": 7305,
      "ÙĤØ©": 7306,
      "Ġtháº¿": 7307,
      "ì²ľ": 7308,
      "à¹ĥà¸Ĭ": 7309,
      "ÙĤØ¯": 7310,
      "ÑģÐºÐ¸Ð¹": 7311,
      "à¥įà¤¡": 7312,
      "ÙĪÙģ": 7313,
      "Ø§Ø±ÙĬ": 7314,
      "å¾·": 7315,
      "à¸´à¸¡": 7316,
      "å¾Ī": 7317,
      "ÑģÐ°": 7318,
      "à¹Ģà¸Ħ": 7319,
      "ë¯¼": 7320,
      "à¸¶à¹Ī": 7321,
      "ĠliÃªn": 7322,
      "ĠÙĩØ§": 7323,
      "Ġà¤®à¤¹": 7324,
      "à¸´à¸ģ": 7325,
      "ĠÐ¿ÑĢÐ¾ÑĨ": 7326,
      "Ġcáº§n": 7327,
      "Ġbá»Ļ": 7328,
      "ĠnháºŃn": 7329,
      "ÙĬÙĩ": 7330,
      "äºļ": 7331,
      "Ġà¤ĺ": 7332,
      "æĿĳ": 7333,
      "Ð½Ñİ": 7334,
      "à¤¾à¤Ĺ": 7335,
      "Ġà¸Ķ": 7336,
      "áº£m": 7337,
      "à¹Ģà¸ķ": 7338,
      "ÙĦØ¨": 7339,
      "ÑĭÑĪ": 7340,
      "à¥Īà¤¸": 7341,
      "à¹Īà¸Ń": 7342,
      "ÑĭÐ¼": 7343,
      "ÙĥÙĨ": 7344,
      "ëħ¸": 7345,
      "Ġà¸Ĭ": 7346,
      "à¹Ģà¸Ń": 7347,
      "Ð¸Ð½Ñĥ": 7348,
      "å·Ŀ": 7349,
      "ĠëıĦ": 7350,
      "ĠØªÙħ": 7351,
      "íŀĪ": 7352,
      "ì¤ĳ": 7353,
      "Ð¸ÑĤÑĮÑģÑı": 7354,
      "Ġà¤µà¤¹": 7355,
      "éĽ»": 7356,
      "ĠÐ¼Ð¸": 7357,
      "ØµÙĦ": 7358,
      "ë°ĺ": 7359,
      "à¥ĩà¤ĸ": 7360,
      "à¹Ĩ": 7361,
      "ĠÐ½Ð¸": 7362,
      "Ġráº¥t": 7363,
      "à¤¾à¤°à¤¤": 7364,
      "à¥ĩà¤¸": 7365,
      "à¥ĭà¤²": 7366,
      "ìķĺ": 7367,
      "ĠØ¬Ø¯": 7368,
      "à¸·à¹ī": 7369,
      "Ġbáº£n": 7370,
      "Ġà¤¹à¤®": 7371,
      "à¸¶à¸ĩ": 7372,
      "æĿ±": 7373,
      "à¥įà¤§": 7374,
      "à¸Ļà¸Ĺ": 7375,
      "Ġà¤§": 7376,
      "ĠìĿĺ": 7377,
      "ÙĨØ©": 7378,
      "à¥Ģà¤ķ": 7379,
      "íı¬": 7380,
      "ĠØªÙĨ": 7381,
      "Ġà¤ħà¤§": 7382,
      "à¹Īà¸²à¸Ļ": 7383,
      "à¤Ĥà¤¦": 7384,
      "à¥Ģà¤°": 7385,
      "Ø°Ùĩ": 7386,
      "ĠtÆ°": 7387,
      "Ø´ÙĨ": 7388,
      "çĻ½": 7389,
      "Ð¾ÑģÐ¿": 7390,
      "ãģŃ": 7391,
      "Ġtá»Ľi": 7392,
      "Ġìļ°": 7393,
      "ìłĲ": 7394,
      "à¹Ģà¸Ĭ": 7395,
      "à¥Ģà¤¤": 7396,
      "ĠÙĩÙĪ": 7397,
      "à¥Ĥà¤ª": 7398,
      "çħ": 7399,
      "ĠìĦ¸": 7400,
      "Ġà¸Ĥ": 7401,
      "ëŀĮ": 7402,
      "ĠÐ¼Ð¾Ð³": 7403,
      "ÙĨÙĬ": 7404,
      "à¤¾à¤¬": 7405,
      "ĠØ§ÙĬ": 7406,
      "à¤¿à¤®": 7407,
      "ä»Ģä¹Ī": 7408,
      "à¸¸à¹Ī": 7409,
      "à¹īà¸²à¸ĩ": 7410,
      "ĠØ§Ø¹": 7411,
      "ëĦ¤": 7412,
      "Ð¾Ñħ": 7413,
      "Æ°u": 7414,
      "à¸Ĺà¸£": 7415,
      "ĠÐ¿Ð¾Ð¿": 7416,
      "à¸¸à¸ĵ": 7417,
      "è»Ĭ": 7418,
      "à¥įà¤°à¤¤": 7419,
      "Ġthá»ĭ": 7420,
      "ĠÄĳiá»ĩn": 7421,
      "ìĸĳ": 7422,
      "à¸ªà¸¡": 7423,
      "Ġgian": 7424,
      "à¸Ľà¸£": 7425,
      "Ġà¤Ľ": 7426,
      "Ø§ÙĦÙħ": 7427,
      "ëįĺ": 7428,
      "Ġtiáº¿p": 7429,
      "ĠÑģÑĢÐµÐ´": 7430,
      "Ø§Ø«": 7431,
      "Ġë¶Ħ": 7432,
      "ë°Ķ": 7433,
      "Ø±Ùĩ": 7434,
      "Ð²Ðµ": 7435,
      "ĠØ§ÙĦØ·": 7436,
      "Ø¨Ø§Ø±": 7437,
      "à¤ł": 7438,
      "ä½ı": 7439,
      "à¸¹à¸ģ": 7440,
      "à¥ĩà¤µ": 7441,
      "Ġthá»©c": 7442,
      "Ġà¤¤à¤ķ": 7443,
      "à¤¼à¤¾": 7444,
      "à¸Ĺà¸³": 7445,
      "Ø±Ùħ": 7446,
      "ĠmÃ¡y": 7447,
      "à¸«à¸¡": 7448,
      "Ġìŀ¥": 7449,
      "Ø³ÙĬ": 7450,
      "Ø¹ÙĦ": 7451,
      "ĠÙĥØ§ÙĨ": 7452,
      "ì²Ń": 7453,
      "ãĥı": 7454,
      "ØªÙĬ": 7455,
      "ĠØ¨Ø¹Ø¯": 7456,
      "ãģ«ãģ¯": 7457,
      "ÑĨÐµ": 7458,
      "Ġëħ¸": 7459,
      "æĪ¿": 7460,
      "ĠìķĮ": 7461,
      "Ãªu": 7462,
      "à¹Ģà¸Ī": 7463,
      "Ġà¸ĭ": 7464,
      "ìĦĿ": 7465,
      "ÙĥØ§ÙĨ": 7466,
      "à¤¢": 7467,
      "à¤¾à¤ĵ": 7468,
      "ĠÐ·Ð²": 7469,
      "ĠÐ´Ð¾Ð¼": 7470,
      "à¥įà¤¯à¤ķ": 7471,
      "à¸¶à¸ģ": 7472,
      "à¥ĭà¤ľ": 7473,
      "Ø¨Øª": 7474,
      "à¥ĩà¤ľ": 7475,
      "ĠlÃªn": 7476,
      "ìĨį": 7477,
      "ë°ľ": 7478,
      "Ġà¸ģà¸²à¸£": 7479,
      "æŀĹ": 7480,
      "Ġà¹ĥà¸Ļ": 7481,
      "æ°Ķ": 7482,
      "ĠØ§ØŃ": 7483,
      "à¸´à¹Ĥà¸Ļ": 7484,
      "ĠØªÙĤ": 7485,
      "Ġà¤Ĩà¤ªà¤ķ": 7486,
      "ĠÄĳo": 7487,
      "Ġchá»§": 7488,
      "ĠnÃło": 7489,
      "æĬĬ": 7490,
      "èĬ±": 7491,
      "ÑĩÐµ": 7492,
      "ãĤĵãģł": 7493,
      "ĠÙħØ·": 7494,
      "ĠÐ²Ð·": 7495,
      "ÙĬØ²": 7496,
      "íĭ°": 7497,
      "ì§ĳ": 7498,
      "uyá»ĩn": 7499,
      "åģļ": 7500,
      "éĩİ": 7501,
      "à¹īà¸§à¸¢": 7502,
      "Ð¾Ð½Ð¸": 7503,
      "à¥ģà¤¤": 7504,
      "ĠÄĳÃ¢y": 7505,
      "à¥Ģà¤®": 7506,
      "à¸łà¸²à¸ŀ": 7507,
      "ÙĪØ§": 7508,
      "Ġtá»ĳt": 7509,
      "à¥ĭà¤¡": 7510,
      "ìĹĲê²Į": 7511,
      "à¤Ĥà¤¡": 7512,
      "ĠÐ¼ÐµÑģÑĤ": 7513,
      "à¤¾à¤ģ": 7514,
      "ĠÄĳang": 7515,
      "à¸Ńà¸Ķ": 7516,
      "ĠphÃ²ng": 7517,
      "ĠtrÆ°á»Ľc": 7518,
      "ä¹Ĳ": 7519,
      "ë£¨": 7520,
      "ìļ¸": 7521,
      "ëĵ±": 7522,
      "ÙħØ©": 7523,
      "ĠphÆ°Æ¡ng": 7524,
      "à¸µà¸¢à¸ĩ": 7525,
      "ê°ķ": 7526,
      "à¹īà¸Ļ": 7527,
      "å·¥ä½ľ": 7528,
      "ÙĬØ¹": 7529,
      "ĠØ§ÙĦÙĦ": 7530,
      "à¤ħ": 7531,
      "à¥ģà¤®": 7532,
      "ÙĤÙĬ": 7533,
      "ãģĦãģŁ": 7534,
      "íĺĦ": 7535,
      "ĠÃ½": 7536,
      "Ġà¤ªà¤¹à¤²": 7537,
      "à¤¿à¤ľ": 7538,
      "à¹īà¸³": 7539,
      "ĠgiÃºp": 7540,
      "Ġà¤ķà¤®": 7541,
      "áºŃy": 7542,
      "ØªØµ": 7543,
      "ĠÐ»ÑİÐ±": 7544,
      "Ġà¸ľ": 7545,
      "ĠÐ½Ð°Ð²": 7546,
      "à¹Īà¸²à¸¢": 7547,
      "Ġà¸¥": 7548,
      "à¤Ĩ": 7549,
      "å¿«": 7550,
      "ÑĢÐµÑģ": 7551,
      "åħ«": 7552,
      "à¤¿à¤Ł": 7553,
      "Ġëĵ¤": 7554,
      "ĠÄĳÆ¡n": 7555,
      "ë¦°": 7556,
      "ĠØ§ÙĦØ«": 7557,
      "æĹ¥æľ¬": 7558,
      "à¹ĩà¸ģ": 7559,
      "åĲ§": 7560,
      "æ¼Ķ": 7561,
      "à¥ĭà¤Ł": 7562,
      "å®¤": 7563,
      "ĠtáºŃp": 7564,
      "é£Ł": 7565,
      "ĠÑĩÐµÑĢÐµÐ·": 7566,
      "ĠÙĦØ§": 7567,
      "Ġì§Ħ": 7568,
      "íĶ¼": 7569,
      "Ø§ÙĨÙĬ": 7570,
      "Ġcháº¿": 7571,
      "åı¤": 7572,
      "ãĥ¢": 7573,
      "ĠtÄĥng": 7574,
      "ĠÙĦÙħ": 7575,
      "ÐµÑĤÐ°": 7576,
      "ĠëįĶ": 7577,
      "ãģĦãģ¦": 7578,
      "Ø¯Ø©": 7579,
      "ãĥªãĥ¼": 7580,
      "à¸¥à¸ĩ": 7581,
      "Ġà¹Ģà¸Ľ": 7582,
      "ĠØªØ¬": 7583,
      "ĠØ§ÙĦØ°": 7584,
      "ÙħØª": 7585,
      "Ġà¤Ĳ": 7586,
      "à¤ĩ": 7587,
      "à¤¾à¤·": 7588,
      "ëŀĳ": 7589,
      "à¹ģà¸ķ": 7590,
      "ĠÐºÐ¾ÑĤÐ¾ÑĢÑĭÐµ": 7591,
      "Ð½Ð¸ÐºÐ¸": 7592,
      "Ø±Ø¶": 7593,
      "á»¯a": 7594,
      "ĠtÃ´i": 7595,
      "Ø²Ø±": 7596,
      "Ø¨Ø©": 7597,
      "ĠÄĥn": 7598,
      "à¥ĩà¤Ĺ": 7599,
      "ì¤Ģ": 7600,
      "ìĭ¬": 7601,
      "Ġbiáº¿t": 7602,
      "ÙģÙĬ": 7603,
      "ä¸ĸçķĮ": 7604,
      "íĸĪ": 7605,
      "Ġà¤µà¤°": 7606,
      "ĠØ§ÙĦØªÙĬ": 7607,
      "Ð½Ð¾Ñģ": 7608,
      "ÑıÑĤÐ¸": 7609,
      "Ġkhoa": 7610,
      "ãģĴ": 7611,
      "Ø´Øª": 7612,
      "à¥Ģà¤µ": 7613,
      "éģ¸": 7614,
      "à¥įà¤ľ": 7615,
      "à¸±à¸Ļà¸Ĺ": 7616,
      "è®©": 7617,
      "ĠØŃØ§ÙĦ": 7618,
      "ì²ĺ": 7619,
      "ãĤ±": 7620,
      "ì¦Ī": 7621,
      "à¤¿à¤ª": 7622,
      "ĠtiÃªu": 7623,
      "ãģ¨ãģĦãģĨ": 7624,
      "ĠìłĢ": 7625,
      "ĠÙħØŃÙħØ¯": 7626,
      "à¸¸à¸¡": 7627,
      "åį¡": 7628,
      "Ġhá»ĵ": 7629,
      "ĠØ´Ùħ": 7630,
      "Ø¨ÙĪ": 7631,
      "ĠthÃªm": 7632,
      "ê¹Įì§Ģ": 7633,
      "à¥ģà¤Ľ": 7634,
      "ãģ»": 7635,
      "çĻ¾": 7636,
      "ĠÐ±ÑĭÐ»Ð¾": 7637,
      "ĠÐ½ÐµÐ´": 7638,
      "à¸µà¸ģ": 7639,
      "ãĤ½": 7640,
      "ĠìĤ¬ëŀĮ": 7641,
      "ĠtÃ¢m": 7642,
      "ĠØ¸": 7643,
      "ãĥ¯": 7644,
      "ĠquÃ¡": 7645,
      "à¸¤": 7646,
      "à¥ģà¤¦": 7647,
      "ĠÙĪØª": 7648,
      "à¸¡à¸²à¸ģ": 7649,
      "åĪĩ": 7650,
      "à¹ĥà¸Ī": 7651,
      "Ġë¶Ī": 7652,
      "ÙĦÙĪ": 7653,
      "Ġgiá»Ľi": 7654,
      "ãģĹãģĦ": 7655,
      "ãĥ©ãĤ¤": 7656,
      "à¥įà¤°à¤¦": 7657,
      "ĠnÃ³i": 7658,
      "ÙĥÙĦ": 7659,
      "à¸´à¸§": 7660,
      "à¥ģà¤ĸ": 7661,
      "ì»": 7662,
      "ÑĤÑĢÐ°": 7663,
      "à¥įà¤¤à¤°": 7664,
      "à¤Ĥà¤¬": 7665,
      "ãĥĻ": 7666,
      "à¹Ģà¸ĭ": 7667,
      "ìĺ¨": 7668,
      "ÙĥÙĬ": 7669,
      "åķĬ": 7670,
      "ãĥ³ãĥī": 7671,
      "à¥ĥà¤¤": 7672,
      "à¥ģà¤Ĩ": 7673,
      "çħ§": 7674,
      "ĠØªØ´": 7675,
      "à¤¾à¤¶": 7676,
      "Ġtháº¥y": 7677,
      "Ġà¤¬à¤¹": 7678,
      "Ø¹Øª": 7679,
      "à¸¶à¹ī": 7680,
      "ÑģÑĤÐ°": 7681,
      "à¥Ģà¤ľ": 7682,
      "ĠÐ±ÑĭÐ»": 7683,
      "Ġìŀ¬": 7684,
      "à¤µà¤°": 7685,
      "íķĺê²Į": 7686,
      "Ø§Ø±Ø©": 7687,
      "à¸ªà¸£": 7688,
      "à¥įà¤°à¤ķ": 7689,
      "ĠbÃ¡o": 7690,
      "à¸Īà¸³": 7691,
      "ëįĶ": 7692,
      "ĠgÃ¬": 7693,
      "à¹Ģà¸ĩ": 7694,
      "ãĤĤãģ®": 7695,
      "ĠÐ¿Ð¾ÑģÐ»Ðµ": 7696,
      "ĠÄĳá»ķi": 7697,
      "íħĮ": 7698,
      "ĠÐ¿Ð¾Ð³": 7699,
      "à¥Ĥà¤²": 7700,
      "Ø§ÙĦÙĬ": 7701,
      "Ø¡": 7702,
      "Ġquá»ĳc": 7703,
      "ÙĪØ·": 7704,
      "ëĭ´": 7705,
      "åĺ": 7706,
      "à¹Ģà¸ļ": 7707,
      "ç¦ı": 7708,
      "à¥Įà¤°": 7709,
      "ĠÑįÑĤÐ¾Ð¼": 7710,
      "à¸ªà¸²à¸¡": 7711,
      "Ã¬m": 7712,
      "Ġà¸Ľà¸£à¸°": 7713,
      "à¤¼à¥Ģ": 7714,
      "à¸µà¸Ļ": 7715,
      "à¥Ģà¤²": 7716,
      "à¸¸à¸ģ": 7717,
      "åĲĹ": 7718,
      "ĠíĺĦ": 7719,
      "à¸ŀà¸£": 7720,
      "Ġkhu": 7721,
      "åħŃ": 7722,
      "à¸Ħà¸Ļ": 7723,
      "ÐµÑĤÑĮ": 7724,
      "ĠÄĳá»ĭa": 7725,
      "ĠÐºÐ¾Ð³Ð´Ð°": 7726,
      "Ġnay": 7727,
      "ëĳĲ": 7728,
      "à¥ģà¤ª": 7729,
      "à¥įà¤°à¤®": 7730,
      "à¸²à¸ļ": 7731,
      "Ġgiao": 7732,
      "ĠÑįÑĤÐ¾Ð³Ð¾": 7733,
      "à¸§à¸ĩ": 7734,
      "ÑĢÐ¾Ð¹": 7735,
      "é£İ": 7736,
      "íıī": 7737,
      "ĠÑĤÑĢÐ¸": 7738,
      "à¥ĭà¤ķ": 7739,
      "ÙĪØ§Ø±": 7740,
      "ä½İ": 7741,
      "ìķ½": 7742,
      "ãĤĵãģª": 7743,
      "à¸£à¸ģ": 7744,
      "à¥ģà¤¸": 7745,
      "ä¹Ŀ": 7746,
      "£i": 7747,
      "éĺ²": 7748,
      "ÙĥØ±": 7749,
      "ãĥ¼ãĥł": 7750,
      "åĦ¿": 7751,
      "à¸Ħà¸¥": 7752,
      "à¥ĭà¤Ī": 7753,
      "à¤Ĺà¤°": 7754,
      "Ġì°¨": 7755,
      "Ø¹Ùħ": 7756,
      "Ø§ÙģØª": 7757,
      "ĠØ£ÙĬ": 7758,
      "åĮ»": 7759,
      "à¤¹à¤°": 7760,
      "ØŃØ©": 7761,
      "à¤¿à¤ĸ": 7762,
      "Ġbao": 7763,
      "à¹Ģà¸Ħà¸£": 7764,
      "ĠØ¨ÙĬÙĨ": 7765,
      "Ø§Øº": 7766,
      "Ġà¸¢": 7767,
      "åįĬ": 7768,
      "éĿĴ": 7769,
      "ëŀĢ": 7770,
      "ĠÐ¿Ð¸": 7771,
      "å®ĥ": 7772,
      "à¤Ĥà¤§": 7773,
      "æľĿ": 7774,
      "ãģ¾ãģ§": 7775,
      "æĽ²": 7776,
      "ä¸ĥ": 7777,
      "å¤ľ": 7778,
      "ĠÐ½ÑĥÐ¶Ð½Ð¾": 7779,
      "çĪ±": 7780,
      "ĠëĦ¤": 7781,
      "ĠÙĥÙĦ": 7782,
      "ÑĪÐ¸Ð¹": 7783,
      "ë¦¼": 7784,
      "ĠÙĩØ°Ø§": 7785,
      "ãģłãģ£ãģŁ": 7786,
      "ÙĬØ±Ø©": 7787,
      "ĠÐ³Ð¾Ð´Ñĥ": 7788,
      "ĠØ³Ø¨": 7789,
      "Ø§Ø±Ø§Øª": 7790,
      "ê²ł": 7791,
      "Ð½ÐµÐµ": 7792,
      "è¾¹": 7793,
      "ĠëĶ°": 7794,
      "Ġì¢ĭ": 7795,
      "à¸·à¸Ńà¸Ļ": 7796,
      "à¸±à¸ª": 7797,
      "ĠëĳĲ": 7798,
      "ĠÐ¾ÑĩÐµÐ½ÑĮ": 7799,
      "à¸·à¸Ńà¸ĩ": 7800,
      "ÑıÑħ": 7801,
      "Ġthá»©": 7802,
      "ìĽĮ": 7803,
      "ĠtiÃªn": 7804,
      "ĠváºŃy": 7805,
      "Ġà¹Ģà¸¡": 7806,
      "Ð°ÑĤÑĥ": 7807,
      "äºĳ": 7808,
      "ÙĪØµ": 7809,
      "ÙĥÙħ": 7810,
      "Ġká»³": 7811,
      "à¥ĩà¤¡": 7812,
      "Ġà¤¸à¤®à¤¯": 7813,
      "ĠØ¹Ø¨Ø¯": 7814,
      "Ġà¤ªà¤¤": 7815,
      "Ġtrung": 7816,
      "ĠØ§ÙĦÙħÙĨ": 7817,
      "ĠÑĢÐ°ÑģÑģ": 7818,
      "ĠØ¨ÙĬ": 7819,
      "à¸ģà¸§": 7820,
      "à¥ģà¤Ĥ": 7821,
      "Ġà¹Ģà¸ŀ": 7822,
      "Ð¾Ð¼ÐµÐ½": 7823,
      "Ġláº§n": 7824,
      "à¤¾à¤«": 7825,
      "Ø§Ø¹Ø§Øª": 7826,
      "Ø§Ø±Ø¬": 7827,
      "ĠÐ¾Ð´Ð¸Ð½": 7828,
      "Ð»Ð¸Ð½": 7829,
      "à¸´à¸ª": 7830,
      "à¸®": 7831,
      "à¤Ĥà¤Ł": 7832,
      "æĻ®": 7833,
      "ĠtÃ¬nh": 7834,
      "ĠÑĥÑĤ": 7835,
      "à¸±à¸Ĳ": 7836,
      "ĠÄĳáº·t": 7837,
      "ë°°": 7838,
      "åº§": 7839,
      "Ġà¤°à¤ĸ": 7840,
      "ÙĤØ±": 7841,
      "ĠÑĤÑĭ": 7842,
      "Ġà¤ħà¤²": 7843,
      "Ø·Ø±": 7844,
      "è¿Ļä¸ª": 7845,
      "ĠØ¨Ø¹": 7846,
      "ÙĨØ§ÙĨ": 7847,
      "Ġà¤ĳ": 7848,
      "Ð¾ÑģÐº": 7849,
      "åįĥ": 7850,
      "ĠØŃÙĤ": 7851,
      "Ø¨Ø§": 7852,
      "ãģķãĤĮãģŁ": 7853,
      "Ġì½Ķ": 7854,
      "å¸¦": 7855,
      "ä¸įæĺ¯": 7856,
      "Ġà¤ľà¤¨": 7857,
      "à¸±à¸¥": 7858,
      "ãĥľ": 7859,
      "ĠmÃłu": 7860,
      "à¹Įà¸Ĺ": 7861,
      "à¸µà¸§": 7862,
      "à¸´à¸ģà¸²à¸£": 7863,
      "à¤ģ": 7864,
      "ĠÑĥÑģÑĤÐ°Ð½Ð¾Ð²": 7865,
      "Ø¯Ø§": 7866,
      "à¸ªà¸Ļ": 7867,
      "ç¹": 7868,
      "à¥ĩà¤®": 7869,
      "ÑĨÑĭ": 7870,
      "Ġà¤ļà¤²": 7871,
      "ĠyÃªu": 7872,
      "Ġnghá»ĩ": 7873,
      "ĠtÃ¬m": 7874,
      "Ġgiáº£m": 7875,
      "Ø§Ø¯ÙĬ": 7876,
      "ëĤľ": 7877,
      "ĠÐ´ÐµÐ½ÑĮ": 7878,
      "à¹Īà¸Ńà¸Ļ": 7879,
      "ãģĹãģ¦ãģĦãĤĭ": 7880,
      "Ġà¤ĵ": 7881,
      "Ġà¤Ĩà¤¯": 7882,
      "à¸±à¸ģà¸©": 7883,
      "Ġà¤Ĩà¤°": 7884,
      "Ġtiáº¿ng": 7885,
      "à¸¡à¸²": 7886,
      "ãĥĥãĥĹ": 7887,
      "ĠØŃØ¯": 7888,
      "ãģ£ãģ¦ãģĦãĤĭ": 7889,
      "Ġtiáº¿t": 7890,
      "chod": 7891,
      "ë´": 7892,
      "à¥Ĥà¤¨": 7893,
      "æĹ©": 7894,
      "ãĥĩãĤ£": 7895,
      "à¸Ńà¸Ńà¸ģ": 7896,
      "íķŃ": 7897,
      "ĠÑĨÐ²ÐµÑĤ": 7898,
      "ĠìĥĪ": 7899,
      "Ġà¤¸à¤¹": 7900,
      "ØµØ±": 7901,
      "Ġà¤ħà¤Ń": 7902,
      "á»Ŀi": 7903,
      "ĠbÃłi": 7904,
      "à¸²à¸Ĥ": 7905,
      "Ð½Ð¸ÐºÐ¾Ð²": 7906,
      "ãĥĨãĤ£": 7907,
      "äºĪ": 7908,
      "ãĥĽ": 7909,
      "ĠìĽĶ": 7910,
      "Ġà¹Ĥà¸Ķà¸¢": 7911,
      "Ġbáº¥t": 7912,
      "ÙĪØ±Ø©": 7913,
      "Ø¨Ø§Øª": 7914,
      "à¹ģà¸ģ": 7915,
      "ĠëĿ¼": 7916,
      "ÙĥÙĪÙĨ": 7917,
      "à¸ģà¸£à¸°": 7918,
      "à¥įà¤¬": 7919,
      "Ø§ÙĬØ©": 7920,
      "ãĤ¶": 7921,
      "ãĤĢ": 7922,
      "à¹ĩà¸ļ": 7923,
      "Ġanh": 7924,
      "ãĤĮãĤĭ": 7925,
      "Ġcuá»Ļc": 7926,
      "à¥Ģà¤Ł": 7927,
      "ĠíĶ¼": 7928,
      "ĠsÃ¡ng": 7929,
      "éģĶ": 7930,
      "Ð¾Ð¶Ð´": 7931,
      "ĠØ¢Ø®Ø±": 7932,
      "à¥Īà¤¨": 7933,
      "Ġmua": 7934,
      "ãĤĴè¦ĭ": 7935,
      "Ġná»Ļi": 7936,
      "à¹ĥà¸«à¸¡": 7937,
      "çŁ¥éģĵ": 7938,
      "à¹Ĭ": 7939,
      "Ġthay": 7940,
      "à¸Ŀ": 7941,
      "Ġà¤¸à¤Ń": 7942,
      "à¹īà¸Ńà¸¢": 7943,
      "ãĤĵãģ§": 7944,
      "à¥Ģà¤ļ": 7945,
      "à¹Īà¸¡": 7946,
      "Ġkiá»ĩn": 7947,
      "è·Ł": 7948,
      "é¥": 7949,
      "à¤°à¤£": 7950,
      "ê·¼": 7951,
      "ĠØ³ÙĬ": 7952,
      "ìµľ": 7953,
      "å±ħ": 7954,
      "à¸ĩà¸Ĺ": 7955,
      "Ġà¤¬à¤¤": 7956,
      "Ð²Ñĭ": 7957,
      "à¸Ľà¸¥": 7958,
      "Ġê¸Ī": 7959,
      "åĩł": 7960,
      "è¿Ķ": 7961,
      "ĠØ£Ùħ": 7962,
      "à¸µà¸ª": 7963,
      "à¸ªà¸²à¸¡à¸²à¸£à¸ĸ": 7964,
      "ëĸ": 7965,
      "à¤¼à¥ĩ": 7966,
      "Ġà¤ħà¤¬": 7967,
      "Ġê³¼": 7968,
      "ĠÙĩØ°Ùĩ": 7969,
      "íĶĮ": 7970,
      "æĢİä¹Ī": 7971,
      "ĠÐ´Ð²Ð°": 7972,
      "Ø¬Ø±": 7973,
      "Ġà¤Ĩà¤µ": 7974,
      "à¥ĭà¤¸": 7975,
      "ĠÑģÐµÐ¼": 7976,
      "ĠÑĢÐ¾Ñģ": 7977,
      "æŃĮ": 7978,
      "Ġphá»ĳ": 7979,
      "à¸¢à¸Ļ": 7980,
      "ĠÑģÐ´ÐµÐ»": 7981,
      "Ø¹Ø¨": 7982,
      "ĠíĻĶ": 7983,
      "ĠØ§ÙĦÙĬ": 7984,
      "é¢¨": 7985,
      "Ġìĺ¬": 7986,
      "å·®": 7987,
      "à¸ī": 7988,
      "åį°": 7989,
      "Ġsao": 7990,
      "ĠÙĩÙĬ": 7991,
      "à¥ĭà¤ľà¤¨": 7992,
      "Ġà¤Ĺà¤ı": 7993,
      "à¸´à¹ī": 7994,
      "ĠchÆ°a": 7995,
      "ãģ©ãģĨ": 7996,
      "à¸´à¸£": 7997,
      "Ġgiá»Ŀ": 7998,
      "à¹Īà¸§à¸¢": 7999,
      "à¸´à¸ļ": 8000,
      "ĠÙĤØ¨ÙĦ": 8001,
      "Ġà¹Ģà¸£": 8002,
      "ĠÐ³ÑĢÐ¾Ð¼": 8003,
      "Ġì§ĳ": 8004,
      "ĠÐ»ÑĥÑĩ": 8005,
      "Ġmuá»ĳn": 8006,
      "ÑģÐ¸Ð¸": 8007,
      "Ġbá»Łi": 8008,
      "ãĤĪãģĨãģ«": 8009,
      "ãģ®ãģ¯": 8010,
      "Ġbáº¯t": 8011,
      "Ð¾Ð²Ð¸": 8012,
      "Ġmá»¥c": 8013,
      "ĠØ§ÙĦØº": 8014,
      "æĿ¾": 8015,
      "ë§Ĳ": 8016,
      "à¸ķà¸²à¸¡": 8017,
      "ØªØŃ": 8018,
      "à¸±à¸Ĺ": 8019,
      "Ġthanh": 8020,
      "ĠÑĤÐ°Ð¼": 8021,
      "à¥Īà¤ķ": 8022,
      "Ġà¤¹à¤°": 8023,
      "Ġxem": 8024,
      "à¥įà¤Ľ": 8025,
      "å¸«": 8026,
      "çĥŃ": 8027,
      "à¹Ģà¸¢": 8028,
      "à¸Ļà¸Ļ": 8029,
      "ãĥªãĤ¢": 8030,
      "çıŃ": 8031,
      "ĠØ§ÙĦÙħØŃ": 8032,
      "à¹Īà¸²à¸§": 8033,
      "èģŀ": 8034,
      "Ø´Ø§ÙĨ": 8035,
      "Ð°Ð½Ð¸Ð¸": 8036,
      "ĠÐ¼ÐµÐ½Ñı": 8037,
      "ĠthÃŃch": 8038,
      "Ġíĳľ": 8039,
      "ëĭ¬": 8040,
      "Ġëĭ¬": 8041,
      "à¥Ģà¤¡": 8042,
      "ĠíĨł": 8043,
      "Ġà¹Ħà¸Ķ": 8044,
      "Ð½Ð°Ð´": 8045,
      "ãģĦãģĦ": 8046,
      "à¥ĭà¤ª": 8047,
      "à¥Ģà¤¸": 8048,
      "à¥Ģà¤¦": 8049,
      "å¤ī": 8050,
      "Ø¶Ø¹": 8051,
      "à¸µà¸¡": 8052,
      "à¸¢à¸§": 8053,
      "à¸µà¸Ĺ": 8054,
      "à¸£à¸²à¸¢": 8055,
      "à¹Ħà¸Ł": 8056,
      "èŃ°": 8057,
      "ãĥķãĤ¡": 8058,
      "ĠÐ¼ÐµÐ¶Ð´Ñĥ": 8059,
      "ĠbÃ¬nh": 8060,
      "ØªÙħØ§Ø¹": 8061,
      "Ġgiá»¯a": 8062,
      "à¤¿à¤Ĺ": 8063,
      "æĿİ": 8064,
      "Ġngu": 8065,
      "ÙĬØ´": 8066,
      "æ¸©": 8067,
      "è°·": 8068,
      "ãģ®ãģĭ": 8069,
      "èª¿": 8070,
      "Ø¬ÙĦ": 8071,
      "æıĲä¾Ľ": 8072,
      "ãĥ¤": 8073,
      "à¸¸à¸£": 8074,
      "ĠÐ¿Ð¾Ð½": 8075,
      "à¸ªà¸³à¸«à¸£": 8076,
      "ĠÙħÙħ": 8077,
      "æ¬§": 8078,
      "Ø³Ø©": 8079,
      "ĠÑħÐ¾ÑĢÐ¾ÑĪ": 8080,
      "Ø§Ø±ÙĬØ®": 8081,
      "éĻį": 8082,
      "Ì£": 8083,
      "ĠëıĮ": 8084,
      "à¤ī": 8085,
      "à¸ı": 8086,
      "à¸±à¸ļà¸ģà¸²à¸£": 8087,
      "ĠÑĥÐ¼": 8088,
      "Ġà¤Ĩà¤¦": 8089,
      "ãĥ¼ãĤ¯": 8090,
      "çļĦä¸Ģ": 8091,
      "ĠìĹ´": 8092,
      "à¤¾à¤ī": 8093,
      "à¥Īà¤²": 8094,
      "ëĦĪ": 8095,
      "áº¯m": 8096,
      "ĠØ§ÙĦØ²": 8097,
      "Ġà¤Ĩà¤ľ": 8098,
      "Ð¿ÐµÑĢ": 8099,
      "Ø§ÙĦÙĬØ©": 8100,
      "ÙĥØª": 8101,
      "à¥Ĥà¤Ł": 8102,
      "ĠÙĦÙĩ": 8103,
      "Ã¬n": 8104,
      "ĠØ§ÙĦÙĪ": 8105,
      "ĠmÃ´": 8106,
      "à¸²à¸ģà¸²à¸£": 8107,
      "à¹Ģà¸§à¸¥": 8108,
      "èı¯": 8109,
      "ĠëĪĪ": 8110,
      "ĠtÃªn": 8111,
      "ĠÄĳa": 8112,
      "Ġà¸ĸ": 8113,
      "à¸Ńà¸ª": 8114,
      "ĠìĨį": 8115,
      "Ø¶ÙĪ": 8116,
      "ĠëĦĪ": 8117,
      "ÑĢÐ¸Ð²": 8118,
      "ãģĪãĤĭ": 8119,
      "ĠØ§Ø«": 8120,
      "åĲĥ": 8121,
      "Ġlá»ĭch": 8122,
      "ĠcÃ¡i": 8123,
      "é»Ħ": 8124,
      "à¸·à¸Ńà¸ģ": 8125,
      "Ġà¤¸à¤¬à¤¸": 8126,
      "ãĤ¹ãĤ¿": 8127,
      "à¸´à¸¢": 8128,
      "Ġà¤¬à¤¢": 8129,
      "ĠØ§ÙĦÙħØ³": 8130,
      "ä¸ŃçļĦ": 8131,
      "Ġà¤ħà¤°": 8132,
      "ĠØ³Øª": 8133,
      "Ġà¹Ģà¸Ķ": 8134,
      "ãĥĥãĥī": 8135,
      "Ġíģ¬": 8136,
      "Ġà¸«à¸£": 8137,
      "çº¢": 8138,
      "åı«": 8139,
      "Ø§Ø¹Ø©": 8140,
      "à¥ģà¤µ": 8141,
      "ĠlÆ°u": 8142,
      "Ð½ÐµÐ¼": 8143,
      "à¥īà¤²": 8144,
      "ĠíķĺëĤĺ": 8145,
      "çİ°åľ¨": 8146,
      "à¥įà¤Łà¤°": 8147,
      "Ø¹Ø§Øª": 8148,
      "æ¥½": 8149,
      "Ġgá»įi": 8150,
      "Ġtáº¥t": 8151,
      "Ø§ÙĨÙĬØ©": 8152,
      "Ġì²Ń": 8153,
      "à¥Ĥà¤®": 8154,
      "Ġìĸ´ëĸ": 8155,
      "ØªØ´": 8156,
      "ĠÐ±Ð¾Ð»ÑĮÑĪÐµ": 8157,
      "à¤¾à¤ļ": 8158,
      "åħ¸": 8159,
      "ĠÙĦÙĪ": 8160,
      "áº£y": 8161,
      "à¹Ĥà¸¡": 8162,
      "ĠëĤł": 8163,
      "à¹īà¸²à¸¢": 8164,
      "ëĬĺ": 8165,
      "ØªØ¯": 8166,
      "æ´¾": 8167,
      "å¥¥": 8168,
      "Ġà¸Īà¸²à¸ģ": 8169,
      "Ġminh": 8170,
      "ĠchÆ¡i": 8171,
      "Ġngay": 8172,
      "à¥Ĥà¤Ĥ": 8173,
      "éĽª": 8174,
      "áº·p": 8175,
      "Ãłm": 8176,
      "Ġê±¸": 8177,
      "æĹ¶åĢĻ": 8178,
      "ĠÐºÑĢÐ°Ñģ": 8179,
      "ĠØ§ÙĦÙħØ¹": 8180,
      "à¹Ħà¸£": 8181,
      "Ġcá»Ńa": 8182,
      "Ġrá»ĵi": 8183,
      "ëĿ¼ê³ł": 8184,
      "ÐµÐ½ÑĤÐ¾Ð²": 8185,
      "ÐºÑĥÑİ": 8186,
      "ãģĳãĤĭ": 8187,
      "Ð»Ñĭ": 8188,
      "Ġgáº§n": 8189,
      "Ġà¤ľà¤°": 8190,
      "à¤¬à¤°": 8191,
      "à¸²à¸Ľ": 8192,
      "ìĸ´ìļĶ": 8193,
      "à¸Ħà¸³": 8194,
      "Ġtá»ĳi": 8195,
      "à¸Īà¸£": 8196,
      "à¥ĩà¤¶à¤¨": 8197,
      "åĵį": 8198,
      "à¸Ļà¸ķ": 8199,
      "íĮħ": 8200,
      "ãģ®ãģ§": 8201,
      "ĠÐ¿Ð¾ÑĤÑĢÐµÐ±": 8202,
      "ãģįãģŁ": 8203,
      "ĠØ§ÙĦÙħÙĪ": 8204,
      "à¤¿à¤ķà¤²": 8205,
      "Ġà¹Ģà¸§": 8206,
      "Ġà¤ħà¤ļ": 8207,
      "à¤¾à¤¨à¤ķ": 8208,
      "ãĤ·ãĥ£": 8209,
      "ĠcÃ´": 8210,
      "à¥įà¤°à¤µ": 8211,
      "ĠìĦľìļ¸": 8212,
      "ĠØ£Ø³": 8213,
      "ĠæĪĳ": 8214,
      "ĠÃ¢m": 8215,
      "æĥħåĨµ": 8216,
      "ĠÙĪØ¹": 8217,
      "à¹īà¸¡": 8218,
      "à¥ĭà¤®": 8219,
      "åĩºæĿ¥": 8220,
      "à¤¾à¤²à¤¯": 8221,
      "ë°±": 8222,
      "à¤ĩà¤¸": 8223,
      "à¸ªà¸§": 8224,
      "à¤Ĥà¤Ń": 8225,
      "à¸±à¸ĩà¸ģ": 8226,
      "à¹Īà¸§à¸ĩ": 8227,
      "ë¶Ī": 8228,
      "åĨ·": 8229,
      "åĪ»": 8230,
      "à¤Łà¤¨": 8231,
      "ì»¤": 8232,
      "à¹Ģà¸«à¸¥": 8233,
      "Ð¸Ð½Ðµ": 8234,
      "éļı": 8235,
      "ĠÐ³Ð°Ð·": 8236,
      "à¥ģà¤Ŀ": 8237,
      "ĠØ¹ÙĨØ¯": 8238,
      "ĠØ£Ø¹": 8239,
      "åĵª": 8240,
      "à¸¸à¸ļ": 8241,
      "ĠëĪĦ": 8242,
      "Ġà¸ļà¸£": 8243,
      "ëĤł": 8244,
      "Ġà¸¨": 8245,
      "ĠÐ¼Ð½Ðµ": 8246,
      "ãĥ¼ãĤº": 8247,
      "Ġìĭľê°Ħ": 8248,
      "Ġà¤ĺà¤°": 8249,
      "à¹Ĥà¸£": 8250,
      "æ¿Ģ": 8251,
      "à¤ĺ": 8252,
      "Ġìº": 8253,
      "Ð¿Ð°": 8254,
      "Ġìµľê³ł": 8255,
      "ÑģÐºÐ¾Ð¼": 8256,
      "è¿ĺæĺ¯": 8257,
      "ç¶ļ": 8258,
      "ĠsÄ©": 8259,
      "à¤¿à¤ļ": 8260,
      "ĠÙĪÙĨ": 8261,
      "ĠìĿĮ": 8262,
      "à¹Įà¸ķ": 8263,
      "Ġëĭ¤ìĭľ": 8264,
      "à¥īà¤°": 8265,
      "Ð¾Ð²Ð¾Ð¹": 8266,
      "Ġmá»Ł": 8267,
      "åĹ": 8268,
      "éĿĻ": 8269,
      "ìķħ": 8270,
      "à¤¾à¤ĩà¤¨": 8271,
      "áº·ng": 8272,
      "ÙĨÙĬØ©": 8273,
      "Ġdiá»ħn": 8274,
      "ĠÑįÑĤÐ¾ÑĤ": 8275,
      "ÙĤÙħ": 8276,
      "æ´ĭ": 8277,
      "Ð´Ñĭ": 8278,
      "ĠØ¨Ø¹Ø¶": 8279,
      "Ġê´Ģëł¨": 8280,
      "Ġì¹ĺ": 8281,
      "à¹Ħà¸§": 8282,
      "Ġà¸ĺ": 8283,
      "à¥ĭà¤¶": 8284,
      "Ġà¤Ī": 8285,
      "å¥Ĺ": 8286,
      "Ġà¸Ĥà¸Ńà¸ĩ": 8287,
      "ĠlÃºc": 8288,
      "ĠÐºÐ°Ð½": 8289,
      "Ġà¤ħà¤ª": 8290,
      "ä¸ĬçļĦ": 8291,
      "Ø§Ø³Ø¨": 8292,
      "ãģĵãģ¨ãĤĴ": 8293,
      "ĠÐ¿ÑĢÐ¾Ð³": 8294,
      "Ġcá»ķ": 8295,
      "çµĮ": 8296,
      "ìĦ¼": 8297,
      "ĠØªØ³": 8298,
      "ÙħØ³": 8299,
      "ĠÙĬÙħÙĥÙĨ": 8300,
      "ĠìĿĢ": 8301,
      "Ð¾Ð½Ðµ": 8302,
      "ĠÑģÑĥÐ±": 8303,
      "ëĮĢë¡ľ": 8304,
      "æ´¥": 8305,
      "ĠØ§Ø¬ØªÙħØ§Ø¹": 8306,
      "ĠÐ²ÑĤÐ¾ÑĢ": 8307,
      "ÑĪÐ¸Ðµ": 8308,
      "ëĭĪê¹Į": 8309,
      "ëķĮ": 8310,
      "ÑģÑıÑĤ": 8311,
      "ĠÙĥØ§ÙĨØª": 8312,
      "æİ¢": 8313,
      "à¤¾à¤ĩà¤Ł": 8314,
      "ĠÐ¼Ð¸Ð½ÑĥÑĤ": 8315,
      "éĽ¨": 8316,
      "Ġëĭ¤ìĿĮ": 8317,
      "Ġà¸Ł": 8318,
      "ĠÑģÐ¸Ð½": 8319,
      "ĠcÃ¢u": 8320,
      "ÑĳÑĤ": 8321,
      "ãĤĮãģ¦": 8322,
      "ĠthÆ°": 8323,
      "ĠØ£ØŃ": 8324,
      "Ø§Ø¦ÙĬ": 8325,
      "à¸²à¸«à¸²à¸£": 8326,
      "ĠØ§ÙĦØ´Ø±": 8327,
      "Ġlá»Ŀi": 8328,
      "ĠÙĪØŃ": 8329,
      "ĠÐ²Ð¾ÑģÐ¿": 8330,
      "Ø§Ø¦ÙĬØ©": 8331,
      "ÙģØ¹": 8332,
      "à¥įà¤«": 8333,
      "ãĤ¸ãĥ£": 8334,
      "Ð±ÑĥÐ´": 8335,
      "ëĲĺìĸ´": 8336,
      "Ġìķ½": 8337,
      "Ð¾Ð´Ñĥ": 8338,
      "à¸±à¸Ļà¸Ķ": 8339,
      "ãģŁãģĦ": 8340,
      "ĠìľĦíķ´": 8341,
      "æľ«": 8342,
      "Ġà¹Ģà¸Ń": 8343,
      "ĠØªØ®": 8344,
      "à¸·à¸Ļ": 8345,
      "à¸«à¸¡à¸²à¸¢": 8346,
      "ĠÑįÑĤÐ¾Ð¹": 8347,
      "Ġëª¨ëĵł": 8348,
      "ĠÐ¼Ð¾": 8349,
      "Ø§Ø¸": 8350,
      "ãĤ¯ãĥ©": 8351,
      "ãĥ¼ãĥ³": 8352,
      "à¸±à¸ĩà¸Ħ": 8353,
      "ãĤĩãģĨ": 8354,
      "Ġná»¯a": 8355,
      "Ø§ÙĬØ±": 8356,
      "Ġê°Ģìŀ¥": 8357,
      "ĠÑįÑĤÐ°": 8358,
      "æĻļ": 8359,
      "Ġà¹Ģà¸ģ": 8360,
      "Ġìŀ¡": 8361,
      "à¸Ķà¸Ļ": 8362,
      "Ġà¹Ģà¸Ĭ": 8363,
      "é£ŀ": 8364,
      "ãĤ¯ãĥª": 8365,
      "Ìī": 8366,
      "ĠëħĦ": 8367,
      "ĠÑħÐ¾Ð»Ð¾Ð´": 8368,
      "ãģĭãģª": 8369,
      "ëĳ": 8370,
      "Ġà¤ķà¤²": 8371,
      "Ġà¸«à¸Ļ": 8372,
      "Ġà¤ł": 8373,
      "åĲ¸": 8374,
      "à¸£à¸°à¸Ķ": 8375,
      "ĠÐ²Ð¾Ñģ": 8376,
      "ãģĭãĤĬ": 8377,
      "à¸Ľà¸£à¸°à¸Ĭ": 8378,
      "ãģĪãģ¦": 8379,
      "ĠÙĦÙĬ": 8380,
      "Ð¾Ð³Ñĥ": 8381,
      "à¸Ńà¸°": 8382,
      "Ø¨Ø¹": 8383,
      "ĠÐ³Ð¾ÑĢÐ¾Ð´": 8384,
      "ÙĬÙĦØ©": 8385,
      "ĠÐ´Ð½Ñı": 8386,
      "à¸ļà¸Ļ": 8387,
      "Ø²ÙĦ": 8388,
      "ĠíĶĮ": 8389,
      "à¥ģà¤¶": 8390,
      "çļĦäºĭ": 8391,
      "ãĤŃãĥ£": 8392,
      "Ø¶Ø§Ø¡": 8393,
      "ãģĮãģĤãĤĭ": 8394,
      "à¥īà¤ķ": 8395,
      "ĠìŀĪìĹĪ": 8396,
      "ãĤģãģ¦": 8397,
      "à¥Ĥà¤ľ": 8398,
      "ãģĳãģ¦": 8399,
      "ĠìĤ¼": 8400,
      "ãĥĴ": 8401,
      "ãģ£ãģ¦ãģĦ": 8402,
      "ĠcáºŃp": 8403,
      "åĪļ": 8404,
      "Ø®ÙĦ": 8405,
      "Ø¬Ø¯": 8406,
      "ìĶ¨": 8407,
      "Ø·Ùģ": 8408,
      "ãĤ¿ãĤ¤": 8409,
      "à¹ĩà¸¡": 8410,
      "ãģ¾ãģĽãĤĵ": 8411,
      "ĠíĬ¸": 8412,
      "Ġà¤ªà¤¡": 8413,
      "Ġì·¨": 8414,
      "ĠØ§ÙĦØ¨ÙĬ": 8415,
      "ĠíħĮ": 8416,
      "ĠÐ¼ÐµÑģÑı": 8417,
      "è¿ĻéĩĮ": 8418,
      "Ġchá»īnh": 8419,
      "ĠÙĦØ£": 8420,
      "è©ķ": 8421,
      "Ġë§ŀ": 8422,
      "ÐµÑĪÑĮ": 8423,
      "à¤¾à¤¹à¤°": 8424,
      "ĠØ§ÙĦØ¹Ø§ÙĦÙħ": 8425,
      "ÙĪÙī": 8426,
      "Ġcuá»ĳi": 8427,
      "à¸µà¸¢à¸§": 8428,
      "à¸¹à¸¡": 8429,
      "ØªÙĤ": 8430,
      "Ġìĭ¶": 8431,
      "ĠtháºŃt": 8432,
      "Ø³ÙĦØ§Ùħ": 8433,
      "à¤¾à¤¹à¤¤": 8434,
      "Ġà¤ĸà¤°": 8435,
      "à¥ĭà¤¦": 8436,
      "à¹Ĥà¸ķ": 8437,
      "Ø§ÙĦØ©": 8438,
      "ĠÐ¿Ð¾Ð¶": 8439,
      "ĠØ§ÙĦØ§ÙĨ": 8440,
      "à¹ģà¸£à¸ģ": 8441,
      "ØŃØª": 8442,
      "ĠÐ³Ð»Ð°Ð²": 8443,
      "ĠÙĦØ¨": 8444,
      "èĪŀ": 8445,
      "ÙĬÙĨÙĬ": 8446,
      "ĠÐ¿Ð¾ÑģÑĤÐ°Ð²": 8447,
      "à¹ģà¸ªà¸Ķà¸ĩ": 8448,
      "åºĬ": 8449,
      "ä¸½": 8450,
      "à¹ĩà¸Ķ": 8451,
      "Ġà¸ģà¸¥": 8452,
      "Ð°ÑĢÑı": 8453,
      "Ġà¸Ħà¸£": 8454,
      "Ø±Ø¬": 8455,
      "à¹Ĥà¸¥à¸ģ": 8456,
      "Ġíķĺê³ł": 8457,
      "Ġká»ĥ": 8458,
      "à¹īà¸Ńà¸Ļ": 8459,
      "Ġà¤Ĩà¤Ĺ": 8460,
      "ÑĥÑĢÐ³": 8461,
      "äº®": 8462,
      "à¹Įà¸Ķ": 8463,
      "ãĤĤãģĨ": 8464,
      "é¤Ĳ": 8465,
      "ê³¡": 8466,
      "à¸£à¸ĸ": 8467,
      "é¦Ĩ": 8468,
      "ãģĦãģ¤": 8469,
      "ìĭľê°Ħ": 8470,
      "ĠÐ²ÑĢÐµÐ¼ÐµÐ½Ð¸": 8471,
      "à¸ķà¸¥": 8472,
      "ÙĪÙĬØ©": 8473,
      "Ġà¸£à¸²à¸¢": 8474,
      "à¸Ńà¸§": 8475,
      "æĥħåł±": 8476,
      "è®²": 8477,
      "èıľ": 8478,
      "ãģ«ãģªãĤĭ": 8479,
      "ĠØ³Ùħ": 8480,
      "ä¹¡": 8481,
      "à¤Ĥà¤¤à¤°": 8482,
      "ãĤ¼": 8483,
      "ĠkÃª": 8484,
      "à¥Īà¤¯": 8485,
      "ĠíķĦìļĶ": 8486,
      "ØºÙĬØ±": 8487,
      "ĠÑģÐ´ÐµÐ»Ð°ÑĤÑĮ": 8488,
      "ìĥĪ": 8489,
      "ì¹¨": 8490,
      "à¸´à¸Ĺ": 8491,
      "Ġà¸ªà¸¡": 8492,
      "ĠÐ³Ð¾Ð»": 8493,
      "à¹Īà¸Ńà¸¢": 8494,
      "ê²¨": 8495,
      "à¹īà¸²à¸¡": 8496,
      "ĠÃ´": 8497,
      "ÙĪØ©": 8498,
      "ìĭŃ": 8499,
      "ä¸¾": 8500,
      "ĠìĭĿ": 8501,
      "ĠØ§ÙĦØ³ÙĬ": 8502,
      "ĠëĨĴ": 8503,
      "ãĥ³ãĥĢ": 8504,
      "Ġà¹Ģà¸¥": 8505,
      "ãĥķãĤ©": 8506,
      "ĠØ§Ø³Ùħ": 8507,
      "à¹Ģà¸Ľà¸¥": 8508,
      "Ð¾ÑģÑĤÐ°Ð²": 8509,
      "Ġà¸Ħà¸§à¸²à¸¡": 8510,
      "Ø¨ØŃ": 8511,
      "éĮ²": 8512,
      "ÐµÐ´Ð¸": 8513,
      "à¥įà¤°à¤¹": 8514,
      "Ð´ÐµÑĤ": 8515,
      "ãģ§ãģįãĤĭ": 8516,
      "ĠhÃ£y": 8517,
      "ĠÙĬÙĪÙħ": 8518,
      "Ø±ÙĬØ¯": 8519,
      "à¥Ģ.": 8520,
      "à¹īà¸²à¸£": 8521,
      "ĠíĤ¤": 8522,
      "Ġà¹Ħ": 8523,
      "íģ´": 8524,
      "ç©¿": 8525,
      "æ¢ħ": 8526,
      "Ð½Ð¾Ð·": 8527,
      "Ġë¨¹": 8528,
      "sage": 8529,
      "à¹Įà¸Ļ": 8530,
      "æ´»åĬ¨": 8531,
      "Ġà¤Ĺà¤°": 8532,
      "à¹īà¸ĩ": 8533,
      "ãĥ¬ãĤ¤": 8534,
      "à¹Īà¸²à¸ª": 8535,
      "ÙĩÙĦ": 8536,
      "à¸Ńà¸²à¸«à¸²à¸£": 8537,
      "è§īå¾Ĺ": 8538,
      "ÐµÑĩÐ½Ð¾": 8539,
      "à¸¸à¸Ĺà¸ĺ": 8540,
      "ĠØ§ÙĦØ¬Ùħ": 8541,
      "Ġà¸«à¸¥": 8542,
      "ìĺ¬": 8543,
      "à¹Ĥà¸Ľà¸£": 8544,
      "à¸¹à¸Ķ": 8545,
      "à¸ģà¸¥à¸²à¸ĩ": 8546,
      "ĠØ¨Øª": 8547,
      "ë²Ķ": 8548,
      "à¸±à¸Ī": 8549,
      "Ġà¤¬à¤°": 8550,
      "ê¹Ģ": 8551,
      "ãĥĥãĥģ": 8552,
      "ĠÙĪØ§ØŃØ¯": 8553,
      "à¸ªà¸Ńà¸ĩ": 8554,
      "ĠÙĥÙħ": 8555,
      "Ġpolitik": 8556,
      "ãĤµãĤ¤": 8557,
      "à¸µà¸¢à¸ļ": 8558,
      "Ġà¸Īà¸°": 8559,
      "ĠÑĤÐ¸Ñħ": 8560,
      "ĠìŀĪìĿĦ": 8561,
      "ÐµÐ»Ñİ": 8562,
      "ãĥ¼ãĥĦ": 8563,
      "ĠØ´ÙĬ": 8564,
      "à¸²à¸Ĥà¸Ńà¸ĩ": 8565,
      "è°¢": 8566,
      "ãģ«åħ¥": 8567,
      "æļĹ": 8568,
      "ĠØ³Ùģ": 8569,
      "íĥĦ": 8570,
      "à¥ĩà¤¯à¤°": 8571,
      "å¿ħè¦ģ": 8572,
      "ìĬ¤íĦ°": 8573,
      "à¹Ģà¸¥à¸¢": 8574,
      "æĿ¯": 8575,
      "à¤¾à¤ľà¤¨": 8576,
      "ĠÙģØ¶": 8577,
      "Ġì§Ģê¸Ī": 8578,
      "Ġì§ĢìĹŃ": 8579,
      "à¸±à¸ģà¸£": 8580,
      "ëĿ¼ìĿ¸": 8581,
      "ĠsÆ°": 8582,
      "ãģĵãģ¨ãģ¯": 8583,
      "à¸±à¸Ļà¸ķ": 8584,
      "ĠÐ´ÐµÐ²": 8585,
      "Ġà¸ģà¸£": 8586,
      "ÙĦØ§Ø«": 8587,
      "ä¸ĬãģĴ": 8588,
      "ĠÑģÐ²ÐµÑĤ": 8589,
      "å¦Ĥä½ķ": 8590,
      "å¸®": 8591,
      "ÑĳÐ¼": 8592,
      "à¹Ģà¸ĺ": 8593,
      "ĠÙĦØª": 8594,
      "à¥Ľ": 8595,
      "à¸ªà¸°": 8596,
      "ĠÙħØ§Ø±Ø³": 8597,
      "à¹īà¸Ĺ": 8598,
      "ä¼¦": 8599,
      "æľĹ": 8600,
      "ä»»ä½ķ": 8601,
      "taj": 8602,
      "à¥ĭà¤¬": 8603,
      "à¸ªà¸ĸà¸²à¸Ļ": 8604,
      "åŁİå¸Ĥ": 8605,
      "æŁ¥çľĭ": 8606,
      "Ġëª¨ëĳĲ": 8607,
      "Ð¾Ð´Ñĭ": 8608,
      "ĠØ£ÙĪÙĦ": 8609,
      "Ġà¹Ģà¸ª": 8610,
      "Ġà¸Ńà¸¢": 8611,
      "èµ¤": 8612,
      "Ġà¹Ģà¸Ī": 8613,
      "à¹īà¸ģ": 8614,
      "ëī´": 8615,
      "ÐµÐ½Ð´": 8616,
      "ĠÄĳÃ´": 8617,
      "à¸ªà¸Ńà¸ļ": 8618,
      "ĠÄĳÃ´ng": 8619,
      "ãĤ³ãĥ³": 8620,
      "Ġì¤Ħ": 8621,
      "à¤¿à¤«": 8622,
      "ĠëĤ´ê°Ģ": 8623,
      "ĠØªØ§Ø±ÙĬØ®": 8624,
      "à¸±à¸Ļà¸Ļ": 8625,
      "à¸µà¸¢à¸¡": 8626,
      "ĠëĦĪë¬´": 8627,
      "ãĤ»ãĥĥãĥĪ": 8628,
      "Ġà¸ŀà¸£": 8629,
      "Ġá»ķ": 8630,
      "Ð½Ð¸ÑĨÐ°": 8631,
      "ÙĨÙĬÙĨ": 8632,
      "ĠÑģÐ¾Ð±Ð¾Ð¹": 8633,
      "à¹ĩà¸ķ": 8634,
      "ĠÐ·Ð´ÐµÑģÑĮ": 8635,
      "ãģ«ãģ¤ãģĦãģ¦": 8636,
      "à¹Ĥà¸Ķ": 8637,
      "ĠØ£ÙĥØ«Ø±": 8638,
      "ĠãĥĹ": 8639,
      "à¸ļà¸²à¸ĩ": 8640,
      "ãĥªãĤ«": 8641,
      "Ġà¤¸à¤¤": 8642,
      "Ġxuá»ĳng": 8643,
      "ĠÐ´Ð¾Ð¼Ð°": 8644,
      "çĶµå½±": 8645,
      "ĠØ§ÙĦØ±ÙĬØ§Ø¶": 8646,
      "à¥ģà¤Ł": 8647,
      "à¹ĭ": 8648,
      "à¸¢à¸ĩ": 8649,
      "å¥½çļĦ": 8650,
      "Ð½ÑıÑı": 8651,
      "åıĳçĶŁ": 8652,
      "Ġà¤¬à¤¦à¤²": 8653,
      "åĶ±": 8654,
      "ÐµÐ»Ð¸Ñĩ": 8655,
      "à¸¢à¸§à¸ģ": 8656,
      "Ø¶Ø±": 8657,
      "Ġà¹Ģà¸Ĺ": 8658,
      "Ø¹ÙĨ": 8659,
      "Ø¨Ø·": 8660,
      "ãĤªãĥ³": 8661,
      "Ġë³Ħ": 8662,
      "æĽľ": 8663,
      "ĠÑģÐ»ÐµÐ´ÑĥÑİÑī": 8664,
      "èĥľ": 8665,
      "à¸Ĺà¸³à¹ĥà¸«": 8666,
      "ĠìĺģíĻĶ": 8667,
      "åİħ": 8668,
      "à¸Ľà¸ı": 8669,
      "éĽ¶": 8670,
      "Ġxanh": 8671,
      "Ð°Ð½Ðµ": 8672,
      "Ġà¹Ģà¸Ħà¸£": 8673,
      "åıĤåĬł": 8674,
      "à¸´à¸Ħ": 8675,
      "ÙģÙĦ": 8676,
      "ĠØ§ÙĦØ¹Ø±Ø¨ÙĬØ©": 8677,
      "Ġà¤¬à¤ľ": 8678,
      "à¸±à¸Īà¸Ī": 8679,
      "Ġà¤ķà¤ª": 8680,
      "ĠÐ²ÐµÑĩ": 8681,
      "ãģĵãģĵ": 8682,
      "Ġà¤Ĩà¤µà¤¶": 8683,
      "Ø¯ÙĬØ«": 8684,
      "íı°": 8685,
      "Ø·ÙĦ": 8686,
      "äºĮåįģ": 8687,
      "Ø·Ø¨": 8688,
      "ĠÐ²ÐµÑģÑĮ": 8689,
      "ĠØ§ÙĦÙĬÙĪÙħ": 8690,
      "à¸ģà¸£à¸ĵ": 8691,
      "ĠÙĪÙĤØª": 8692,
      "à¥Ĥà¤ģ": 8693,
      "Ġà¸Ĺà¸³": 8694,
      "Ġíĭ": 8695,
      "ĠìĦ¸ê³Ħ": 8696,
      "Ġnghe": 8697,
      "ä»ĬæĹ¥": 8698,
      "ĠìĿ´ìķ¼": 8699,
      "ãĤĮãģªãģĦ": 8700,
      "Ġà¤ľà¤Ĺ": 8701,
      "à¹ĩà¸Ļà¸ķ": 8702,
      "ĠhÃºt": 8703,
      "ĠthÃ¡i": 8704,
      "ä¸Ĭæµ·": 8705,
      "à¤¿à¤¯à¤¨": 8706,
      "Ø§Ø¹Ø¯": 8707,
      "ĠcÆ°": 8708,
      "ãģķãĤĮãģ¦ãģĦãĤĭ": 8709,
      "Ġphim": 8710,
      "æľĢæĸ°": 8711,
      "Ġë³¼": 8712,
      "æłĩåĩĨ": 8713,
      "æĿ¥çļĦ": 8714,
      "ãģ¨ãģ®": 8715,
      "æĮģãģ¡": 8716,
      "ÑĨÑĥ": 8717,
      "Ġà¤®à¤ľ": 8718,
      "Ġobec": 8719,
      "Ð¾ÑģÑĤÐµÐ¹": 8720,
      "ĠÐ°Ð»ÑĮ": 8721,
      "Ġà¹ĥà¸«": 8722,
      "à¤¯à¤¹": 8723,
      "à¹Ģà¸ŀà¸¥à¸ĩ": 8724,
      "à¸ŀà¸¢": 8725,
      "ĠìĻĢ": 8726,
      "ÐµÑģÑĤÑĮ": 8727,
      "ĠÐ²ÐºÐ»ÑİÑĩ": 8728,
      "æĶ¿æ²»": 8729,
      "à¹īà¸Ńà¸ĩà¸ģà¸²à¸£": 8730,
      "ÑĥÑģÑĤÐ¸": 8731,
      "ä»Ĭå¤©": 8732,
      "ÐµÐ³Ð¾Ð´Ð½Ñı": 8733,
      "ĠØ£Ø®": 8734,
      "Ġtá»©c": 8735,
      "Æ°Æ¡i": 8736,
      "ëĤĺëĬĶ": 8737,
      "ĠØ§Ùĥ": 8738,
      "Ġì¢Ģ": 8739,
      "è¶£": 8740,
      "ìķĮ": 8741,
      "ĠÐ¿Ð¾Ð²ÑĤÐ¾ÑĢ": 8742,
      "ĠÑĢÐµÐ¶Ð¸Ð¼": 8743,
      "Ġà¤¢": 8744,
      "Ġëī´": 8745,
      "à¸²à¸ģà¸²à¸¨": 8746,
      "æİī": 8747,
      "à¸¸à¸ĩà¹Ģà¸Ĺà¸ŀ": 8748,
      "ĠÙĪÙĦØ§": 8749,
      "Ġìĺ¤ëĬĺ": 8750,
      "à¸µà¸Ĥ": 8751,
      "ÐµÑĢÐ¾Ð¼": 8752,
      "à¸ĩà¸Ħ": 8753,
      "èģļ": 8754,
      "ãģĭãģ«": 8755,
      "ÐºÐ¾ÑģÑĤÑĮ": 8756,
      "ä¸Ģä¸ĭ": 8757,
      "ĠÙĦØ¹": 8758,
      "ĠØ¥Ø°Ø§": 8759,
      "éĢ±": 8760,
      "Ġchuyá»ĩn": 8761,
      "ĠìķĦë¬´": 8762,
      "ĠØ¨Ùĥ": 8763,
      "Ġtuáº§n": 8764,
      "Ġchiá»ģu": 8765,
      "Ġklas": 8766,
      "á»Ļn": 8767,
      "ĠØ§ÙĦØ®Ø§Øµ": 8768,
      "ãĤĬãģ®": 8769,
      "Ġà¤ªà¤¢": 8770,
      "çģ¯": 8771,
      "à¸¢à¸ģ": 8772,
      "à¸«à¸²": 8773,
      "Ġkhá»ıi": 8774,
      "ĠØ§ÙĦØªØŃ": 8775,
      "Ġgá»Ńi": 8776,
      "à¸¥à¸Ķ": 8777,
      "ĠíĺĦìŀ¬": 8778,
      "ĠÙĬÙĥÙĪÙĨ": 8779,
      "æľĢé«ĺ": 8780,
      "enek": 8781,
      "å¦Ī": 8782,
      "ĠphÃºt": 8783,
      "ÙĬÙĦÙĬ": 8784,
      "à¸±à¸Ļà¸§": 8785,
      "à¤¯à¤¨": 8786,
      "à¹Ģà¸§à¸¥à¸²": 8787,
      "éĸĭå§ĭ": 8788,
      "ìĤ¼": 8789,
      "Ġì¼": 8790,
      "Ã£y": 8791,
      "à¸ĩà¸«à¸¡à¸Ķ": 8792,
      "Ġcá»Ń": 8793,
      "Ġnháº¡c": 8794,
      "æľĭåıĭ": 8795,
      "ĠÃ¡nh": 8796,
      "à¤¸à¤Ń": 8797,
      "ĠvÃłi": 8798,
      "Ġjas": 8799,
      "è«ĩ": 8800,
      "Ġà¸ªà¸³à¸«à¸£": 8801,
      "Ġà¤¨à¤µ": 8802,
      "ĠØ¹Ø´": 8803,
      "à¥Įà¤¨": 8804,
      "Ð¿Ð¾Ñģ": 8805,
      "à¤¿à¤¤à¤¨": 8806,
      "à¤ıà¤ķ": 8807,
      "åħ³äºİ": 8808,
      "à¸ģà¸²à¸£à¸ĵ": 8809,
      "ĠÄĳÃªm": 8810,
      "ĠÐ¿ÐµÑģ": 8811,
      "Ġì¢ĭìĿĢ": 8812,
      "ĠÐ¿Ð°Ð»ÑĮ": 8813,
      "ĠÐ´Ð¶": 8814,
      "ĠtÃ´": 8815,
      "Ġà¤¶à¤¹à¤°": 8816,
      "ãģ®ä¸Ģ": 8817,
      "ÙĬÙĤ": 8818,
      "à¸²à¸ģà¸£": 8819,
      "ĠØªØª": 8820,
      "ÑĢÐ¾Ñĩ": 8821,
      "ĠëĮĢíķ´": 8822,
      "à¹ģà¸Ľ": 8823,
      "ãģ§ãģĻãģĭ": 8824,
      "Ġà¹Ģà¸Ĥà¸ķ": 8825,
      "à¹ģà¸Ī": 8826,
      "ãģ®ãģĬ": 8827,
      "ĠØ£ØŃØ¯": 8828,
      "Ġà¸®": 8829,
      "ĠØ§ÙĦØ¬Ø²": 8830,
      "Ø·ÙĦØ¨": 8831,
      "æľĢåĲİ": 8832,
      "ĠÑģÐµÐ¹ÑĩÐ°Ñģ": 8833,
      "à¥Ĥà¤ļ": 8834,
      "æľĢå¤§": 8835,
      "ĠÑĥÐ¶": 8836,
      "Ġtrá»Ŀi": 8837,
      "ĠnÃ³ng": 8838,
      "Ġngá»§": 8839,
      "Ġëŀ": 8840,
      "å¸°": 8841,
      "à¥ĩà¤ĸà¤¨": 8842,
      "è°ģ": 8843,
      "ÙħØ§Ùħ": 8844,
      "ãģįãģª": 8845,
      "Ġà¸ī": 8846,
      "ĠÐ¿ÑĢÐ¾Ð¸ÑģÑħÐ¾Ð´Ð¸ÑĤ": 8847,
      "Ġxáº£y": 8848,
      "à¸«à¸¢": 8849,
      "ãģªãģŁ": 8850,
      "Ġà¹ģà¸¥": 8851,
      "ĠÐ²ÑĭÑħÐ¾Ð´": 8852,
      "à¸ªà¸ĩ": 8853,
      "çı¾åľ¨": 8854,
      "è®¢": 8855,
      "Ġìĸ´ëĸ»ê²Į": 8856,
      "à¤ĵ": 8857,
      "Ġìĸ´ëĸ¤": 8858,
      "ÙĬÙĦØ§Ø¯": 8859,
      "ĠØ£Øº": 8860,
      "ëľ": 8861,
      "å¿ĺ": 8862,
      "à¸ģà¸³à¸¥": 8863,
      "åįĸ": 8864,
      "ÙĤÙĤ": 8865,
      "ĠÙģÙĬÙĩ": 8866,
      "Ø«ÙĦ": 8867,
      "åīįãģ«": 8868,
      "ĠíĹ¤": 8869,
      "èı²": 8870,
      "ĠìŀĪìĸ´": 8871,
      "à¥Ĥà¤°à¤¤": 8872,
      "èª°": 8873,
      "ä¿Ĭ": 8874,
      "è¦ļ": 8875,
      "ĠÐ¼Ð°Ð»Ð¾": 8876,
      "à¥ģà¤§": 8877,
      "à¹Īà¸ķ": 8878,
      "ãģŁãĤģãģ«": 8879,
      "Ġà¤²à¤Ĺà¤¤": 8880,
      "ĠØ§ÙĦØŃØ±": 8881,
      "ë³¼": 8882,
      "æıĴ": 8883,
      "Ġëªĩ": 8884,
      "ì£¼ìĭľ": 8885,
      "Ø±ÙģØ©": 8886,
      "Ġë§İìĿ´": 8887,
      "æ£ĭ": 8888,
      "å£°éŁ³": 8889,
      "ĠØ¹Ø´Ø±": 8890,
      "å¢ŀåĬł": 8891,
      "à¹īà¹Ģà¸Ľ": 8892,
      "ĠÐºÐ°Ð»": 8893,
      "ĠÙĦÙĦØ£": 8894,
      "Ġìħ": 8895,
      "çĪµ": 8896,
      "ĠÐºÐ°ÐºÐ¾Ð¹": 8897,
      "ĠëıĻìķĪ": 8898,
      "à¹Įà¸¥": 8899,
      "à¸Ĺà¸³à¸ĩà¸²à¸Ļ": 8900,
      "ä¸įè¦ģ": 8901,
      "ØªÙĩØ§": 8902,
      "ĠØŃÙĪÙĦ": 8903,
      "Ð¾ÑģÐºÐ¾Ð²": 8904,
      "à¸´à¸¥à¸Ľ": 8905,
      "à¸ĩà¸Ļ": 8906,
      "ĠÄĳÃ¢u": 8907,
      "á»īnh": 8908,
      "à¤¼à¤°": 8909,
      "à¹Ģà¸Ĥà¸ķ": 8910,
      "ĠnháºŃt": 8911,
      "Ø§ÙĦØ£": 8912,
      "ÙĪÙĤØª": 8913,
      "Ð±ÑĥÐ´ÑĮ": 8914,
      "Ġãģ§": 8915,
      "æľīåħ³": 8916,
      "èĲ¨": 8917,
      "à¸Ńà¸Ľ": 8918,
      "ĠÐ¿Ð¾Ð¿ÑĥÐ»ÑıÑĢ": 8919,
      "ĠëĨį": 8920,
      "à¤¸à¤®": 8921,
      "ĠÐ½ÐµÐ¼Ð½Ð¾Ð³Ð¾": 8922,
      "ĠëŃĲ": 8923,
      "Ð¾ÐºÐ¸": 8924,
      "ãĤ±ãĥĥãĥĪ": 8925,
      "Ġà¤°à¤¹à¤¨": 8926,
      "ĠphÃª": 8927,
      "ä¸ĢäºĽ": 8928,
      "ãĥ³ãģ®": 8929,
      "ãĤ¸ãĥ§": 8930,
      "ä¸ĭæĿ¥": 8931,
      "à¹īà¸ĩà¸²à¸Ļ": 8932,
      "ĠÐ´ÐµÑģÑı": 8933,
      "ìļĶìĿ¼": 8934,
      "ĠØ¨Øµ": 8935,
      "ëĤĺìļĶ": 8936,
      "à¹ĥà¸ģà¸¥": 8937,
      "åįģäºĮ": 8938,
      "ĠÙĩÙĦ": 8939,
      "ç¢ºèªį": 8940,
      "ĠØ§ÙĦØ¢ÙĨ": 8941,
      "æ¨¡å¼ı": 8942,
      "ãģĻãģĲ": 8943,
      "ĠÐºÐ¾Ð¼Ð½Ð°ÑĤ": 8944,
      "Ġà¤¹à¤ľ": 8945,
      "à¹īà¸²à¸ª": 8946,
      "Ġà¹ģà¸¡": 8947,
      "ĠÐºÑĥÑħ": 8948,
      "Ġvui": 8949,
      "ĠÙĩÙĨØ§Ùĥ": 8950,
      "Ø±Ø¨Ø¹": 8951,
      "à¹ĥà¸ª": 8952,
      "åįģåĪĨ": 8953,
      "éĢļçŁ¥": 8954,
      "ĠÑĥÐ²ÐµÐ»Ð¸Ñĩ": 8955,
      "à¸¸à¸Ķà¸Ĺ": 8956,
      "à¸Ļà¸ģ": 8957,
      "ĠÐ¿Ð¾Ð»Ð¾Ð²": 8958,
      "Ġmiá»ģn": 8959,
      "à¤Ĥà¤Ĺà¤²": 8960,
      "à¸Ńà¸Ħ": 8961,
      "ĠÑĤÐµÐ±Ñı": 8962,
      "ãĥ«ãģ®": 8963,
      "æľĢå¾Į": 8964,
      "à¹īà¸Ļà¸Ĺ": 8965,
      "ĠÑıÑĢ": 8966,
      "Ġà¹Ģà¸ķ": 8967,
      "ÑĢÐ°ÑĤÑĮ": 8968,
      "ĠØ§Øº": 8969,
      "à¹īà¸Ķ": 8970,
      "ĠÐ²Ð»Ð°Ð´": 8971,
      "ØºÙĦ": 8972,
      "ĠbáºŃt": 8973,
      "ìķĦìĿ´": 8974,
      "å°ĳãģĹ": 8975,
      "à¹Ĥà¸ĭ": 8976,
      "åĸľæ¬¢": 8977,
      "ãĤĴæĮģ": 8978,
      "çİĦ": 8979,
      "ĠÙĥÙĬÙģ": 8980,
      "éĥ¨å±ĭ": 8981,
      "à¥ĭà¥ľ": 8982,
      "ĠØ¬Ø¯ÙĬØ¯": 8983,
      "è¿Ļæĺ¯": 8984,
      "Ġmuz": 8985,
      "Ġìĥī": 8986,
      "à¥įà¤¤à¤®": 8987,
      "ĠÑģÐ»Ð¸ÑĪÐºÐ¾Ð¼": 8988,
      "à¸ĩà¸ģ": 8989,
      "Ø§Ø¨Ø¯": 8990,
      "ëŀĻ": 8991,
      "ĠØ§ÙĦØ¸": 8992,
      "ĠÙĤÙĦ": 8993,
      "ãĤĮãģ¦ãģĦãĤĭ": 8994,
      "à¸¢à¸²": 8995,
      "ĠÑĩÐ°ÑģÐ¾Ð²": 8996,
      "ì¼ľ": 8997,
      "ì¤Ħ": 8998,
      "Ġì°¾ìķĦ": 8999,
      "Ġberi": 9000,
      "ĠÑĥÑģÑĤÐ°Ð½Ð¾Ð²Ð»ÐµÐ½": 9001,
      "ãģ¿ãģŁãģĦ": 9002,
      "ìĿ´ìķ¼": 9003,
      "ãĥ¼ãģ®": 9004,
      "å¤ļå°ĳ": 9005,
      "Ø¨Ø§ØŃ": 9006,
      "é£²": 9007,
      "æĿ°": 9008,
      "ĠØ£ÙĤ": 9009,
      "èĵĿ": 9010,
      "Ġë°¤": 9011,
      "ĠØ§ÙĦØªÙĨ": 9012,
      "ãĤ¸ãĥ¥": 9013,
      "à¸´à¸ģà¸²": 9014,
      "ãģ¹ãģ¦": 9015,
      "à¹Ĥà¸Ĺà¸£": 9016,
      "Ġmá»¹": 9017,
      "ä¼ļè®®": 9018,
      "Ġê´Ģíķľ": 9019,
      "Ġà¸Ŀ": 9020,
      "ĠÃ¡o": 9021,
      "à¸Ńà¸²à¸ģà¸²à¸¨": 9022,
      "Ġà¤ıà¤®": 9023,
      "ĠìķĮê³ł": 9024,
      "éĨĴ": 9025,
      "æıĲé«ĺ": 9026,
      "Ø°ÙĬ": 9027,
      "ĠÑģÐµÐ³Ð¾Ð´Ð½Ñı": 9028,
      "ìĦľìļ¸": 9029,
      "ãģĮãģĤãĤĬ": 9030,
      "ĠØ§ÙĦÙħÙĦÙĥ": 9031,
      "ĠÐ¿Ñĭ": 9032,
      "ĠìķĮëł¤": 9033,
      "ëħķ": 9034,
      "ĠØªÙĥ": 9035,
      "è¿½åĬł": 9036,
      "èĸĦ": 9037,
      "ãģķãĤĮãģ¦": 9038,
      "ĠhÃ´m": 9039,
      "ĠÐ³Ð¾ÑģÑĤ": 9040,
      "Ġë°Ŀ": 9041,
      "à¹ģà¸Ķà¸ĩ": 9042,
      "åĸĿ": 9043,
      "å¥ı": 9044,
      "à¸ķà¸£à¸§à¸Ī": 9045,
      "æĻ´": 9046,
      "à¤¾à¤¨à¤¨": 9047,
      "Ġà¤¸à¤¨": 9048,
      "ãģ©ãģĵ": 9049,
      "à¸Ĭà¸Ńà¸ļ": 9050,
      "Ġà¤ıà¤²": 9051,
      "ãģ«ãģĹãģ¦": 9052,
      "ĠØ§ÙĦØ£Ø®": 9053,
      "ĠÐ¿ÑĢÑıÐ¼Ð¾": 9054,
      "æĸ°èģŀ": 9055,
      "ìĸ´ëĤĺ": 9056,
      "ĠÑįÑĤÑĥ": 9057,
      "íĤ¨": 9058,
      "Ø§Ø¨ÙĬ": 9059,
      "à¸ģà¸²à¸£à¸ķ": 9060,
      "Ã³i": 9061,
      "ĠëĬĶ": 9062,
      "à¤Ĺà¤²": 9063,
      "éĻĦè¿ĳ": 9064,
      "åįģä¸Ģ": 9065,
      "ãĥģãĤ§": 9066,
      "è¨Ńå®ļ": 9067,
      "Ð°Ð»ÑĮÐ½Ðµ": 9068,
      "ĠÐ´Ð²Ðµ": 9069,
      "Ġìłľëª©": 9070,
      "ãĤĴãģ¤": 9071,
      "ĠØ§ÙĦØ³Ø¹ÙĪØ¯ÙĬØ©": 9072,
      "Ġà¤ĺà¤Łà¤¨": 9073,
      "à¹ģà¸Ł": 9074,
      "æĸ°çļĦ": 9075,
      "à¸±à¸Ľ": 9076,
      "Ġì¹ľêµ¬": 9077,
      "à¥įà¤¯à¤ķà¤¤": 9078,
      "Ã¡u": 9079,
      "ĠëĤĺìĺ¤": 9080,
      "à¹Ģà¸ĺà¸Ń": 9081,
      "Ġà¤¨à¤¯": 9082,
      "ĠÐ¿ÑıÑĤ": 9083,
      "Ġì¢ĭìķĦ": 9084,
      "ĠØ§ÙĦØªÙĤ": 9085,
      "ãĤīãģĽ": 9086,
      "Ġhá»įp": 9087,
      "º¼": 9088,
      "æĹ¥ãģ®": 9089,
      "ĠØ«ÙĦØ§Ø«": 9090,
      "ãģ«ãģĤãĤĭ": 9091,
      "æĴŃæĶ¾": 9092,
      "Ġtuy": 9093,
      "ĠÑĩÐµÑĤÑĭ": 9094,
      "ĠØªÙĪØµ": 9095,
      "Ġà¤Ĭà¤ªà¤°": 9096,
      "Ġbuá»ķi": 9097,
      "é¥Ń": 9098,
      "Ġprocent": 9099,
      "ĠÙħØ¯ÙĬÙĨØ©": 9100,
      "ØµØŃ": 9101,
      "Ġà¥": 9102,
      "ĠìĿ´ë²¤íĬ¸": 9103,
      "ĠØ®Ùħ": 9104,
      "Ġìĸ´ëĶĶ": 9105,
      "ĠØ§ÙĦÙĪÙĤØª": 9106,
      "ä¸ĢçĤ¹": 9107,
      "éĽ»è©±": 9108,
      "à¹Ĥà¸ŀ": 9109,
      "ĠÙĩÙĨØ§": 9110,
      "Ġà¤ķà¤¬": 9111,
      "ĠÐ½Ð¾Ð²Ð¾Ð³Ð¾": 9112,
      "ìĿ¸ì§Ģ": 9113,
      "ç´«": 9114,
      "Ġëĵ£": 9115,
      "Ð¸ÑĤÐ°Ð¹": 9116,
      "à¥Ģà¤ĸ": 9117,
      "ìĨĮëħĦ": 9118,
      "Ġà¤¨à¤Ī": 9119,
      "ĠìĿĦ": 9120,
      "ĠÐ¸Ð³ÑĢÐ°": 9121,
      "Ð¸Ð½Ð¾Ð¹": 9122,
      "à¸±à¸Ļà¸Ĺà¸£": 9123,
      "ãģ«ãģĻãĤĭ": 9124,
      "ãĥ¼ãĥĨãĤ£": 9125,
      "ëłī": 9126,
      "ãĤ¹ãģ®": 9127,
      "Ġpha": 9128,
      "ãģĭãĤīãģ®": 9129,
      "å¯Ĵ": 9130,
      "ĠÑģÐºÐ°Ð·Ð°ÑĤÑĮ": 9131,
      "æĹ¥ãģ«": 9132,
      "éĩĮçļĦ": 9133,
      "æĳĩ": 9134,
      "Ð°ÑĢÑĮ": 9135,
      "ä»ķäºĭ": 9136,
      "ĠÑĥÐ´Ð°": 9137,
      "Ġíį¼": 9138,
      "ĠÐºÐ°ÐºÐ¸Ðµ": 9139,
      "íķľíħĮ": 9140,
      "Ġsáº¯p": 9141,
      "Ġà¤¸à¤ª": 9142,
      "Ġì½ĺ": 9143,
      "à¹Ģà¸ķà¸£": 9144,
      "ĠÑĢÐ¾Ð±Ð¾ÑĤ": 9145,
      "Ø®Ùģ": 9146,
      "æĻºèĥ½": 9147,
      "ĠÐ¿ÑĢÐ¸Ð³": 9148,
      "ĠÑģÐ¾Ð»Ð½": 9149,
      "Ġë¶ĢìĤ°": 9150,
      "ãĤ¾": 9151,
      "ĠÑĢÐ¾Ð¶Ð´ÐµÐ½Ð¸Ñı": 9152,
      "Ġà¹ĥà¸Ĭ": 9153,
      "åĳĬè¯ī": 9154,
      "ĠìĿ½": 9155,
      "ĠchÃºt": 9156,
      "ĠÑĤÐµÐ¼Ð¿ÐµÑĢÐ°ÑĤÑĥÑĢÐ°": 9157,
      "Ġìĸ¼ë§Ī": 9158,
      "ãĥĹãĥ¬": 9159,
      "ĠØ¨Ø§ÙĦÙħ": 9160,
      "ĠØ§ÙĦØ£ÙĨ": 9161,
      "à¹Īà¸²à¸ĩà¸ģ": 9162,
      "ØŃØ¯Ø«": 9163,
      "æĺ¨": 9164,
      "-Ð½Ð¸Ð±ÑĥÐ´ÑĮ": 9165,
      "ãĥĭãĥ¥": 9166,
      "à¸´à¸Īà¸ģà¸£à¸£à¸¡": 9167,
      "à¸¸à¸ĺ": 9168,
      "à¸ķà¸Ńà¸Ļ": 9169,
      "Ġdomu": 9170,
      "ĠÑĩÐµÑĤÐ²ÐµÑĢ": 9171,
      "ĠØ§ÙĦØªØ´": 9172,
      "ìĭľìĹĲ": 9173,
      "à¸µà¸Ļà¸²à¸Ħà¸¡": 9174,
      "Ġë§Įëĵ¤ìĸ´": 9175,
      "ĠÙħØ¶": 9176,
      "æ£ĢæŁ¥": 9177,
      "ĠìĨĮë¦¬": 9178,
      "å¤ķ": 9179,
      "ĠÐ²Ð°Ð½": 9180,
      "à¤¼à¥į": 9181,
      "à¤¾à¤°à¤ķ": 9182,
      "ĠcÃłi": 9183,
      "ĠìĿ¼ìĿ´": 9184,
      "Ø¹ÙĦÙī": 9185,
      "ĠÐ¼Ð°ÑĢÑĤÐ°": 9186,
      "æľĢè¿ĳ": 9187,
      "ÑĢÐ°Ð´": 9188,
      "Ġtáº¯t": 9189,
      "æļĸ": 9190,
      "Ġë¬´ìĹĩ": 9191,
      "æµ´": 9192,
      "hÃ¡": 9193,
      "Ġê¹¨": 9194,
      "à¸¢à¸Ļà¸ķ": 9195,
      "ĠØªØ·": 9196,
      "ãģıãģ®": 9197,
      "Ìĥ": 9198,
      "à¸ļà¸²à¸¢": 9199,
      "à¥Īà¤ª": 9200,
      "à¹Įà¹Ĥ": 9201,
      "ĠØ¯Ø±Ø¬Ø©": 9202,
      "ì¼ĢìĿ´": 9203,
      "ëĨį": 9204,
      "ĠhÃ¡t": 9205,
      "à¸¹à¸ĩà¸ª": 9206,
      "ĠÐ¶Ð°ÑĢ": 9207,
      "à¹ĥà¸Ħà¸£": 9208,
      "ØºÙĬÙĦ": 9209,
      "ãĥŁãĥ¥": 9210,
      "æĺ¯ä»Ģä¹Ī": 9211,
      "ì¼ĵ": 9212,
      "ĠvÅ©": 9213,
      "æĥ³è¦ģ": 9214,
      "à¸§à¹Ĥà¸¡": 9215,
      "Ð½ÑİÑİ": 9216,
      "åĲįåŃĹ": 9217,
      "ìļķ": 9218,
      "ĠdÆ°Æ¡ng": 9219,
      "å¤§ãģį": 9220,
      "Ø·ÙĬ": 9221,
      "Ġë¬´ìĬ¨": 9222,
      "à¹īà¸ķ": 9223,
      "Ġà¤¦à¤¸": 9224,
      "Ġà¹Ĥà¸Ľà¸£": 9225,
      "æĸ°éĹ»": 9226,
      "ĠcÃł": 9227,
      "à¹ĩà¸Ńà¸ģ": 9228,
      "Ġì¡°ê¸Ī": 9229,
      "à¸±à¸ªà¸Ķ": 9230,
      "ĠÙĬØ¬Ø¨": 9231,
      "à¸´à¸ªà¸ķ": 9232,
      "Ġà¹Ħà¸Ľ": 9233,
      "ãĤĴãģĭ": 9234,
      "ãĥ©ãĤ¤ãĥĪ": 9235,
      "ĠØªÙĪÙĤ": 9236,
      "ØªØ²": 9237,
      "ÑĭÐ»": 9238,
      "à¹Įà¹Ģà¸ĭ": 9239,
      "ĠØ¬Ø¯ÙĬØ¯Ø©": 9240,
      "è¨Ģãģ£ãģ¦": 9241,
      "ì¹ł": 9242,
      "ĠìŀĶ": 9243,
      "åı¤å±ĭ": 9244,
      "ÐºÐ°Ð¶": 9245,
      "Ġìµľê·¼": 9246,
      "Ð¿Ð¾Ð´": 9247,
      "å¥½ãģį": 9248,
      "ÑĢÐµÐ¼Ñı": 9249,
      "à¸Ńà¸°à¹Ħà¸£": 9250,
      "ĠÄĳÃ¨n": 9251,
      "Ġzim": 9252,
      "ĠÙĪØ´": 9253,
      "ãģĻãģİ": 9254,
      "ãģıãĤīãģĦ": 9255,
      "ëĬĶì§Ģ": 9256,
      "ĠìĿĮìķħ": 9257,
      "ĠÑģÐ»ÐµÐ´ÑĥÑİÑīÐ¸Ðµ": 9258,
      "æĺłçĶ»": 9259,
      "Ġà¤ĸà¤¬à¤°": 9260,
      "ĠìĹħëį°ìĿ´íĬ¸": 9261,
      "à¤Ĩà¤ª": 9262,
      "Ġë¹¨": 9263,
      "à¹īà¸Ńà¸ĩà¸Ļ": 9264,
      "Ġë³´ìĹ¬": 9265,
      "ĠÐ´Ð¾ÑģÑĤÐ°Ð²": 9266,
      "Ġë¥¼": 9267,
      "à¤¼à¥ĭ": 9268,
      "åĲįåīį": 9269,
      "ãģ«è¡Į": 9270,
      "Ġà¸Ľà¸£": 9271,
      "Ġìµľìĭł": 9272,
      "ĠÐ¸Ð´": 9273,
      "ãģıãĤĮ": 9274,
      "ĠØ§ÙĦØªØ§Ø±ÙĬØ®": 9275,
      "Ġê±°ìķ¼": 9276,
      "ìĿ´íģ¬": 9277,
      "ãģĹãģ¦ãĤĤ": 9278,
      "à¸Īà¸°à¹Ģà¸Ľ": 9279,
      "à¹Īà¸Ńà¹Ħà¸Ľ": 9280,
      "ĠëĤ®": 9281,
      "åįģäºĶ": 9282,
      "ìĽĥ": 9283,
      "ÙĤÙĪÙĦ": 9284,
      "äºĪç´Ħ": 9285,
      "à¤¡à¤°": 9286,
      "Ġà¤ªà¤¸": 9287,
      "à¤¿à¤¶à¤¤": 9288,
      "éŁ³ä¹Ĳ": 9289,
      "ĠØ§ÙĦÙħÙĥ": 9290,
      "ĠØ§ÙĦÙħÙĪØ³": 9291,
      "ëī´ìĬ¤": 9292,
      "å¯Ŀ": 9293,
      "Ġë¶Ģíĥģ": 9294,
      "ĠØ§ÙĦØ§Ø®": 9295,
      "à¤ıà¤®": 9296,
      "ĠnhiÃªu": 9297,
      "Ġà¤¬à¥Ŀ": 9298,
      "tej": 9299,
      "ĠÐ·Ð½Ð°ÑĤÑĮ": 9300,
      "åĩºãģĹ": 9301,
      "Ġsenin": 9302,
      "Ìģc": 9303,
      "Ġà¸ĩà¸²à¸Ļ": 9304,
      "Ø·Ø¹": 9305,
      "ë®¤": 9306,
      "æ¯İ": 9307,
      "Ð»ÑĥÑĪ": 9308,
      "à¤®à¤ķ": 9309,
      "Ø®Ø°": 9310,
      "ë§ĪíĬ¸": 9311,
      "à¸´à¸Ķà¸Ĥ": 9312,
      "ĠÐ¿Ð¾Ð¹": 9313,
      "æĪ¿éĹ´": 9314,
      "Ġà¸Ħà¸¥": 9315,
      "ĠìłĦìĹĲ": 9316,
      "Ġë³´ëĤ´": 9317,
      "ĠÐ²Ð¾ÑģÑĤ": 9318,
      "å®īæİĴ": 9319,
      "Ġplu": 9320,
      "ÑĨÐ°ÑĤÑĮ": 9321,
      "ÑĢÐ¾Ð¸Ð·": 9322,
      "ÙĪÙĦÙĬ": 9323,
      "æĽľæĹ¥": 9324,
      "ÑĢÐ°Ð¹": 9325,
      "à¸µà¸¢à¸ĩà¹ĥà¸«à¸¡": 9326,
      "Ø¢Ø®Ø±": 9327,
      "ĠëĦ£": 9328,
      "à¹Ģà¸®": 9329,
      "ĠÐ¼ÑĥÐ·Ñĭ": 9330,
      "Ġnháº¯c": 9331,
      "áº¹n": 9332,
      "ãĤ¢ãĥĥãĥĹ": 9333,
      "Ìģt": 9334,
      "ĸìĹĲ": 9335,
      "ĠÑĥÐ·Ð½": 9336,
      "ÙħØ¯Ø©": 9337,
      "à¹ĩà¸Ļà¸§": 9338,
      "Ġà¤¹à¤Ł": 9339,
      "à¸ĩà¸Ĭ": 9340,
      "à¸´à¸ķà¸¢": 9341,
      "æīĵå¼Ģ": 9342,
      "åģľæŃ¢": 9343,
      "ĠØ£ÙĦÙģ": 9344,
      "å¤īæĽ´": 9345,
      "ĠÑħÐ¾ÑĩÑĥ": 9346,
      "à¥Ĥà¤ļà¤¨": 9347,
      "Ġìĸ¸ìłľ": 9348,
      "ĠÐ¿Ð¾Ð»Ð¸ÑĤ": 9349,
      "ĠÐ¿Ð¾Ð³Ð¾Ð´": 9350,
      "ç§ģãģ¯": 9351,
      "ãģĻãģ¹ãģ¦": 9352,
      "ìĬ¤ê°Ģ": 9353,
      "ÐµÑĤÐµÑĢÐ±": 9354,
      "à¸±à¸Ļà¹Ģà¸Ľ": 9355,
      "ĠØ¨ÙĬØª": 9356,
      "ĠØ£Ø´": 9357,
      "äºĶæľĪ": 9358,
      "ë´Ĳ": 9359,
      "æĸĻçĲĨ": 9360,
      "æī«": 9361,
      "Ġëª©ë¡Ŀ": 9362,
      "ĠÐ½ÐµÐ´ÐµÐ»Ð¸": 9363,
      "à¥Ĥà¤¡": 9364,
      "æ³¡": 9365,
      "ĠÑħÐ¾ÑĤÐµÐ»": 9366,
      "ĠÑģÐºÐ¾Ð»ÑĮÐºÐ¾": 9367,
      "Ġê¸°ìĸµ": 9368,
      "å¾Įãģ«": 9369,
      "æľīä»Ģä¹Ī": 9370,
      "Ġíķĺë£¨": 9371,
      "ĠØŃØ§ÙĦØ©": 9372,
      "ĠØ¹Ø¨Ø¯Ø§ÙĦÙĦÙĩ": 9373,
      "ÙĤÙī": 9374,
      "çľĭçľĭ": 9375,
      "ê¿": 9376,
      "à¹Ģà¸ŀà¸¥": 9377,
      "à¸Ħà¸§à¸£": 9378,
      "Ġà¤ħà¤Ĺà¤²": 9379,
      "çĦ¼": 9380,
      "Ġëħ¸ëŀĺ": 9381,
      "åµ": 9382,
      "å¾Įãģ®": 9383,
      "ĠÐ´Ð¾Ð¼Ðµ": 9384,
      "vou": 9385,
      "ĠÐºÑĢÐµÐ¼": 9386,
      "ĠëĪĦêµ¬": 9387,
      "ĠëĤłì§ľ": 9388,
      "Ġà¤°à¤µ": 9389,
      "æĮĻ": 9390,
      "à¤®à¤°": 9391,
      "ĠmÆ¡": 9392,
      "Ð½Ð¸ÑĨÑĥ": 9393,
      "æ¨Ļæºĸ": 9394,
      "ĠÙĤØ§Ø¦ÙħØ©": 9395,
      "ĠÐ¼Ð¾Ð¹": 9396,
      "à¸Īà¸°à¸ķ": 9397,
      "ĠÐ¼Ð¾Ñı": 9398,
      "ãģ«éĸ¢ãģĻãĤĭ": 9399,
      "à¸±à¸Ļà¸Ńà¸Ńà¸ģ": 9400,
      "à¹Ħà¸«à¸Ļ": 9401,
      "à¥ģà¤¬à¤¹": 9402,
      "à¹Ĥà¸Ĭ": 9403,
      "ÙħÙħ": 9404,
      "ãģıãĤĮãĤĭ": 9405,
      "ãĤ¹ãĥŀ": 9406,
      "ç»ĻæĪĳ": 9407,
[...]
